#version: 0.2
i n
e n</w>
i n</w>
e r</w>
e in
a n
c h
u n
e r
in g</w>
a r
s t
i t
a u
a n</w>
e in</w>
t h
e m</w>
r e
r o
e n
r a
s ch
ein em</w>
o n</w>
e l
a l
un d</w>
m an</w>
w e
m i
l a
th e</w>
an d</w>
ein e</w>
i s</w>
e s</w>
l e</w>
g e
au f</w>
s i
mi t</w>
o r
m an
b e
o n
d er</w>
c h</w>
i r
man n</w>
ein er</w>
a t
s p
l e
o f</w>
c k
s h
b o
r i
b l
w it
wit h</w>
g e</w>
d i
w o
a t</w>
o l
s s
e h
e t</w>
l o
s it
d o
d ing</w>
w h
c k</w>
o p
t en</w>
t o</w>
t w
i l
u r
i el
b a
n e
h r
un g</w>
f ra
ein en</w>
m ä
l i
fra u</w>
u t
m en</w>
p e
d e</w>
al l</w>
k ing</w>
di e</w>
wo man</w>
ar e</w>
p la
z we
i m</w>
o r</w>
tw o</w>
zwe i</w>
d en</w>
g en</w>
er s
e i
a m
g ro
r u
d e
sp iel
ch en</w>
j un
g t</w>
a s</w>
sh ir
an d
w a
pe op
peop le</w>
t i
w al
s t</w>
t er
e d</w>
t ing</w>
f a
c o
shir t</w>
n n
m en
t a
st eh
ar ing</w>
t er</w>
t o
t s</w>
w ar
p ers
k l
sit z
pla y
au en</w>
u p</w>
we aring</w>
h o
s k
b all</w>
v er
s e
p p
w n</w>
we i
it e</w>
d re
b la
y o
v on</w>
f t</w>
p o
u m
k in
e m
m a
yo ung</w>
si ch</w>
d em</w>
bl u
f ro
f o
b er
wh ite</w>
ä l
b en</w>
g ir
st re
re d</w>
ch t</w>
mä d
p a
h a
ß en</w>
s e</w>
mäd chen</w>
a r</w>
h in
s s</w>
ge h
le i
g ra
m o
jun ge</w>
on e</w>
wh i
s o
bla ck</w>
w at
ä h
v or</w>
c e</w>
st ra
g r
h is</w>
h ol
mä nn
sch war
ß e</w>
b u
t e</w>
z u
whi le</w>
z u</w>
b i
er s</w>
blu e</w>
ein es</w>
st an
th er</w>
t r
bo y</w>
steh t</w>
t e
p ar
b y</w>
l ä
i e
sit ting</w>
gir l</w>
pp e</w>
sch en</w>
m e
k lei
schwar z
fa hr
do g</w>
b en
männ er</w>
lo o
ch il
h und</w>
sitz t</w>
stan ding</w>
re n
f i
n t</w>
play ing</w>
al l
t ra
c ro
r in
g el
be i</w>
gro up</w>
u t</w>
j a
si de</w>
er e</w>
d s</w>
o ut
pers on</w>
b er</w>
stra ße</w>
g ru
h er</w>
h äl
g er</w>
w i
l an
stre et</w>
gru ppe</w>
n a
u l
häl t</w>
a m</w>
w äh
do wn</w>
h em
wäh ren
währen d</w>
f or
wal king</w>
u m</w>
er en</w>
u g
re e</w>
en t
a l</w>
er t</w>
spiel t</w>
fro nt</w>
au f
er n</w>
ä n
i r</w>
hem d</w>
re i
p i
bo ar
ü n
ja ck
d as</w>
d r
k s</w>
g h
hol ding</w>
st a
k e</w>
o ther</w>
ü ber</w>
h at</w>
on en</w>
d ur
f e
b ri
m m
it t
r un
d a
pers onen</w>
n o
g s</w>
hr t</w>
w or
n i
el l
au s</w>
am er
s in
f r
kin d</w>
g u
bl auen</w>
wat er</w>
wa ss
i st</w>
dre i</w>
or an
f ar
f ü
y ing</w>
v i
th ree</w>
v er</w>
b ra
wei ßen</w>
th ro
g re
j e
e a
m e</w>
ar be
f u
i hr
l l
sp rin
c ar
fr auen</w>
ro ten</w>
wo men</w>
b all
b ro
u ft</w>
ne ben</w>
f f
v e</w>
steh en</w>
s u
q u
j um
g en
loo king</w>
i t</w>
spiel en</w>
l itt
arbe it
sch au
p f
sitz en</w>
gre en</w>
men schen</w>
f ä
s no
tr ä
o t
geh t</w>
litt le</w>
a si
p ing</w>
f or</w>
dur ch</w>
d es</w>
f el
ä u
bra un
h n
sh o
l ar
e t
chil d</w>
k i
wal k</w>
lo w</w>
t en
sk at
k o
g er
fä hrt</w>
out side</w>
klei d
at i
s a
c on
li e
m u
gr ün
m ar
po s
ug h</w>
trä gt</w>
h and</w>
c t
lar ge</w>
gro und</w>
far ben
wass er</w>
s ch</w>
re nn
z e
h al
kin der</w>
s m
v or
h el
thro ugh</w>
o ber
st i
ge b
an s</w>
sch ne
ei l</w>
ba ck
el e
t -
p h
y el
s en</w>
g la
and s</w>
z i
yel low</w>
y s</w>
wei ß
kl eines</w>
h er
amer a</w>
dr en</w>
chil dren</w>
d er
c a
bro wn</w>
un ter</w>
w in
run n
ma cht</w>
bl on
sch e</w>
ra d</w>
d y</w>
boar d</w>
ut e</w>
eh r
el t</w>
c y
sprin gt</w>
cy c
bl i
ent lan
schwarz en</w>
fro m</w>
l ing</w>
l y</w>
th ei
thei r</w>
dre ss
ck t</w>
p in
ch t
re a
in to</w>
par k</w>
t ri
g a
p s</w>
kl einer</w>
gh t</w>
entlan g</w>
st ru
bu il
t or
b ü
t eil</w>
x t</w>
st and</w>
ss en</w>
c lo
sh or
m ehr
le ute</w>
sm all</w>
ck en</w>
skat e
ne xt</w>
am e</w>
th ing</w>
on g</w>
kleid ung</w>
geh en</w>
v ers
b le</w>
s ur
cro w
st r
a ir</w>
o ut</w>
dress ed</w>
p er
o f
ss es</w>
f ri
w ir
i h
c ol
so me</w>
st u
f rei
un ter
spiel er</w>
l in
geb äu
v ing</w>
u r</w>
lä ch
o ver</w>
we g</w>
m al
h i
bl au
st ü
s c
buil ding</w>
p ro
d d
l s</w>
t z
d en
e tw
bo o
äl ter
ar o
mo tor
for m
b au
ri ding</w>
etw as</w>
p u
runn ing</w>
mehr ere</w>
oran ge</w>
wi mm
s einem</w>
ober teil</w>
un i
ur e</w>
r an
l le</w>
h ea
gro ßen</w>
ge sch
ne ar</w>
s eh
hin ter
a ch</w>
m p
jack et</w>
t- shirt</w>
to p</w>
aro und</w>
an other</w>
p le</w>
grün en</w>
f en
jack e</w>
f iel
si de
o d</w>
au s
f lo
ba by</w>
d ar
so me
schau t</w>
t an
k t</w>
w er
jun gen</w>
t re
ch ing</w>
bri lle</w>
t al
s on
s mi
men t</w>
fiel d</w>
gr und</w>
re st
c ti
ta ble</w>
side walk</w>
s en
r ü
a pos
& apos
z ei
w ing</w>
k op
je ans</w>
gla sses</w>
it y</w>
h e</w>
o l</w>
crow d</w>
be ach</w>
m it
ti sch</w>
g ing</w>
le t
ar r
k a
l er</w>
fu ß
v ol
ck s</w>
b and</w>
f in
b e</w>
pin k</w>
lä uft</w>
le a
c ing</w>
st ands</w>
bi ke</w>
f la
f l
h ut</w>
hin d</w>
farben en</w>
de d</w>
o m</w>
ph one</w>
klei de
k e
h and
ba se
el n</w>
wa y</w>
sit s</w>
shor ts</w>
jum ping</w>
sin d</w>
h un
fahr rad</w>
be hind</w>
str and</w>
fü r</w>
ck e</w>
d an
zu g</w>
hinter grund</w>
ba sk
c er</w>
frei en</w>
eh t</w>
b t</w>
mu si
it s</w>
z en</w>
ch es</w>
gra ss</w>
st o
f en</w>
ch e</w>
ö r
l uft</w>
ha ir</w>
men ge</w>
ch e
g o
s am
g es</w>
sch en
n äh
j o
ar i
and eren</w>
h än
back ground</w>
&apos ;
sno w</w>
c ity</w>
b an
gebäu de</w>
e y</w>
co u
l es</w>
jun ger</w>
cyc le</w>
v e
gel ben</w>
b il
sno w
u s
ge kleide
&apos; s</w>
asi an</w>
hin ter</w>
gir ls</w>
d et</w>
auf en</w>
for m</w>
b ar
ro ll
g i
un ta
c e
g it
fo ot
pi ct
b al
si e</w>
r au
play er</w>
hal ten</w>
a d
p ol
h ü
of f</w>
na ch</w>
dre ss</w>
c i
st er</w>
s un
loo ks</w>
fahr er</w>
p an
ze u
w all</w>
do gs</w>
t t
vi er</w>
st ei
v es</w>
son n
men schen
m ü
gu it
and ere</w>
k er</w>
a d</w>
ver al</w>
st ri
p er</w>
th at</w>
sp or
se veral</w>
schwarz er</w>
g ar
c li
ol der</w>
kl eine</w>
in e</w>
t em</w>
bo den</w>
ar d</w>
fo ur</w>
p ul
bask et
fel d</w>
d ern</w>
s we
ge l</w>
c amera</w>
f er</w>
sch ie
ol d</w>
näh e</w>
bo ys</w>
an i
s h</w>
wir d</w>
pe d</w>
au ran
rest auran
ü ber
be im</w>
d un
tal king</w>
pla t
h or
some thing</w>
la dy</w>
e ssen</w>
st en</w>
seh en</w>
k amera</w>
sch u
s and</w>
p re
kl einen</w>
so c
soc cer</w>
at ing</w>
weiß er</w>
an der</w>
oran ge
wal ks</w>
sta d
skate board</w>
menschen menge</w>
ein ander</w>
be i
guit ar</w>
arr e</w>
al s</w>
al ong</w>
hun de</w>
fo od</w>
z t</w>
hn e</w>
ch er</w>
wor king</w>
po ol</w>
sch wimm
pla y</w>
pa ar</w>
to ge
toge ther</w>
ro ck</w>
sp ie
f er
ra d
per form
vor bei</w>
si g
gra s</w>
cro ss</w>
o b
ho ch</w>
smi ling</w>
b re
sch la
k ers</w>
schne e</w>
k es</w>
renn t</w>
it et</w>
restauran t</w>
lie gt</w>
ban k</w>
git arre</w>
h e
te l</w>
n en</w>
ir t</w>
gra y</w>
k ü
stre i
sonn en
cht et</w>
pict ure</w>
g ame</w>
zu sam
zeu g</w>
ro ad</w>
h as</w>
w and</w>
sch a
h en</w>
si eht</w>
ihr e</w>
f t
ein i
st e
r ying</w>
wa gen</w>
ati on</w>
su it</w>
vers u
play s</w>
or s</w>
c ar</w>
t y</w>
pf er
p e</w>
klei d</w>
fahr en</w>
en t</w>
mo unta
sch auen</w>
qu ot
quot ;</w>
k en</w>
& quot;</w>
ß en
hol ds</w>
renn en</w>
ihr en</w>
sch lä
sh ing</w>
hea d</w>
asi ati
arbeit er</w>
ss t</w>
po si
cti on</w>
pan ts</w>
cli m
c an</w>
s le
v iel
ben ch</w>
ä r
fa ce</w>
at s</w>
al e</w>
h im</w>
and er
a bo
a b
si t</w>
p ur
braun en</w>
braun er</w>
out do
g ri
wo o
ro om</w>
pa in
m at
let ter
k un
an zug</w>
d u
ver k
t es</w>
sta ge</w>
t ele
stei g</w>
k ro
in s</w>
gesch ä
a de</w>
st e</w>
h il
car rying</w>
älter er</w>
cou ple</w>
s ein</w>
n is</w>
au ßen</w>
in stru
pol i
k letter
be t
m au
fu l</w>
f em
bü hne</w>
t ro
spie l</w>
sp a
ge gen
zusam men</w>
dr außen</w>
be fin
be de
m er</w>
e x
th em</w>
ih r</w>
swe at
stra ßen
b un
it en</w>
h n</w>
ba ck</w>
t ting</w>
sch er</w>
k ur
bi cycle</w>
wa ch
m s</w>
d rin
t ur
stad t</w>
sch ü
ho se</w>
da y</w>
st or
mal e</w>
it i
h l</w>
fo to</w>
base ball</w>
ra ce</w>
r ä
her um</w>
ch a
bü r
t ree</w>
n e</w>
w el
s eine</w>
l au
kop f</w>
bl o
on s</w>
bli ckt</w>
basket ball</w>
ball spieler</w>
ta king</w>
co mp
amer i
geh weg</w>
sk i
mi dd
ea ch</w>
co m
uni form</w>
sch ir
mi kro
ber e
wach sen
to gra
foot ball</w>
ar e
plat z</w>
l l</w>
arbeit et</w>
l aufen</w>
skate boar
do ing</w>
bo at</w>
z e</w>
s einen</w>
n er</w>
da bei</w>
d -
ch ten</w>
c re
p ho
h ell
mi cro
wat ching</w>
hel m</w>
a cross</w>
ta g</w>
sle e
gu y</w>
e l</w>
d irt</w>
th ere</w>
tz e</w>
h an
are a</w>
s be
hin unter</w>
bu s</w>
blon d</w>
te am</w>
h l
tra gen</w>
versu cht</w>
l u
wi e</w>
ge si
f e</w>
co ver
ten nis</w>
ss en
jum ps</w>
boo t</w>
st at
h ands</w>
co at</w>
bede ck
le d</w>
et te</w>
ut h</w>
it ing</w>
ir e</w>
hn en</w>
f on</w>
clim b
zei gt</w>
fem ale</w>
s and
ki ds</w>
g an
f ten</w>
f re
en de</w>
sp e
ein g</w>
arbeit en</w>
st ell
perform ing</w>
p at
d ri
sch il
d ame</w>
wh o</w>
gro ße</w>
ge strei
w s</w>
shir ts</w>
ck ing</w>
ma chen</w>
e ating</w>
un der</w>
läch elt</w>
li chen</w>
ha ar
us ing</w>
t ru
c at
b eing</w>
stri ped</w>
ss e</w>
ri cht</w>
mar k
man n
sig n</w>
orange farbenen</w>
le u
fa mi
u e</w>
ihr em</w>
c or
bür ger
schwar z</w>
d ge</w>
sh a
i ert</w>
wat ch</w>
älter e</w>
tri ko
st s</w>
rad fahrer</w>
t ed</w>
stor e</w>
sch n
man y</w>
hor se</w>
fi t</w>
s li
k ar
ih m</w>
f an
bil d</w>
au to</w>
ad ul
pur ple</w>
mo uth</w>
i red</w>
bo w
ro s
jun ges</w>
con stru
ar m</w>
stu hl</w>
l ong</w>
ir s</w>
er wachsen
en den</w>
mm t</w>
to war
th is</w>
ho sen</w>
ha ired</w>
bürger steig</w>
s es</w>
out fit</w>
loo k</w>
lie st</w>
k el
gro ß
sp richt</w>
s wimm
fe u
p ut
k u
en jo
en a
ch air</w>
ander er</w>
win do
wass er
run s</w>
ho ck
fü hrt</w>
pos ing</w>
g ol
rea ding</w>
i l</w>
gra ff
d ra
b ele
unter halten</w>
play ers</w>
sun glasses</w>
ss ing</w>
sp r
re s</w>
man tel</w>
m on
constru ction</w>
at t
lin e</w>
k an
in di
be tra
kun st
d in
haar en</w>
c es</w>
wor k</w>
weiß em</w>
co w
clo thing</w>
am m
s el
pfer d</w>
o ce
micro phone</w>
kop f
a th
o ba
ba hn</w>
ar s</w>
u s</w>
sch t</w>
mounta in</w>
gel än
to y</w>
ros a</w>
oce an</w>
graff it
cover ed</w>
ba r</w>
wor kers</w>
te ena
t u
o ver
dar k</w>
viel e</w>
k am
f li
dur ing</w>
comp ut
a fri
ß t</w>
k on
hol z
c t</w>
wei ß</w>
w ä
sonnen brille</w>
k la
gr auen</w>
em p
zu m</w>
wat ches</w>
midd le</w>
fl u
f all
en d</w>
di e
t et</w>
sur f
st um
k it
e y
dan cing</w>
d ru
climb ing</w>
ze it
u se</w>
schwarz -
m et</w>
le y
k ör
blau em</w>
a ga
tri ck</w>
schne e
pa st</w>
n um
in st</w>
gekleide te</w>
f ol
er ten</w>
be oba
s einer</w>
par k
ha ari
el der
elder ly</w>
zu schau
mü tze</w>
er i
col or
ar t</w>
schir m</w>
co o
bau m</w>
tr in
to s</w>
s et</w>
hel met</w>
gesi cht</w>
aga inst</w>
s ol
rau m</w>
geschä ft</w>
f ul
tra in</w>
schil d</w>
fri sbe
c la
windo w</w>
w ie
um bre
sin gt</w>
p lan
j u
g h</w>
wei ße</w>
ta l</w>
stü ck</w>
snow boar
kletter t</w>
ri des</w>
o red</w>
le an
ko stü
i hnen</w>
e ts</w>
dun kel
vol ley
kl ein
ut i
c ell
th ey</w>
s si
i ce</w>
at e</w>
pu bli
k or
graffit i</w>
abo ut</w>
o th
h u
flo w
fi ve</w>
col ored</w>
v ie
t y
s er
ga th
f ün
v en
tre es</w>
ten ni
sch ut
posi ert</w>
motor rad</w>
mar kt</w>
ho ch
fuß ball</w>
bu s
ba g</w>
ö ff
woo den</w>
wa iting</w>
vers amm
sp la
pul lo
outdo or</w>
m in
l it
ha ving</w>
fel sen</w>
dar auf</w>
spor t
fün f</w>
un g
tru ck</w>
t ü
pf en</w>
ob je
k ani
den en</w>
a b</w>
ver y</w>
st ein
li ght</w>
eini ge</w>
c u
bl es</w>
swimm ing</w>
c an
blau er</w>
befin det</w>
h ör
ge tting</w>
el n
co ur
wir ft</w>
ro sa
co stum
t h</w>
flo or</w>
tr ying</w>
sch rei
bla u</w>
pullo ver</w>
n et</w>
mikro fon</w>
gath er
f fe
lean ing</w>
f il
color ful</w>
boo k</w>
bere itet</w>
o p</w>
fen ster</w>
stat ue</w>
ss y</w>
seh r</w>
schwarz em</w>
g g
c al</w>
ber ei
r ut
na ch
n s</w>
mm er</w>
li ch</w>
gekleide ter</w>
fo re
cyc li
bus y</w>
sin ging</w>
schu hen</w>
jum p</w>
fen ce</w>
en s</w>
el le</w>
tenni s
ta sche</w>
hil l</w>
clo th
al ter</w>
tra ck</w>
scha ft</w>
sch o
sa ck</w>
mark et</w>
m ut
it t</w>
gel b
be cken</w>
triko t</w>
i d</w>
er in</w>
ch in
car t</w>
wie se</w>
ro tem</w>
of fi
me er</w>
d ers</w>
te il
sprin gen</w>
schwarz e</w>
s ä
s ing</w>
o der</w>
ge d</w>
wal d</w>
ter n</w>
si l
ro ter</w>
me t
lan gen</w>
kör per</w>
kin dern</w>
com pe
mit ten</w>
läch eln
li che</w>
instru men
hü gel</w>
hi gh</w>
ck et</w>
b rü
ro un
ri de</w>
p ie
it er</w>
i sst</w>
frisbe e</w>
bi g</w>
wh e
sh op
männ ern</w>
la ying</w>
in side</w>
f on
h ats</w>
blu se</w>
war tet</w>
t an</w>
schne i
gestrei ften</w>
e -
ca p</w>
bri ght</w>
bo dy</w>
y m
sto ck</w>
gan g</w>
de o</w>
volley ball</w>
su b
sho p</w>
oth ers</w>
on g
kit chen</w>
pla sti
pat h</w>
m men</w>
gra ssy</w>
cell phone</w>
bu ch</w>
some one</w>
par ade</w>
vol ler</w>
tre ppe</w>
schut z
ru ck
pre p
ma king</w>
fuß ball
au n</w>
u fer</w>
ta kes</w>
t t</w>
posi eren</w>
ni ght</w>
n y</w>
mal t</w>
k ä
ha ar</w>
cloth es</w>
back pa
wer den</w>
un der
sur roun
se ite</w>
ro t</w>
motor cycle</w>
li cher</w>
gr au
fe sti
umbre ll
umbrell a</w>
ti on</w>
tan zen</w>
sch i
s k</w>
k ne
c ra
au ft</w>
an ge
über qu
wi schen</w>
towar ds</w>
ter s</w>
ful l</w>
fo togra
bele b
a p
uni form
te am
sweat shirt</w>
sch ul
ober körper</w>
o ben</w>
k ö
enjo ying</w>
ein k
comput er</w>
bri ck</w>
zi eht</w>
sur fer</w>
se e</w>
pi er</w>
p ra
l and
h t</w>
cht ung</w>
st er
me tal</w>
h ä
dun kl
äu men</w>
um ge
s wing</w>
ri ver</w>
pa per</w>
k ni
gar ette</w>
dan ce</w>
tan k</w>
roll er</w>
rea dy</w>
re itet</w>
pie ce</w>
ma sch
ke l</w>
fü hr
f f</w>
at ed</w>
al ten</w>
st one</w>
spa zi
sh es</w>
e p</w>
bi kin
betra chtet</w>
ba hn
z er</w>
ss er</w>
sh e</w>
s mo
or t</w>
mau er</w>
h of</w>
en e</w>
b rea
a ge</w>
z wischen</w>
war ten</w>
to u
pho togra
par ty</w>
leu ten</w>
hock ey</w>
hand y</w>
gen ie
en der</w>
blon de</w>
ba de
spiel zeug</w>
snowboar der</w>
op en</w>
o ff
li e</w>
le h
instru ment</w>
i e</w>
b el
zi mmer</w>
sweat er</w>
o us</w>
me l</w>
lo t</w>
i c
h aus</w>
e v
c am
th e
schlä ft</w>
s ell
gri ll</w>
ch s</w>
ber g</w>
al t
z aun</w>
wor ker</w>
tr itt</w>
tele fon
st ä
ri e
kleid et</w>
feu er
base ball
b äumen</w>
a c
sti ck</w>
x ing</w>
t at
stu den
pain ting</w>
leh nt</w>
ameri can</w>
abo ve</w>
o t</w>
m itt
la ke</w>
hä uti
ha ben</w>
ge gen</w>
blon d-
sch ö
s qu
n ing</w>
j ug
hän den</w>
ho use</w>
go ing</w>
fan gen</w>
adul ts</w>
- haired</w>
v ed</w>
ru n</w>
re gen
musi c</w>
mau l</w>
hea d
h ei
f ter</w>
che er
bedeck ten</w>
ve st</w>
snow y</w>
shop ping</w>
s car
mit einander</w>
kü che</w>
h ard</w>
fu ß</w>
flu ss</w>
di es</w>
d iti
beoba chtet</w>
wa ve</w>
to dd
surroun ded</w>
st elle</w>
qu i
po in
on es</w>
m mel</w>
g lei
en d
c ur
uniform s</w>
tan zt</w>
op s</w>
on to</w>
ihr er</w>
en en</w>
ch ter</w>
a pp
z o
sub way</w>
ruck sack</w>
p t
outdo ors</w>
li ke</w>
l en</w>
klein kind</w>
ki d</w>
ge wä
crow ded</w>
cow boy</w>
ch ed</w>
bau arbeiter</w>
z ie
ver schie
ri chtung</w>
pro te
pho to</w>
läch eln</w>
le ss</w>
el s</w>
cou ch</w>
con vers
stell t</w>
smi les</w>
schie bt</w>
sch auf
k ari
ge ar</w>
be side</w>
backpa ck</w>
b ir
po le</w>
ne w
bal an
wel le</w>
v om</w>
ti schen</w>
sch ein
masch ine</w>
lau gh
lan g
k re
il ing</w>
st ro
p on
ge tr
drin king</w>
befin den</w>
b or
afri can</w>
ze ug
we tt
schwimm becken</w>
rü cken</w>
ma ch
farben er</w>
fami ly</w>
eink auf
bar t</w>
y ard</w>
we ste</w>
t au
st ation</w>
g n
g ers</w>
flow ers</w>
f ire</w>
ev ent</w>
bri dge</w>
be au
b rau
b r
todd ler</w>
spr ung</w>
sp ea
skateboar der</w>
sch w
k ra
f läch
diti on
tra in
ro pe</w>
poli ce</w>
pa dd
l ü
h ar
gu ys</w>
getr än
gather ed</w>
fo unta
fläch e</w>
eini gen</w>
beau ti
b ru
sho es</w>
s er</w>
or i
ni mmt</w>
mi lit
kur zen</w>
han ging</w>
g ent
ch er
c ut
be g
ar ms</w>
z er
t or</w>
schau kel</w>
s win
en ce</w>
cat ch</w>
asiati sche</w>
a way</w>
u -
sho w</w>
sch ri
sch es</w>
prep aring</w>
pp en</w>
pin k
car ri
brü cke</w>
beauti ful</w>
b ur
ar y</w>
tra dition
schnei det</w>
mar ath
le -
aus ge
an st
zu r</w>
we hr
w and
verk auft</w>
ta bles</w>
ste ps</w>
st ar
slee ping</w>
obje ct</w>
ma l</w>
m p</w>
in ter
hl en</w>
gebäu des</w>
foot ball
fami lie</w>
em and</w>
costum e</w>
blu men</w>
bal lo
ar men</w>
w il
un gen</w>
ro t-
met all
mach ine</w>
m el
groß er</w>
fla g
fi shing</w>
c lu
au ss
att emp
ap pe
an t</w>
ameri kani
a fter</w>
versamm elt</w>
ver anst
u res</w>
trin kt</w>
rosa farbenen</w>
po se</w>
la r</w>
j emand</w>
el ing</w>
bikin i</w>
auss eh
wo od</w>
shir t
pla id</w>
n eh
mp e</w>
hän gt</w>
founta in</w>
ffe e</w>
er y</w>
bun ten</w>
ben ut
sta irs</w>
st en
shirt less</w>
se tz
ll en</w>
l and</w>
in g
gelän der</w>
f ru
erwachsen e</w>
ar ti
ar m
y -
we en</w>
veranst alt
team s</w>
tat to
ta ke</w>
ro cks</w>
kä m
ih n</w>
fl ug
cha irs</w>
au tos</w>
u p
s al
ro te</w>
ro deo</w>
fi re
drin k</w>
d a</w>
c ers</w>
adul t</w>
ul ti
telefon iert</w>
st ung</w>
rei he</w>
j ers
ger ä
ger ade</w>
fre un
bo x
bl ä
b runn
veranstalt ung</w>
v al</w>
spazi eren</w>
s ed</w>
p it
he bt</w>
gent le
fe st</w>
di um</w>
chin e
beleb ten</w>
weiß es</w>
wat er
umge ben</w>
sun ny</w>
sell ing</w>
schwimm t</w>
schlä gt</w>
ro ck
pra cti
hem den</w>
gla ss</w>
g lo
do or</w>
do ck</w>
bre tt</w>
bli cken</w>
ün st
win ter</w>
mut ter</w>
k er
fore st</w>
f all</w>
do es</w>
at en</w>
a ged</w>
z a
son ni
sk i</w>
se tting</w>
ra cing</w>
qui p
pro je
p or
ne w</w>
ne l</w>
la den</w>
kopf bedeck
h ö
gewä sser</w>
farben em</w>
f lie
f le
e quip
cycli st</w>
cheer lea
viel en</w>
vie w</w>
tr an
ti me</w>
t all</w>
stan ce</w>
so f
sh e
schnee bedeckten</w>
schla g
sc re
rä dern</w>
ra l</w>
kostü m</w>
gh t
ge t</w>
ge kleidet</w>
fuß ballspieler</w>
frei em</w>
f liegt</w>
de cke</w>
bi kes</w>
bere iten</w>
an gel
w ü
s eil</w>
rü stung</w>
put ting</w>
ko mmt</w>
ha pp
grün em</w>
fotogra fi
fla g</w>
ell en</w>
d el
cyc les</w>
cor ner</w>
bo th</w>
thro wing</w>
teena ger</w>
sonni gen</w>
shor t</w>
scar f</w>
publi k
publik um</w>
pu shing</w>
p f</w>
lä sst</w>
k ünst
hän de</w>
c le
zei t</w>
z ü
ti ger</w>
stu fen</w>
sli de</w>
p fa
p es</w>
op e</w>
la dies</w>
l t</w>
kor b</w>
hi mmel</w>
ha ve</w>
fi gh
equip ment</w>
d ung</w>
blau -
bet ween</w>
bet on
be festi
a ir
v eh
veh ic
t un
t on
t ei
st ing</w>
sof a</w>
s ei
publi c</w>
laugh ing</w>
käm pfen</w>
in gs</w>
ho hen</w>
feuer wehr
di spla
co un
brunn en</w>
aus rüstung</w>
wh ere</w>
re par
ne t
la st
k at
jo g
instrumen ts</w>
her unter</w>
g rei
fü ll
e cke</w>
dunkl en</w>
al te</w>
öff ent
z z
vi o
un ten</w>
stan ge</w>
sho ul
schü r
pict ures</w>
ph ones</w>
ne d</w>
na ck
le y</w>
fi sh</w>
cro ss
be d</w>
bau m
zu schauen</w>
vor bei
v o
tr y</w>
sp an
ra mp</w>
r and</w>
pp ing</w>
plasti c</w>
le ben
kopfbedeck ung</w>
kam pf
han g</w>
haari ge</w>
h au
h am
fahr zeug</w>
ell er</w>
do r</w>
da ch</w>
cht s
bo tt
blau e</w>
berei ch</w>
b b
än gt</w>
zuschau er</w>
wor ks</w>
woo ds</w>
whi ch</w>
tra il</w>
stä d
rea ds</w>
pro du
pos es</w>
play ground</w>
oran gen</w>
musi k</w>
marath on</w>
kon z
ho o
ge mü
con cre
blon des</w>
ba se</w>
asiati scher</w>
überqu eren</w>
zeit ung</w>
whe el
us es</w>
tre ten</w>
su n</w>
sk irt</w>
sh i
scho ol</w>
mitt l
mann es</w>
li gh
en ds</w>
di re
concre te</w>
con c
bli ck</w>
be ard</w>
al i
w n
ve ge
stü hlen</w>
stad t
spe ct
si gen</w>
ol in</w>
mi da
mida ir</w>
la p
hal b</w>
em s</w>
braun -
b är
w ur
vio let
su its</w>
sk y</w>
ro w</w>
pa pier</w>
num ber</w>
mann schaft</w>
ma sk
k n
jug end
ju st</w>
i gen</w>
hin auf</w>
g o</w>
f ei
ct ure</w>
bow ling</w>
tou ri
tele fon</w>
sp re
se ated</w>
schri ft</w>
sc ope</w>
m ulti
kunst stück</w>
kari erten</w>
k ha
g än
fo ot</w>
d ding</w>
be ar
at er</w>
ym na
ver schne
ung s
ul pt
te ten</w>
sk lei
r ing</w>
photogra p
midd le-
lin ed</w>
genie ßt</w>
g ymna
dunkel häuti
din gs</w>
di stance</w>
da von</w>
braun e</w>
bi ker</w>
ß er
zu sehen</w>
wh at</w>
towar d</w>
stre cke</w>
sit e</w>
schlä ger</w>
s ca
ra in</w>
lap top</w>
l k
di on</w>
ba gs</w>
att ire</w>
a pro
zü gen</w>
zuschau ern</w>
ve l</w>
v en</w>
spr it
sol d
si x</w>
se chs</w>
r y</w>
pla ce</w>
par ti
musi ci
mittl eren</w>
m em
la cht</w>
l ying</w>
kin der
gi bt</w>
gel ber</w>
ge i
fel s
coo king</w>
bo x</w>
be er</w>
b s</w>
at ors</w>
w en
ve sts</w>
t än
st ie
ri ght</w>
ri der</w>
ra mpe</w>
ne ar
na h
mit te</w>
lä ufer</w>
k ti
h r</w>
gri ll
gelän de
ge bi
g ten</w>
führ en</w>
fil led</w>
cut ting</w>
clo wn</w>
ck er
boo ts</w>
blu men
blond- hair</w>
bl an
benut zt</w>
be we
b at
wo hn
w rest
w r
ten t</w>
shor e</w>
s wi
rut sche</w>
pul ling</w>
num mer</w>
new spa
m er
le iter</w>
le ft</w>
groß es</w>
gegen stand</w>
el l</w>
cre am</w>
cour t</w>
buil dings</w>
b ut
zie gel
unter hält</w>
tur n
tun nel</w>
spiel platz</w>
s w
s am</w>
pre par
neh men</w>
mo ther</w>
middle- aged</w>
men sch</w>
leben sm
l il
ho me</w>
gr ü
el y</w>
d au
compe t
ch ten
base ballspieler</w>
b and
all y</w>
al ters</w>
zu sieht</w>
wei h
uni for
trin ken</w>
tra mp
smo king</w>
re la
ra sen</w>
pa ss
p un
p en</w>
ne ben
kam pf</w>
k en
hel men</w>
haari ger</w>
fri ends</w>
fo tos</w>
fe l</w>
f äl
cro ssing</w>
conc ert</w>
cli ff</w>
bu b
berei t</w>
b rin
arr en</w>
appe ars</w>
zu schaut</w>
weih na
spect ators</w>
sho wing</w>
schein t</w>
s z
neben einander</w>
na he</w>
mounta ins</w>
in nen</w>
in n
gg les</w>
fuß gän
fer n
fe w</w>
e dge</w>
di g
de o
bear ded</w>
b an</w>
ab ge
a ben
y a
verschie den
s au
pf lan
out f
nach ts</w>
ma ke</w>
lil a</w>
k li
jers ey</w>
hor ses</w>
ff er
ele ct
eh en</w>
car s</w>
bet t</w>
ba thing</w>
win ter
v ari
ty p</w>
t ers
surf board</w>
sklei dung</w>
sch wi
s on</w>
perform s</w>
p ped</w>
near by</w>
je man
gebi et</w>
dress es</w>
ct or</w>
au ßer
&apos ;</w>
zi garette</w>
z elt</w>
w er</w>
versu chen</w>
triko ts</w>
th a
teil en</w>
t on</w>
stre ckt</w>
ss el</w>
sp ra
sonn e</w>
sh al
schie d
sa x
ro tes</w>
per form</w>
outf its</w>
musi ker</w>
m und</w>
kostü men</w>
ka ppe</w>
hin ten</w>
gla s</w>
dri ving</w>
cycli sts</w>
carri es</w>
bi er</w>
bele u
au gen</w>
apro n</w>
wal k
st ö
st än
st un
st ern</w>
st ein</w>
so ft
sk op</w>
schu he</w>
s o</w>
s coo
s an
roll er
mehr eren</w>
m ö
lea ves</w>
le gt</w>
fru it</w>
football -
compet iti
co ffee</w>
ar ts</w>
z el
wer k
wer fen</w>
ven dor</w>
vari ous</w>
ti al</w>
studen ts</w>
stru cture</w>
schür ze</w>
sch al</w>
park ed</w>
pain ted</w>
p fi
lu ft
ir c
in ing</w>
hol z</w>
gentle man</w>
flow er</w>
farben fro
far bi
f ängt</w>
ei s
di o</w>
de l</w>
ci garette</w>
ca ke</w>
beoba chten</w>
öffent lichen</w>
yo un
youn ger</w>
we sten</w>
vehic le</w>
um e</w>
tal ks</w>
spor t</w>
smi le</w>
sho t</w>
sch ä
sch ei
rau cht</w>
op er
n o</w>
motor radfahrer</w>
künst ler</w>
kni et</w>
k et</w>
go ggles</w>
flag ge</w>
d ir
c up</w>
bei de</w>
w anderer</w>
verschne iten</w>
spiel zeug
rut scht</w>
ni cht</w>
ni c</w>
mar tial</w>
lie gen</w>
li t</w>
l ong
g old</w>
fla sche</w>
fl ying</w>
fer ne</w>
eh o
dru ms</w>
c al
bott le</w>
betra chten</w>
ath le
an zügen</w>
z ur
weiß -
sp it
sch win
ra i
pain t</w>
la d
ki cking</w>
i eren</w>
hü ten</w>
h it</w>
grün er</w>
grü n</w>
gestrei f
fla gs</w>
f ts</w>
ey es</w>
d o</w>
ch i
ch en
au se</w>
zei ch
z en
wa ves</w>
ti gen</w>
t ä
swin ging</w>
si on</w>
sa fe
safe ty</w>
s ame</w>
rock y</w>
ri st
re d-
prepar es</w>
pp i
par king</w>
or k</w>
on loo
newspa per</w>
kletter n</w>
jack ets</w>
h aus
gu ckt</w>
ght ly</w>
ger ü
gel n</w>
geh steig</w>
geb ung</w>
ge m
fol gt</w>
erwachsen er</w>
die se</w>
di ffer
com ing</w>
ck ed</w>
bu ll</w>
blon den</w>
be u
ball s</w>
al ley</w>
al en</w>
zo gen</w>
un d
tü r</w>
tennis ball</w>
sten ing</w>
ra il</w>
practi cing</w>
poli zi
plan e</w>
pfa d</w>
la chen</w>
indi an</w>
hock ey
ho t</w>
glo ves</w>
gemü se</w>
ga ther</w>
e ben</w>
drin ks</w>
differ ent</w>
costum es</w>
convers ation</w>
ca se</w>
c ting</w>
bär tiger</w>
bu cket</w>
ba d
außer halb</w>
a fro
zi ehen</w>
u- bahn</w>
ti e</w>
st y
sonnen unter
snow board</w>
skateboar ding</w>
schwarz- weißer</w>
sc ene</w>
ro of</w>
pa ss</w>
na cht</w>
me ts</w>
li stening</w>
lad der</w>
l en
l auf
kleid ern</w>
ka ya
h ug
grei ft</w>
gem ein
gel e
feu er</w>
dar k
da ss</w>
competiti on</w>
ce ment</w>
c leaning</w>
bun ch</w>
au di
zur ü
weihna chts
we t</w>
we t
wa it</w>
vi du
ver ti
tz en</w>
ta ck
sur ft</w>
st aring</w>
sp ar
sig ns</w>
s wagen</w>
re den</w>
onloo kers</w>
net z</w>
männ liche</w>
lan ge</w>
la ge</w>
it ems</w>
indi vidu
hol d</w>
gel be</w>
ga z
g ern</w>
ff en</w>
cti ve</w>
blau es</w>
blan ket</w>
ber s</w>
au to
al es</w>
a k
z ed</w>
w an
tu ch</w>
sto p</w>
ski fahrer</w>
sin e
s ort</w>
rü ck
ra iling</w>
pi le</w>
me al</w>
lin g
li ert</w>
la wn</w>
kö pfi
konz ert</w>
ka pu
hil ft</w>
happ y</w>
ham mer</w>
gi ving</w>
gelb em</w>
ge pf
g y
fotografi ert</w>
fahr rad
emp ty</w>
dur ch
displa y</w>
de ssen</w>
de sk</w>
d on
ca fe</w>
bu sine
blä t
bi cycles</w>
ballo on</w>
auf schrift</w>
auf ge
audi ence</w>
al le</w>
tü r
t- shirts</w>
städ tischen</w>
sonnenunter gang</w>
schrei bt</w>
schla gen</w>
sc u
pa ssen
n am
milit ary</w>
mat ch</w>
m as</w>
li ches</w>
leu chten
lea ps</w>
k ei
il s</w>
ge ts</w>
fall en</w>
coun try</w>
bir d</w>
beu gt</w>
bei den</w>
basket ballspieler</w>
basket ball
b ä
a ch
überqu ert</w>
äu fer</w>
z ist</w>
we dding</w>
war en</w>
vege tables</w>
un befesti
um gebung</w>
surf ing</w>
stre t
st arr
spor ts</w>
sli ding</w>
schö nen</w>
schu h</w>
sch at
s na
pp en
poin ting</w>
ph on</w>
p al
op h
ob ser
nn en</w>
mm er
m or
l eine</w>
kla ssen
ke y
ka ja
her r</w>
ha are</w>
gol f</w>
gn eri
gerü st</w>
gather ing</w>
en a</w>
e is</w>
da men</w>
d le</w>
cro u
ck ten</w>
c ts</w>
bow l</w>
at h</w>
arbe it</w>
we it
versamm eln</w>
tr un
tha ari
stre ets</w>
sch mut
ro thaari
polizi sten</w>
nack tem</w>
li la
l ö
jack en</w>
j ün
hör t</w>
gerä t</w>
gel b</w>
gegen d</w>
ge wi
for e</w>
fi sch</w>
fel n</w>
fe et</w>
fa cing</w>
ei mer</w>
compe ting</w>
cla ss</w>
cla ss
cha sing</w>
bo ot
be fore</w>
wei bli
v ater</w>
v an</w>
unifor men</w>
spre chen</w>
spea king</w>
sil ber
sax oph
poli zist</w>
plat form</w>
pla te</w>
ma sk</w>
lü ck
ligh ts</w>
kei t</w>
hu ge</w>
hel mets</w>
hand schuhen</w>
geträn k</w>
gestreif tem</w>
erwachsen en</w>
c s</w>
c ed</w>
blon der</w>
ber g
bask et</w>
b in
afri kani
w ra
vor der
v y</w>
tri es</w>
te x
tatto o</w>
t ar
sol di
ski er</w>
sil ver</w>
schrei b
scha ft
sch lau
s lo
s -
ru g
r ö
pe a
par t
p ati
o s</w>
mi r
lä n
luft ball
le sen</w>
le eren</w>
la s</w>
kopf hör
gar ten</w>
de s
cu sto
class room</w>
ch teten</w>
bri de</w>
blo ck</w>
bla sen</w>
är mel
wal d
wa its</w>
w är
tri cks</w>
tradition al</w>
th em
stie feln</w>
sti cks</w>
sin gs</w>
setz t</w>
se en</w>
rei fen</w>
pur se</w>
pro fe
plasti k
photogra ph
or che
mounta in
ku chen</w>
k ed</w>
genie ßen</w>
g le</w>
fl ü
fa ther</w>
e u
clu b</w>
climb s</w>
bade anzug</w>
y ork</w>
wat te</w>
w as</w>
ur ing</w>
ur ban</w>
to wn</w>
tan k
t op
swe e
sp i
sh ed</w>
sei fen
scre en</w>
s än
re gen</w>
pi ck
p rin
musici ans</w>
mo bil
mir ro
me di
li cht</w>
le der
kre u
ko mmen</w>
ki ssing</w>
k ir
ja gt</w>
hi gh
h aufen</w>
gelb es</w>
figh ting</w>
fe st
ent span
dr y</w>
de co
co unter</w>
ch te</w>
can o
brea k</w>
b m
asiati schen</w>
ar ena</w>
ani mal</w>
wo bei</w>
w ein
verschieden e</w>
ti er</w>
ta in
stu dio</w>
sta ir
st roller</w>
sold aten</w>
slee p</w>
skat ing</w>
sin gen</w>
schwi mmen</w>
schlag zeug</w>
schei be</w>
sam m
runn er</w>
roller bla
op en
ob st</w>
o hne</w>
mask e</w>
land schaft</w>
k aufen</w>
ir gen
in mitten</w>
il en</w>
hän d
gekleide ten</w>
ge w
fli p</w>
fem ales</w>
fel l</w>
elect ri
deco ra
de ck</w>
col le
c au
c and
brau t</w>
bil d
ber ü
an ten</w>
ß i
zei chen</w>
wr iting</w>
wer k</w>
walk way</w>
w ellen</w>
um arm
thro w</w>
tal k</w>
ta schen</w>
sun set</w>
starr t</w>
shoul der</w>
scoo ter</w>
schwin gt</w>
schutz helm</w>
s um
s co
rie sigen</w>
regen schirm</w>
re fle
park platz</w>
p ers</w>
p ause</w>
lebensm itt
la p</w>
la -
kne eling</w>
jo ck
ho le</w>
grün e</w>
grau em</w>
gen den</w>
f lei
f ans</w>
dre ht</w>
di ving</w>
ch ts</w>
busine ss</w>
braun em</w>
be di
bar e
b elt</w>
ar me</w>
älter en</w>
ym pi
wa ving</w>
wa sch
w under
vi olin</w>
un ters
ti e
ssen en</w>
so hn</w>
se l</w>
schwarz es</w>
schau k
sa chen</w>
s or
rist mas</w>
ri chter</w>
ra si
pers on
p rü
ol ine</w>
off en
m ers</w>
lin ie</w>
kinder wagen</w>
key board</w>
k au
il y</w>
gemein sam</w>
gebäu den</w>
g le
fahr t</w>
fa st</w>
ex am
cow bo
ch ristmas</w>
blo wing</w>
ber gen</w>
bal d</w>
bad eho
attemp ting</w>
ander es</w>
zusam men
wen det</w>
we ar</w>
w o</w>
vi deo</w>
tä to
täto wi
t te</w>
stun t</w>
straßen rand</w>
straßen ecke</w>
stra ßen</w>
schü tt
sch lit
ro be</w>
re c
pflan zen</w>
pe l</w>
parti ci
p ft</w>
over looking</w>
off enen</w>
ma ke
ma de</w>
lächeln d</w>
li fe</w>
li es</w>
kun den</w>
jugend licher</w>
grün es</w>
git ar
führ ung</w>
fin ger</w>
fel d
far ben</w>
ein ge
cour se</w>
clo u
chine se</w>
c ele
bau stelle</w>
balan ci
b y
zurü ck</w>
we gs</w>
vo gel</w>
v a
umarm t</w>
ta sse</w>
st einen</w>
st am
ssi on
sprit zt</w>
sp run
se a
scho ß</w>
schla m
sa ys</w>
rä der</w>
roll ing</w>
pink farbenen</w>
p il
orange farbener</w>
ol ympi
offi cer</w>
mü ll
musi k
mirro r</w>
mikro phon</w>
m op
k i</w>
hr en</w>
h in</w>
ge gneri
g li
er te</w>
die ser</w>
ci al</w>
c y</w>
bub bles</w>
bow ling
blond- haired</w>
b ung</w>
arti st</w>
all s</w>
ad verti
vi deo
sti c</w>
squ are</w>
sp en
soft ball</w>
si cher
se ment</w>
schreib tisch</w>
schlit ten</w>
schir men</w>
sbe wachsen
put zt</w>
mo to
m at</w>
le ans</w>
kra watte</w>
ja pan
hoo die</w>
gra sbewachsen
glei ch</w>
gi ant</w>
g ut</w>
g lück
ful ly</w>
fi xing</w>
fi c</w>
e ssen
dunkelhäuti ger</w>
clo se</w>
cele bra
c irc
ballo ons</w>
ba d</w>
b run
auf nah
zwe i
z äh
z un
z iel
whe el</w>
vorder grund</w>
unters u
umbre l
umbrel las</w>
teena ge</w>
sw im</w>
stell ung</w>
st ir
spe e
skat e</w>
schn au
schat ten</w>
sch we
sch lange</w>
sand alen</w>
s richter</w>
s at
repar iert</w>
re pa
ra in
pit cher</w>
me er
lk w</w>
lea ther</w>
le g</w>
kur z</w>
kar ate</w>
k ran
je an
irgen d
in es</w>
hell häuti
hel ping</w>
he it
h ren
gy m</w>
ger i
fore ground</w>
fa ces</w>
f un
en des</w>
do or
col lar</w>
chine si
brun ette</w>
back stein
at ten
amerikani sche</w>
al one</w>
win d
vol len</w>
vol l</w>
verk äufer</w>
u- bahn
tro ck
sto ff
sta dium</w>
sp er
sp ei
re iter</w>
po ster</w>
po dium</w>
mu ster</w>
mu d</w>
me at</w>
lo ch</w>
le gs</w>
l ung</w>
l on
kur zer</w>
k ten</w>
hän gen</w>
ho op</w>
head phones</w>
gekleide tes</w>
gegen einander</w>
gan z</w>
füll ten</w>
flug zeug</w>
festi val</w>
farben e</w>
fahr rädern</w>
fahr radfahrer</w>
enjo y</w>
electri c</w>
e ys</w>
e k</w>
dau gh
dan cers</w>
cowbo y
ch ur
bri ghtly</w>
be w
b än
b rä
b is</w>
a sleep</w>
we ars</w>
wa shing</w>
vol l
vi ce</w>
verk aufen</w>
to ys</w>
th o
t ter
swin gs</w>
stei gen</w>
st op
sp ani
ski ing</w>
skateboar d
skat er</w>
sit z</w>
sho v
schü ssel</w>
schü ler</w>
schied srichter</w>
sand als</w>
re iten</w>
ra dre
pi er
photograp her</w>
pfer den</w>
pa ssing</w>
offi cers</w>
offi ce</w>
n ati
ma kes</w>
lächeln de</w>
l er
k a</w>
jeman dem</w>
ho u
ho od</w>
hal s
hal le</w>
gro c
go al</w>
football- spieler</w>
foot ballspieler</w>
fall ing</w>
f ör
einkauf swagen</w>
e se</w>
e s
d ro
c en
bl ü
bede ckt</w>
balanci ert</w>
b at</w>
asiati sches</w>
asi at
am ong</w>
win kt</w>
weibli che</w>
war d</w>
v ö
tz t</w>
tra f
ti ert</w>
te a
ta x
swi m
spie gel</w>
sit i
sin ger</w>
po siti
per for
perfor man
p ä
ne u
n ä
n ung</w>
musi cal</w>
multi colored</w>
mal es</w>
la ssen</w>
kü sst</w>
kre is</w>
kor de
ko mp
k amer
j ong
hö he</w>
hi king</w>
hel d</w>
hea ds</w>
geschä ft
gegen über</w>
fäl lt</w>
fri end</w>
fin i
fa bri
f ern</w>
er de</w>
e e</w>
door way</w>
dir ty</w>
dark -haired</w>
ck er</w>
chur ch</w>
ca f
bare foot</w>
band an
badeho se</w>
b es</w>
ak korde
ac cor
äh n
wü r
w ander
traf fic</w>
thro ws</w>
t rei
t in
surf brett</w>
su per
schul ter</w>
schla g</w>
sc ulpt
s ern</w>
rea ching</w>
profe ssion
pi cking</w>
performan ce</w>
p rä
orange farbenem</w>
o w</w>
n at
mobil telefon</w>
mo ve</w>
ma gaz
lea sh</w>
le t</w>
klassen zimmer</w>
kapu zen
k et
inn en
in clu
hin der
hell brauner</w>
he ben</w>
hals band</w>
h ere</w>
gr in
g ie
g em</w>
fels wand</w>
en ter
ele k
e ar
dra wing</w>
de mon
clo th</w>
che f</w>
cano e</w>
caf é</w>
c ri
be kleidung</w>
b äl
accor dion</w>
wur f</w>
wel l</w>
unbefesti gten</w>
te ppi
tan z</w>
stru k
st eine</w>
sho o
shal low</w>
schmut zi
schauf en
schauf el</w>
sal on</w>
s ent
rela xing</w>
re d
r eini
p -
over alls</w>
over all</w>
ober teilen</w>
o u
n ie
min i
mem bers</w>
lo cks</w>
li ch
l un
l one</w>
kan u</w>
hoch zeit
hil fe</w>
hand stand</w>
g lä
g a</w>
fol lo
flei sch</w>
dre ad
dig ging</w>
dd le</w>
daugh ter</w>
d ol
d ert</w>
ch o
bä ume</w>
beleb te</w>
bel ow</w>
bei ge</w>
b einen</w>
at ta
at or</w>
zei gen</w>
um p
ulpt ur</w>
tur n</w>
su spen
stei gt</w>
st au
sprin g
sport ler</w>
sicher heit
si cht</w>
sho vel</w>
scha ften</w>
sc en
s eines</w>
ru hi
rea d</w>
re det</w>
par t</w>
pa sses</w>
p fo
mu se
mo ving</w>
micro scope</w>
leuchten d</w>
lebensmitt el
la un
ki ck</w>
kaja k</w>
k il
jug g
j am
hug ging</w>
hu la-
ho t
haus es</w>
gu cken</w>
gi ves</w>
gar den</w>
g s
fi g
dur chs</w>
de ep</w>
da vor</w>
cat ching</w>
cat ches</w>
c at</w>
bi cyclist</w>
be wer
b ein</w>
aus sieht</w>
aufnah me</w>
at op</w>
öff net</w>
wor fen</w>
we d</w>
verschie denen</w>
u ch</w>
ti g</w>
tan z
t eln</w>
t a</w>
swee ping</w>
sta dion</w>
spiel erin</w>
spa ß</w>
slee ps</w>
sle d</w>
sho ws</w>
schnau ze</w>
schlau ch</w>
rest ing</w>
renn strecke</w>
ra il
prep are</w>
pa ved</w>
ol s</w>
mat e</w>
make up</w>
lea ping</w>
last erten</w>
la b</w>
kü ssen</w>
kran ken
kha ki
jün g
i ma
hun den</w>
her r
gesch lo
gepf lasterten</w>
ge sä
g ate</w>
fu n</w>
fr ü
fli es</w>
ffe l</w>
f ting</w>
er n
dru m</w>
dread locks</w>
clim b</w>
bu ll
bo w</w>
bl y</w>
app ro
a i
ü r
x i
wett kampf</w>
war ds</w>
up side</w>
ul a</w>
trun ks</w>
to chter</w>
the se</w>
te et
teet h</w>
tank top</w>
t eller</w>
stü cke</w>
stell en</w>
steh ende</w>
st ers</w>
spla shing</w>
skat es</w>
seifen blasen</w>
sculpt ure</w>
schul tern</w>
sca ff
sand wi
rin gen</w>
pul l
pu ck</w>
pre sen
pon d</w>
photograp h</w>
person en
pe de
pede stri
par kt</w>
p en
männ licher</w>
muse um</w>
mikro skop</w>
long -
lo ts</w>
lila farbenen</w>
let t</w>
last wagen</w>
köpfi ger</w>
kop ft
ke y</w>
ka i</w>
individu als</w>
in spe
in fan
ho ut</w>
gu e</w>
grasbewachsen en</w>
gele gt</w>
for mal</w>
fi sch
farbenfro hen</w>
f ur
eh r</w>
do wn
do ors</w>
des ert</w>
convers ing</w>
col d</w>
co ats</w>
brau n</w>
boo ks</w>
bo un
bo t
be l</w>
b ran
asiati sch</w>
ü ben</w>
wrest ling</w>
violet ten</w>
ver sch
under ne
underne ath</w>
ti gt</w>
tele scope</w>
t ire</w>
studen t</w>
spiel feld</w>
sil hou
sent ation</w>
sel f</w>
schö ne</w>
sch mu
s y
s em</w>
ro und</w>
ri ed</w>
re st</w>
pp t</w>
poin ts</w>
plan ts</w>
pi zz
pi c
ori ent
ni val</w>
n u
m men
lo a
le gen</w>
la ch
kü ste</w>
kreu z
ko cht</w>
kli ppe</w>
kir che</w>
kat ze</w>
k auft</w>
jog ging</w>
ja hr
ir d</w>
ho w</w>
h ur
gu n</w>
grün -
gri ma
gol den</w>
gesch en
ge bo
fußgän ger
fußball spiel</w>
freun de</w>
fil m
ein zel
e g
custo mers</w>
clo sed</w>
ch ern</w>
car nival</w>
c it
bri llen</w>
bla tt</w>
bewe g
bal con
and a</w>
am p
akkorde on</w>
wit hout</w>
wat ers</w>
vi er
unter wegs</w>
them sel
themsel ves</w>
tei ch</w>
ta fel</w>
sz ene</w>
stu ff
strei ch
shoul ders</w>
sho e</w>
schauk elt</w>
sca pe</w>
ru m</w>
proje ct</w>
park bank</w>
orient ali
op posing</w>
n ur</w>
mark t
ma chin
lo cal</w>
ku gel</w>
k arren</w>
inclu ding</w>
hi ker</w>
her unter
hell en</w>
grau er</w>
gesä um
gesch n
gegneri schen</w>
gegen stän
ga sse</w>
ga ge</w>
füll t</w>
freun den</w>
fa hren
ele ss</w>
e at</w>
din ner</w>
dan ces</w>
cheerlea ders</w>
cen ter</w>
can e</w>
c ut</w>
braun- weißer</w>
bild schirm</w>
bedi ent</w>
be malt</w>
ausseh ende</w>
at es</w>
a mi
ö pfen</w>
ö h
ärmel lo
y ed</w>
wä sche</w>
woo ded</w>
wett bewer
wei se</w>
um armen</w>
tramp oline</w>
tramp olin</w>
to mat
the ke</w>
ta ken</w>
stra w</w>
steh enden</w>
sper r
sp rü
sk in
si eben</w>
se at</w>
schwimm brille</w>
schutz helmen</w>
schnei den</w>
runn ers</w>
roll ers
ri chtet</w>
re tt
re g
ra cket</w>
pul led</w>
produ ce</w>
pick ni
pi t</w>
pi pe</w>
pi an
open ing</w>
o ds</w>
ne ss</w>
mu ral</w>
mop ed</w>
mitt el
mat ching</w>
mann schaften</w>
ma hl
lo un
lang em</w>
kopfhör er</w>
ke iten</w>
k ehr
jock ey</w>
jean s
it ten</w>
instrumen ten</w>
instrumen te</w>
infan t</w>
hun de
hol t</w>
hal t
gol f
gei ge</w>
g n</w>
flag gen</w>
fi ght</w>
f s</w>
er in
entspan nt</w>
en tal</w>
dri ver</w>
da mit</w>
d on</w>
cross walk</w>
con tain
ck igen</w>
circ le</w>
c rying</w>
brin gt</w>
boot h</w>
ben en</w>
beleu chteten</w>
ball erin
bal k
b arbe
auf ger
al ie</w>
we a
verk ehr
ver wendet</w>
ver gn
vergn ü
v ely</w>
tän zer</w>
tre ppen
tra sh</w>
teena gers</w>
sur face</w>
su cht</w>
stü r
stuff ed</w>
st il
ski ern</w>
sk ulptur</w>
se wing</w>
schlam m</w>
pic nic</w>
perform er</w>
part ment</w>
par a
obje kt</w>
no t</w>
no se</w>
n a</w>
mat te</w>
m es</w>
long- slee
li ft</w>
l auf</w>
k rei
jong liert</w>
in fla
hü pft</w>
händ ler</w>
häl ter</w>
h äu
h it
h all
gymna st</w>
geschä f
gelb -
ge mä
fire figh
farbi gen</w>
er ter</w>
ent fer
el f</w>
e ss
di gen</w>
d or
d dy</w>
ct ed</w>
cover ing</w>
bi cyclists</w>
ber ge</w>
be cher</w>
b ün
attemp ts</w>
athle te</w>
zeu gen</w>
z ä
wa ff
ver anda</w>
un s</w>
u-bahn -
ti sche</w>
th ird</w>
tax i</w>
sty le</w>
stat t</w>
stam m</w>
slo pe</w>
sk is</w>
sitz ende</w>
sho ck
schie ßt</w>
sch lei
sc al
sand y</w>
sa w</w>
rug by</w>
ru ht</w>
rollerbla des</w>
repar ieren</w>
re chts</w>
ra sse</w>
ra ft</w>
pu shes</w>
proje kt</w>
pedestri ans</w>
p l
ori ental</w>
or d
on ed</w>
o on</w>
mo ment</w>
mi gen</w>
met all</w>
m self</w>
lächeln der</w>
lun ch</w>
lin ks</w>
lei cht</w>
la ys</w>
kan er</w>
ka ffee</w>
iti g</w>
it en
i schen</w>
i ro
i c</w>
hör en</w>
hi mself</w>
hi kers</w>
her um
hel p</w>
grill t</w>
go es</w>
gla s
gesch ir
gen en</w>
ge st
ge ben</w>
fotografi eren</w>
feld weg</w>
fa hnen</w>
er ing</w>
em on
ein gang</w>
ei shock
e ven
dunkl er</w>
dan cer</w>
co w</w>
cha ses</w>
c a</w>
brea k
box es</w>
bot to
blä st</w>
blo use</w>
bil der</w>
be ver
bar ri
bar fuß</w>
balcon y</w>
b eln</w>
b auen</w>
auf tritt</w>
at tra
a st</w>
a gi
wü ste</w>
wer bung</w>
wand ert</w>
ver folgt</w>
ut s</w>
tu b</w>
tri e
ti c</w>
tau cht</w>
t ops</w>
sän ger</w>
stro h
sti ft</w>
ste ckt</w>
stair case</w>
st off</w>
spring brunnen</w>
sprin kl
spea ks</w>
shoo ting</w>
se ven</w>
se il
schütt elt</w>
schwimm er</w>
sc i
s ü
put s</w>
pul ls</w>
positi on</w>
pian o</w>
per i
p ri
op -
ne ck</w>
na se</w>
mä n
mit g
mitg lie
mahl zeit</w>
lon don</w>
lo g</w>
le it
kopft uch</w>
kar at
in ten
in door</w>
ho ckt</w>
hell blauen</w>
hand tasche</w>
ha fen</w>
h ula</w>
gra s
go alie</w>
geschlo ssenen</w>
gel d</w>
ge pä
gar age</w>
fi sh
fi gu
far be</w>
ex cit
entlan g
e th
e it
dunkelhäuti ge</w>
de vice</w>
da ch
cowboy hut</w>
cle ar</w>
bru sh</w>
bo r</w>
bo gen</w>
berü hrt</w>
ben t</w>
be kommt</w>
bar en</w>
bal ken</w>
ba g
b le
ausseh ender</w>
au ßen
au ch</w>
asi ate</w>
2 0
über füllten</w>
wil d
wettbewer b</w>
wet suit</w>
w än
ve ment</w>
trä ger
ter rasse</w>
teppi ch</w>
tennis spieler</w>
te ch
swi ms</w>
sti k
sprun g
skateboar ds</w>
sha king</w>
schmu ck</w>
saxoph one</w>
reini gt</w>
po t</w>
personen gruppe</w>
p ort</w>
p et</w>
o c
ni ce</w>
nati ve</w>
män teln</w>
mo bi
mar ching</w>
m ei
m bi
lin ken</w>
l ers</w>
ka hl
k ol
it tel</w>
ir ts</w>
hea vy</w>
groc ery</w>
gra ben</w>
gol d
glei ch
gitar ri
gentle men</w>
geh alten</w>
ge zogen</w>
ge sp
fei er</w>
fall s</w>
fa shi
f ly</w>
even ing</w>
er tem</w>
er d
ent rum</w>
ent ri
enjo ys</w>
en ts</w>
dri ves</w>
de ut
comput er
ck ets</w>
c le</w>
bro wn
brin gen</w>
bo ats</w>
blo cks</w>
be hälter</w>
ban ner</w>
ausge stre
at ting</w>
an ce</w>
am ü
a qu
1 2</w>
zeich net</w>
wra pped</w>
wo l
water fall</w>
w ns</w>
verk ehr</w>
v il
ur r
um zug</w>
u fer
ty pe</w>
tran spor
tradition eller</w>
tra k
tra cks</w>
ti ge</w>
strei fen</w>
stre am</w>
str and
ste ep</w>
st le</w>
st et</w>
st art</w>
spiel s</w>
spazi er
si ch
shi p</w>
she et</w>
sha ving</w>
schla f
schie ßen</w>
sandwi ch</w>
sal to</w>
sa iling</w>
ro bes</w>
rei gn</w>
red- haired</w>
re fer
rad fahr
pu ddle</w>
prote ctive</w>
por ch</w>
poli ce
po uring</w>
pink farbenem</w>
p fü
p an</w>
mü ll</w>
mu sta
mo ves</w>
mo di
mal en</w>
leder jacke</w>
le hr
le dge</w>
laun dry</w>
la den
ko ff
ko ch</w>
ki ssen</w>
ki cks</w>
kha ki</w>
kaya k</w>
k te</w>
je an</w>
i z
hü b
hin ab</w>
her aus</w>
hea ded</w>
han gs</w>
ha w
gr ö
ger in</w>
gelände motorrad</w>
gar b</w>
fo reign</w>
fin gers</w>
fel sigen</w>
fahr räder</w>
fa ir</w>
f te</w>
eh nt</w>
die sem</w>
de ckt</w>
clou dy</w>
ck elt</w>
ch ar
ch al
c er
brown -haired</w>
bla s
bei ge
be schä
asiat in</w>
asi aten</w>
appro a
an zu
amü si
a cti
zäh ne</w>
zuschau er
wä scht</w>
wor k
winter kleidung</w>
win e</w>
ver s</w>
untersu cht</w>
ug gage</w>
tü te</w>
t ur</w>
st ens</w>
soldi ers</w>
sk irts</w>
shov eling</w>
se gel
se a</w>
schn ell</w>
s la
s ale</w>
ru b
rothaari ge</w>
red- hair</w>
rea ches</w>
qu e</w>
qu ar
prü ft</w>
pol o</w>
pol es</w>
po site</w>
pla k
pickni ck
pfü tze</w>
pfer de</w>
pf an
pal m</w>
padd ling</w>
p ut</w>
p el
op ren
op posite</w>
o d
ne opren
ne i
nach dem</w>
na ssen</w>
mo und</w>
milit ä
m pe
ll y</w>
l uggage</w>
ki ss</w>
ker l</w>
kar te</w>
kan n</w>
k no
k al
j o</w>
in lin
hell braunen</w>
gr ä
gle itet</w>
gie ßt</w>
gel d
g on</w>
g keiten</w>
fr öh
f ir
ey e</w>
e ar</w>
dru ck</w>
die ses</w>
den im</w>
de fen
cor n</w>
contain er</w>
comp le
col ors</w>
cheerlea der</w>
che cking</w>
cha se</w>
c ue</w>
c amer
brü net
brea d</w>
boar ds</w>
blät ter</w>
bir ds</w>
balk on</w>
back yard</w>
ba ch</w>
b st</w>
b are</w>
auf blas
atta ched</w>
air plane</w>
ü bt</w>
zun ge</w>
zeu ge</w>
yo u</w>
wur de</w>
windo ws</w>
wil l</w>
wheel chair</w>
wer ed</w>
weit ere</w>
wan ne</w>
volley ball
ut a
ur en</w>
u ps</w>
ton gue</w>
to ols</w>
tar n
t ö
sä cken</w>
str ing</w>
sta pel</w>
soldi er</w>
skateboard fahrer</w>
sk y
sitz ender</w>
schla fen</w>
schla fen
sch ot
sch le
scaff ol
s wor
ro deo
rec ei
re cor
pull i</w>
pp y</w>
pfo sten</w>
pass anten</w>
padd elt</w>
pa vement</w>
pa jam
pa ck
ou fla
oufla ge</w>
or y</w>
op pon
mon it
m ing</w>
m c
m a</w>
le ge
lau gh</w>
la ster
la pt
kur z
kur ve</w>
kleide te</w>
ki ckt</w>
jum p
jers eys</w>
infla table</w>
in ning</w>
ima ge</w>
hö l
hor n</w>
hockey spieler</w>
hal s</w>
gemä l
fußgänger über
fra me</w>
form ation</w>
fli ght</w>
ex peri
em er
e i</w>
don al
di s
cur b</w>
con es</w>
co ach</w>
clo se
cle an</w>
ce -
cam ouflage</w>
bun te</w>
bu llen</w>
braun es</w>
bla ck
bi kers</w>
bi et
bei einander</w>
bar fü
balan cing</w>
ba thro
b a</w>
ar row</w>
amp ;</w>
all er</w>
all ein</w>
a ges</w>
& amp;</w>
z ing</w>
wär ts</w>
war m</w>
wal ls</w>
voll führt</w>
vie l</w>
uti g
utig am</w>
unter schied
ty ard</w>
tro pi
tra ctor</w>
touri sten</w>
ter ed</w>
tele skop</w>
te stelle</w>
swim suit</w>
sum mer</w>
su pp
sto ol</w>
ste p</w>
st and
ssi on</w>
spra y</w>
skin ned</w>
silhou ette</w>
sha do
sh ade</w>
sel l</w>
se es</w>
schw en
schu h
san ta</w>
s ar
ro n
ri ders</w>
ri bb
rasi ert</w>
rail road</w>
radre nnen</w>
r it
profession al</w>
plan t</w>
pfer de
p op
orange -
o b</w>
ne ck
musici an</w>
motor cycles</w>
mobi le</w>
mer k
mau l
mar ried</w>
magaz ine</w>
luftball ons</w>
li ving</w>
laugh s</w>
lapt ops</w>
konz entri
koff er</w>
kla t
kampf sport</w>
jugg ling</w>
in en</w>
höl zer
hula- ho
hor se
hel fen</w>
happ ily</w>
h y
grä bt</w>
geträn ke</w>
ge zeigt</w>
ge we
g um
fußgän ger</w>
fri sch</w>
fre sh</w>
flo ral</w>
flo ps</w>
flo ating</w>
fabri c</w>
eu ro
er ung</w>
er er</w>
e scal
e d
e ats</w>
dre i
dra h
di scu
der by</w>
d ü
cur ly</w>
cti ons</w>
ct ory</w>
cow boys</w>
cour tyard</w>
col or</w>
co me</w>
ch an
bür o</w>
bub ble</w>
bu ying</w>
brünet te</w>
brä utigam</w>
botto m</w>
bm x</w>
blü m
bet on</w>
barfü ßi
ballerin a</w>
ba u</w>
b ati
amerikani schen</w>
a ku
z a</w>
x -
wi scht</w>
we l</w>
wasser fall</w>
wa r</w>
w e</w>
verk auf
turn halle</w>
tu be</w>
tro mmel</w>
tra v
tou ching</w>
tatto o
ta il</w>
sä ge</w>
swe sten</w>
suspen ded</w>
sur f</w>
stret ched</w>
straßen künstler</w>
st ol
spit ze</w>
sp ot
sp on
so cks</w>
sk il
sitz enden</w>
si zed</w>
sho wn</w>
ser vi
schä fer
schrei t</w>
schn urr
sch weiß
scaffol ding</w>
sc ra
sa men</w>
run den</w>
roll stuhl</w>
rin gs</w>
rie si
rett ung
restauran ts</w>
ra sen
poli zei
pla tt
pizz a</w>
pf e</w>
pajam as</w>
pa ir</w>
p- flops</w>
neopren anzug</w>
na p</w>
multi ple</w>
mm ert</w>
mi x
men ts</w>
mc donal
mark et
market place</w>
mal s</w>
lebensm ittel</w>
la ger
kö nnen</w>
ku h</w>
kon struk
kne e</w>
kl ar
ki sten</w>
kehr t</w>
kan te</w>
ing s
i ch</w>
hur dle</w>
ho tel</w>
hinter her</w>
hin aus</w>
hellhäuti ger</w>
hei ra
hand tuch</w>
h le</w>
gu ard</w>
gru ppen</w>
gro om</w>
gra u</w>
gol denen</w>
go ods</w>
geschir r</w>
gar ba
garba ge</w>
g ür
fli p-flops</w>
fi schen</w>
fe e
farben es</w>
f lan
f au
eri al</w>
ent ly</w>
en th
eit her</w>
dr it
demon stra
dar unter</w>
d lichen</w>
d it
cou stic</w>
close up</w>
ck ter</w>
cheer ing</w>
carri age</w>
ca su
bur g
bu cking</w>
bi t</w>
bewe gt</w>
benut zen</w>
be sen</w>
be am
baum stamm</w>
barbe cue</w>
bar re
bandan na</w>
ban an
ball ons</w>
back wards</w>
ba m
arbeit skleidung</w>
appe ar</w>
angel t</w>
ab zu
a coustic</w>
- covered</w>
ärmello sen</w>
zä unten</w>
zo gen
zi ert</w>
zeug s</w>
za hn
y ho
wel ding</w>
wa ke
vorbei gehen</w>
vor d
ver kleidet</w>
under water</w>
um her</w>
tro mm
train ing</w>
to wel</w>
ti sch
th um
th s</w>
tennis schläger</w>
tech ni
ta ge
studen ten</w>
sto ve</w>
stir n
st ed</w>
so mmer
sna ck</w>
she ep</w>
ser ving</w>
sel t
sch wer
s äu
ro ut
re chten</w>
rai sed</w>
quar ter
pun k
pol o
po st</w>
platt form</w>
pla za</w>
pi ge
par ach
pain ts</w>
p ating</w>
or g
ob sta
ob st
nah aufnahme</w>
musi kin
musikin stru
mon ey</w>
mo st</w>
mo m</w>
mitglie der</w>
mit tag</w>
men t
long -haired</w>
li ve</w>
lau b</w>
land scape</w>
l y
l ern</w>
kreuz ung</w>
konzentri ert</w>
konstruk tion</w>
ko chen</w>
kne els</w>
kapuzen pulli</w>
jun gs</w>
japan ese</w>
ja gen</w>
it ä
in vol
in i
hü tte</w>
hü r
hoo ded</w>
he els</w>
ha y</w>
glück lich</w>
gg y</w>
gesäum ten</w>
geschä fts</w>
gesch min
ger man</w>
gemäl de</w>
geb au
fen ced</w>
fei ern</w>
f al
ex er
essen s
escal ator</w>
ers ki
eri es</w>
entfer nt</w>
en ga
en g
ell ing</w>
ele ph
eishock ey
e ars</w>
dru mmer</w>
dr ü
dire ction</w>
din ing</w>
di sk
cre w</w>
co a
clim ber</w>
chinesi schen</w>
che cker
cha in</w>
ch op
cau ght</w>
cau c
cand y</w>
braun haarige</w>
blon dem</w>
bl ing</w>
ber ges</w>
bel a
beg uta
bau t</w>
backpa cks</w>
ani mals</w>
an g
amerikani scher</w>
am p</w>
all eine</w>
air port</w>
adverti sement</w>
a do
a cht</w>
wohn zimmer</w>
weihnachts baum</w>
wei t</w>
wald gebiet</w>
wa gen
vehic les</w>
us sion</w>
u sement</w>
tro mpe
tro l
tre ffen</w>
train iert</w>
top f</w>
thro wn</w>
th ings</w>
tex as</w>
tea cher</w>
ta ils</w>
sy n
str a</w>
sto re
star k</w>
stadt straße</w>
st y</w>
ss i</w>
skate park</w>
sk ul
sha ped</w>
setz en</w>
se ts</w>
se ems</w>
schnee bedeck
schil dern</w>
sch litt
rö cken</w>
rot- weißen</w>
roll treppe</w>
ri chten</w>
rei fen
refer ee</w>
prin t</w>
pi ra
pea ce</w>
partici pating</w>
p y
orche stra</w>
oper ating</w>
offen em</w>
obsta cle</w>
ni ght
neck la
ne ten</w>
ne on</w>
mü tzen</w>
mu zz
motor rädern</w>
moto cross
milit är
me xi
mar sch
lächeln des</w>
luftball on</w>
lin es</w>
lege stelle</w>
le hnen</w>
kü chen
kit tel</w>
karat e
k le
k alten</w>
jeman den</w>
it e
individu al</w>
indi sche</w>
haw k</w>
hal t</w>
grill ing</w>
gre yho
gra vel</w>
go od</w>
glä sern</w>
geschäf tigen</w>
gesch la
gegenstän de</w>
ge worfen</w>
ge wand</w>
ge blüm
g as</w>
g al
fre und</w>
fotogra f</w>
flie gen</w>
fl ö
fish er
fir st</w>
figu r</w>
ff y</w>
f it
exam ining</w>
en ten</w>
elek tro
ein s</w>
e f
di sc
decora ted</w>
de sig
d ün
d y
checker ed</w>
ch ers</w>
ch ens</w>
cauc asian</w>
bäl len</w>
bru shing</w>
box er</w>
beschä f
ben ding</w>
befesti gt</w>
be ut
be su
ba ss</w>
athle tic</w>
am usement</w>
afrikani sche</w>
aben d</w>
a ssi
20 12</w>
- skinned</w>
ö lk
ö hn
za hl
wän den</w>
werk zeug</w>
wein t</w>
wand bild</w>
wa ys</w>
wa sh
wa gon</w>
vi sion</w>
verk auf</w>
u si
tur ning</w>
tter t</w>
träger hemd</w>
trak tor</w>
tr au
touri sts</w>
touri st</w>
tor hü
tie f</w>
ti eren</w>
the ater</w>
tatto os</w>
t z</w>
t um
su it
streich elt</w>
sti cking</w>
stein mauer</w>
steh end</w>
ste ilen</w>
st ones</w>
spiel ern</w>
spei sen</w>
sonnen brillen</w>
snowboar ding</w>
silber nen</w>
shal testelle</w>
sh aring</w>
se iten</w>
scu ba</w>
schäfer hund</w>
schwarz- weißen</w>
schn itt</w>
schauf elt</w>
sch lu
sch e
s sig
ro wing</w>
ro pes</w>
rest s</w>
rei chen</w>
ra st</w>
ra cer</w>
ra ce
prote st</w>
pre sentation</w>
practi ce</w>
pos si
po d</w>
plak at</w>
pit ch</w>
photograph s</w>
passen gers</w>
pa pier
p är
p tion</w>
p lo
oppon ent</w>
on ly</w>
o ze
näh ert</w>
no ti
nei gh
n er
mu ddy</w>
moto cross</w>
mo ti
mo del</w>
mit arbeiter</w>
mi d</w>
ma p</w>
m ern</w>
li qu
li gi
le gg
kunst stücke</w>
komp lett</w>
kla pp
ki ste</w>
kahl köpfiger</w>
k ie
jugend liche</w>
je wel
irc ut</w>
ih res</w>
i ght</w>
hölzer nen</w>
hän ge
hr e</w>
hor iz
ho cke</w>
hit ting</w>
hil l
har ness</w>
halt ung</w>
hall way</w>
ha ircut</w>
gla tz
gewi ckelt</w>
geschen k</w>
ger er</w>
gen der</w>
gen de</w>
gel ehnt</w>
ge öff
gar ten
fü ßen</w>
frei zeit
fre il
fo to
fisch er
firefigh ters</w>
fee ding</w>
exer ci
en -
e ben
dunkel haarige</w>
do min
de sc
de cken</w>
dau men</w>
cyc ling</w>
crou ches</w>
compe te</w>
che st</w>
cell o</w>
c one</w>
c l
bü cher</w>
bän ken</w>
but ton</w>
bu shaltestelle</w>
bro t</w>
boar d
beweg ung</w>
bew ölk
ben ches</w>
beg in
be mal
be gei
baseball kappe</w>
bahn steig</w>
b lei
attemp t</w>
at v</w>
ar ds</w>
ange zogen</w>
ange zogen
an ti
al so</w>
afro ameri
ad ju
ac ting</w>
a gen</w>
a di
- up</w>
zuschauer menge</w>
yo ga</w>
wunder schönen</w>
wir e</w>
wi de</w>
wer fer</w>
wa i
vor n</w>
vie wing</w>
us ly</w>
um hang</w>
tän z
tur ns</w>
to ol</w>
to i
ti le</w>
th day</w>
teil t</w>
te e</w>
stö cken</w>
sti er</w>
sta p
st ati
ss eln</w>
spor ting</w>
spee ch</w>
sold at</w>
sin k</w>
si e
schu le</w>
schu b
schnurr bart</w>
schn it
schmutzi gen</w>
schi ff</w>
sch met
sch lie
sch einen</w>
samm elt</w>
s ong</w>
rollers kat
ro hr</w>
ren ch</w>
re ligi
race track</w>
quarter back</w>
pär chen</w>
pul l</w>
pu ppe</w>
pro fi
police man</w>
pla tz
pi ste</w>
pati o</w>
pat ro
pass agi
orche ster</w>
or n
on i
o hr
na vy</w>
n ur
musta che</w>
motor cyclist</w>
menschen gruppe</w>
mat erial</w>
machin ery</w>
m o</w>
long-slee ved</w>
loa ding</w>
legg ings</w>
le tz
lau b
lang haariger</w>
la ster</w>
la ss
la bor</w>
l um
kopfhör ern</w>
kletter er</w>
kla vier</w>
kamer a
jüng eren</w>
jun gle</w>
jump suit</w>
jog gt</w>
jog gen</w>
inlin e
i -
hür de</w>
hy dr
hula-ho op-
hug s</w>
hinder nis</w>
hei ßen</w>
hei ß
head scarf</w>
haari ges</w>
h all</w>
gum mi
guit ars</w>
gro ups</w>
graffit is</w>
go -
gewä ss
gew öhn
geträn ken</w>
gesi chts
gerä ten</w>
gepä ck</w>
gel t</w>
gel a
ge parkt</w>
ga ssi</w>
g ur
g te</w>
fru its</w>
fo c
fig ure</w>
f ree</w>
f an</w>
en tran
einkauf sz
ei ght</w>
ei g
di sh</w>
cri cket</w>
cra ft</w>
comp ani
colle ge</w>
co mm
cle ans</w>
car pet</w>
bu t</w>
bru st</w>
bo xing</w>
bm x-
blät tern</w>
blon d
bir thday</w>
beut el</w>
be a
bathro om</w>
bar s</w>
ban jo</w>
balan ce</w>
b ör
b st
b renn
ausgestre ckten</w>
auf merk
auf führung</w>
app le</w>
a head</w>
a ction</w>
älter es</w>
zie l</w>
za hl</w>
wei ght</w>
war n
vorbei fährt</w>
vor richtung</w>
violet tem</w>
ver w
ven d
vend ors</w>
u f
tür ki
ty pen</w>
tw agen</w>
tur ban</w>
tru mp
trump et</w>
tre ppen</w>
torhü ter</w>
tomat en</w>
ters e
terse ction</w>
ten ts</w>
tei g</w>
teena ger
te tes</w>
tattoo ed</w>
t em
syn ch
swimm er</w>
su r</w>
städ tische</w>
stu d
stret ching</w>
stop ped</w>
ste u
sport veranstaltung</w>
spa ce</w>
sp ü
snow -covered</w>
smo ke</w>
sli des</w>
sho ot</w>
she ph
sheph er
sell s</w>
se ilen</w>
se e
se cur
schutz brille</w>
schir m
schaufen ster
sch wa
sch em</w>
sand dün
rub ber</w>
ru dert</w>
rout ine</w>
rosa farbenem</w>
ro ad
ribb on</w>
ri ck
re de</w>
radfahr ern</w>
ra h
ra ds</w>
possi bly</w>
po st
pi lot</w>
pe tting</w>
pe e
partici pat
p a</w>
or -
obser ve</w>
näh maschine</w>
ni cker
nicker chen</w>
neu gebo
neugebo ren
neigh bor
neighbor hood</w>
ne on
na vi
n arrow</w>
mäd chens</w>
mo u
mi erte</w>
mem ber</w>
medi cal</w>
marath on
m all</w>
lo b
li ed</w>
lehr er</w>
lea ving</w>
le itet</w>
lan e</w>
la ter
la te</w>
la mpe</w>
la cro
lacro sse</w>
kunst werk</w>
kni en</w>
kla sse</w>
ker zen</w>
ke gel</w>
ka ffe
k y</w>
k r
k -
jo hn</w>
je ep</w>
inter e
in tersection</w>
in doors</w>
il ity</w>
il er</w>
hula-hoop- reifen</w>
horse back</w>
ho spit
hill side</w>
her d</w>
hel l</w>
hei t</w>
hal f</w>
h ers
hers elf</w>
guit ar
grei fen</w>
gre at</w>
gitarri st</w>
gew än
gelän de</w>
geld bör
geb un
g ä
g -
fü ße</w>
fü ttert</w>
fri se
flü ssig
flug hafen</w>
fla schen</w>
fl au
fi scher</w>
fe at
far m</w>
fan cy</w>
experi ment</w>
ex hi
eri e</w>
er kli
er ed</w>
er -
elect ro
einzel ner</w>
ea stern</w>
e- gitarre</w>
dun e</w>
disc ussion</w>
dire kt</w>
di cht</w>
di a
der ing</w>
decora ti
de ck
dark -skinned</w>
d eln</w>
crou ching</w>
con tro
chin a</w>
ch or</w>
cer emon
ce iling</w>
c ran
c ally</w>
bu shes</w>
bowling bahn</w>
board walk</w>
blu e
bl ume</w>
bever age</w>
beschäf tigt</w>
ber n</w>
be am</w>
bau ch</w>
bat h</w>
bask ets</w>
baseball mütze</w>
b in</w>
arm y</w>
an z</w>
an y</w>
an legestelle</w>
an lage</w>
an gel</w>
a partment</w>
a ber</w>
zeu ger</w>
yo uth</w>
y er</w>
x y
wor l
whe els</w>
w ein</w>
vi si
vi l</w>
ver tei
ver heira
us ed</w>
uniform ed</w>
tter y</w>
trompe te</w>
train ings
ten d</w>
ta b
t ut
t ug
t il
sü ßi
stroh hut</w>
stri ck
st ly</w>
st einigen</w>
squ atting</w>
spr ing</w>
sport kleidung</w>
so cken</w>
si cht
shepher d</w>
se ats</w>
schwimm bad</w>
schwarz- weiß</w>
schwa ch</w>
schlag zeuger</w>
sch na
sch min
sat z</w>
samm lung</w>
ruck säcken</w>
ro t
renn wagen</w>
rei che</w>
regen schirmen</w>
re kla
re cht</w>
r ute</w>
qu et</w>
pu ppy</w>
pp er</w>
pie ces</w>
pi pes</w>
pa ck</w>
p lü
plü sch
out stretched</w>
orn ate</w>
org ani
op ing</w>
ol i
o hren</w>
ne ts</w>
mountain bike</w>
mor e</w>
mo stly</w>
mo hawk</w>
mo d
mit hilfe</w>
micro phones</w>
mi xing</w>
men te</w>
me tal
me sser</w>
me ch
mech ani
masch inen</w>
marsch iert</w>
mar oon</w>
mar in
m ly</w>
lu sti
lo s</w>
lie genden</w>
lach end</w>
la y</w>
kü r
kn ie
ki ck
ket ten
ke ep</w>
kau t</w>
kari ertem</w>
kar ten</w>
k rä
k is</w>
k ette</w>
it es</w>
i se</w>
häu sern</w>
hospit al</w>
ho h
hinter hof</w>
high -
hi stor
hel ps</w>
he u</w>
he art</w>
har mon
hand schuh</w>
hal b
ha wai
gymna sti
guitar ist</w>
go t</w>
gi e</w>
gewäss ers</w>
gewi ch
gewe hr</w>
geschäft s
geschä ften</w>
geblüm ten</w>
fun ny</w>
fre m
fr an
fotogra fen</w>
fol ding</w>
flu ss
flu g</w>
flau schi
fini sh</w>
fin ger
fin det</w>
ff s</w>
feuerwehr männer</w>
fer ence</w>
fen cing</w>
excit ed</w>
et t</w>
entran ce</w>
el tern</w>
einkaufsz entrum</w>
einkauf sta
ein sam
ei sen
drah tz
din ge</w>
di shes</w>
den ti
de ad</w>
d ä
d st</w>
d board</w>
cour s</w>
coun tr
con si
con ference</w>
con du
comput ers</w>
col um
clo wns</w>
cla y</w>
cho ir</w>
che fs</w>
cha in
celebra ting</w>
car dboard</w>
car d</w>
ca p
ca de</w>
c ans</w>
bur g</w>
bu y</w>
bu ckets</w>
bro w
brau t
bowling kugel</w>
bott les</w>
bor d
boo ten</w>
blau- weißen</w>
berü hren</w>
bei ßt</w>
be arbeitet</w>
bat ter</w>
back s</w>
ba th
b eine</w>
aus stellung</w>
aufblas baren</w>
auf zu
auf s</w>
att le</w>
at a</w>
ar ran
angel rute</w>
an hat</w>
amüsi eren</w>
afrikani scher</w>
ad mi
a ss
a -
zu ge
zi eren</w>
zeit schrift</w>
wi ssen
wissen schaft
wheel ie</w>
wagen s</w>
waff e</w>
wa hr
vege table</w>
va cu
v eless</w>
und ert</w>
un ds</w>
tri bün
train er</w>
ti ere</w>
ti er
ta ge</w>
t ly</w>
t ently</w>
swor d</w>
stu fe</w>
stro ll</w>
stri pes</w>
str ü
store front</w>
star t
star es</w>
sta ck</w>
sta b</w>
st ur
st ar</w>
spra ying</w>
spiel kleidung</w>
spie gel
sp inning</w>
snowboar d
smo kes</w>
slee veless</w>
si mi
sen i
se itig</w>
schwen kt</w>
schweiß t</w>
schwarz- brauner</w>
schw anz</w>
scen ery</w>
saxoph on</w>
sand strand</w>
sa al</w>
s n
rä ch</w>
ru ral</w>
roller -
ro ugh</w>
rin k</w>
riesi ge</w>
rei cht</w>
refle ctive</w>
rah men</w>
prote sti
pro bi
pol ka</w>
plat te</w>
pin e</w>
picknick tisch</w>
pi ck</w>
pati ent</w>
pa ckt</w>
outdo or-
oth ek</w>
offen bar</w>
nä ch
n it
nit ure</w>
mo tor</w>
mi scher</w>
mar schi
lo y
li br
libr ary</w>
lea ding</w>
le ot
l erin</w>
kör ben</w>
kö pfen</w>
kur s</w>
kun ft</w>
kti ve</w>
kopf über</w>
kon fer
konfer en
ko mmen
kletter gerüst</w>
kleide ter</w>
kar u
kamer as</w>
k rie
jüng ere</w>
jun g
jahr markt</w>
it em</w>
inspe cting</w>
in du
hü te</w>
hoch zeit</w>
ho ops</w>
hel me</w>
hal lo
ha ir
grin ding</w>
gri llen</w>
gri ff</w>
grau e</w>
gi ert</w>
gh ts</w>
gesp räch</w>
gelände motorradfahrer</w>
geh ende</w>
gegen seitig</w>
geb il
ge park
fur niture</w>
fre u
flüssig keit</w>
flü geln</w>
flo at</w>
fli pping</w>
fla chen</w>
fisher man</w>
fire truck</w>
feuerwehr mann</w>
feu ert</w>
fen ster
fe gt</w>
farbi ge</w>
fahr geschäft</w>
fa hne</w>
fa ctory</w>
f ft</w>
eth nic</w>
eng ine</w>
en te</w>
emp loy
em bra
elek tri
ele fan
e ting</w>
e ite</w>
e gt</w>
dunkel blauen</w>
du del
dre ck</w>
dra chen</w>
do ctor</w>
di git
den k
dan eben</w>
d j</w>
cut s</w>
ct ors</w>
com for
color ing</w>
co bb
ck i
ch tern</w>
ce ss</w>
cal f</w>
ca stle</w>
bäl le</w>
bur ger</w>
bro om</w>
bro n
br and
box en</w>
bow ls</w>
bor n</w>
blue jeans</w>
blo ws</w>
bla zer</w>
beige farbenen</w>
be stehende</w>
be ar</w>
backstein gebäude</w>
b um
aus zu
ani e</w>
al ter
acti v
aben dessen</w>
a sp
är m
zu g
z ten</w>
z one</w>
z enden</w>
xy lo
wir belt</w>
wi fe</w>
wett rennen</w>
wel pen</w>
we b
wasser flasche</w>
wasch salon</w>
wand ern</w>
wal mar
wa schen</w>
vor ne</w>
ver lassen</w>
uti eren</w>
ur t
urt sta
untersu chen</w>
un gewöhn
turn erin</w>
tur ned</w>
tt y</w>
tru cks</w>
trei bt</w>
train ieren</w>
ti mes</w>
ti ed</w>
ter ri
tele vision</w>
ta in</w>
t tern</w>
t ons</w>
t lichen</w>
sän gerin</w>
surroun ding</w>
stö cke</w>
stro m
straßen händler</w>
stor y</w>
stau b
star ting</w>
stan gen</w>
stair way</w>
st em</w>
st el
sprü h
spor twagen</w>
spe ed</w>
sp read</w>
sit ing</w>
si um</w>
si des</w>
scre am
schmet ter
schlau ch
schlaf anzug</w>
scha ch
sch rau
sanddün e</w>
s ym
s le</w>
roll t</w>
roll s</w>
ro d</w>
renn auto</w>
rea ch</w>
rain y</w>
rai ses</w>
r einigen</w>
qu e
plat es</w>
plan scht</w>
pige ons</w>
pf lü
pe d
par ents</w>
pain t
padd eln</w>
p t</w>
over head</w>
oper ation</w>
op ol
obje cts</w>
o sau
num er
no ch</w>
night time</w>
ni er</w>
ne a
na ked</w>
n es</w>
n ame</w>
motor bike</w>
mon opol
mo der
marschi eren</w>
m y</w>
li stens</w>
li fting</w>
let es</w>
la t
la mp</w>
la bor
l li
l ein
köpfi ge</w>
kö che</w>
ko ra
ko ch
kil t</w>
ke e
kal b</w>
k ul
k ite</w>
k arre</w>
ju beln</w>
jock eys</w>
jewel ry</w>
jeans jacke</w>
j en
indu stri
in tently</w>
ho uses</w>
hn en
hin unter
herunter ge
her ab</w>
hau se</w>
hal sk
gymna sium</w>
gu i
grö ß
grima sse</w>
gras fläche</w>
glei sen</w>
geschäft skleidung</w>
gen cy</w>
geldbör se</w>
geh ö
geb urtsta
ge punk
g ung
g ner</w>
g ged</w>
g am
fußball feld</w>
frisbe e
frisbee scheibe</w>
freun d
for d</w>
fon tän
follo wing</w>
fol ded</w>
flö te</w>
flu ffy</w>
fi x</w>
fern seh
farbenfro her</w>
f än
ex pre
er ungen</w>
entspan nen</w>
en s
emer gency</w>
eleph ant</w>
dunkel haariger</w>
du ck</w>
drü ckt</w>
drahtz aun</w>
down town</w>
do se</w>
discu ssing</w>
din osau
de kora
de kor
d am
cran e</w>
co ol</w>
cla d</w>
che ck
chal k</w>
cat cher</w>
car ving</w>
car e
cand les</w>
ca pe</w>
c ru
c are</w>
bür ste</w>
bü ro
bun t</w>
bro ken</w>
bri ef
brand ung</w>
bo ul
bo dy
bl ö
bil l
bewölk ten</w>
ben e
beleu chtung</w>
beguta chtet</w>
be kommen</w>
be fahren
bb elt</w>
bau ern
barre l</w>
ball on</w>
balan ces</w>
bal ding</w>
bahn hof</w>
bade wanne</w>
ba by
b unter</w>
b on
ati on
arbeit s
ar ch
approa ching</w>
an sammlung</w>
an hän
alt modi
ab sperr
a ct</w>
über prüft</w>
über gewich
ü bun
öff nung</w>
ziegel mauer</w>
zi erten</w>
zeich nung</w>
zahl reiche</w>
z öpfen</w>
x es</w>
wrest le</w>
worl d</w>
win gs</w>
wh it
whit e-
werk statt</w>
we g
wat erski
wald weg</w>
w ell
vö gel</w>
vor über</w>
vil lage</w>
viel leicht</w>
vi oline</w>
vi e</w>
versamm lung</w>
ver lässt</w>
ver kleidete</w>
v el
us a</w>
uni cycle</w>
un t</w>
u ment</w>
u ft
tur ner</w>
tribün e</w>
ti es</w>
th in</w>
ter rain</w>
tennis spielerin</w>
teil neh
teenager alter</w>
team mate</w>
tea ching</w>
te st</w>
tage ssen</w>
t le</w>
t ch</w>
sä ug
swimm ers</w>
su chen</w>
stir n</w>
sti l</w>
st arren</w>
ss ell</w>
ss ed</w>
sprinkl er</w>
spla tz</w>
spazier gang</w>
so a
sm aller</w>
shov els</w>
sha ved</w>
sha des</w>
sh el
secur ity</w>
schwar zwei
schub karre</w>
schot ter
schil der</w>
schie ben</w>
schein bar</w>
schaufen ster</w>
scha u</w>
sch r
run ter</w>
ruhi gen</w>
rug by
ru g</w>
repa ir</w>
rela x</w>
refle kti
red headed</w>
rai sing</w>
put zen</w>
prote sting</w>
presen t</w>
por tra
poin t</w>
po ttery</w>
pin ata</w>
pho tos</w>
pf laster
participat e</w>
parti ally</w>
para sailing</w>
pal men</w>
pa pi
pa pers</w>
p um
orange farbene</w>
oran ges</w>
or e</w>
ong st</w>
od d</w>
obser ving</w>
ob dach
obdach lo
näh t</w>
numer ous</w>
no te
ni sse</w>
new born</w>
neckla ce</w>
na h</w>
müll ton
motor räder</w>
motor roller</w>
motor i
mon ument</w>
mit tagessen</w>
medi z
maul korb</w>
ma ch</w>
lö ffel</w>
län di
loun ging</w>
loun ge</w>
lo ws</w>
lo go</w>
liqu id</w>
le ar
lass o</w>
lang ärmel
kunst wer
kleid ungs
ki e</w>
kapu ze</w>
kaffe e
in c
i en
i an</w>
hu g</w>
hochzeit s
ho m
ho ben</w>
hin ein</w>
head band</w>
hea v
hau be</w>
h its</w>
h amm
grau -
gr and
gli ed</w>
glei chen</w>
gewän dern</w>
geschn itt
gen o
gen d</w>
gebun den</w>
ge sti
ge füllt</w>
för migen</w>
fußgängerüber weg</w>
fri sur</w>
freil uft
for ward</w>
follo ws</w>
flo wered</w>
fl ur</w>
fire man</w>
fest hält</w>
fern glas</w>
fel sen
fei ert</w>
fau len
far b
fall schirm</w>
fa ck
eri sch</w>
er leu
er innen</w>
enth usi
enga ged</w>
en gen</w>
electro nic</w>
eishockey spieler</w>
einge zäunten</w>
ein rad</w>
e sel</w>
dro p</w>
dra g
disk utieren</w>
dire ctions</w>
di g</w>
da zu</w>
da y
d um
cu lar</w>
cro sses</w>
convers e</w>
contro l</w>
con gre
cl ut
cheerlea der
camer as</w>
cal led</w>
ca ps</w>
c ir
bü schen</w>
bü ckt</w>
bull do
bu ff
braun- schwarzer</w>
bran ch</w>
bor ne</w>
bo gen
blumen muster</w>
blo w</w>
bl in
biet et</w>
bi king</w>
bi er
bew undert</w>
ber t</w>
bene ath</w>
bei sam
be spritzt</w>
be dru
baum es</w>
baseball spiel</w>
bar ber</w>
bal let
b lea
aus geb
au gen
aqu ari
ange bo
an ge</w>
am ongst</w>
aku stik
afroameri kaner</w>
adverti sing</w>
ach ter
- like</w>
- down</w>
&apos; t</w>
ü ff
zusammen ge
zu bereitet</w>
ze itig</w>
wrest ler</w>
wil d</w>
wheel bar
wh il
whil st</w>
wea ving</w>
we bt</w>
wa ding</w>
vorbei geht</w>
vor über
vo gel
verkauf s
ver sit
ver deckt</w>
us k</w>
up on</w>
uni versit
ul en</w>
ul ars</w>
u hr</w>
tü ten</w>
tw ir
tur m</w>
tt ed</w>
trun k</w>
tromm eln</w>
trei ben</w>
tran sport
tra iler</w>
tra cht</w>
to wer</w>
tie f
the dra
teil weise</w>
te te</w>
te a</w>
tau cher</w>
tau ben</w>
tar get</w>
tack le</w>
t am
synch ro
stür zt</w>
stu res</w>
struk tur</w>
stre et
stra ight</w>
stirn band</w>
steh ender</w>
ste el</w>
sprü ht</w>
sprit zen</w>
spla shes</w>
spielzeug -
sp ren
sp o
soft ball
so on
snowboard fahrer</w>
sli ghtly</w>
ski ers</w>
si lly</w>
shop s</w>
sha kes</w>
sh ining</w>
sh ine</w>
sh are</w>
se ssel</w>
sci ence</w>
schul kinder</w>
schrei ben</w>
schn üff
schmut z</w>
schir me</w>
schauk eln</w>
schauf eln</w>
sch lo
scar ves</w>
sc ul
sa il
s nea
ru bs</w>
rothaari ges</w>
rosa farbener</w>
rosa farbene</w>
ros aro
ro ws</w>
rin g
rettung swesten</w>
repa irs</w>
repa ir
renn ens</w>
reifen schaukel</w>
recei ving</w>
re gi
ran de</w>
rain bow</w>
ra ces</w>
r en</w>
py ra
pu sh</w>
prä sen
produ kte</w>
pre tty</w>
ppi es</w>
pon y</w>
pon y
pil low</w>
photograph ed</w>
pfa d
pfad fin
perform ers</w>
pe ering</w>
pat ri
passen ger</w>
passen den</w>
padd le</w>
pa per
p fel</w>
of en</w>
oc ulars</w>
ober fläche</w>
o wn</w>
o ra
o ms</w>
o es</w>
o dle</w>
näch sten</w>
nie dri
neugeboren es</w>
ne y</w>
ne ue</w>
ne tze</w>
mö gli
monopol y</w>
monit or</w>
mo dern</w>
mo del
mmer ung</w>
mm ed</w>
mit glied</w>
mi schen</w>
mi c</w>
marin e
machin es</w>
ma schen
ma i
län dlichen</w>
lob by</w>
lo ve</w>
lo k
lo ckigen</w>
lie fer
lich em</w>
li sten</w>
li gen</w>
lein wand</w>
lea ds</w>
le stone</w>
le op
land et</w>
kunst stoff
klei der</w>
klat scht</w>
klassen raum</w>
kin des</w>
ki mon
khaki farbenen</w>
kha kis</w>
ke ts</w>
ke sen
karu ssell</w>
kar ton</w>
kar ten
kam el
ju belt</w>
jo b</w>
iro kesen
inter vie
inter acting</w>
indi scher</w>
hot dog</w>
hom eless</w>
hol en</w>
hoch ge
ho sen
hi er</w>
haari gen</w>
ha fen
gür tel</w>
gu ards</w>
grima ssen</w>
gr und
glo ve</w>
gleich zeitig</w>
glatz köpfiger</w>
gi ft</w>
gestrei ft
gestreift es</w>
gesti ku
ger a
gemü se
gehö ri
ge gner</w>
ge beugt</w>
gar den
g uns</w>
ft ed</w>
frisbe e-
fri e
fr au
fol gen</w>
fli ps</w>
fire men</w>
film t</w>
fig uren</w>
fahr zeugs</w>
fahr zeuge</w>
fahr rads</w>
fa ke</w>
et ten</w>
er tes</w>
entlang geht</w>
enter tain
elektro ni
einsam er</w>
ea st</w>
e es</w>
drin nen</w>
don key</w>
do ugh</w>
demonstra tion</w>
dekora ti
de ss
da d</w>
d ges</w>
cra y
cra fts</w>
coo k</w>
con ven
comp let
col lie</w>
cobb lestone</w>
char ac
casu al</w>
car ry</w>
car ds</w>
cam el</w>
cal m</w>
c ation</w>
bü cher
bän dern</w>
but ter
bu sses</w>
br auen</w>
boo k
bo o</w>
bo hr
bli othek</w>
blau- gelben</w>
bin oculars</w>
bill board</w>
bi bliothek</w>
bewe gen</w>
begin nt</w>
be tt
be kan
be anie</w>
bau arbeiten</w>
b y-
ausseh enden</w>
auf ga
ath letes</w>
asiat innen</w>
arr ing</w>
ar a
aquari um</w>
ameri ca</w>
akustik gitarre</w>
air borne</w>
ai sle</w>
afro amerikanische</w>
admi ring</w>
achter bahn</w>
1 1</w>
zei ge</w>
z w
z ut
z es</w>
woo d
wo hl</w>
win d</w>
wheelbar row</w>
wel pe</w>
water way</w>
water front</w>
wass ers
wasch becken</w>
wand t</w>
wan ge</w>
w en</w>
vor tra
vor bereitet</w>
vol k
vier tel</w>
verheira tetes</w>
ven ue</w>
v ar
unter wäsche</w>
unbefesti gte</w>
un dy</w>
ufer in</w>
u-bahn- station</w>
tür en</w>
tänz erin</w>
tum n</w>
tt i</w>
tropi cal</w>
ti res</w>
the at
ten ding</w>
tele phone</w>
te en</w>
ta ining</w>
ta gs
t v</w>
t ut</w>
t ter</w>
t ten</w>
sä ulen</w>
swe ste</w>
sur fen</w>
stü hle</w>
stän der</w>
stud ying</w>
stu ch</w>
strick mütze</w>
strei cht</w>
str au
sto mach</w>
sto le</w>
stil l</w>
sti sch</w>
sti mm
stand ers</w>
sta ff
st ea
ss or</w>
ss age</w>
ss a
spot ted</w>
spor th
spar k</w>
sp oon</w>
so wie</w>
so da</w>
snea kers</w>
sk s</w>
simi lar</w>
shor t-
sel y</w>
se iten
scream ing</w>
schw ert</w>
schut z</w>
schu ss</w>
scho ol
schn ur</w>
schi enen</w>
sbe mal
sbemal ung</w>
sax of
s ung</w>
s ni
ru hen</w>
rollers k
rick sha
ri k
ri cht
reg al</w>
reflekti er
re trie
rau ch</w>
ra fting</w>
r än
pul t</w>
prü fen</w>
pro men
promen ade</w>
pra ying</w>
por trä
po tat
plastik tüte</w>
pla ces</w>
pi stole</w>
pi g
pflaster straße</w>
pflan ze</w>
per ü
papi ere</w>
padd les</w>
p les</w>
oze an</w>
over weight</w>
ori um</w>
or der</w>
olympi schen</w>
offi cial</w>
off -
obser ves</w>
o ven</w>
o hr</w>
nat ure</w>
nam ent</w>
nam ens
müllton ne</w>
mu sli
motocross -
mod ell
meer es</w>
meer es
me ssy</w>
me eting</w>
mat es</w>
markt platz</w>
man che</w>
man -
mal er</w>
m ul
m pf
m ati
lä uferin</w>
lo cken</w>
li ps</w>
li fted</w>
leu cht
ler nt</w>
leot ard</w>
lebensmittel geschäft</w>
lea d</w>
le ckt</w>
lauf bahn</w>
lang haarige</w>
lan ding</w>
la mp
kä fi
kunstwer ke</w>
kni t</w>
kne i
ki es</w>
ketten säge</w>
ke ys</w>
kaya ks</w>
ka sten</w>
k tem</w>
k na
k itt
k in</w>
jo gg
inline skates</w>
in spi
in form
i mbi
i m
i f</w>
hü pfen</w>
hot dogs</w>
hock er</w>
ho benen</w>
hin durch</w>
her au
hand schuhe</w>
hal stuch</w>
h art</w>
groc eries</w>
greyho und</w>
go s</w>
gestiku liert</w>
gesi cht
gesicht sbemalung</w>
gesch mü
gesch i
gepark ten</w>
gela ssen</w>
gel en
geh ender</w>
gebau t</w>
ge win
ge stures</w>
ge mu
ge macht</w>
ge füllten</w>
ge fä
g all
fän ger</w>
frü chte</w>
fo ur
flo ß</w>
fl ute</w>
fin gern</w>
fil ling</w>
feuerwehr leute</w>
fe tti</w>
far mer</w>
fami li
fall schirm
fa ss</w>
exam ines</w>
enter ing</w>
ent re
ent fern
elefan ten</w>
el mo</w>
ein zu
eg gs</w>
dü nn
dri ll</w>
dre h
dol l</w>
dit orium</w>
dir i
di ver</w>
di mly</w>
de ten</w>
de br
debr is</w>
d usk</w>
custo mer</w>
cu ps</w>
cu p
cra w
consi sting</w>
computer bildschirm</w>
comp any</w>
com es</w>
coa ster</w>
co ol
che er</w>
che cks</w>
che ck</w>
chain saw</w>
ceremon y</w>
car ts</w>
c o</w>
c lean
bün del</w>
bü hnen
by standers</w>
but ton
burg undy</w>
buff et</w>
brow sing</w>
bri cht</w>
bre tt
bra cht</w>
br iti
boo te</w>
bo u
bo ss</w>
blea chers</w>
bla se</w>
bil den</w>
bere it
bekan n
begei ster
bb ing</w>
basketball spiel</w>
barri er</w>
barfüßi ge</w>
bandan a</w>
b ell
aufmerk sam</w>
au tumn</w>
au ditorium</w>
atten tion</w>
asi en</w>
ar zt</w>
an sicht</w>
an gen</w>
am a
al tes</w>
aben ds</w>
a kti
a cro
1 0</w>
ö l
zurü ck
zo mbi
ze ment</w>
z au
y side</w>
y ar
wra p</w>
wi res</w>
wi r</w>
wer be
wei l</w>
water mel
wat et</w>
wasser mel
wass ers</w>
war t
war es</w>
walmar t</w>
wa ffel</w>
w on
vor stellung</w>
visi ble</w>
video spiel</w>
vi siting</w>
vi ol
vertei di
verschne ite</w>
vergnü gung
vergnügung spark</w>
v in
us h</w>
un ord
ump ire</w>
ulti mate</w>
tätowi erungen</w>
tätowi erung</w>
tw i
tut u</w>
tur nier</w>
trock en
treppen stufen</w>
trau ri
trainings anzug</w>
tradition ellen</w>
tra y</w>
tou ches</w>
to ur</w>
to ur
to ssing</w>
ti red</w>
ti g
thum bs</w>
terri er</w>
ter ned</w>
ter min
tei le</w>
te al</w>
tau cher
tarn kleidung</w>
tack ling</w>
tab lett</w>
ta pe</w>
t ell
t chen</w>
sym bo
swee ps</w>
suit case</w>
stü ten</w>
stö ßt</w>
strü m
strau ß</w>
stei ger</w>
staub sau
stat t
sta hl
st ops</w>
st in</w>
st are</w>
st all</w>
st .</w>
ssi ert</w>
sprung brett</w>
spiel erisch</w>
spani sh</w>
span nt</w>
sonnen schirm</w>
so m
snow suit</w>
skat ers</w>
si ve</w>
shop pers</w>
sho w
shir ted</w>
shado ws</w>
sh in
ser ves</w>
sel bst</w>
se em</w>
se con
scul p
scoo ters</w>
sco uts</w>
schü tz
schü sseln</w>
schwimm weste</w>
schwe bt</w>
schnüff elt</w>
schnit zt</w>
schnee anzug</w>
schn ell
schlei fe</w>
scha fe</w>
sch mi
sch ale</w>
sat z
san digen</w>
sa iten
s ele
rut schen</w>
ru der
rot- weiß-
rosa -
rollerskat es</w>
rollerbla ding</w>
ro of
rin ger</w>
ricksha w</w>
restauran t
repair ing</w>
renn fahrer</w>
rekla me
rei hen</w>
rea d
re por
ran ge</w>
radre nn
ra dio</w>
qu o
qu ad</w>
pu ppies</w>
pu del</w>
prä sentation</w>
profe ssor</w>
presen ting</w>
pop corn</w>
pla cing</w>
pil lows</w>
pig tails</w>
pat terned</w>
parach ut
par cours</w>
par al
paper work</w>
pa sst</w>
pa are</w>
p ump
oran ger</w>
olympi cs</w>
ol o
o x
o w
o usly</w>
no ten
nie der</w>
newspa pers</w>
new ly</w>
ne e
ne bel</w>
männ liches</w>
mä her</w>
mountain biker</w>
motor rad
mo vie</w>
mm ing</w>
mix er</w>
mikro f
mi scht</w>
mi l
mi erter</w>
mer chan
merchan di
merchandi se</w>
mcdonal d</w>
maschen drahtzaun</w>
m ün
län zenden</w>
lä u
long-slee ve</w>
lo ad</w>
ll t</w>
ley way</w>
let ter</w>
leit ung</w>
le cture</w>
kü mmert</w>
kö pfe</w>
kreu z</w>
krei de</w>
kni fe</w>
kne es</w>
kn öpfen</w>
kn all
klar en</w>
ke -
ka sse</w>
k eln</w>
k ell
ju ice</w>
jen ga</w>
jack ett</w>
j et</w>
iti es</w>
iro n</w>
inter ess
inspe cts</w>
in ju
i s
i es</w>
hun des</w>
hun der
hula- hoop</w>
horiz on
hinder ni
high way</w>
herum stehen</w>
herau sh
her z
her bst
hem d
hellhäuti ge</w>
heiß luftballon</w>
hea ding</w>
han ding</w>
ha m</w>
h en
gä ste</w>
gymnasti cs</w>
gra ph
golf ball</w>
gi ve</w>
gi pfel</w>
geöff neten</w>
gestrei fter</w>
gesi chtern</w>
geri cht</w>
geno mmen</w>
geh ör
gegenstän den</w>
gebil det</w>
ge sell
ge -
gam es</w>
g länzenden</w>
g ar</w>
freund in</w>
fore head</w>
fontän e</w>
fit ne
fe der
fe ath
fashi oned</w>
fa ss
fa r</w>
fa ir
exhi bit</w>
exerci se</w>
ers eite</w>
en ti
ein hei
ein fahrt</w>
eig nis</w>
ei scre
eh men</w>
dunkl em</w>
dudel sack</w>
du st</w>
dru ck
dri ve</w>
dor f</w>
del i
de signs</w>
de sign</w>
d eren</w>
cover s</w>
countr yside</w>
coo ks</w>
comput ern</w>
comple te</w>
col a</w>
co ck
cla ssi
cla pping</w>
ck ens</w>
ck en
ck -
chi cken</w>
ch el
ca kes</w>
c ause</w>
c -
bur ning</w>
bu cks</w>
bu ch
brä un
bro cken</w>
bro ch
bri cks</w>
break dance</w>
braun- weiße</w>
br a</w>
boul der</w>
boar ding</w>
boar der</w>
blo ckt</w>
blo cken</w>
blan kets</w>
bl ur
bil lar
bikin is</w>
bi gen</w>
beweg ungen</w>
bever ages</w>
beton wand</w>
bemal ten</w>
beisam men</w>
beg leitet</w>
be trie
be en</w>
be ach
bam boo</w>
bal let</w>
bag pipes</w>
bade zimmer</w>
bade anzügen</w>
bad min
ba b
b iting</w>
b ite</w>
ausseh en</w>
ausge stellt</w>
aus lage</w>
aufger ei
aufge stellt</w>
atten ding</w>
arti gen</w>
arbeit ern</w>
ar ch</w>
ar cade</w>
app lying</w>
app ar
anhän ger</w>
an wei
an sieht</w>
all en
al leyway</w>
ac compani
a kro
a g
- schild</w>
- american</w>
übun gen</w>
über all</w>
ü bung</w>
ör tlichen</w>
är lich</w>
ähn lichen</w>
zun ehmen</w>
zu gs</w>
zo o</w>
zel t
ze bra
z ün
z y
zy lin
yar n</w>
wunder schöne</w>
wor ko
worko ut</w>
wohn er</w>
wo ll
wet te</w>
weihnachts mann</w>
weihnachts mann
wea ther</w>
we iter</w>
we ap
wat ched</w>
wasser spren
wasser rutsche</w>
wash er</w>
wake board</w>
w ning</w>
w are</w>
vord erseite</w>
vor führung</w>
verw enden</w>
verkehr s
verkaufs stand</w>
ver teilt</w>
ver la
ur ein
unterschied lichen</w>
unter richt</w>
unord ent
under wear</w>
und ro
undro mat</w>
un u
unu su
un k</w>
u chen</w>
tür öffnung</w>
tö pfer
tw ork</w>
turn schuhen</w>
tur quo
turquo ise</w>
tu res</w>
trä gern</w>
trol ley</w>
tri p</w>
tri cycle</w>
trav eling</w>
transpor tiert</w>
tou ch</w>
tor ch</w>
toi let
tin y</w>
ti ghts</w>
ti cket</w>
th ers</w>
ter i
telefon z
teilneh mer</w>
te ens</w>
t wo
t uni
süßi gkeiten</w>
säug ling</w>
säu le</w>
synchro ni
swimm ing
swimming pool</w>
swim suits</w>
suspen ders</w>
sur ger
surger y</w>
supp lies</w>
sun light</w>
stü tzt</w>
stru mpf
strei chen</w>
stre cken</w>
straßen verkäufer</w>
str ange</w>
stie fel</w>
ste g</w>
stat e</w>
st on</w>
st al
ss el
sprun gen</w>
spre cher</w>
spiel platz
spea k</w>
sp ärlich</w>
sp arring</w>
snow shoes</w>
sna cks</w>
sky line</w>
skateboar d-
sin o</w>
silber farbenen</w>
sicherheit s
si ms</w>
sho re
shore line</w>
servi ert</w>
selt samen</w>
se par
se m
se attle</w>
schütt eln</w>
schwe ster</w>
schri ften</w>
schne eh
schlauch boot</w>
schlag mann</w>
schil d
schach tel</w>
sch l
sch ar
samm eln</w>
sa ck
s mar
s l
rück wärts</w>
rollersk ating</w>
roll en</w>
rodeo -
ro w
richt ungen</w>
ri ce</w>
recor d</w>
re it
re chte</w>
rau ch
ra pi
rapi ds</w>
ra lly</w>
r o</w>
qu ad
pun kt</w>
pu ppen</w>
präsen tiert</w>
prin ted</w>
practi ces</w>
pos ed</w>
portra it</w>
pony tail</w>
pon ch
pol iti
po wer</w>
po or</w>
play fully</w>
plan ting</w>
pla ced</w>
pink farbener</w>
pin g
pi cks</w>
pferde schwanz</w>
pfan ne</w>
pf er</w>
pf ei
pat ch</w>
pass ers
passers by</w>
parach ute</w>
pa pp
orientali sche</w>
op ens</w>
obst stand</w>
ober en</w>
o -
navi g
nach bar
na men</w>
na il</w>
mü l
mögli cher
möglicher weise</w>
männ lichen</w>
männ er
mäd chen
mu g</w>
motori zed</w>
motor cyclists</w>
mor ning</w>
mo wer</w>
mo p</w>
mo ck</w>
mm ern</w>
mittel alter
mini at
militä ri
mi sch
mi d-
mi am
miam i</w>
me et</w>
me a
mar k</w>
man eu
magaz ines</w>
m t</w>
m ed</w>
lö schen</w>
loo m</w>
lo u
lo gs</w>
lo cation</w>
lin k</w>
ligh ted</w>
liefer wagen</w>
lie ßt</w>
lie ge
lich keit</w>
li fts</w>
leuchten den</w>
lei mer</w>
lebensmitt eln</w>
lear ning</w>
lea p</w>
lea f</w>
lar ger</w>
lar ed</w>
langärmel igen</w>
labor kittel</w>
la undromat</w>
la bel
kü hl
kr an</w>
kostü me</w>
kopf schmuck</w>
kol legen</w>
klein kinder</w>
klein eren</w>
kin gs</w>
ker le</w>
ken n
kaya king</w>
ka stan
ka b
k aro
jün gerer</w>
jugend lichen</w>
je der</w>
japan ischen</w>
ja pan</w>
invol ved</w>
innen stadt</w>
inju red</w>
ing ton</w>
in dem</w>
i pod</w>
i ge</w>
i g</w>
händ chen</w>
holz bank</w>
ho l</w>
ho her</w>
ho he</w>
hi spani
herr en</w>
ham burger</w>
hall en
h um
gur t</w>
grill s</w>
gra y
gewi cht</w>
gesch o
geri chtet</w>
gepunk teten</w>
gepf laster
gelände wagen</w>
geb ü
ge sprungen</w>
ge sen
ge sehen</w>
ge ment</w>
ge fle
gath ers</w>
g ul
fü llen</w>
fußgän gern</w>
fußball dress</w>
frü h
fro n
frie den
freu de</w>
frau en
form t</w>
for t</w>
foc used</w>
flo ats</w>
flauschi ger</w>
firefigh ter</w>
fini shed</w>
fil m</w>
fi scht</w>
feuerwehr auto</w>
fels vor
fe cht
fashi on</w>
fa c
ex plo
eth ni
erkli mmen</w>
er zeug
er ende</w>
enthusi a
ent gegen</w>
ent gegen
ele v
eiscre me</w>
einkaufsta sche</w>
ei mern</w>
e glasses</w>
dunkel ten</w>
du sty</w>
drit te</w>
dri b
dra wn</w>
dr ängt</w>
dr än
do t</w>
din er</w>
dig keit</w>
di ves</w>
desc ent</w>
de partment</w>
dar biet
darbiet ung</w>
crou ched</w>
cross ed</w>
cre ek</w>
cou ples</w>
con tra
clo sely</w>
ci l</w>
che ss</w>
che ek</w>
chal k
ch atting</w>
celebra tion</w>
cat ed</w>
care fully</w>
can -american</w>
cam ping</w>
ca ge</w>
ca -
c el
bulldo zer</w>
bu dd
brett spiel</w>
braun haariger</w>
bou quet</w>
bord stein</w>
bo ck
bmx- fahrer</w>
blät ter
blo od</w>
black -haired</w>
bi es</w>
ben d</w>
be steht</w>
be kleideter</w>
be kleidete</w>
be kleidet</w>
back drop</w>
bab ys</w>
ba l</w>
auto mat
aus druck</w>
au ge</w>
ati ons</w>
ass em
asi ans</w>
ar twork</w>
ar ri
ar me
am pel</w>
all ing</w>
afro amerikanischer</w>
afri can-american</w>
adju sting</w>
ad v
abge worfen</w>
a f
übergewich tiger</w>
über da
öffent lichkeit</w>
äl t</w>
äh t</w>
ä t</w>
ß er</w>
zylin der</w>
zu cker
ziel linie</w>
ziegel wand</w>
ziegel steinen</w>
zi gar
zi g
zer emon
ze ment
za uns</w>
z ens</w>
work shop</w>
wol ken</w>
wol ke</w>
wind hund</w>
wil den</w>
wh om</w>
wehr en</w>
web stuhl</w>
war en
wander weg</w>
walk ed</w>
wa shes</w>
w äl
vortra g</w>
violet t</w>
vergnü gt</w>
ver zierten</w>
ver n</w>
ver letz
ver bun
ve way</w>
vacu um
v as</w>
v alley</w>
ur s</w>
up ward</w>
unter richtet</w>
unter en</w>
unordent lichen</w>
ungewöhn lichen</w>
tt et</w>
trin k
tri fft</w>
tri bal</w>
transport ation</w>
tran s
tra sh
trash can</w>
tour nament</w>
todd lers</w>
thum b</w>
tho se</w>
th in
tal ent</w>
tack elt</w>
t ation</w>
symbo l</w>
surf s</w>
stum p</w>
strom schn
stro ke</w>
stra hl
stor m</w>
stol z</w>
stil ts</w>
sti ften</w>
stell ten</w>
stel zen</w>
ste pping</w>
stau bigen</w>
st rin
st on
st in
st erten</w>
st ert</w>
ssi ve</w>
ssa al</w>
squ e
spra yed</w>
spon gebo
spiel e</w>
spi der
spea ker</w>
sol l</w>
sk ol
sk o
sin gle</w>
sie g</w>
side ways</w>
sha pe</w>
sh ar
ser ve</w>
sei cht
secon d</w>
sea gul
sci enti
schwin gen</w>
schwarz haarige</w>
schutz kleidung</w>
schutz ausrüstung</w>
schnee schuhen</w>
schne it</w>
schmin kt</w>
schl end
schlend ert</w>
schau lusti
scha cht
sch lü
sch lan
scen ding</w>
scaff old</w>
sar is</w>
sa un
s eries</w>
s .</w>
rück sitz</w>
rück seite</w>
ruhi gem</w>
roof top</w>
roll ern</w>
road side</w>
ro o
ro bo
rik sch
repar at
ren ai
renai ss
regen bogen
re gneri
regneri schen</w>
ra cers</w>
qui ck
quick ly</w>
pu zz
produ cts</w>
pro gra
pro cess</w>
potat o</w>
po ts</w>
po ol
play ed</w>
pin s</w>
pf lo
per len</w>
pee king</w>
parti e</w>
pa ds</w>
p rie
p in</w>
or en</w>
open -
op ter</w>
on -
obdachlo ser</w>
o sk</w>
nä cht
nur ses</w>
num bers</w>
note book</w>
niedri gen</w>
ne ws</w>
ne qu
nat ur
namens schild</w>
nam ens</w>
na sser</w>
na ss
n or
n ers</w>
n en
mül leimer</w>
musik gruppe</w>
mp ft</w>
motor haube</w>
mexi can</w>
menschen ansammlung</w>
men ten</w>
mei ß
mei sten</w>
me ga
mcdonal ds</w>
mar ker</w>
mar ch</w>
man nequ
mal er
ma st</w>
ma inten
mainten ance</w>
m m</w>
läu fern</w>
lächeln den</w>
lo h
lo cated</w>
lin ing</w>
lin gs</w>
ligh ting</w>
lea f
le ts</w>
le ger</w>
land straße</w>
lager feuer</w>
lach ende</w>
la bra
l led</w>
l ens</w>
l a</w>
kör per
käfi g</w>
kurz em</w>
kur ze</w>
kti on
krä fte</w>
kranken haus</w>
kra tzt</w>
kra ft</w>
konferen z</w>
ko m
klapp stuhl</w>
ki osk</w>
kau ert</w>
kastan ien
kar tons</w>
kampf sport
kab ine</w>
k rü
k o</w>
jugg les</w>
je we
itä t</w>
invol ving</w>
inter agi
inc line</w>
in line</w>
in er</w>
in -
ic y</w>
ic opter</w>
i en</w>
i denti
hü pf
hü gel
holz boden</w>
hoch zu
hil ls</w>
hi ke</w>
hi ding</w>
herr n</w>
her kunft</w>
hel icopter</w>
head dress</w>
he ar
harmon i
har d
hand rail</w>
halsk ette</w>
hallo ween</w>
h at
größ eren</w>
gru be</w>
gre en
gray -haired</w>
gra du
gr and</w>
go at</w>
gitarri sten</w>
git arren</w>
geschn itten</w>
geschla fen</w>
geh ü
geh enden</w>
ge folgt</w>
gaz es</w>
gall ery</w>
gal erie</w>
ga ze</w>
fä cher</w>
fußball mannschaft</w>
fur ry</w>
fu r</w>
fröh lich</w>
fro zen</w>
frise ur</w>
frisbee- scheibe</w>
frieden s
frem den</w>
freizeit park</w>
fol i
flie genden</w>
fitne ss
fini shing</w>
fi sche</w>
fi er</w>
fer tigen</w>
farbi ger</w>
fac ility</w>
fabri k</w>
fa sst</w>
f loo
erzeug nisse</w>
erd hügel</w>
er reichen</w>
er le
entfern ung</w>
ent u
en gel</w>
embra cing</w>
eisen bahn
ein geschlafen</w>
ein fa
eben falls</w>
ear phones</w>
e ver
e ten</w>
dä mmerung</w>
dri veway</w>
drei rad</w>
do sen</w>
displa ys</w>
displa ying</w>
digit al</w>
den t</w>
demon str
decorati ve</w>
d ut
d ump
d u</w>
d t</w>
d one</w>
cre ating</w>
contra ption</w>
col lared</w>
co p</w>
co ca-
classi c</w>
ci ali
chop ping</w>
chi ps</w>
che mi
che ese</w>
che e
chalk board</w>
ch allen
celebra te</w>
casu ally</w>
can vas</w>
camer a
ca st</w>
c ute</w>
c ul
burg under
brü ne
bro ther</w>
bri des
bran ches</w>
boot es</w>
bla sen
bin det</w>
billar d</w>
bil des</w>
bil dern</w>
bikin i-
berg steiger</w>
bela den</w>
bel ts</w>
be wal
be vor</w>
be stellen</w>
be sitz</w>
bau werk</w>
bat man</w>
baseball schläger</w>
ba bies</w>
b ö
b ong
b chen</w>
automat en</w>
ausge streckt</w>
aus flug</w>
aufgerei ht</w>
aufger egt</w>
asp halt</w>
asi a</w>
arbeit er
ara bi
approa ches</w>
angebo ten</w>
ange mal
ange bracht</w>
an zeige</w>
an g</w>
an einander</w>
amüsi ert</w>
ami dst</w>
afrikani schen</w>
af ter
activ ity</w>
acro bati
abge stellt</w>
ab gebildet</w>
a xt</w>
a u</w>
a part</w>
0 0
überda chten</w>
über prüfen</w>
ü gel</w>
öff nen</w>
ö ser</w>
är z
ähn lich</w>
zw .</w>
zie gel</w>
zi mmer
zeit schriften</w>
zeich nen</w>
zau ber
z it
wür de</w>
wär t
wär men</w>
wr ites</w>
win digkeit</w>
wi g</w>
wheel er</w>
wh o
wet ter</w>
wen n</w>
well -
wel come</w>
weit eren</w>
wassers ki</w>
wasser fläche</w>
war men</w>
wa it
w in</w>
w -
vö lli
völli g</w>
vord eren</w>
vor führt</w>
vi s
vergnü gen</w>
ver wir
v ri
ut sche</w>
us -
up set</w>
universit y</w>
unifor mierter</w>
unifor mierte</w>
uni que</w>
ung lück
um rin
umrin gt</w>
u al</w>
tätowi erte</w>
ty pes</w>
two -
tu n</w>
trä ger</w>
tro ph
tro lle</w>
tro ffen</w>
tri pod</w>
treppen haus</w>
tre at</w>
tor y</w>
to oth
to ff
ti ps</w>
ti led</w>
ti ght</w>
ti ges</w>
th way</w>
th i
th an</w>
ten ds</w>
ten der</w>
teil nehmen</w>
tanz fläche</w>
tags über</w>
ta sk</w>
ta gs</w>
t ure</w>
t rench</w>
t ren
t ol
t emp
sy stem</w>
sur e</w>
sun gen</w>
stä bchen</w>
sty li
stu hl
stromschn ellen</w>
straßen seite</w>
straßen musiker</w>
straßen arbeiter</w>
stra pped</w>
str ands</w>
sto op</w>
stein treppe</w>
stei le</w>
ste cken</w>
stati v</w>
stat u
stan t</w>
stam me
sta cked</w>
sta bli
sta b
st rolls</w>
ssi ons</w>
sque e
sprit z
spiel ers</w>
spiel erinnen</w>
spei se
spazi ert</w>
sp äht</w>
sp ot</w>
sp ir
sp at
sor ting</w>
soa p</w>
so u
snowboar ds</w>
sni ff
sniff ing</w>
smar t
sle dding</w>
sk ap
sicherheit sweste</w>
si del
short- haired</w>
shin y</w>
sha w
sh ment</w>
sh iel
ser vice</w>
sel i
sel be</w>
sei chten</w>
segel boot</w>
se ction</w>
schür zen</w>
schü tzt</w>
schü tzen</w>
schwi mmen
schwe stern</w>
schwarz- weißem</w>
schwarz- weiße</w>
scho ko
schneebedeck tes</w>
schneebedeck te</w>
schlam migen</w>
schein lich</w>
schaft s
schacht eln</w>
sch len
sch ach</w>
scen ic</w>
sc ore</w>
sc ent</w>
saxof on</w>
sau ber</w>
sa y</w>
sa wing</w>
sa i
sa d</w>
s king</w>
s an</w>
rö hre</w>
ru dern</w>
ro sti
riksch a</w>
ri ver
ri ot</w>
ri f
rif le</w>
ri cket</w>
rest ed</w>
reklame tafel</w>
regen mantel</w>
refle ction</w>
recor ding</w>
re mo
re lea
re ally</w>
rau chen</w>
rasen mäher</w>
rasen fläche</w>
rain coat</w>
radrenn fahrer</w>
ra v
r y-
r e</w>
r and
pump kin</w>
pull under</w>
pu b</w>
protesti ert</w>
prote sters</w>
proje k
probi eren</w>
pre ss
pp el
po w
po k
plat ten</w>
pier cing</w>
pflo ps</w>
pfer der
pfa hl</w>
pf eil</w>
perü cke</w>
pen cil</w>
pea ce-
peace- zeichen</w>
pe er</w>
pati enten</w>
pat tern</w>
passagi ere</w>
paral le
paralle l</w>
pain ter</w>
pa thway</w>
pa ssiert</w>
pa d</w>
p rei
p ale</w>
orientali sch</w>
orange farbenes</w>
or ing</w>
oper ates</w>
op y</w>
ong ings</w>
olympi c</w>
ol d
od les</w>
o sten</w>
no on</w>
nati on
na ss</w>
na cht
n erin</w>
mün z
mö n
mö bel
mä ht</w>
muzz led</w>
muzz le</w>
musikinstru mente</w>
mon key</w>
mo un
mo tion</w>
mo o
mexi kani
ment ary</w>
men u</w>
meer e
me ter</w>
mask en</w>
man ö
m ur
lä dt</w>
ly -haired</w>
lum in
lok al</w>
lo sen</w>
lie gende</w>
li ve
li sse</w>
li ppen</w>
li fe
ler nen</w>
lei ch
lea gue</w>
later nen</w>
lang ärm
lamp en</w>
la st</w>
la gen</w>
la de
l ten</w>
kä mpft</w>
kun st</w>
kun d
ku lisse</w>
kra gen</w>
kon trolle</w>
kommen en</w>
kno wn</w>
kni e</w>
knei pe</w>
kn ö
kl y</w>
kimon os</w>
karo hemd</w>
kar toff
kapuzen pullover</w>
kaja k
k tion</w>
k rö
k ricket</w>
k auf
jum per</w>
jum ped</w>
jog ger</w>
jo y</w>
jo gs</w>
jewe ils</w>
irokesen schnitt</w>
ir ur
intere sting</w>
inn er
ima ges</w>
il lumin
hüb schen</w>
hüb sche</w>
hu dd
hu b
horiz on</w>
holz zaun</w>
hoh es</w>
hoh em</w>
hinter beinen</w>
high chair</w>
herunterge kommenen</w>
heraush än
her bst</w>
her aus
hell er</w>
hei m
heav ily</w>
hau t</w>
hand wer
hand le</w>
han ded</w>
hal f
ha b
h op
h m
h enden</w>
gru ppen
graff iti
gra bs</w>
gra bbing</w>
gra b</w>
gol den
gle is</w>
gla tze</w>
gitar ren
gir l
gi cal</w>
geöff ne
gest uring</w>
geschnitt enen</w>
gesch windigkeit</w>
gepä ck
gepflaster te</w>
gepf le
gen t</w>
gele genen</w>
gel angen</w>
geh ol
gegneri sche</w>
geburtsta g
ge öffnet</w>
ge troffen</w>
ge stellt</w>
ge spannt</w>
ge setz
ge o
ge flo
ge fallen</w>
gaz ing</w>
garden ing</w>
ga s
führ er</w>
för m
fro ren
frise ur
fre e
form eller</w>
for men</w>
foot ed</w>
foli age</w>
fo ods</w>
flü gel</w>
fluss ufer</w>
flug zeugs</w>
flu sses</w>
fli pflops</w>
flan nel</w>
fischer netz</w>
fi shes</w>
ff e</w>
fest gebunden</w>
fernseh er</w>
fer tig</w>
fen stern</w>
felsvor sprung</w>
fels brocken</w>
fel sk
fei er
feat uring</w>
fass ade</w>
far mers</w>
famili en
fahren den</w>
f rench</w>
ex tre
ex pl
ev en</w>
etw a</w>
essens stand</w>
erleu chteten</w>
er hö
er hobenen</w>
entfer nen</w>
en tra
employ ees</w>
elektri schen</w>
ele mentary</w>
el e</w>
einkauf stüten</w>
eink aufen</w>
eini ger</w>
ein richtung</w>
ei sk
eg g</w>
e stabli
e p
e ilen</w>
dun king</w>
dun k</w>
dump ster</w>
du cks</w>
drit ter</w>
dri bbelt</w>
drag ging</w>
dra w</w>
dr itten</w>
displa yed</w>
die sen</w>
di ve</w>
di ert</w>
dess ert</w>
del i</w>
decorati ons</w>
de x</w>
dar in</w>
dar an</w>
da hinter</w>
d al
cur ly-haired</w>
crow ds</w>
cra tes</w>
conc entra
con taining</w>
cock pit</w>
co ver</w>
co late</w>
co la-
clou ds</w>
clou d</w>
clean er</w>
ck el
cir cular</w>
ci gar</w>
ci dent</w>
chop sticks</w>
cho colate</w>
chinesi sche</w>
check ers</w>
che wing</w>
ch te
ch irur
ch ie
ch am
cell phones</w>
can y
can n
can adi
canadi an</w>
cam p</w>
cam p
ca sino</w>
ca pped</w>
ca b</w>
butter fly</w>
bull en
buil t</w>
bu sh
bru shes</w>
bru der</w>
break dancing</w>
bra ss</w>
boun cing</w>
boo ths</w>
bohr maschine</w>
bo ra
bo den
blu e-
bin den</w>
bi cycling</w>
bewal deten</w>
betra chter</w>
ber et</w>
ben ds</w>
beleu chtet</w>
bel ongings</w>
begeister ung</w>
beg ins</w>
befahren en</w>
bedru ckten</w>
bedi enen</w>
beam te</w>
be treten</w>
be sucht</w>
be sitz
be d
bauern markt</w>
bath tub</w>
baseball -
ball on
back flip</w>
ba st
b zw.</w>
b ten</w>
b arren</w>
außen bereich</w>
auto bahn</w>
ausseh endes</w>
ausge zogen</w>
aus sicht</w>
aus ländi
aufga ben</w>
attra ktive</w>
attra ctive</w>
ati onen</w>
at m</w>
at ers</w>
asi at</w>
apro ns</w>
ap fel</w>
angezogen er</w>
an haben</w>
am o
al t</w>
al most</w>
al ko
aku sti
ak ten
after noon</w>
adju sts</w>
ac ce
absperr ung</w>
ab and
a stro
a ble</w>
- hemd</w>
ü b
zün det</w>
zü ge</w>
zä un
zz y</w>
zu hört</w>
zu hause</w>
ziel t</w>
ziel en</w>
ziegel gebäude</w>
ziegel bau</w>
zi eh
zeremon ie</w>
zer innen</w>
zel ten</w>
zahn bürste</w>
z hut</w>
z eh
y ama
x e
woll mütze</w>
wind hunde</w>
wild nis</w>
wi ppe</w>
wheel ed</w>
wh en</w>
wett ei
werk zeugen</w>
wer fer
weit erer</w>
we gen</w>
waterski ing</w>
wasserspren ger</w>
wasser becken</w>
wass erski
wash ington</w>
wasch maschine</w>
wart ungs
war eho
wareho use</w>
wahr scheinlich</w>
wach mann</w>
wa sh</w>
wa iter</w>
wa ist</w>
wa che</w>
vö geln</w>
vor sich
vorsich tig</w>
vor be
volley ballspieler</w>
voll stän
vin tage</w>
vi ctory</w>
vi bran
verwir r
versu ch</w>
verschie den</w>
versch wo
versch rän
verschrän kten</w>
vers e</w>
ven ding</w>
var ie
varie ty</w>
v a</w>
ut en
uten si
unusu al</w>
unter hemd</w>
uni ce
under ground</w>
un te
un happy</w>
un ge
umge benen</w>
u red</w>
u ble</w>
ty pi
tug -
tug- of
tug-of -
tug-of- war</w>
tu xe
trock net</w>
trock enen</w>
trei de</w>
tran sit</w>
tra vel</w>
tra ins</w>
tra ck
touri sten
tooth brush</w>
to o</w>
ti scher</w>
theat er
ter y</w>
ter ns</w>
tenni splatz</w>
telefonz elle</w>
telefon ieren</w>
teena gern</w>
team mates</w>
te xt</w>
te dd
tedd y
tax is</w>
tau be</w>
tack led</w>
ta ble
t ying</w>
t read
tread mi
t ching</w>
sä gt</w>
sä cke</w>
synchroni zed</w>
sweat shirts</w>
sur ing</w>
sur gical</w>
su v</w>
stü tz
stü r</w>
stä mmen</w>
stum pf</w>
stu ff</w>
stu ck</w>
strüm pfen</w>
strumpf hose</w>
strin ged</w>
stri ert</w>
stret ches</w>
strei fen
stre am
straßen szene</w>
straßen fest</w>
str y</w>
sto ck
stin ation</w>
ster n
stell te</w>
stein bank</w>
stau b</w>
star bucks</w>
stadt park</w>
stab hoch
sta un
sta g</w>
sta ff</w>
sta ben</w>
st rolling</w>
st amm
ss -
squee zing</w>
sprin ger</w>
spra ys</w>
spot light</w>
sporth alle</w>
spla shed</w>
spit zen</w>
spielzeug auto</w>
spiel sachen</w>
spiegel bild</w>
spee ding</w>
spe ktive</w>
sp ru
sp ins</w>
sonnen licht</w>
sommer tag</w>
some where</w>
som br
sombr er
so eben</w>
smart phone</w>
sla m</w>
skul öser</w>
skin ny</w>
skil ls</w>
ski es</w>
skat et</w>
skap elle</w>
sk e
sin stru
sin e</w>
silhou et
silber ne</w>
sig ning</w>
sicherheit swesten</w>
shado w</w>
sha ggy</w>
sh out
sh ing
sh elf</w>
servi eren</w>
sel bst
seifen blase</w>
se ar
scu lar</w>
schö ner</w>
schwen ken</w>
schwar m</w>
schw ere</w>
schut zwe
schut t</w>
schrau ber</w>
schr itt</w>
school -
schna ppt</w>
schlu cht</w>
schlo ss</w>
schlen dern</w>
schie ß
scha f</w>
sch ran
sch malen</w>
sch eln</w>
sch als</w>
sc rubs</w>
sau gt</w>
sar i</w>
sand burg</w>
sail boat</w>
sa il</w>
sa ft</w>
s farbenen</w>
rü hrt</w>
run i
ruhi g</w>
rugby spieler</w>
ru gs</w>
ru der</w>
rothaari ger</w>
rot- schwarzen</w>
rosti gen</w>
rosaro ten</w>
roll ers</w>
rock band</w>
ri dor</w>
religi ö
religi ous</w>
red head</w>
re turn</w>
re ite
re ce
ra te</w>
puzz le</w>
put zer</w>
pur ses</w>
pun ch</w>
prä ch
prote st
prote ct</w>
proje ctor</w>
produ ct</w>
probi ert</w>
porträ t</w>
polo hemd</w>
po urs</w>
po p</w>
po cket</w>
pla in</w>
pizz eri
pizzeri a</w>
pin sel</w>
pier c
photograph ers</w>
pf ire</w>
per spektive</w>
ped al</w>
pe ers</w>
pe an</w>
patri o
pack age</w>
pa y</w>
pa pa</w>
pa in</w>
pa cking</w>
pa cked</w>
p run
p p</w>
oze ans</w>
out fiel
orientali scher</w>
on ne</w>
old ti
obje kti
oba ma</w>
o re
o kla
okla ho
o ch
num mern</w>
nu n</w>
no tes</w>
navig ates</w>
nat ur</w>
nack te</w>
na pping</w>
na ils</w>
na hen</w>
n ungen</w>
mö chte</w>
mur ky</w>
mu skulöser</w>
mu scular</w>
mu ch</w>
mon k</w>
mmer cial</w>
mm uni
mit spieler</w>
mini van</w>
militä runi
mi x</w>
mi ge</w>
mi dst</w>
mi ck
metall stange</w>
mem ade</w>
meiß elt</w>
mediz ini
me ss</w>
me dium</w>
mat ra
mask s</w>
marathon läufer</w>
mar ki
mar i
man i
mai ds</w>
ma sten</w>
ma in</w>
ma g
ma -
loo ked</w>
loa ded</w>
lo r</w>
ll y
lin ke</w>
li vely</w>
li ppen
li ppe</w>
li on</w>
li eren</w>
li c</w>
le m
le gerer</w>
le cker
le b
lan terns</w>
lade fläche</w>
label ed</w>
la y
la ma</w>
la dung</w>
la bora
labora tory</w>
l y-
l ands</w>
kür bis</w>
kü sten
käm pfer</w>
kreuz ten</w>
kra gen
kopfbedeck ungen</w>
kopf stein
kon zer
kon trol
komp letter</w>
ko mmuni
kne e-
kla mmert</w>
kit ch
kitch ena
kin ds</w>
ki sses</w>
ker ze</w>
ken ed</w>
kee per</w>
ke geln</w>
kari erter</w>
kan erin</w>
kan adi
kampf sportler</w>
kampf spor
kam m</w>
kajak fahrer</w>
kaja ks</w>
ka put
ju dges</w>
jogg ing
jahr markt
ja ck</w>
it ali
is land</w>
irgend einem</w>
ir ä
ing -
industri al</w>
indi en</w>
indi ani
indi an
indi a</w>
in formation</w>
in der</w>
imbi ss
il t</w>
ic a</w>
i mp
i erten</w>
i er
hü fte</w>
hänge matte</w>
hydr anten</w>
hydr ant</w>
hub schrauber</w>
hu sky</w>
hu man</w>
hu hn</w>
hosen trägern</w>
horizon t</w>
holz konstruktion</w>
holz brett</w>
hol i
hockey spiel</w>
hoch stuhl</w>
hoch ha
ho memade</w>
hin auf
heraushän gender</w>
her o</w>
hell grünen</w>
head set</w>
hawai ian</w>
harmoni ka</w>
harmon ica</w>
hard wood</w>
har ve
handwer ker</w>
hand ys</w>
hamm ering</w>
ham mock</w>
hal tend</w>
ha d</w>
h a</w>
gür teln</w>
gymna stik
grün fläche</w>
gre ss</w>
grau es</w>
gra sp
gol d-
go wn</w>
glä ser</w>
gleich gewicht</w>
git ter</w>
gie ßen</w>
gi eren</w>
gewin nen</w>
gestreif te</w>
gest ure</w>
gesell schaft</w>
geschmü ckt</w>
gesch rie
gesch oben</w>
gerä te</w>
gelb- schwarzen</w>
gel dau
geldau tomaten</w>
gei sh
gehü llt</w>
geh stock</w>
gegen über
gefä r
geflo chten
gebäu de
gebau ten</w>
geb ir
ge treide</w>
ge spielt</w>
ge froren
ge fahren</w>
gan gs</w>
g ne</w>
g lichen</w>
g in
g ert</w>
g an</w>
fußgängerüber gang</w>
fuß boden</w>
fri schem</w>
founta ins</w>
for scher</w>
football- spiel</w>
football spiel</w>
follo wed</w>
fo rested</w>
fo am</w>
flo wer
flie ge</w>
fin den</w>
film ing</w>
figu res</w>
fiel ds</w>
feuer stelle</w>
fern sehen</w>
fer tig
fel s</w>
fe dor
fedor a</w>
faulen zen</w>
fahrrad helm</w>
fahr zeugen</w>
fack el</w>
fa sz
fa cial</w>
f at</w>
ever y
euro pean</w>
euro pa</w>
eu rope</w>
et t
establi shment</w>
es stisch</w>
es n</w>
erkli mmt</w>
er hält</w>
er eignis</w>
en vi
employ ee</w>
eln den</w>
elektroni schen</w>
el i
el ed</w>
el abo
eishock ey</w>
eink äufer</w>
ein gewickelt</w>
ein e
ei er</w>
ed ly</w>
ear th</w>
ea sel</w>
e ds</w>
dunkel heit</w>
dre irä
dra ws</w>
dra ped</w>
dra mati
down hill</w>
do esn</w>
dire cting</w>
dinosau ri
die selbe</w>
di cken</w>
denk mal</w>
den kt</w>
demonstr anten</w>
dekor iert</w>
de stination</w>
de st</w>
de ser
de er</w>
de ci
day time</w>
dar über</w>
dar kened</w>
d ul
d ly</w>
cri es</w>
cre ate</w>
cray ons</w>
cra shing</w>
cow girl</w>
congre g
condu ctor</w>
con s
con ne
complet ed</w>
compani on</w>
comm uni
colum ns</w>
colle ge-
co mmercial</w>
co mi
clut tered</w>
ck tem</w>
ck chen</w>
circ us</w>
ci gar
cher ry</w>
cheerlea ding</w>
cham pa
ch in</w>
carri er</w>
car i
cany on</w>
cano es</w>
cand le</w>
can al</w>
cam ping
cam pfire</w>
cam els</w>
ca ses</w>
c lar
c iti
bür stet</w>
bun ge
bun dle</w>
buch staben</w>
bu sh</w>
bu ried</w>
bu l
bu ck
bro t
bro ad</w>
briti sh</w>
brides maids</w>
brenn ende</w>
bre iten</w>
braut jung
bor d</w>
boo gie</w>
bong o</w>
body suit</w>
bock enden</w>
bo ston</w>
blö cken</w>
blau- grünen</w>
bla skapelle</w>
bla sinstru
beton mauer</w>
bet et</w>
ber ry</w>
ben den</w>
bei ßen</w>
begei stert</w>
bed room</w>
beach volleyball</w>
bea ds</w>
be teil
be stehend</w>
be cause</w>
bau arbeiter
basketball feld</w>
baseball feld</w>
base man</w>
bare footed</w>
bar tender</w>
ban ners</w>
bag ger</w>
badmin ton</w>
backstein mauer</w>
b led</w>
b ands</w>
b -
ausgeb reite
aufger eg
aufblas bare</w>
auf zug</w>
at ely</w>
arti sts</w>
arran gement</w>
anwei sungen</w>
angezogen e</w>
angel s</w>
an zahl</w>
an ts</w>
an t
an sehen</w>
an gle</w>
an gehalten</w>
amo unt</w>
amerikani sches</w>
am mer</w>
altmodi schen</w>
akti v
akro bati
afri kaner</w>
acrobati c</w>
ac cident</w>
aband oned</w>
ab sol
- colored</w>
üb ers
än g
zwe ite</w>
zut aten</w>
zu recht</w>
zu hör
zu bereiten</w>
zig arre</w>
zie ge</w>
zi gen</w>
zeit ungen</w>
z entrum</w>
y si
y ear</w>
y be</w>
xylo phone</w>
xylo phon</w>
x e</w>
wü sten
wärt ss
wärtss al
wäh lt</w>
wä sche
wrest lers</w>
wr itten</w>
work man</w>
wood land</w>
wohn ung</w>
winter tag</w>
winter jacke</w>
wil li
wil der
wilder ness</w>
wie der</w>
weiß- schwarzer</w>
weibli chen</w>
wei gh
we en-
we der</w>
watermel ons</w>
wassermel onen</w>
wasser straße</w>
warn weste</w>
war t</w>
war ming</w>
wander ung</w>
wand maler
waff eln</w>
w ere</w>
vorbe il
vor an</w>
volleyball spiel</w>
volk swagen</w>
vol unte
vol le</w>
vogel perspektive</w>
vis or</w>
violet ter</w>
video ta
video kamera</w>
vibran t</w>
verteidi ger</w>
ver steckt</w>
ver ing</w>
ver di
ve ter
vacuum ing</w>
vacu um</w>
v ro
v au
us band</w>
ur o</w>
up wards</w>
unter grund</w>
unice f</w>
un bekann
um zäunten</w>
um ten</w>
u-bahn station</w>
u kul
ukul ele</w>
u b
türki sen</w>
tänz ern</w>
ty ping</w>
twi ster</w>
tur key</w>
tur en</w>
tu bes</w>
tt on</w>
tropi schen</w>
troph y</w>
tro tting</w>
tro ttet</w>
treadmi ll</w>
tre ss</w>
tre e-
trav els</w>
tradition elle</w>
track suit</w>
tr üben</w>
tr o</w>
top less</w>
tin ten
ti sches</w>
ti ppt</w>
tho ugh</w>
thi ck</w>
th or
teri a</w>
tem ple</w>
tell ern</w>
techni k</w>
te -
tau ziehen</w>
tar p</w>
tank stelle</w>
tam bo
tambo ur
ta th
ta ins</w>
ta il
süßi g
säu bert</w>
sw an</w>
surf ers</w>
supp ort</w>
super markt</w>
super market</w>
super man</w>
sun bathing</w>
stür zten</w>
stü cken</w>
stur m</w>
stun ts</w>
stun de</w>
stru gg
stro m</w>
stri pe</w>
stri king</w>
stre ut</w>
straßen rennen</w>
str o</w>
stor te</w>
stoff tier</w>
sto res</w>
steu ert</w>
steh endes</w>
stea ks</w>
staubsau ger</w>
stat ur</w>
start linie</w>
starr ing</w>
stap elt</w>
stamme skleidung</w>
staff ele
staffele i</w>
stadt szene</w>
st rings</w>
st ars</w>
ssen e</w>
squ ats</w>
spiel enden</w>
spee ds</w>
spe er</w>
spar kl
sp inn
sor tiert</w>
soon ers</w>
sol o</w>
so ciali
so cial</w>
sna p</w>
sn or
sm it
slee ves</w>
sla cks</w>
sky diving</w>
sklei d</w>
skateboar ders</w>
skat er
sk y-
sk el
silhouet ted</w>
sidel ines</w>
sho wer</w>
sho e
shi ft</w>
shaw l</w>
shal le</w>
sha ke</w>
sh -
separ ate</w>
seni or</w>
selt sam
seli gkeiten</w>
seicht em</w>
segel t</w>
sea food</w>
se mi
semi -
se ments</w>
se it
se ating</w>
sculp tures</w>
sco t</w>
scienti st</w>
schütz ern</w>
schü lern</w>
schü lerin</w>
schö nes</w>
schwi eri
schwer tern</w>
schwe be
schwebe balken</w>
schoko laden
schn ür
schlitt schuhen</w>
schlie ßen</w>
schlie ß
schlei ft</w>
schlafen des</w>
schlafen d</w>
schla mm
schen kt</w>
schau m
sch är
sch un
sch on
sch er
sch an
schan ze</w>
scar a</w>
sc op
scop es</w>
sau sa
sand hügel</w>
s y</w>
s old</w>
s feld</w>
s att
ruder boot</w>
ru stic</w>
ru sh</w>
rot- weißes</w>
ron ment</w>
rodeo reiter</w>
ro sen</w>
ro lle</w>
ro hre</w>
ring kampf</w>
rie sen
ri se</w>
ri ch
reg net</w>
reflektier enden</w>
rece ption</w>
re sort</w>
re o
re gelt</w>
rasi er
rand stein</w>
ran gehöri
rail ings</w>
rad fahren</w>
ra z
ra ining</w>
ra ils</w>
ra g</w>
ra fts</w>
r äumen</w>
qui et</w>
quad ra
pyra mid</w>
pyra mi
py jam
put z
pur chase</w>
pun k</w>
pun ching</w>
pullo vern</w>
pu pp
pupp et</w>
profi -
produ kten</w>
produ kt</w>
pro pan
prin ts</w>
presen ts</w>
prepar ed</w>
police men</w>
poin ted</w>
po wer
po odle</w>
po dest</w>
plüsch tier</w>
pla kat
pira te</w>
pink -
pige on</w>
pierc ings</w>
pi cket</w>
pfei fe</w>
pfadfin der</w>
pf eln</w>
pel z
pea ks</w>
patro ns</w>
passagi eren</w>
par ks</w>
par ken</w>
par ent</w>
pal me</w>
pa st
pa cken</w>
pa ci
p turen</w>
p ro</w>
p ops</w>
p lea
p h</w>
p ans</w>
outfiel der</w>
ot tchen</w>
ord nung</w>
or t
or ned</w>
or dering</w>
on spieler</w>
ol li
obje kte</w>
o ur</w>
o m
o il</w>
nä gel</w>
nu de</w>
noti z
new ly
newly wed</w>
neu en</w>
neckla ces</w>
nass em</w>
nam ed</w>
nack ter</w>
nach richt</w>
nach mittag</w>
na gel
na del
n ine</w>
n in
müll container</w>
mö wen</w>
musikinstru menten</w>
musikinstru ment</w>
mu ss</w>
mountain ous</w>
moun ted</w>
mou ths</w>
motocross fahrer</w>
moti v</w>
monit ors</w>
moder nen</w>
model l</w>
mo wing</w>
mitglie dern</w>
mit t</w>
mini -
militä rangehöri
mikro sk
men sch
mehr farbigen</w>
mea suring</w>
me tri
me ss
me die
medie val</w>
me ado
meado w</w>
mask ottchen</w>
mark ed</w>
mar ble</w>
manö vri
mannequ in</w>
mann schaft
ma ybe</w>
ma y</w>
ma scot</w>
ma scara</w>
ma j
ma id</w>
m ehr</w>
ll ing</w>
lin ge</w>
lila farbener</w>
lich tern</w>
li m
li er
li cking</w>
let scher</w>
leop ard</w>
leop ar
leich tath
lebensmittel markt</w>
le vel</w>
le gos</w>
le gged</w>
lauf band</w>
lau t
later ne</w>
lan ges</w>
laden s</w>
la id</w>
la ck
la b
l ush</w>
kü mmern</w>
kunst galerie</w>
kun de</w>
kranken haus
kra bbelt</w>
kostü mierte</w>
kol le
klapp stühlen</w>
kl ein</w>
kit e
khaki farbener</w>
kell ner</w>
kehr en</w>
kau k
kauk asi
kat zen
karten spiel</w>
kar a
kan us</w>
kan in
kan al</w>
kamera mann</w>
kam el</w>
kaffee tasse</w>
ka thedra
ka ppen</w>
ka p
ka beln</w>
k utsche</w>
k rug</w>
jeans shorts</w>
je t
it u
it ting</w>
irgend wo</w>
irgend einer</w>
interagi eren</w>
innen raum</w>
ing ly</w>
ing ham</w>
in t</w>
in se
in iert</w>
in halt</w>
in gre
ingre di
ingredi ents</w>
in ed</w>
in der
illumin ated</w>
i sches</w>
häu ser</w>
hunde spielzeug</w>
hu ck
hoo k</w>
hockey -
hochzu klettern</w>
hochha ckigen</w>
ho ur</w>
ho f
ho e</w>
ho cken</w>
hl t</w>
histor ischen</w>
hispani c</w>
hinter en</w>
hinderni spar
hin weg</w>
her zen</w>
her vor</w>
her an
he al
hau pt
har bor</w>
hand taschen</w>
hallo ween-
hab seligkeiten</w>
haar schnitt</w>
ha ckt</w>
ha cken</w>
h usband</w>
h ten</w>
h on
gui de</w>
grö ßer
grin ds</w>
greyho unds</w>
gra fi
gr y</w>
go kar
glück liche</w>
gitar re
gesäum te</w>
gesichts ausdruck</w>
gesi chts</w>
ger es</w>
gemu sterten</w>
gelände fahrzeug</w>
gele gten</w>
geld beutel</w>
geflochten en</w>
gefle ckter</w>
ge wor
ge tragen</w>
ge ste</w>
ge spritzt</w>
ge pol
ge gn
ge fäl
ge flie
ge fangen</w>
ge be
gar n</w>
gan zen</w>
ga bel</w>
g är
g th</w>
g ot
g lit
g letscher</w>
g at
fä u
fußball team</w>
fu zzy</w>
ft et</w>
fröh liche</w>
fro g</w>
friedens zeichen</w>
fri schen</w>
fri sche</w>
fri sch
fre ut</w>
fra med</w>
fr ying</w>
for k</w>
football feld</w>
fo o
fo ggy</w>
fo g</w>
flo ck</w>
flie sen</w>
fla mmen</w>
fl ut
fisch markt</w>
fire works</w>
fin d</w>
fil l</w>
fern rohr</w>
fer tigt</w>
felsk lippe</w>
felsen s</w>
fel low</w>
fel ds</w>
fe teria</w>
fe tch</w>
fe a
fea ther</w>
faulen zt</w>
fan g</w>
fall enen</w>
fahr ern</w>
f ying</w>
exerci sing</w>
exam ine</w>
ex pan
ex iting</w>
euro pä
et tes</w>
ers -
eri schen</w>
er es</w>
envi ronment</w>
enter tain</w>
ent weder</w>
en nen</w>
en mütze</w>
en det</w>
em o
el der</w>
eis schnell
eis laufen</w>
einkaufsta schen</w>
eink äu
einhei mischer</w>
einfa chen</w>
ein samen</w>
e uro</w>
e al</w>
dü nnen</w>
dun kel</w>
dr ying</w>
dr yer</w>
dor f
dol ls</w>
do tted</w>
do ctors</w>
do -
discu ss</w>
dis ney</w>
dis c</w>
diri giert</w>
dinosau r</w>
dig an</w>
di vers</w>
di l
di gt</w>
di ge</w>
deut sche</w>
desig ner</w>
desig ned</w>
der by-
defen der</w>
de vi
de sks</w>
dd les</w>
da ily</w>
d yed</w>
d schun
d led</w>
d eh
cross country</w>
cro ps</w>
cre me
craw ls</w>
condu cting</w>
con test</w>
con fu
con fetti</w>
con ce
comple x</w>
comple ting</w>
color fully</w>
col li
co unter
co tton</w>
ck s
cigar ettes</w>
ci ous</w>
ci an</w>
cho reo
chinesi scher</w>
chin at
chinat own</w>
chi p</w>
cheerleader in</w>
cheerlea dern</w>
charac ters</w>
charac ter</w>
cha sed</w>
ch enden</w>
car digan</w>
cann on</w>
camera man</w>
ca ve</w>
ca thedra
ca sting</w>
ca feteria</w>
c ats</w>
c all</w>
burgunder roten</w>
bur gers</w>
bun ny</w>
bullen reiter</w>
bu ggy</w>
bru st
bron co</w>
bro schür
brenn enden</w>
bre ttern</w>
bre chen</w>
brautjung fern</w>
braun haariges</w>
bra i
box ers</w>
boun ds</w>
bo ws</w>
blä ser</w>
blur red</w>
blond haariger</w>
blo wer</w>
blo ck
blei bt</w>
blei ben</w>
ble ch
bl ut
bikin i
beton stufen</w>
berg landschaft</w>
begin n</w>
beg in</w>
befahren e</w>
be ten</w>
be setz
be hand
be griff</w>
be för
be ers</w>
be ein
be e</w>
be ckens</w>
be ating</w>
be at</w>
baum stämmen</w>
baum stumpf</w>
bau ms</w>
bask enmütze</w>
barre ls</w>
barfüßi ger</w>
barbe cu
bar ely</w>
banan as</w>
ballet t
badeho sen</w>
bade kappe</w>
backstein straße</w>
back seat</w>
ba ss
ba hnen</w>
ba det</w>
b ter</w>
b attle</w>
ausgebreite ten</w>
ausgeb reitet</w>
aufge setz
auf kle
auf einander</w>
auf druck</w>
atten ti
asp halt
arti kel</w>
arme e</w>
arch ite
aqu a</w>
app lau
angel n</w>
ange feuert</w>
ander em</w>
an zusehen</w>
ami d</w>
alko hol</w>
al bern</w>
akten tasche</w>
air -
afro amerikanisches</w>
adverti sements</w>
ad orned</w>
activ ities</w>
accompani ed</w>
abge sperr
aben d
a xe</w>
a wait</w>
a st
a ds</w>
9 5
- sized</w>
über blickt</w>
ü di
ärmello sem</w>
är gert</w>
zäh nen</w>
zäh lt</w>
zucker watte</w>
zu hören</w>
zombi es</w>
zit ro
ziel len</w>
ziegel n</w>
zel te</w>
zeich nungen</w>
zebra streifen</w>
ze i</w>
z ö
z et
zet tel</w>
yo ur</w>
yo ung
yama ha</w>
y set</w>
y o</w>
wärtssal to</w>
wär e</w>
wän de</w>
wä sch
wur den</w>
wra ps</w>
wor ds</w>
wol ki
wo ven</w>
wit hin</w>
wir t
wind brea
windbrea ker</w>
win k
win eglasses</w>
wie gt</w>
wi sh</w>
who le</w>
whi stle</w>
wheel chairs</w>
wett lauf</w>
werk zeuge</w>
werk zeug
wer ing</w>
wen ig</w>
well- dressed</w>
wel che</w>
weiß haariger</w>
wein endes</w>
weihnachtsmann kostüm</w>
weihna chten</w>
weihna cht
weap on</w>
waterski er</w>
water side</w>
water ing</w>
warn westen</w>
war te
wandmaler ei</w>
wal kers</w>
wa hl</w>
wa de</w>
w elt</w>
vorbei fahren</w>
vor le
vor ite</w>
vor bereit
vie t
viet nam
video spiele</w>
vi ert</w>
vi eren</w>
verla ssenen</w>
verk äu
ver ärgert</w>
ver teilen</w>
ver legt</w>
ver kleideter</w>
ver folgen</w>
vege tation</w>
ve gas</w>
va i
vai la
vaila ble</w>
v s</w>
urein wohn
up right</w>
unterschied licher</w>
unter geht</w>
uni on</w>
ung sk
un loading</w>
un fall
un auf
unauf gerä
unaufgerä umten</w>
umge stürzten</w>
umge dreh
um t</w>
um s</w>
um hängen</w>
um hänge
ul ler</w>
ug h
uf ers</w>
türki sfarbenen</w>
tätowi erter</w>
tän zerinnen</w>
tw er
tw as</w>
tut us</w>
tt es</w>
tromm elt</w>
tren ch
trench coat</w>
tree- lined</w>
trans form
tr ü
tomat oes</w>
to yo
to wel
to w</w>
to ten
to e</w>
to ast</w>
tisch decke</w>
tief es</w>
tie fen</w>
ti on
them a</w>
th y</w>
th re
tex ting</w>
tex t
termin al</w>
tennis schuhen</w>
temp or
tem pel</w>
teil nimmt</w>
teena gerin</w>
tech n
techn olo
te u
te ddy</w>
taucher anzug</w>
tau ch
tal kie</w>
table cloth</w>
ta ste</w>
ta ssen</w>
t öpfen</w>
t lich</w>
sä gen</w>
sz en
swor ds</w>
sur ge
sun shine</w>
sun dress</w>
sub mer
stö bern</w>
stä m
sty ro
stur z
stud ent
stu diert</w>
stroh hal
stri ke</w>
stri de</w>
stri ckt</w>
stre a
straßen markt</w>
strand promenade</w>
sto ßen</w>
sto ß</w>
stir ring</w>
stie l</w>
sti mmt</w>
sti er
stein kante</w>
stein gebäude</w>
stein er
ste tho
sta ir</w>
sta chel
st rollers</w>
ss ors</w>
squ e</w>
squ ad</w>
spü lt</w>
spru ch
sprinkl ers</w>
sprin genden</w>
spra che</w>
sport platz</w>
spongebo b</w>
spo ts</w>
spiel zeugen</w>
spiel zeuge</w>
spiel mann
spielmann s
speise karte</w>
spe cial</w>
spazier stock</w>
spat ula</w>
spa ssage</w>
sp ä
sor g
sorg fäl
sorgfäl tig</w>
son s</w>
some body</w>
sombrer o</w>
sold at
sociali zing</w>
so uth</w>
so ur
so up</w>
so ars</w>
snow ball</w>
sm s</w>
slo pes</w>
slee ve</w>
skul pturen</w>
skul l</w>
sko stü
skateboard park</w>
skate -
sk uchen</w>
sk raft</w>
sig ni
si ge</w>
shout ing</w>
shor ter</w>
shing les</w>
sh am
sen kre
sen d</w>
sem i</w>
sel ben</w>
seiten linie</w>
seit lich</w>
seil springen</w>
sei fe</w>
seagul ls</w>
se cu
sco oping</w>
sci ssors</w>
schwimm westen</w>
schwimm flügeln</w>
schwarzwei ßer</w>
schwarz- roten</w>
schwarz- braunen</w>
schwarz- braune</w>
schw eren</w>
schul ter
schrau ben
schotter weg</w>
schotter straße</w>
schon ern</w>
schn uller</w>
schmutzi ges</w>
schmin ke</w>
schmetter t</w>
schmetter ling</w>
schlä gern</w>
schlitt schuh</w>
schlie ßt</w>
schle cht</w>
schlaf zimmer</w>
schla cht</w>
schild krö
schi ppt</w>
schi gen</w>
schi ffs</w>
schi ff
schi ene</w>
schei ben</w>
schaulusti ge</w>
schaufenster front</w>
schau m</w>
schau kel
schaft lich</w>
sch ält</w>
sch wit
sch rä
sch ro
sch ein</w>
scal ing</w>
sc o</w>
sc at
scat tered</w>
saun a</w>
satt el
sam u
sam ple</w>
sam keit</w>
sal at</w>
saiten instrument</w>
sa cks</w>
s ö
s me
s man</w>
s m</w>
ry- go-
ry-go- round</w>
run d
ru sty</w>
ru ft</w>
rothaari gen</w>
rot- weiß</w>
rot- schwarzer</w>
rollerbla der</w>
roller- derby-
roll stühlen</w>
roll schuh
ro sen
ro lled</w>
ro ll</w>
ro d
river bank</w>
rin e</w>
rick et
ribb ons</w>
ri mmed</w>
rett ungs
retrie ver</w>
reparat uren</w>
renn bahn</w>
renaiss ance</w>
ren o
rela y</w>
rela xes</w>
rekla me</w>
rei bt</w>
re ss</w>
re spe
raz or</w>
rav ine</w>
rauch end</w>
rau ms</w>
rai se</w>
radfahr erin</w>
ra mp
ra lly
ra king</w>
ra ck</w>
ra c
r y
r is</w>
r em</w>
r aufen</w>
que sti
qu al
qu a
pyrami de</w>
pyjam a</w>
pun kten</w>
pu shed</w>
pro vi
pro u
pro pped</w>
pro gress</w>
pro ce
pro be</w>
pro ba
proba bly</w>
pp ers</w>
por table</w>
ponch o</w>
politi cal</w>
poli zei</w>
platz es</w>
plat ziert</w>
plastik -
plan t
plan k</w>
pit ching</w>
pink farbene</w>
pin ken</w>
pin g-
pil lar</w>
pil es</w>
pi e</w>
pi d
ph ysi
pfo ten</w>
pflü ckt</w>
pf ten</w>
pf laster</w>
person nel</w>
person al</w>
pan t</w>
pan a
pack ung</w>
pa d
p stick</w>
ox ford</w>
over look</w>
ori al</w>
ord net</w>
oran gen
oper ation
oper ated</w>
op f</w>
on nen</w>
on e-
on d</w>
on ary</w>
oli ve</w>
ol lie</w>
ol l
ohr hör
offen er</w>
off- camera</w>
och sen</w>
oc cur
oc cu
objekti v</w>
ober teile</w>
ob wohl</w>
o ming</w>
o ke</w>
o k</w>
o hi
ohi o</w>
o a
näh er</w>
nur se</w>
nu deln</w>
noti zen</w>
no ses</w>
night club</w>
nie d
ni ppt</w>
ni ke</w>
ni chts</w>
neu n</w>
near ly</w>
nadel streifen
nack tes</w>
nack ten</w>
nacht club</w>
nachbar schaft</w>
na sse</w>
na l</w>
n ten</w>
n inten
ninten do</w>
n au
müll tüte</w>
möbel stück</w>
musli m</w>
musik ern</w>
mu stan
mu le</w>
mountain top</w>
mou sine</w>
motor radfahrern</w>
motocross- fahrer</w>
mor gen</w>
mop p</w>
mon tur</w>
modell flugzeug</w>
mo use</w>
mm e</w>
mitt ens</w>
miniat ure</w>
min de
minde stens</w>
mikrof onen</w>
mikrof one</w>
micro scopes</w>
mi ssing</w>
mi ges</w>
metall zaun</w>
mer ry-go-round</w>
men den</w>
mem orial</w>
mehr farbige</w>
mediz in
me tro
me ssen</w>
maul körben</w>
matra tze</w>
mat ure</w>
markt stand</w>
marine blauen</w>
mar sh
mar mor
mann s</w>
man a
maj or</w>
mag ni
ma ssen</w>
ma in
ma che
mache te</w>
m ps</w>
m ops</w>
m aus</w>
m am
loh farbener</w>
lo wer</w>
lo vely</w>
ll er</w>
liqu or</w>
lippen stift</w>
lin er</w>
liege stühlen</w>
lie bl
li pstick</w>
li mousine</w>
li mon
li me</w>
li cks</w>
li cht
ler innen</w>
leopar den
len gth</w>
lei den
lehr erin</w>
leb ha
le v
le tzt</w>
le go</w>
lat ein
lar s</w>
land karte</w>
lan es</w>
labra dor</w>
la cross
l ung
kür bi
kü ch
küch entre
küchentre sen</w>
kör be</w>
köpfi gen</w>
kunst vollen</w>
kund gebung</w>
kro nen</w>
kranken schwestern</w>
kra b
kopft ü
kopfstein pflasterstraße</w>
konferen z
kon fetti</w>
komp li
ko re
kn itting</w>
kletter wand</w>
klein ere</w>
kleidungs geschäft</w>
kleid er
klat schen</w>
klar in
klarin ette</w>
kla ssi
kl är
kitt eln</w>
kitchena id</w>
kir chen
kie s
kie fern</w>
ki cken</w>
ki cked</w>
khaki hose</w>
ket ten</w>
ke gel
kathedra le</w>
kartoff el
karate anzügen</w>
karate anzug</w>
karat e-
kara oke</w>
kar ne
kap elle</w>
kanin chen</w>
kan ne</w>
ka bel</w>
ka -
k ulptur</w>
k ricket
k eine</w>
jün geres</w>
jun gen
jump suits</w>
jo e</w>
je wish</w>
ja vel
j üdi
itä ten</w>
irgen de
irgende twas</w>
inten si
inspi ziert</w>
inspi zieren</w>
innen hof</w>
inn eren</w>
inlin e-
il l</w>
il igen</w>
identi cal</w>
i sed</w>
i gt</w>
i erte</w>
i ence</w>
i al</w>
hüpf burg</w>
hü hn
hör saal</w>
hör n
hun ched</w>
hu man
hor n
holz tisch</w>
hol li
hochzeit storte</w>
hochzeit skleidung</w>
hochge hoben</w>
hoch springt</w>
hoch hält</w>
hindernispar cours</w>
hin ein
hin dern</w>
hi p
her z</w>
her ab
hemd bluse</w>
hell gelben</w>
hell braunem</w>
hell braune</w>
hel le</w>
hel fer</w>
heav yset</w>
he arts</w>
harve sting</w>
hand held</w>
hand gelen
hand bag</w>
hand -
halsk etten</w>
hal ter</w>
ha ken</w>
gy p
gu es</w>
grün- weißen</w>
groß stadt</w>
gro u
grasp ing</w>
golf platz</w>
gold farbenen</w>
go- cart</w>
go wns</w>
go at
goat ee</w>
glück liches</w>
glo ved</w>
gla stür</w>
gla ci
glaci er</w>
geöffne tem</w>
gest ell</w>
gest al
gesi chter</w>
gesen ktem</w>
geschäf tige</w>
geschrie ben</w>
geschmin kten</w>
geschmin kt</w>
geschlo ssen</w>
geri chteten</w>
gera hm
gera de
gerade aus</w>
ger ly</w>
ger -
gepfle gten</w>
geo metri
gen au</w>
gemu ster
gelb brauner</w>
geish a</w>
geh wegs</w>
geh al
gehal ten
gegenüber liegenden</w>
gebe ug
ge wehren</w>
ge hoben</w>
ge back
gal lo
ga p</w>
g y</w>
g ut
g ung</w>
g ling</w>
fü ttern</w>
fußgänger brücke</w>
fußball trikot</w>
fußball teams</w>
fußball spielen</w>
fuß weg</w>
fun ktion
fun den</w>
frü chten</w>
fröh liches</w>
fri ed
freizeit kleidung</w>
fre sh
fra gt</w>
for ni
for ce</w>
fol low</w>
foc us</w>
flower y</w>
flo ors</w>
flie ger</w>
flan ell
fla t</w>
fla sh
fla mes</w>
fitness studio</w>
fil zhut</w>
fi xes</w>
feuer werk</w>
feath ered</w>
feat ures</w>
fe dern</w>
fe chten</w>
fasz iniert</w>
farbenfro he</w>
farbenfro h</w>
far m
fall en
fahr radrennen</w>
fack eln</w>
fa vorite</w>
fa ce-
f äh
f und
f tz
f ers</w>
f ein
expre ssion</w>
explo sion</w>
expan se</w>
exhi b
excit edly</w>
ex tra
ex ten
ex o
ev entu
eventu ell</w>
essen swagen</w>
essen d</w>
er wischt</w>
er reicht</w>
er klär
entgegen gesetz
end ung</w>
en gel
en g</w>
em pfan
elev ated</w>
ele gan
elabo rate</w>
eis wagen</w>
eis waffeln</w>
eis bahn</w>
einzu fangen</w>
einzel ne</w>
einkauf spassage</w>
einkauf s
eini g
ein satz</w>
eh e
e vil</w>
e ment</w>
e c
dut z
durch sucht</w>
dun keln</w>
dum p</w>
dro pping</w>
dress ing</w>
drei köpfige</w>
dra gon</w>
dra chen
don uts</w>
domin o</w>
do ts</w>
do s</w>
do ppel
do o</w>
do m</w>
do ku
do ber
digit al
digital kamera</w>
di en
di d
devi ces</w>
deut scher</w>
deser ted</w>
der ed</w>
den ken</w>
dekorati ven</w>
dekorati onen</w>
dekor ierten</w>
defen sive</w>
deck el</w>
de ere</w>
de ckten</w>
de cker</w>
de c
dar stell
dam aged</w>
d j
cup cakes</w>
cu ri
ct ures</w>
cro wn</w>
cre st</w>
cre ates</w>
cra te</w>
cra sh</w>
cra fting</w>
countr y-
cor der</w>
conven ience</w>
constru cted</w>
conne cted</w>
congre gate</w>
con te
con ey</w>
complet ely</w>
compet it
colum n</w>
coca- cola-
co con
co ck</w>
co ast</w>
clut ching</w>
cloth ed</w>
clo wn
clim bers</w>
clar in
cla p</w>
citi zens</w>
ci ent</w>
chi sel
check out</w>
che cked</w>
challen ge</w>
ch ung</w>
ch ert</w>
ceremon ial</w>
cathedra l</w>
car to
car t
car go</w>
cam per</w>
cam corder</w>
ca sh</w>
ca ble</w>
c ely</w>
bücher regal</w>
bär ten</w>
bär en</w>
bä cker
but cher</w>
busine ss
bun tes</w>
bun tem</w>
bum m
bu sch</w>
bu m</w>
bu lle</w>
bu d
brunn ens</w>
bron ze
bro oms</w>
brief case</w>
bre chenden</w>
braun- weißen</w>
bow tie</w>
botto ms</w>
bord steinkante</w>
boot s
bo hrt</w>
bo a</w>
bm w</w>
blü henden</w>
blö cke</w>
blumen strauß</w>
blo cking</w>
blin d
bli gen</w>
bli ck
bli ch</w>
blasen en</w>
bla de</w>
bikini- oberteil</w>
bi b</w>
beton platte</w>
beton bank</w>
beteil igt</w>
besu chen</w>
bell y</w>
bel l</w>
bei gen</w>
beguta chten</w>
beg leiter</w>
befin dlichen</w>
bedi en
bedeck ter</w>
beam s</w>
bea gle</w>
be wohner</w>
be stellt</w>
be ss
be son
be endet</w>
be auf
beauf sich
be ars</w>
be an
bau er</w>
bati k-
basketball korb</w>
baseball kleidung</w>
barri ers</w>
bar es</w>
bar bi
band mitglieder</w>
bam bus
ballerin as</w>
bal gen</w>
bahn gleisen</w>
bade kleidung</w>
ba y</w>
ba dge</w>
b ones</w>
b one</w>
b h</w>
b ein
b ble</w>
auto sitz</w>
ausge stop
aus wahl</w>
aus stell
aus schau</w>
aufmerk samkeit</w>
aufge blasenen</w>
auf wärmen</w>
auf schlag</w>
auf recht</w>
auf hat</w>
auf genommen</w>
auf geh
astro nau
assi sting</w>
assem bled</w>
arm ed</w>
appar at
angel ein
an züge</w>
an vil</w>
an tly</w>
an schaut</w>
an schauen</w>
an cient</w>
ami sh</w>
am boss</w>
am ar
ali forni
al co
al a
akusti sche</w>
ai ming</w>
abgesperr ten</w>
abge dunkelten</w>
ab wärts</w>
ab satz
a ward</w>
a vailable</w>
a sking</w>
a ctors</w>
a board</w>
a .</w>
2 4</w>
0 8</w>
- t-shirt</w>
- spiel</w>
- outfit</w>
übers ä
über wie
über kreuzten</w>
ü sse</w>
ärz t
ärm eln</w>
är mel</w>
äl ter</w>
ähn liches</w>
ähn liche</w>
zwe iter</w>
zwe iten</w>
zuge wandt</w>
zu pft</w>
zu guckt</w>
zu gucken</w>
zu geht</w>
zigar etten</w>
zie gen</w>
zer r
zer klein
zeit ungs
zei ge
ze bra</w>
z y</w>
z wi
z te</w>
z ard</w>
yo -
yel lo
y scape</w>
y or
y elling</w>
wür den</w>
work men</w>
won der</w>
wo k</w>
wissenschaft liches</w>
wir bt</w>
winter mantel</w>
wind surfer</w>
win ding</w>
wild wasser
wi ping</w>
wi i</w>
white- haired</w>
wh ir
whir l
wettei fern</w>
werfer licht</w>
wer den
weiß- brauner</w>
weiß- braune</w>
wein gläsern</w>
weihnachts geschen
weap ons</w>
we ite</w>
watermel on</w>
water craft</w>
wat en</w>
wasserski fahrer</w>
wassermel one</w>
wasser lauf</w>
wasser fahrzeug</w>
waren korb</w>
war ten
wan gen</w>
wait ress</w>
wach sen</w>
wa y-
wa gg
wa ffen</w>
wa det</w>
w t</w>
w rist
w ly</w>
w ers</w>
w ant</w>
vorle sung</w>
vor n
vor dach</w>
vor bereiten</w>
vo id</w>
vo cal
vocal ist</w>
viol in
vier köpfige</w>
vi d</w>
vi ct
verwirr t</w>
verti cal</w>
verschwo mmen
verschieden farbigen</w>
versch mi
vers ehen</w>
verla ssene</w>
verkehr t</w>
verkehr sm
verdi enen</w>
verbun denen</w>
ver zieht</w>
ver mut
vermut lich</w>
ver liert</w>
ver letzt</w>
ver ei
verei sten</w>
ver dunkelten</w>
ver bringen</w>
vau l
var ying</w>
va se</w>
v ul
v on
v aters</w>
v al
v ac
ut ing</w>
ut ility</w>
ut iert</w>
urein wohner</w>
ur y</w>
ur in
unterschied liche</w>
unter teil</w>
unter halt
unter halb</w>
uni denti
unidenti fi
unglück lich</w>
un known</w>
un k
un ity</w>
un finished</w>
un fall</w>
un er
un e
un dern</w>
umge ki
um klammert</w>
um her
ug i
ug ht</w>
ufer weg</w>
u sa
u ral</w>
u hi
tür eingang</w>
tü chern</w>
tz chen</w>
twer k</w>
tuxe do</w>
tuni c</w>
tum bling</w>
tug ging</w>
tu ba</w>
tt än
tru tha
tri o</w>
tri mming</w>
tri be</w>
trauri g</w>
transpor ter</w>
tran sport</w>
tran spar
train ing
tra ys</w>
tr ö
tr e</w>
toyo ta</w>
towel s</w>
tor einfahrt</w>
tor ches</w>
tor bogen</w>
top f
ton gs</w>
tomat o</w>
toi let</w>
to ssed</w>
tisch tennis</w>
ti ss
ti ons</w>
ti k
ti gh
tigh tro
ti erten</w>
ti cs</w>
ti ckets</w>
ti ar
tiar a</w>
them ed</w>
them e</w>
text nachricht</w>
ter n
tern teil</w>
tennis spielen</w>
teil ung</w>
teil er</w>
teddy bä
teddybä r</w>
te ter</w>
te e-
tauch ausrüstung</w>
tattoo -
tank -
tank- top</w>
tal s</w>
ta schen
ta r</w>
ta i
ta ges</w>
t twerk</w>
t ti
t ent
süßig ke
süßigke iten
szen erie</w>
synch ron
sweat suit</w>
sweat ers</w>
surge ons</w>
supp or
sun bath
suit cases</w>
sub urban</w>
stü tzen</w>
stü tze</w>
stän den</w>
stä tte</w>
stä ben</w>
stä be</w>
styli sh</w>
strugg ling</w>
stru ggles</w>
strohhal m</w>
stro h</w>
stri cken</w>
stri ch
stri an</w>
stret ch</w>
streich eln</w>
stre iten</w>
straßen café</w>
strand es</w>
stra w
stra p</w>
stra ining</w>
stra f
str ö
store fron
storefron ts</w>
stol p
stolp ert</w>
stol en</w>
stimm ten</w>
sti cally</w>
ster ed</w>
steiner nen</w>
ste ers</w>
ste am</w>
statt ung</w>
stat es</w>
star ts</w>
stap ler</w>
stap eln</w>
stamm ung</w>
staff ell
staffell auf</w>
stadt platz</w>
stabhoch sprung</w>
sta si
sta pel
sta cks</w>
st lichen</w>
st ard</w>
st alling</w>
st a</w>
ss waffe</w>
ss e
spor t-
spon so
sponso red</w>
spla sh</w>
spiel zug</w>
spiel ende</w>
spider man</w>
spi ke</w>
spe ci
spe c
spec ta
spani scher</w>
sp uren</w>
sp u
sp lit</w>
sor tieren</w>
sor gt</w>
soon ers-
so und</w>
so ft</w>
snowboar ders</w>
snow man</w>
snow capped</w>
sna ps</w>
smo ot
smoot h</w>
sm ei
slo wly</w>
sli cing</w>
skol legen</w>
skil i
ski gebiet</w>
skateboard trick</w>
skateboar dra
skateboardra mpe</w>
skate- park</w>
sk op
sk et
sitz endes</w>
sitz end</w>
sit u
sin gers</w>
si ster</w>
si cher</w>
shoe shine</w>
shel ves</w>
she ets</w>
she er</w>
she ep
shar p</w>
sham po
sha dy</w>
sha ck</w>
sh ri
sh ines</w>
sh ell</w>
ser ved</w>
seni oren</w>
sen den</w>
sen boden</w>
seil schaukel</w>
see saw</w>
sear ching</w>
sea son</w>
se sseln</w>
se geln</w>
se g
se et
sco ut</w>
schütt et</w>
schö pft</w>
schä del</w>
schwimmen den</w>
schwimm erin</w>
schwieri gkeiten</w>
schwarzwei ßen</w>
schwarz- blauen</w>
schw än
schutzwe sten</w>
schu sswaffe</w>
schri ft
schrei endes</w>
schran k</w>
schot ten
schnei de
schneeh aufen</w>
schnee ball</w>
schn orche
schnorche l</w>
schmutzi ge</w>
schmi ert</w>
schlä uchen</w>
schlu ss
schlitt en
schließ lich</w>
schlei fen</w>
schlafen der</w>
schlafen den</w>
schildkrö te</w>
schein werferlicht</w>
schein werfer</w>
schein end</w>
schaum bad</w>
schaufen stern</w>
schau spieler</w>
schat tigen</w>
schar fe</w>
scha ffen</w>
sch weißen</w>
sch leu
sch in
sch eit
sch ar</w>
sch alter</w>
sc ri
sc ar</w>
sc ant
scant ily</w>
sc ales</w>
sausa ges</w>
sat tel</w>
sandwi ches</w>
sand skulptur</w>
sail boats</w>
sai lor</w>
sack hüpfen</w>
sa ying</w>
sa fe</w>
s statue</w>
s fest</w>
rück wärtssalto</w>
rück en
rü ckt</w>
rü cke</w>
rän gen</w>
rä umt</w>
run des</w>
run de</w>
run -down</w>
rug by-
ruck säcke</w>
rub ble</w>
ru stik
ru ssi
ru ins</w>
ru inen</w>
row boat</w>
roun ding</w>
rot- weiße</w>
rot- blauen</w>
rosa farbenes</w>
rollerskat ers</w>
roll schuh</w>
robo ter</w>
robo t</w>
road work</w>
ro ben</w>
rin ge</w>
rie men</w>
rich tig</w>
ri chten
restaurant küche</w>
repor ter</w>
rei sen</w>
regi ster</w>
regen bogen</w>
red ner</w>
red ner
redner pult</w>
rec lines</w>
rea gieren</w>
re turns</w>
re spon
re is</w>
re hear
re cre
recre ation
recreation al</w>
rasi eren</w>
ran geln</w>
radre i
radrei fen</w>
rad les</w>
ra ke</w>
ra gt</w>
que strian</w>
pu stet</w>
progra mm</w>
pro p
pro bt</w>
prin cess</w>
prie ster</w>
prie st</w>
pri v
pri mit
primit i
pra yer</w>
pra cht
post -
positi oned</w>
ponch os</w>
polo shirt</w>
polizi stin</w>
politi schen</w>
poli ert</w>
pol ka-
pok al</w>
po ver
po un
po sts</w>
po sters</w>
po sse
po odles</w>
po king</w>
plat ten
plasti k</w>
plant scht</w>
plakat wand</w>
pl ush</w>
pl an</w>
pit chers</w>
pira ten
pin striped</w>
pin ned</w>
pin gu
pid ated</w>
pick up</w>
pi stolen</w>
pi ert</w>
pi ed</w>
photograph ing</w>
ph in</w>
pflü gt</w>
pflan zt</w>
pfan nen</w>
pfadfin der
pers ons</w>
per ha
perha ps</w>
per ched</w>
pen gu
pel i
pedestri an</w>
pea k</w>
pea cock</w>
pe tals</w>
pe e</w>
pe dd
pass er
passer by</w>
pass ed</w>
part ying</w>
part ner</w>
park a</w>
parachut ing</w>
parachut es</w>
par ty
par ts</w>
pan el</w>
paint ball</w>
pad ded</w>
paci fier</w>
pa vil
pa ssion
pa ket</w>
p y</w>
p ride</w>
p lu
p ern</w>
p end
p aus
paus es</w>
ou sel</w>
orangen saft</w>
ora k</w>
or ten</w>
oppon ents</w>
operation ssaal</w>
open ed</w>
on e
on able</w>
oldti mer</w>
ol d-
offi zi
off ering</w>
occu pied</w>
obser vers</w>
ober hemd</w>
o ar</w>
nächt lichen</w>
note books</w>
no ten</w>
nie der
ni cely</w>
ni b
ne ugi
ne tzen</w>
ne tz
ne bligen</w>
navi giert</w>
nation al
nach richten</w>
nach richten
na gel</w>
n y
n ut
mü de</w>
mön ch</w>
mö beln</w>
multi color</w>
mu stard</w>
mu sk
mp y</w>
motor radrennen</w>
motor boot</w>
motor bikes</w>
mor gen
mon ster</w>
mo thers</w>
mm el
mit tel</w>
mini golf</w>
militäri sche</w>
mil ch
mick ey</w>
mi sst</w>
mi sches</w>
mi sche</w>
mi ke</w>
mi e
metall gegenstand</w>
mer ch
merch ant</w>
mehr farbi
medizini sche</w>
medizin ischen</w>
mechani ker</w>
me tro</w>
me sse</w>
me ssage</w>
me dit
me da
meda il
mat tress</w>
mask ed</w>
marathon lauf</w>
mar ke</w>
mar ches</w>
mannschaft skollegen</w>
mam a</w>
mal ten</w>
make shift</w>
make -up</w>
magni fying</w>
ma ssive</w>
ma je
ma il
m und
m r
m eh
meh l</w>
m ats</w>
m -
län d
luftball on
lu f
lo wered</w>
lo st</w>
lo se</w>
lo cki
lin ger
linger ie</w>
lin gen</w>
limon a
liebl ings
lie b
li mo</w>
li en</w>
li chter</w>
letz ten</w>
len kt</w>
len ker</w>
leit ungen</w>
leiden schaftlich</w>
leder mantel</w>
lean ed</w>
lea st</w>
lea shes</w>
le i</w>
le hrt</w>
le ere</w>
le an</w>
laut sprecher</w>
lauf enden</w>
lat in</w>
last wagens</w>
langärm ligen</w>
land ung</w>
lan tern</w>
lan gar
lack iert</w>
la tz
la tion</w>
la ppen</w>
la pidated</w>
la kers</w>
la gers</w>
la ck</w>
l ut
l in</w>
künst lern</w>
künst lerin</w>
künst l
kä se</w>
kunst ausstellung</w>
ku gel
kti onen</w>
krankenhaus bett</w>
kranken schwester</w>
kragen hemd</w>
kor ridor</w>
kor b
kopftü chern</w>
konferenz tisch</w>
kommen den</w>
ko ko
kni eho
knee- high</w>
knall bunten</w>
klein stadt</w>
kla ppe</w>
kl ö
kl einig
kleinig keit</w>
kit es</w>
kinder gruppe</w>
kin s</w>
kin n</w>
kil ts</w>
khaki -
ker chie
kel le</w>
kat zen</w>
kastanien braunen</w>
kari kat
kanadi schen</w>
kan one</w>
kampf kunst
kamel en</w>
kam in</w>
ka sten
ka hl</w>
k ery</w>
k ein</w>
k as</w>
ju wel
jong lier
jo hn
jo g</w>
jeman des</w>
jean s-
javel in</w>
jahr e</w>
iti on</w>
irgend eine</w>
intervie wt</w>
intervie wed</w>
interess anten</w>
interess an
inter view</w>
inter net</w>
inter act</w>
intensi v</w>
instru cting</w>
inspe ct</w>
inform ationen</w>
industri e
indian er</w>
inclu des</w>
in stalling</w>
in ner</w>
ie -
i sh</w>
i sche</w>
i or</w>
i gn
i den
hö hle</w>
hän geb
hängeb rücke</w>
hudd led</w>
huck e
hucke pack</w>
hu ddle</w>
hren den</w>
hot el
hor ns</w>
holz stuhl</w>
hol es</w>
hochzeits gesellschaft</w>
hochzeits feier</w>
hochzeit skleid</w>
hoch klettert</w>
ho me
histor ic</w>
high- fi
high-fi ves</w>
hi ja
herr lichen</w>
her ren
her ding</w>
her ausge
hen na</w>
hemd chen</w>
hell rosa</w>
hel me
heiß luftballons</w>
hei ßt</w>
he u
he im</w>
he chtet</w>
he be
he ar</w>
hawai i
har ten</w>
har p</w>
har fe</w>
hand ling</w>
hand les</w>
hamm ers</w>
half pipe</w>
hair style</w>
ha sen
ha ppen</w>
ha hn</w>
h ung</w>
h te</w>
gär t
gymnasti k</w>
gu e
gu ar
grü ßen</w>
grö ße</w>
groß em</w>
gro wn</w>
gri ffen</w>
gri ff
green ery</w>
grau haariger</w>
grau haarige</w>
graffiti ed</w>
golf spieler</w>
gol fer</w>
go ats</w>
gli ding</w>
gli der</w>
glei se</w>
glei che</w>
girl friend</w>
gi ven</w>
gi gen</w>
gh ang</w>
gewä ch
gew onnen</w>
gesp rei
geschäfts mann</w>
gescho ssen</w>
geschn it
geschmü ckten</w>
geschmin ktem</w>
geschla gen</w>
gerahm te</w>
ger e
gent or</w>
gen e</w>
gen des</w>
gemü tlich</w>
gei ger</w>
gehol fen</w>
gebil de</w>
gebi ets</w>
ge t
ge stützt</w>
ge strü
ge steckt</w>
ge misch
ge malt</w>
ge jagt</w>
ge fal
ge dul
ge du
ge drängt</w>
ge denk
ge bl
garten stuhl</w>
gar a
gara gentor</w>
gan g
ga y</w>
ga be</w>
g ute</w>
g um</w>
g tem</w>
g ssaal</w>
g ren
g or
g on
g in</w>
g i</w>
fü hrenden</w>
fäl len</w>
fuß tritt</w>
funktion iert</w>
fri end
friend ly</w>
freun din
freundin nen</w>
freu en</w>
four -
form ing</w>
foo d-
flut eten</w>
flu ore
flo wing</w>
flo h
flo ati
floati es</w>
flie ßen
flie senboden</w>
flie gende</w>
fle e
flauschi gen</w>
flan ke</w>
fla t
fla schen
fla ming</w>
fla ches</w>
fla ch
fit ness</w>
fisher men</w>
fire place</w>
fil ls</w>
fi x
fenster putzer</w>
fels block</w>
feld hockey</w>
fel sige</w>
feath ers</w>
fe der</w>
fall enden</w>
fair y</w>
fahr t
fahr radreifen</w>
fabri k
fa ch
f eh
f -
ey eglasses</w>
ey e
expre ssions</w>
expl oring</w>
exhib ition</w>
excit ement</w>
es line</w>
erleu chtet</w>
erle digen</w>
eri sche</w>
erhö hten</w>
erd boden</w>
erd be
er zählt</w>
er zielen</w>
er inn
er halten</w>
entertain er</w>
ent schei
end zone</w>
en i
en ge</w>
en er</w>
emer ges</w>
embra ce</w>
eleph ants</w>
el ternteil</w>
el mo
eisschnell läufer</w>
eishockey spiel</w>
eis waffel</w>
ein zigar
ein schließlich</w>
ein satz
eben e</w>
ear rings</w>
ea gerly</w>
e yel
e scape</w>
e questrian</w>
e de
e at
dünn e</w>
durch sich
durch gang</w>
dunkel haariges</w>
du sche</w>
dschun gel</w>
drän gen</w>
dru ckt</w>
dro pped</w>
drib bles</w>
dri vers</w>
dri lling</w>
drah t
dra ht</w>
dra g</w>
dr äh
don keys</w>
domin oes</w>
do uble</w>
do k
do jo</w>
diti ons</w>
dire cts</w>
dir t
dia dem</w>
di verse</w>
di lapidated</w>
di gs</w>
di ges</w>
di ger</w>
di cker</w>
deut et</w>
den den</w>
decora ting</w>
de scending</w>
de m
de al
day light</w>
dan t</w>
dach sh
da für</w>
d- up</w>
d s-
d les</w>
d i</w>
d die</w>
d den</w>
d an</w>
d al</w>
cur ved</w>
cur ve</w>
cur ren
ct ly</w>
crow ns</w>
cro cs</w>
cre di
craw ling</w>
cra zy</w>
cowbo y-
cool ers</w>
cool er</w>
coo kies</w>
coo ked</w>
conven tion</w>
cons ul
confu sed</w>
concentra tes</w>
con tin
con tents</w>
con tem
con ditions</w>
competiti ve</w>
competit ors</w>
communi c
comm unity</w>
comfor ting</w>
comfor table</w>
com bat</w>
colle cting</w>
co ws</w>
co ke</w>
co ca</w>
cloth s</w>
cloth esline</w>
clo ck</w>
cle aring</w>
clarin et</w>
cl aus</w>
cki ge</w>
ck te</w>
ck es</w>
ck ers</w>
cit yscape</w>
chee ks</w>
che vro
che l</w>
champa gne</w>
chain ed</w>
cha ins</w>
ch unk</w>
ch lich</w>
ch at</w>
ce pt</w>
ce ful</w>
cat ure</w>
cat tle</w>
cart wheel</w>
carri ed</w>
cari cature</w>
car ved</w>
car ve</w>
car ousel</w>
can opy</w>
camp site</w>
cam pers</w>
c radles</w>
c em
bü sche</w>
bü chern</w>
bän der</w>
button -up</w>
but ter</w>
business man</w>
bush y</w>
bun dled</w>
buck elnden</w>
bu ses</w>
bu de</w>
brüne ttes</w>
bräun licher</w>
brä t</w>
bro w</w>
bro ad
bri ck-
brea ks</w>
bre it
bre ath</w>
brai ded</w>
boun ding</w>
book shelf</w>
bo m
bmx- rad</w>
blätter t</w>
blätter haufen</w>
blur ry</w>
blumen wiese</w>
blond haariges</w>
blond haarige</w>
blo ss
blo cked</w>
blind folded</w>
blau- roten</w>
blau grünen</w>
bla ttwerk</w>
bi ke-
bi eten</w>
bew undern</w>
beu gen</w>
bett elt</w>
beton rampe</w>
besu chten</w>
besu cher</w>
berg steigen</w>
ber uhi
ber lin</w>
ber ghang</w>
ben e</w>
beleu ch
bela denen</w>
beg inning</w>
beför dert</w>
befesti gen</w>
beein druck
bedien ung</w>
beaufsich tigt</w>
beam ter</w>
be wachsen
be wa
be vö
be trun
be tritt</w>
be st</w>
be sides</w>
be sch
be qu
be kleidungsgeschäft</w>
be hinder
be fragt</w>
be enden</w>
be chern</w>
bauern hof</w>
bat on</w>
bat man-
bast elt</w>
barfüßi ges</w>
barbecu ing</w>
bar king</w>
bar keeper</w>
banan en</w>
banan e</w>
banan a</w>
ban en</w>
bam bus</w>
ballet ttän
ball besitz</w>
balk onen</w>
balan ced</w>
bade mantel</w>
backstein wand</w>
back ward</w>
back stroke</w>
back lit</w>
back hoe</w>
baby schaukel</w>
ba stel
ba kery</w>
ba ked</w>
ba k</w>
ba den</w>
b äu
b itt
b ites</w>
b ing</w>
außer dem</w>
außen seite</w>
ausgestre cktem</w>
aus zeichnung</w>
aus stattung</w>
aus sicht
aufgereg te</w>
aufga be</w>
au m</w>
attenti vely</w>
atten dant</w>
ati ve</w>
at tack
assi stant</w>
arti stic</w>
arri ve</w>
arm or</w>
arm band</w>
arch way</w>
arbeit splatz</w>
arbeit ende</w>
appe aring</w>
apparat us</w>
app lies</w>
app les</w>
anzu ziehen</w>
anzu greifen</w>
anzu g
anti que</w>
angemal tem</w>
ange stellte</w>
an sw
an scheinend</w>
an orak</w>
an gry</w>
an gehöri
ameri kaner</w>
ameri cans</w>
am pe</w>
all t</w>
al um
al ou
al bum</w>
al ber
afroameri kanerin</w>
ado le
acti on
acce p
aben teu
ab stammung</w>
ab hang</w>
ab deck
a x</w>
a scending</w>
a id</w>
a ffe
5 -
- tattoo</w>
- kostüm</w>
- hut</w>
- band</w>
ünst ler</w>
überwie gend</w>
über gibt</w>
ü ss
üss lich</w>
ü ppi
ör t
öl f</w>
öh nt</w>
öffent liche</w>
ärz te</w>
är ker</w>
äl te</w>
äl ligen</w>
äh nt</w>
äh nen</w>
ä mmerung</w>
ß ten</w>
zö si
zwei ge</w>
zwei g</w>
zwei er</w>
zwe ite
zweite iligen</w>
zw ölf</w>
zusammen zu
zuhör er
zu zu
zu läuft</w>
zu einander</w>
zombi e</w>
zo genen</w>
zitro nen</w>
zi er
zer ri
zer n
zer broch
zeit ung
zeh en
ze men
z z</w>
z wil
z wan
z ir
z ers</w>
z erin</w>
z ent
z eln</w>
z eln
z bart</w>
z ange</w>
young sters</w>
yo- yo</w>
yo u
you ths</w>
yo ga
yello w-
y ond</w>
y back</w>
y ant</w>
y an
yan ke
x y</w>
x ic
xic o</w>
wür st
würst chen</w>
wäsche korb</w>
wäsch el
wäschel eine</w>
wäh len</w>
wur f
wra pping</w>
wr ite</w>
work bench</w>
wor t</w>
wor d</w>
wolki gen</w>
wo ol</w>
wn ers</w>
wissenschaft ler</w>
wirt schaft
wir ken</w>
winter mänteln</w>
wind jacke</w>
win zigen</w>
win ning</w>
win ken</w>
wild wasser</w>
wi pes</w>
wi gs</w>
wi cker</w>
whirl pool</w>
whi sper
whisper ing</w>
wett kampf
wet suits</w>
werbe tafel</w>
wen ige</w>
well s</w>
wel t-
welt- land</w>
wel chen</w>
weihnachtsgeschen ke</w>
weigh ing</w>
weg geht</w>
wea ve</w>
we stern</w>
we ird</w>
we ht</w>
we eds</w>
we ed</w>
we ch
we ath
weath ered</w>
water -
wat ten</w>
wasser schlauch</w>
wasser kante</w>
wasser fontäne</w>
war ning</w>
war mer</w>
walk man</w>
wal t</w>
wal l
wal des</w>
wake boarding</w>
wa shed</w>
wa sa
wa hl
wa des</w>
w ör
w ri
w aring</w>
vorüber gehen</w>
vorbereit ung</w>
vorbei gehenden</w>
vor wärts</w>
vor liest</w>
vor hang</w>
volleyball -
volk sfest</w>
violin ist</w>
violet tes</w>
vil lagers</w>
vietnam ese</w>
vie wer</w>
vie h</w>
videota ping</w>
vi a</w>
veter an</w>
verti ble</w>
vertei digen</w>
verschieden farbige</w>
verschieden er</w>
vers or
verkäu fers</w>
verkehrsm ittel</w>
verbun den</w>
ver zi
ver zerr
ver wahr
ver stecken</w>
ver st
verst ärker</w>
ver spritzt</w>
ver rück
ver n
ver mä
vermä hl
ver kleide
ver klei
verklei den</w>
ver hindern</w>
ver bringt</w>
ven ti
ven ten</w>
vac ation</w>
va st</w>
va gan
v re</w>
v o</w>
v it
vit rine</w>
v ent</w>
v -
uti que</w>
uti on</w>
utensi lien</w>
usi ve</w>
urr t</w>
urin al</w>
ur st</w>
ur nier</w>
ur laub
up -
unters eite</w>
unter stütz
unter neh
unter haltung</w>
unter grund
untergrund bahn</w>
unter bricht</w>
unidentifi ed</w>
ungs ort</w>
ungs fahrzeug</w>
unge fäh
ungefäh r</w>
und ation</w>
unbefesti gtem</w>
un seen</w>
un ruhigem</w>
un paved</w>
un packing</w>
un ner</w>
un it
un fertigen</w>
un e</w>
umhänge tasche</w>
umgedreh ten</w>
umge dreht</w>
um einander</w>
ul pen</w>
ul k</w>
ul d</w>
ub by</w>
u-bahn- tunnel</w>
u .
tü m
töpfer waren</w>
töpfer scheibe</w>
tö pfe</w>
tä glichen</w>
typi cal</w>
twir ling</w>
tw il
tw el
twel ve</w>
turn schuhe</w>
tur tle</w>
tur t
tur f</w>
tun ing</w>
tti sh</w>
trutha hn</w>
tru ppe</w>
tropi scher</w>
trocken es</w>
trocken em</w>
trock nen</w>
tro ops</w>
tro m
trom bone</w>
tri ms</w>
treppen geländer</w>
trak tion</w>
train ed</w>
tra m</w>
tra g
tou ch
tor til
tortil las</w>
tor s</w>
tor n</w>
tor i
top ic</w>
tol len</w>
toilet ten</w>
toilet te</w>
to ter</w>
to sses</w>
til es</w>
tightro pe</w>
tie fe</w>
ti p</w>
ti ghtly</w>
tho ught</w>
tho mas</w>
thin king</w>
thin k</w>
th ol
tex ts</w>
termin als</w>
ter t</w>
ter race</w>
ter eignis</w>
teppi ch
tennis bällen</w>
tenni skleidung</w>
tempor ary</w>
telefon masten</w>
technolo gy</w>
techni que</w>
techni ker</w>
te- welt-land</w>
te e
taucher brille</w>
tau ght</w>
tau chen</w>
tattoo- künstler</w>
tat tered</w>
tanz ende</w>
tack les</w>
tab let
tablet ts</w>
ta sting</w>
ta p</w>
ta ke
ta gged</w>
t schaften</w>
t it
t im</w>
t i</w>
t el
t and
tand em</w>
t aller</w>
sü d
sä tzen</w>
sä chlich</w>
swim wear</w>
sweat y</w>
sw amp
swamp y</w>
surroun dings</w>
sur round</w>
super vi
super man-
sunbath ers</w>
sun rise</w>
sun hat</w>
sun -
sum pfi
sum pf
sum or
sumor in
sum o</w>
submer ged</w>
sub stance</w>
sub je
su fer</w>
su cking</w>
su ch</w>
stü cks
stö ckigen</w>
städ tischer</w>
sturz helm</w>
student en
stu dies</w>
strüm pfe</w>
stru ctures</w>
strick jacke</w>
strich enen</w>
stri p</w>
stri kes</w>
stri es</w>
street light</w>
street -
stre n
straßen bahn
straßen arbeiten</w>
straw berry</w>
strahl end</w>
straf zettel</w>
stra ted</w>
stra ps</w>
str ähnen</w>
stop p
stoff e</w>
stock ings</w>
sto ra
stora ge</w>
sto ols</w>
sto cks</w>
sto cking</w>
stirn bändern</w>
ster -
stell en
stein wand</w>
stein stufen</w>
stei gs</w>
ste pp
ste er</w>
staun en</w>
staub wolke</w>
statu es</w>
statu en</w>
stati onary</w>
stasi ati
stan z</w>
stal ks</w>
stair well</w>
stadt viertel</w>
sta y</w>
sta cking</w>
st ut
st licher</w>
st liche</w>
st irs</w>
st he
st es</w>
st em
st al</w>
st -
ssen ger</w>
ss o</w>
ss ern</w>
squ ir
squ ar
squar es</w>
spü len</w>
spü le</w>
sprüh ten</w>
sprüh farbe</w>
sprun gs</w>
spritz ern</w>
sprin ting</w>
spre sso</w>
spr ün
sport spiel</w>
sport liche</w>
sport lerin</w>
sport bekleidung</w>
spor tereignis</w>
spongebo b-
spinn rad</w>
spielzeug pferd</w>
spielplatz gerät</w>
spielmanns zug</w>
spiel zeu
spiel halle</w>
spiel end</w>
spiel automaten</w>
spi kes</w>
spi ked</w>
sper run
sperrun gen</w>
spee do</w>
spee do-
spect ate</w>
spea kers</w>
spe k
spe ar</w>
spar ty</w>
span o
span dex</w>
spa gh
spa g
spag at</w>
sp ur</w>
sp oli
sp ite</w>
sp in</w>
sp are</w>
sou th
sor ts</w>
sonnen schirmen</w>
sonnen schein</w>
sonnen hut</w>
sonnen auf
sonn en</w>
sommer kleid</w>
some ones</w>
sol len</w>
sol it
solit ary</w>
sol i
sol dering</w>
softball spielerin</w>
sof as</w>
so wohl</w>
so ta</w>
so on</w>
so le</w>
so l</w>
so il</w>
so dass</w>
snor kel</w>
sno wing</w>
sno o
sni ffs</w>
sna ke</w>
smo o
smoo thing</w>
smei ster</w>
sm itt
slo ping</w>
sli p</w>
sli ces</w>
sl ender</w>
sl al
skostü m</w>
skol ben</w>
skili ft</w>
ski piste</w>
ski mütze</w>
ski mpy</w>
ski m
ski ausrüstung</w>
sket ch</w>
skel et
skat en</w>
sk e</w>
situ ation</w>
simi lar
similar ly</w>
sil k</w>
sig nal</w>
sicht baren</w>
sicht bar</w>
sicherheits ausrüstung</w>
sicherheit skleidung</w>
si p</w>
si mp
si ght</w>
si erten</w>
si ding</w>
si den
si chten</w>
shoo ts</w>
shiel ds</w>
sheep dog</w>
shampo o</w>
sha ve</w>
sha pes</w>
sh ügel</w>
sh u
sh it</w>
sh aus</w>
seni ors</w>
sen f
sen de</w>
sen bahn</w>
seltsam es</w>
selt sam</w>
sele cting</w>
sei le</w>
segel boote</w>
seg way</w>
see ds</w>
seagul l</w>
sea weed</w>
sea shore</w>
sea haw
se xy</w>
se ssion</w>
se min
semin ar</w>
se its</w>
se em
se dan</w>
sculpt or</w>
sculp ting</w>
scre w
scra tching</w>
scra p</w>
scoo p</w>
sco ttish</w>
sco tch</w>
schö pf
schö n</w>
schär pen</w>
schwimm hilfe</w>
schwimm ern</w>
schwer er</w>
schwarz- gelben</w>
schwarz haariger</w>
schw ung</w>
schw er</w>
schw ein</w>
schw ang
schwang ere</w>
schw an</w>
schul bus</w>
schuh geschäft</w>
schrift zug</w>
schri ftz
schrei en</w>
schokoladen eis</w>
schnit zen</w>
schneide brett</w>
schnei der
schneeh ügel</w>
schnee we
schnee mann</w>
schnee engel</w>
schnau zer</w>
schna pp
schnapp schuss</w>
schmutzi ger</w>
schmet tern</w>
schlü ssel</w>
schlä f
schläf chen</w>
schle pp
schlan ker</w>
schlan ke</w>
schla fan
schin deln</w>
schi ppen</w>
schi ckes</w>
schi chten</w>
schaufenster puppe</w>
scha fen</w>
sch welle</w>
sch wei
sch rit
sch mer
sch lum
schlum m
schlumm ert</w>
sch ere</w>
sch becken</w>
scar ed</w>
sc ru
sc ale</w>
saun e</w>
sau st</w>
sau ber
sand platz</w>
sand al</w>
samu ra
samura i</w>
sal ad</w>
sa ve</w>
sa shes</w>
sa k
sak ko</w>
sa gt</w>
sa gen</w>
sa ddle</w>
sa b
s wa
s schen</w>
s lum
s lot</w>
s lab</w>
s förmigen</w>
s ant</w>
s ands</w>
rücken schwimmen</w>
rück hand</w>
rut ches</w>
rustik alen</w>
run way</w>
ruhi ge</w>
ru ten</w>
ru p</w>
ru del</w>
roun ds</w>
rot-weiß- blauen</w>
ros es</w>
roller-derby- spiel</w>
rod gers</w>
rock er</w>
road way</w>
ro ute</w>
ro usly</w>
ro us</w>
ro ping</w>
ro de</w>
ro cking</w>
rit ual</w>
riesi ger</w>
ri pp
ri es</w>
ri dding</w>
rettungs schwimmer</w>
rettung sweste</w>
retrie ving</w>
renaiss an
renaissan ce-
remo te</w>
religiö se</w>
reit ern</w>
reini ger</w>
rei st</w>
rei se</w>
rei se
rei her</w>
regen schirme</w>
red dish</w>
recei ves</w>
recei ve</w>
read ying</w>
re turning</w>
re tail</w>
re ssive</w>
re siden
re p
re moving</w>
re f</w>
re ar</w>
re al</w>
re -
rasi erten</w>
rasi ertem</w>
rally e
rallye auto</w>
rail way</w>
ra t</w>
ra mps</w>
ra gs</w>
ra ble</w>
ra bb
rabb its</w>
ra b
rab bit</w>
r d</w>
r aus</w>
qui ck</w>
quadra ten</w>
qua int</w>
pur su
pur chasing</w>
pul ver</w>
pu s</w>
pu ffy</w>
prü f
prüf ung</w>
präch tigen</w>
prun k
protesti eren</w>
protest schild</w>
propan e</w>
projek tor</w>
proje cted</w>
profession eller</w>
profession als</w>
pro mo
promo ting</w>
pro -
pri zes</w>
press ure</w>
press luf
pressluf th
prepar ation</w>
pre tending</w>
pre gn
pregn ant</w>
pracht vollen</w>
pra llen</w>
pp le</w>
pp ie</w>
pp er-
power point</w>
pow der</w>
pover ty</w>
post al</w>
posse ssion</w>
portra its</w>
por t
pop u
pool billard</w>
poli sh</w>
po wered</w>
po tted</w>
po saune</w>
po kes</w>
po ker</w>
po ised</w>
plu cking</w>
plo wing</w>
play pen</w>
plan schen</w>
plan schbecken</w>
pla ting</w>
pl ug
pit bull</w>
pira tes</w>
ping- p
ping-p ong</w>
pin ea
pil lars</w>
pict ured</w>
pickni ck</w>
pick er</w>
pi led</w>
pi gg
pigg yback</w>
pi gen</w>
pi g</w>
pi ers</w>
photograph y</w>
ph onen</w>
ph en</w>
pferder ennen</w>
pfer des</w>
pf ir
pend ler</w>
pen ske</w>
pen sive</w>
pen n</w>
pelz mantel</w>
pee ks</w>
pe ted</w>
pe eling</w>
pe ach</w>
patro n</w>
patro l</w>
past or</w>
passion ately</w>
participat es</w>
partici pants</w>
para sol</w>
par is</w>
par d</w>
pan cake</w>
paint ings</w>
paint brush</w>
pack tes</w>
pa ws</w>
pa stries</w>
pa pa
pa dding</w>
pa ckten</w>
pa bst</w>
p s
p lä
p le
p fe
p anda</w>
ox en</w>
ow ner</w>
ow a</w>
over turned</w>
over sized</w>
over hang</w>
over coat</w>
over -sized</w>
out s</w>
orientali schen</w>
ori ol
oriol es</w>
organi zing</w>
org an</w>
or nam
or ders</w>
open- air</w>
open- air-
op- kittel</w>
op us</w>
op er</w>
on nen
on ce</w>
old- fashioned</w>
oklaho ma</w>
oklaho ma-
ohrhör ern</w>
offizi ere</w>
offi ziellen</w>
off ene</w>
occur ring</w>
obst -</w>
obje kten</w>
ober halb</w>
obdachlo se</w>
oa kl
oakl and</w>
o y</w>
o wners</w>
o ur
o ing</w>
o ed</w>
o ct
oct opus</w>
o bli
näh ern</w>
näh en</w>
nu del
notiz buch</w>
noten ständer</w>
no tre</w>
no te</w>
no t
no odles</w>
nin j
ni s
ni ke-
ni cs</w>
neugi eri
neon grünen</w>
nei gt</w>
nee dle</w>
ne te</w>
ne sota</w>
nach einander</w>
na sses</w>
na sen
na p
na hö
n onnen
n el
n as</w>
n an
müll beutel</w>
mü tter</w>
mö we</w>
mö g
männer gruppe</w>
muzz les</w>
mustan g</w>
musta ched</w>
musik ali
musi zieren</w>
musi kan
mund harmonika</w>
mu scheln</w>
mu ffs</w>
mu ff
mounta inside</w>
motor rollern</w>
motor boat</w>
motor -
moti ve</w>
moo se</w>
mon gol
mobil en</w>
mobi l</w>
mo b</w>
mm ten</w>
mm ers</w>
mittel großen</w>
min nesota</w>
min d</w>
militäruni formen</w>
militäruni form</w>
militärangehöri ge</w>
militär s</w>
mil k</w>
mikrosk ope</w>
mi xt</w>
mi g</w>
mi chi
michi gan</w>
mi cha
micha el</w>
mexikani schen</w>
mexikani sche</w>
metro pol
metall konstruktion</w>
metal lic</w>
merk wür
mer maid</w>
menschen schlange</w>
men ü</w>
mel y</w>
mel onen</w>
mega phone</w>
meere sufer</w>
meer wasser</w>
meer jung
meerjung frau</w>
medi a</w>
mechani cal</w>
mechani c</w>
me xico</w>
me tz
me ssenger</w>
me sh</w>
me diti
mbi ss</w>
mau le
maule sel</w>
mat ten</w>
mat sch</w>
mat a
mata dor</w>
mar tin
mar ks</w>
mar kings</w>
manövri ert</w>
maneu ver</w>
man zug</w>
mail box</w>
mai skolben</w>
mach te</w>
ma ski
ma gi
ma ge</w>
ma chten</w>
ma c</w>
ma c
m pigen</w>
m on</w>
m in</w>
m hemd</w>
lö wen</w>
lö wen
lö tet</w>
lä ssi
lä ren</w>
lä den</w>
lusti gen</w>
luft sprung</w>
lu gt</w>
lou vre</w>
loo se</w>
lon ely</w>
lok alen</w>
locki gem</w>
lo wing</w>
lo ko
lo co
lo cken
lo ck</w>
lli schen</w>
lk ws</w>
lit ter</w>
lit er
ling s
lin k
lin ien</w>
lila farbene</w>
ligh t-
life guards</w>
liege stütze</w>
lieb ko
liebko st</w>
lie gender</w>
li p</w>
li kel
likel y</w>
li ga</w>
li d</w>
li ber
liber ty</w>
leuchten de</w>
leu chten</w>
letz te</w>
letter s</w>
leot ards</w>
leoparden muster</w>
lem ons</w>
leit ern</w>
lebensmittel geschäfts</w>
leaf less</w>
le x</w>
le ck
le bro
lebro n</w>
le ben</w>
lay ers</w>
lauf ender</w>
lauf ende</w>
laub haufen</w>
laub bläser</w>
laub bedeckten</w>
last ers</w>
langärm li
langar mhemd</w>
lang sam</w>
land schaft
lan ger</w>
lan den</w>
lan ded</w>
lacross e-
labra do
labrado odle</w>
la w</w>
la tz</w>
la tin
la ss</w>
la ger</w>
la der
la dd
ladd ers</w>
la c</w>
l olli
l em</w>
küchen tisch</w>
küchen theke</w>
kü hlen</w>
kü hen</w>
kunst stoff</w>
kunst museum</w>
ku ss</w>
ku chen
krü gen</w>
kro ne</w>
kro ko
krie cht</w>
kricket spieler</w>
krei sförmigen</w>
krei de
kre mpigen</w>
kran ich</w>
kra watten</w>
kor bs</w>
kopf ball</w>
kopf -
konzer t
kon stru
kon kur
koko sn
ko stet</w>
ko mo
kno w</w>
kno chen</w>
knieho hen</w>
knie schonern</w>
knall gelben</w>
kna ppen</w>
kna b
knab bert</w>
kn urrt</w>
klein bus</w>
kleidungs stücke</w>
kl usive</w>
kitt y</w>
kit ten</w>
kir sch
kir me
kimon o</w>
kie fer</w>
kick boxen</w>
ki ddie</w>
ki cker</w>
khaki hosen</w>
key boards</w>
ket t</w>
kell nerin</w>
kee ping</w>
ke k
kaya kers</w>
kaya ker</w>
kauf haus</w>
kau m</w>
kau ern</w>
kasten wagen</w>
karikat ur</w>
kari ertes</w>
kar gen</w>
kaput ten</w>
ka wasa
ka hlen</w>
ka de</w>
k ün
k älte</w>
k ter</w>
k rücken</w>
k rist
k ot
k led</w>
k elt</w>
k eller</w>
k an</w>
k alte</w>
juwel ier
jogg ers</w>
jo ur
jewel ery</w>
jet ski</w>
jeans rock</w>
je su
je kt</w>
jam es</w>
ja zz</w>
ja zz
ja hren</w>
j ä
j im</w>
j i
j e</w>
j ar</w>
itu de</w>
itt ed</w>
it y-
it an</w>
is ra
irgend ein</w>
inten se</w>
instru ctor</w>
inner halb</w>
innen seite</w>
infla ted</w>
indiani scher</w>
indi schen</w>
in tri
in stal
in spect
in klusive</w>
in einander</w>
in e
in credi
in coming</w>
in age</w>
imp ressive</w>
ie l</w>
i sla
i sch</w>
i owa</w>
i mit
i dy
idy llischen</w>
i ce-
i cal</w>
i a</w>
hügel s</w>
hüb sch</w>
hü geln</w>
hö lle</w>
hydr au
hunde show</w>
hun t</w>
hot do
hotdo g-
hop scotch</w>
hop per</w>
holz rampe</w>
holz plattform</w>
holz pfahl</w>
holz ko
holz boot</w>
holli ster</w>
holi day</w>
hock ern</w>
ho st</w>
ho oping</w>
ho fs</w>
hinunter fährt</w>
hinter teil</w>
hin ge
hin ab
hil ly</w>
high- five</w>
high school-
hi spano
hi ps</w>
hi ppie</w>
hi kes</w>
hi dden</w>
heraus ra
her stellt</w>
her ein
her auf</w>
helme ted</w>
hellhäuti gen</w>
hell roten</w>
hell o</w>
hel ped</w>
heira ten</w>
hei mat
heal th
head scarves</w>
head bands</w>
hawai i-
haus aufgaben</w>
haupt sächlich</w>
hau smeister</w>
hau ling</w>
hau er</w>
hat te</w>
har thol
har lem</w>
happ en
hand werk</w>
hand lung</w>
hand le
halb kreis</w>
hal testelle</w>
hal ten
hal te
hafen gebiet</w>
ha ck
h uts</w>
h ulk</w>
h s</w>
h ler</w>
h ir
h eine
gä sten</w>
gymna stic</w>
gy ro</w>
guit ari
guitari sts</w>
guar ding</w>
gu ten</w>
gu lar</w>
gu ed</w>
grün- weiß</w>
grün- gelben</w>
groß küche</w>
gro ß</w>
gre eting</w>
grasbewachsen es</w>
grasbewachsen e</w>
graph ic</w>
grafi e</w>
gradu ation</w>
gr inst</w>
gr ins</w>
got te
golden er</w>
go- kar
go vern
go ers</w>
glück licher</w>
glit zern
gle iten</w>
gle it
glatz en
glatzen an
glatzenan satz</w>
glas gebäude</w>
gi pfeln</w>
gi gan
gewor fen
geträn ke
gesäum t</w>
gestrü pp</w>
gestal teten</w>
gesprei zten</w>
gesichts maske</w>
gesi chert</w>
geschn allt</w>
geschir r
geschi chte</w>
geschen k
gesch e
gerä tschaften</w>
ger innen</w>
gepol ster
gen üsslich</w>
gen er</w>
gen er
gelän dern</w>
gele gen
gelb- weißen</w>
gelb- grünen</w>
gelb braunen</w>
gehör t</w>
gehör en</w>
gehol t</w>
gehalten en</w>
geh end</w>
geh ei
gehei m
gegen spieler</w>
gefär bten</w>
gefäl lten</w>
gefroren en</w>
geflie sten</w>
gedul dig</w>
gebü ckter</w>
geburtstag skuchen</w>
geburtsta g</w>
gebir ge</w>
geb ä
ge zogenen</w>
ge wür
ge wehr
ge tu
ge tackelt</w>
ge stapel
ge malten</w>
ge küsst</w>
ge filmt</w>
ge deckten</w>
ge dan
gedan ken</w>
gallo ping</w>
gal op
ga st</w>
ga p-
ga bel
gabel stapler</w>
g ähnt</w>
g lü
g lan
g l
g ge</w>
g ated</w>
förm licher</w>
fä sser</w>
fußball platz</w>
fußball mannschaften</w>
fußball -
fund am
fundam ent</w>
fun ken</w>
fu ße</w>
ft sman</w>
früh stücks
fröh licher</w>
fru striert</w>
fru strated</w>
fried hof</w>
fresh ly</w>
freiluft markt</w>
freil uf
frei willi
frei t</w>
frei heit
fre i</w>
fran zösi
fran ci
franci sco</w>
fra mes</w>
fr o</w>
four th</w>
fotogra phen</w>
fotogra ph</w>
form ed</w>
for tun
for ces</w>
for cement</w>
football- feld</w>
football team</w>
foot bridge</w>
fontän en</w>
fol ie</w>
fo undation</w>
fluore scent</w>
flug hafen
floo red</w>
floh markt</w>
flo ur</w>
flo ppy</w>
flie der
flei sch
flee ce</w>
fle xi
fle cken</w>
fle a</w>
flat bed</w>
flanell hemd</w>
fischer boot</w>
fire trucks</w>
fir ing</w>
finger nägel</w>
fin e</w>
figh ter</w>
fi le</w>
fi cial</w>
feuerwehr wagen</w>
feuer leiter</w>
fest zug</w>
fer in</w>
felsen klippe</w>
fels formation</w>
fel des</w>
fe tching</w>
fe gen</w>
fashi onable</w>
farb stiften</w>
far big</w>
fan ta
fallschirm springen</w>
fahrrad trick</w>
fahrrad geschäft</w>
fahren er</w>
fahr baren</w>
fa d</w>
f um
f t-
f fi
f ell
f ein</w>
f ed</w>
f ati
eyel iner</w>
extre mely</w>
extre me</w>
extra vagan
exten ded</w>
expre ss</w>
ex posed</w>
ex its</w>
ex cept</w>
ex c
exc iting</w>
et zt</w>
ess zimmer</w>
ess stäbchen</w>
ern te</w>
erklär t</w>
er wischen</w>
er ts</w>
er sten</w>
er o
er kun
er kuchen</w>
er hebt</w>
er end</w>
er a</w>
entlang gehen</w>
enthusia stically</w>
enthusi ast</w>
enth ält</w>
entgegengesetz te</w>
ent laden</w>
en twir
en n
en licht</w>
en kostüm</w>
en gli
en gage</w>
en forcement</w>
en er
en dem</w>
emp or</w>
emer ging</w>
em pana
elmo -
ell s</w>
ell en
elektro gitarre</w>
elektri ker</w>
electro nics</w>
el se</w>
eisenbahn schienen</w>
einsam es</w>
einkäu fern</w>
einge graben</w>
ein teiler</w>
ein same</w>
ein gang
ei ss
ei genen</w>
ei ern</w>
ei en</w>
ei chen</w>
ed len</w>
eat ery</w>
ear muffs</w>
ear ly</w>
ea ster</w>
e tery</w>
e spresso</w>
durch ge
dunkl es</w>
dunkel grünen</w>
dunkel brauner</w>
dun es</w>
du scht</w>
drü cken</w>
dräh ten</w>
dru m
dro ps</w>
drit te-welt-land</w>
drib bling</w>
dri ven</w>
dre hen</w>
dramati cally</w>
dra inage</w>
dorf bewohner</w>
dol phin</w>
dol ly</w>
do zens</w>
do ch</w>
disk utiert</w>
dirt bike</w>
diri gent</w>
dire ctly</w>
dir t-
din gen</w>
din g
din ers</w>
dil lac</w>
dig ger</w>
did geri
dia gra
di sk</w>
di sh
di schen</w>
di cke</w>
deut schen</w>
desc end</w>
den es</w>
demonstra ting</w>
demon striert</w>
deli cious</w>
defen ders</w>
deci de</w>
de spite</w>
dd ämmerung</w>
dd led</w>
daugh ters</w>
darstell er</w>
dar ts</w>
dar th</w>
dar aus</w>
dan eben
d- in</w>
d ö
curren tly</w>
curi ous</w>
cup cake</w>
cu bi
cubi cle</w>
cti vely</w>
cru ise</w>
cri b</w>
creme farbenen</w>
cre ated</w>
cre am
cray on</w>
cra ftsman</w>
cra b</w>
cover alls</w>
coun ty</w>
cor n
cor ds</w>
coo kie</w>
contro ls</w>
contem plating</w>
constru cting</w>
con vertible</w>
compe tes</w>
communic ating</w>
comm ut
comi c
com b</w>
colle ge
colle ction</w>
cocon uts</w>
coca- cola</w>
co al</w>
clu bs</w>
clo ser</w>
cli p
clean ed</w>
ck et
cir cu
ci vil</w>
cht es</w>
choreo grafie</w>
chisel ing</w>
chirur gen</w>
chi ckens</w>
che ws</w>
che sted</w>
che f
char coal</w>
chan ge</w>
ch ubby</w>
ch si
ch ri
ch or
cem etery</w>
celebra tes</w>
cel et</w>
cau tion</w>
cat e</w>
carto on</w>
car peted</w>
cap ris</w>
cam pus</w>
ca sts</w>
ca dillac</w>
ca bles</w>
ca bin</w>
ca bin
c ure</w>
c rutches</w>
c op
c les</w>
c ler
c inder</w>
c ent</w>
c co</w>
c ame</w>
c alling</w>
c aliforni
californi a</w>
bürger krie
bü gelt</w>
bö gen</w>
bär tige</w>
bäcker ei</w>
button -down</w>
but cher
bur rit
bunge e</w>
bum mel</w>
buil der</w>
buil d</w>
bud wei
bu oy</w>
bu cht</w>
brüne tt</w>
brow ni
broschür e</w>
bron ze</w>
broch ure</w>
brin ging</w>
brief kasten</w>
bri mmed</w>
bri e
bri dal</w>
breit krempigen</w>
brea king</w>
bre tter</w>
braut kleid</w>
bra si
bra celet</w>
br and</w>
bowling -
bowling- kugel</w>
bow ler</w>
boul ders</w>
bor der</w>
book store</w>
book bag</w>
boar den</w>
bo utique</w>
blü te</w>
blumen mädchen</w>
blumen kleid</w>
blumen feld</w>
blue- green</w>
blu t</w>
blu sen</w>
blo w
blick feld</w>
blei stift</w>
blau- weiß</w>
black -
bild hauer</w>
bil ly</w>
bil li
bil l</w>
bikini oberteil</w>
bi ssen</w>
bi egt</w>
bi e
bewachsen en</w>
bevö lk
betrie b</w>
besu ch</w>
besitz er</w>
beschä dig
berg gipfel</w>
bere its</w>
ber uf
ber teil</w>
ber n
ber gigen</w>
bequ em</w>
ben z
ben er</w>
beleb ter</w>
bela g</w>
bel ei
bei l</w>
beg leitung</w>
beg innen</w>
beg ging</w>
befesti gten</w>
bedeck te</w>
bear ds</w>
beam ten</w>
be yond</w>
be vor
be tre
be sprühten</w>
be sprechen</w>
be schnüffelt</w>
be kleide
be freit</w>
baum gesäumten</w>
bau stellen
bau projekt</w>
bau maschinen</w>
bathro be</w>
bass gitarre</w>
basket balls</w>
baseball werfer</w>
baseball spiels</w>
baseball kappen</w>
base ment</w>
barri ca
band mitgliedern</w>
ban jo
ban ging</w>
ball en</w>
balcon ies</w>
balanci eren</w>
bal ti
bahn gleise</w>
badmin ton
bade sachen</w>
bade bekleidung</w>
backstein gebäudes</w>
back en</w>
ba ssi
ba s
b ellen</w>
b auf
bauf älligen</w>
b ats</w>
auto mobile</w>
auszu führen</w>
ausstell ungs
ausländi schen</w>
ausländi sche</w>
ausgestre ckter</w>
aus geschnittenen</w>
aus geschnitt
aus führung</w>
aus blick</w>
aufzu heben</w>
aufnah men</w>
aufkle ber</w>
auf zunehmen</w>
au sm
attra ction</w>
athle t</w>
at ure</w>
at lan
at e
arti keln</w>
arti ficial</w>
ari d</w>
are l</w>
are as</w>
arbeit sh
arbeit erin</w>
arabi c</w>
ar en</w>
appro xi
appar at</w>
app le-
app arel</w>
anwei sung</w>
anti qu
anti ken</w>
ani scher</w>
angezogen es</w>
angel schnur</w>
angel ruten</w>
angel es</w>
angel ehnt</w>
ange zeigt</w>
and -
an setzt</w>
an gesicht</w>
an gerichtet</w>
an blick</w>
an as</w>
an anas</w>
amar an</w>
am put
am ph
altmodi scher</w>
ali ke</w>
alco hol</w>
alber nen</w>
ala sk
al li
al -
aktiv ität</w>
akrobati sche</w>
akkorde onspieler</w>
ak tion</w>
air craft</w>
aga in</w>
ag ility</w>
ag gre
afrikani sches</w>
afri ca</w>
adv ent
adv an
ado rable</w>
ad a</w>
acti vely</w>
accep ting</w>
abzu werfen</w>
abzu wehren</w>
absperr band</w>
absol venten</w>
absatz schuhen</w>
abge wandt</w>
aben ddämmerung</w>
ab sperrungen</w>
a void</w>
a schen
a ffen</w>
a erial</w>
a er
a bly</w>
6 3</w>
5 0</w>
3 rd</w>
3 8</w>
3 0</w>
3 0
20 08</w>
1 95
1 4</w>
1 3</w>
00 0</w>
- kleidung</w>
übersä ten</w>
übergewich tige</w>
über wa
über s</w>
über reicht</w>
über nimmt</w>
über großen</w>
über geben</w>
über füll
über führung</w>
über einander</w>
über dach
ü tze</w>
ü cken</w>
ört licher</w>
ör per</w>
öffent licher</w>
ñ ata</w>
äu el</w>
ärzt in</w>
ärmello ses</w>
ärmel igen</w>
är migen</w>
äng sti
än zerin</w>
än dert</w>
ähn licher</w>
äh ne</w>
ä sten</w>
ä pfeln</w>
ä olo
ßi g</w>
ß igen</w>
ß es</w>
ß entre
ßentre ppe</w>
zün den</w>
zäun te</w>
zwi ckt</w>
zwe igen</w>
zwe ck</w>
zwan zi
zwanzi g</w>
zusammenge funden</w>
zusammenge drängt</w>
zusammen kunft</w>
zusammen ger
zur u
zuru hen</w>
zu ga
zuga b
zugab teil</w>
zu fahrt</w>
zu cker</w>
zit ron
zitron en
ziegel straße</w>
ziegel -
zie gen
zi p</w>
zi l</w>
zi ge</w>
zi ge
zige uner
zi ff
zer ren</w>
zer l
zerl ump
zent eil</w>
zen des</w>
zement mischer</w>
zeige finger</w>
zeh n</w>
ze ssion</w>
ze ss
zahn span
zahnspan ge</w>
zahl reichen</w>
za pfen</w>
za hlen</w>
za ck</w>
z ung</w>
z um
z opf</w>
ym ca</w>
yanke es</w>
ya wning</w>
y et</w>
y ears</w>
xi ously</w>
x ed</w>
wür fel</w>
wü hlt</w>
wü hl
wör ter</w>
wäl dern</w>
wunder schönes</w>
wunder kerzen</w>
wunder kerze</w>
wr it
wor auf</w>
wood working</w>
wohn wagen</w>
wohn mobil</w>
wohn gegend</w>
wo llen</w>
wo chen
wochen markt</w>
wn ings</w>
wissenschaft lichen</w>
wirtschaft lichen</w>
wir k
winter jacken</w>
windo w
win kel
win ded</w>
wild flowers</w>
wild blumen</w>
wie der
wi ckel
wi ck
wi ch
who se</w>
whe eling</w>
whe at</w>
wh ite
wh ate
whate ver</w>
werkzeug gürtel</w>
werk sk
werden der</w>
werbe anzeige</w>
wer ker
wel ds</w>
weiß- roten</w>
weiß- grünen</w>
weiß- grauen</w>
weiß- blauen</w>
weit eres</w>
weit er
wein glas</w>
weihnachts zeit</w>
weibli cher</w>
wei zen</w>
wei cht</w>
wech s
we iten</w>
we ges</w>
we e</w>
we b</w>
water pro
wasser weg</w>
wasser stra
wasser pistolen</w>
wasser pistole</w>
wasser pfütze</w>
wasser nähe</w>
wasser falls</w>
wasser ball</w>
wartungs arbeiter</w>
wartungs arbeiten</w>
warten den</w>
warte bereich</w>
war ri
war mly</w>
war de
wander stöcke</w>
wander in</w>
wander ern</w>
wander ausrüstung</w>
wand tafel</w>
walmar t-
walk ie-
walkie- talkie</w>
wald horn</w>
wal let</w>
wal kie</w>
wal ker</w>
wake boards</w>
wait ed</w>
wagg on</w>
wa king</w>
wa age</w>
w un
w ron
wron g</w>
w ran
w on</w>
w ling</w>
w iel
w endung</w>
w elling</w>
w an</w>
vorüber geht</w>
vortra gssaal</w>
vorn über
vord ere</w>
vorbeil aufen</w>
vorbei zu
vor schla
vorschla gh
vorschlagh ammer</w>
vor m</w>
vor führen</w>
von einander</w>
volunte ers</w>
volunte er</w>
vollstän digt</w>
vollstän dig</w>
volleyball spielerin</w>
voll ge
vogel schwarm</w>
vo ice</w>
violet t-
viol ins</w>
vil i
vier er
vier b
viel zahl</w>
viel fäl
vie ws</w>
videota pes</w>
vict ori
vi vid</w>
vi sit
vi kings</w>
vi go
vigo rously</w>
vi eh
vi de
verzerr tes</w>
verwahr lo
verw endung</w>
verteidi gt</w>
verschwo mmen</w>
versch wit
versch lun
versch lu
verschlu ss</w>
vers etzt</w>
vers en
versen kt</w>
verrück ter</w>
vermähl tes</w>
verletz ten</w>
verletz te</w>
verkehrs reichen</w>
verkehr spoli
verkauf stand</w>
verheira tete</w>
veranstalt ungsort</w>
ver vollständigt</w>
ver streut</w>
ver sion</w>
ver richtet</w>
ver reg
ver läuft</w>
ver l
verl oren</w>
ver ha
ver größer
vergrößer ungs
ver dre
ver bor
ver bin
ver a
ve sti
vaul ting</w>
vacuum s</w>
va der</w>
va can
vacan t</w>
v w</w>
v u
v in</w>
v em
v eil</w>
v ation</w>
v ated</w>
v als</w>
utensi ls</w>
usa -
us- armee</w>
ur banen</w>
up coming</w>
unusu ally</w>
unterstütz ung</w>
unter lagen</w>
unter lage</w>
unter ir
unk rau
unkrau t</w>
universit ät</w>
unit ed</w>
uni son</w>
uni qu
uniqu ely</w>
ungsk ünstler</w>
ungs los</w>
ungewöhn lich</w>
ung ss
ung sbe
une chten</w>
under way</w>
unbekann ten</w>
un überdachten</w>
un kt</w>
un ken</w>
un d-
un completed</w>
un be
umgeki pp
umgekipp ten</w>
um ran
um gibt</w>
um -sized</w>
ug out</w>
u. s.</w>
u-bahn- wagen</w>
u-bahn hof</w>
u pper</w>
u ph
uph ill</w>
u il
u es</w>
u che</w>
u b</w>
tür kis</w>
töpfer ware</w>
tö pf
tätowi ert</w>
tz ten</w>
two- piece</w>
twir ls</w>
twir l</w>
twil ight</w>
twi gs</w>
tw ä
tuxe dos</w>
turt len
turtlen e
turtlene ck</w>
tur bul
tur b
turb ans</w>
tuni ka</w>
tun ity</w>
tu red</w>
tu re
tu ral</w>
tu lips</w>
tu g</w>
tu ba
trü bes</w>
tru mpe
trumpe ts</w>
trompe ter</w>
trock ner</w>
tro ugh</w>
tro uble</w>
tro ts</w>
tro pfen</w>
tro n</w>
tri ps</w>
tri kot
trikot nummer</w>
tri cycles</w>
treppen hauses</w>
tre ff
tre ats</w>
trav el
trauri ges</w>
trauri gen</w>
trau zeugen</w>
transport mittel</w>
transpor twagen</w>
transpor ting</w>
transpor tieren</w>
transform er</w>
trak tor
tradition ell
tra p</w>
tra l</w>
tra gend</w>
tr it
touristen gruppe</w>
tor wart</w>
tor te</w>
tor en</w>
top ped</w>
top -
ton studio</w>
tol lt</w>
toilet ten
toi lets</w>
to wering</w>
to wed</w>
to te</w>
to ss</w>
to ok</w>
to ena
to ba
toba cco</w>
to -
tinten fisch</w>
tin ker
ti mate</w>
ti m
ti ger
ti fi
ti e-
thre w</w>
theat er-
tha il
th ri
th read</w>
th ered</w>
th aufen</w>
teri or</w>
ter ten</w>
ter ro
terro ri
ter in</w>
ter -
teppich boden</w>
teppi chen</w>
teppi che</w>
tennis spiel</w>
ten e</w>
tell s</w>
tele f
tee- shirt</w>
teddy bären</w>
team mitglied</w>
team kollegen</w>
team kolle
te x</w>
te ur
te thered</w>
te sting</w>
te sten</w>
te ch</w>
tau scht</w>
tarn muster</w>
tarn hose</w>
tanz enden</w>
tank tops</w>
tan ned</w>
tan e
tambour ine</w>
tam bur
take out</w>
tain ed</w>
tai led</w>
tage s
tack eln</w>
ta sty</w>
ta statur</w>
ta sks</w>
ta ku
taku lären</w>
ta kt</w>
ta g
ta bak</w>
t äu
t ulpen</w>
t sch
t roll
t rennt</w>
t elling</w>
t ches</w>
t beat</w>
t .</w>
sö hne</w>
säu bern</w>
sän gern</w>
sä ssi
synchro n</w>
swe et</w>
swe ep</w>
swe ating</w>
surf boards</w>
surf boarder</w>
sun hats</w>
sumpf gebiet</w>
suit ed</w>
sub stanz</w>
su sh
sush i</w>
su re
su ppe</w>
su ite</w>
su ds</w>
su cks</w>
stü te</w>
stü ckchen</w>
stö ps
stän de</w>
stäm mige</w>
styro por
styro foam</w>
stut zt</w>
stur m
stu dy</w>
stru mming</w>
stro no
strono mie
stro bo
strobo skop
stro be</w>
stri pe
street lights</w>
stream s</w>
strea ks</w>
strea ched</w>
stre wn</w>
stre it
streit kräfte</w>
straßen stand</w>
straßen schild</w>
straßen musikan
straßen laterne</w>
straßen lampe</w>
straßen kleidung</w>
straßen händ
straßen bahn</w>
stra mm</w>
str äu
stor ted</w>
stop pt</w>
stop pen</w>
ston y</w>
ston e-
stoff tiere</w>
stoff hut</w>
sto ffen</w>
stil lt</w>
stil l
sti schen</w>
sti ert</w>
sti cker</w>
sti cht</w>
sthe ke</w>
steu er
stetho skop</w>
stetho scope</w>
ster truck</w>
stem mt</w>
stell ungen</w>
stein weg</w>
stein denkmal</w>
stei gung</w>
stei genden</w>
ste warde
ste ck</w>
staubsau ger
staubsauger schlauch</w>
stat ute</w>
stat e-
star tet</w>
stan ts</w>
stam ms</w>
stadt teil</w>
stadt gebiet</w>
stadt bild</w>
stachel igen</w>
sta ying</w>
sta ined</w>
sta hl</w>
sta di
st pan</w>
st of
st lingen</w>
st lich</w>
st it
st eini
ssi erten</w>
ssi eren</w>
ssel be</w>
squ in
squin ting</w>
squ at</w>
squ are
square pants</w>
squ a
squa sh</w>
spü ler</w>
spu ri
sprung wurf</w>
sprung tritt</w>
spritz wasser</w>
sprinkl ing</w>
sprinkl es</w>
sprinkl er
sprin ts</w>
sprin tet</w>
sprin kled</w>
spre ch
sport- bh</w>
sport team</w>
sport geschäft</w>
spor those</w>
spon ge</w>
spla tte</w>
spit zen
spit zbart</w>
spit z</w>
spir itu
spiritu o
spirituo sen
spir it</w>
spielzeug zug</w>
spiel gerät</w>
spider -
spi ral</w>
spi ra
spi king</w>
sperr t</w>
sperr en</w>
spek takulären</w>
spei st</w>
specta cular</w>
spe zi
spe er
spe ciali
spazier stöcken</w>
sparkl ers</w>
sparkl er</w>
spar se</w>
spar ks</w>
spani sche</w>
spani en</w>
span nen</w>
spagh ett
spa in</w>
sp y
sp unkt</w>
sp reads</w>
sp reading</w>
sp l
sp its</w>
sp il
spil led</w>
sp fad</w>
sp a</w>
sou ven
sor ten</w>
sonnen tag</w>
sonnen schild</w>
sonnen durch
sonnendurch fluteten</w>
sonnen an
sonnenan be
son nt</w>
som ers
somers au
somersau lt</w>
soli der</w>
soldat en
softball spiels</w>
softball spiel</w>
soft ballspieler</w>
so mmer</w>
so late</w>
so lar</w>
so ck</w>
snow s</w>
snow fla
snow bank</w>
snor kel
sn ar
smo kings</w>
smitt el
smit h</w>
smi r
smir king</w>
sm eri
smeri zed</w>
sm at
slee ved</w>
sle ds</w>
sle d
skil äufer</w>
skil l</w>
skil l
skill fully</w>
ski stöcken</w>
ski jacke</w>
skelet on</w>
skat erin</w>
sk or
skor b</w>
sk in</w>
sitz e</w>
sin n</w>
silber nes</w>
sie b</w>
side -
sicherheit sbe
sicher ungss
sich ert</w>
si zes</w>
si ze</w>
si ps</w>
si ppy</w>
si pping</w>
si mul
simul tane
si eren</w>
shri mp</w>
show girl</w>
sho ts</w>
sho sen</w>
shiel ding</w>
shi sh</w>
shi on</w>
shi er</w>
shel ter</w>
shel fer</w>
shado wed</w>
sha ding</w>
sha ded</w>
sh ü
sh ut</w>
servi ces</w>
ser vie
ser unner</w>
senkre cht</w>
senf farbenen</w>
sen der</w>
sem ble</w>
seltsam er</w>
sele ction</w>
selbst ge
seiten straße</w>
seil t</w>
seil spielzeug</w>
seil rutsche</w>
seicht es</w>
seh t</w>
seet ang</w>
seem ingly</w>
see sack</w>
secu red</w>
seahaw ks</w>
sea son
se ssen</w>
se gel</w>
se cre
se am
seam stre
screw driver</w>
scream s</w>
scra per</w>
scra bble</w>
sco ops</w>
schütz end</w>
schü ler
schö n
schwit zt</w>
schwit z
schwimm hil
schwimm flügel</w>
schwimm brillen</w>
schwimm beckens</w>
schwi m
schwim manzug</w>
schwer t
schwer em</w>
schwarz haarigen</w>
schw ul
schw eine
schw am
schwam m</w>
schutzwe ste</w>
schutz brillen</w>
schutz anzügen</w>
schut thaufen</w>
schulter tasche</w>
schul kindern</w>
schul band</w>
schuh putzer</w>
schub sen</w>
schu ppen</w>
schrä g</w>
schrit te</w>
schreib tischen</w>
schotten rock</w>
school- aged</w>
school girl</w>
scho ols</w>
schnür sen
schneewe he</w>
schneebedeck tem</w>
schnee flo
schne er
schn or
schn itt
schmutzi gem</w>
schmu ck
schmi ede
schmer zen</w>
schlu ck</w>
schleu dert</w>
schlepp wagen</w>
schlei f
schlei er</w>
schle pper</w>
schle ppen</w>
schlauch booten</w>
schlamm pfütze</w>
schlamm grube</w>
schla gs</w>
schla chtet</w>
schir ms</w>
schild kappe</w>
schil ds</w>
schiff es</w>
schi ckt</w>
schi cken</w>
schen den</w>
scheit el
schat ten
schafts laden</w>
scha fft</w>
sch ten</w>
sch reitet</w>
sch m
sch eu
sch eren</w>
sch ee</w>
sch alen</w>
sch -
sc ue</w>
sc rem</w>
sbe hälter</w>
saxoph oni
saxoph ones</w>
sattel zug</w>
sat chel</w>
sandwi ch
sanddün en</w>
sand pit</w>
sand ale</w>
san zügen</w>
san legestelle</w>
san itä
sam sung</w>
sal mon</w>
saiten instrumente</w>
sai k</w>
sa iten</w>
sa ic</w>
sa ge</w>
sa fel
safel y</w>
sa ckt</w>
s y-
s wo
s wer
s ug
s sten</w>
s ste</w>
s low</w>
s lin
s lei
slei gh</w>
s kly</w>
s gebäude</w>
s dien
sdien st</w>
s at</w>
rö tlichen</w>
ry stal</w>
rund herum</w>
run ter
rugby- spieler</w>
rugby spiel</w>
ru shing</w>
ru ms</w>
ru mmel</w>
ru mmel
ru ler</w>
row ers</w>
rot- weißer</w>
rot- grünen</w>
rot- gelber</w>
rot weißen</w>
rot braunen</w>
rosaro t</w>
roo ster</w>
roller- skating</w>
roller- bla
roll stuhl
roll schuhen</w>
roll kragen
rollkragen pullover</w>
roll koffer</w>
rodeo- arena</w>
ro u
ro se</w>
ro mm
ro hr
ro h
ro ds</w>
ro ckt</w>
ro bed</w>
ring träger</w>
rik scha
riesi ges</w>
ri ss</w>
ri ses</w>
ri pped</w>
ri g</w>
ri chtern</w>
restaurant tisch</w>
respon ding</w>
reparat ur</w>
reno viert</w>
renn kleidung</w>
renn hunde</w>
renn autos</w>
remo ved</w>
religiö sen</w>
relea sed</w>
rela ted</w>
reini gung
rei ßt</w>
rei ßen</w>
rei zt</w>
rei t</w>
rehear sing</w>
regi on</w>
regen stiefeln</w>
reg alen</w>
reflektier ender</w>
refle ctions</w>
refer ees</w>
recor ds</w>
rec liner</w>
rec ently</w>
rea gen
reagen z
re ze
re viewing</w>
re scue</w>
re presenting</w>
re moves</w>
re move</w>
re lu
relu ct
re h</w>
re fu
re fre
refre shing</w>
re ena
re den
reden d</w>
re cycling</w>
re ct
rect an
rectan gular</w>
re co
re ci
re chte
re chen</w>
rasi erer</w>
ramp enlicht</w>
rain storm</w>
rad weg</w>
rad sportler</w>
rad fahrzeug</w>
rac quet</w>
ra w
ra stet</w>
ra ster
ra sten</w>
ra pp
rapp elling</w>
ra kes</w>
ra ging</w>
ra gged</w>
ra ft
r s</w>
r er</w>
r ein
r ausge
r a</w>
qual mt</w>
qu ir
qu ilt</w>
qu ie
qu et
pursu ed</w>
pur pur
pump kins</w>
pum p</w>
pum a</w>
pul ley</w>
pu ppen
pu cks</w>
pt ure</w>
präsen tieren</w>
prunk vollen</w>
prun ing</w>
provi de</w>
prou dly</w>
prou d</w>
protest kundgebung</w>
prote ster</w>
projek tor
profi le</w>
profession ally</w>
proce ssion</w>
pro zession</w>
pro ji
pro bl
probl em</w>
pro ben</w>
prin zess
primiti ve</w>
prei se</w>
pre vent</w>
pre tends</w>
pre sst</w>
pre ssing</w>
pre sses</w>
pre ss</w>
pre sent
pre di
pra hlt</w>
pp led</w>
pp igen</w>
potat oes</w>
positi ons</w>
pos en</w>
porträ ts</w>
por tunity</w>
pop si
pop ping</w>
pony tails</w>
pon ders</w>
polo spieler</w>
polka- dot</w>
polizei beamte</w>
pok em
pokem on</w>
poin ty</w>
po uting</w>
po or
poor ly</w>
po ols</w>
po ms</w>
po m
pom poms</w>
po ds</w>
po di
po ckets</w>
plüsch -
plug ging</w>
plea sant</w>
play house</w>
platten spieler</w>
plastik tüten</w>
plastik stuhl</w>
plastik rutsche</w>
plan ken</w>
plan es</w>
plak ate</w>
pla ins</w>
pit ches</w>
pit ched</w>
pira ten</w>
pira t</w>
pink farbenes</w>
pier ced</w>
picknick tischen</w>
picknick decke</w>
picknick bank</w>
pian ist</w>
pi ñata</w>
pi one
pione er</w>
pi eren</w>
pi cting</w>
ph on
ph ar
pfo stens</w>
pflü cken</w>
pfir sich
pferder ücken</w>
pfer ds</w>
pfer ch</w>
pf leger</w>
pf lege
pf el
pf au
perü cken</w>
peri od</w>
per fe
pengu in</w>
pea ceful</w>
pe ts</w>
pe b
pavil l
pavill on</w>
patro uil
patrio tic</w>
patri ck</w>
pati ently</w>
pati ent
patient in</w>
pat ties</w>
pat ches</w>
passen der</w>
pass ant</w>
part ly</w>
park weg</w>
park ett
parkett boden</w>
par lor</w>
papp karton</w>
papier tüte</w>
pan ora
pan eled</w>
pan cakes</w>
paint ball
pain ters</w>
padd lers</w>
padd el
paddel boot</w>
pack ages</w>
pa ying</w>
pa w</w>
pa ving</w>
pa stry</w>
pa stell
pa ste
pa sser</w>
pa ke
pa irs</w>
pa i
pai gn</w>
pa ges</w>
pa ge</w>
pa ddy</w>
pa ce</w>
p st</w>
p rit
p o</w>
p n
p ha
pha be
p far
p au
over pass</w>
over looks</w>
outdoor- veranstaltung</w>
out streached</w>
out cro
outcro pping</w>
ort ment</w>
organi zed</w>
orche ster
orange- weißen</w>
orange- weiß</w>
orange- blauen</w>
ora bil
or nament</w>
or iert</w>
or er</w>
op portunity</w>
op ini
op eri
operi eren</w>
onloo ker</w>
on ist</w>
on ing</w>
oldti mer
oldtimer -
ol lt</w>
ohr ring</w>
off ers</w>
off en</w>
oce an
obst karren</w>
obser ved</w>
ober n</w>
ober kör
oberkör pern</w>
ober hemden</w>
o vers
o stasiati
o s
o i
o h</w>
o dd
nur sing</w>
num ber
number ed</w>
nu al</w>
noti z</w>
noti ce</w>
nor mal</w>
no w</w>
no odle</w>
nied liches</w>
nib bling</w>
ni sche</w>
neu es</w>
netz es</w>
ner f</w>
neopren anzügen</w>
nee ds</w>
nee ded</w>
ne u</w>
navig ating</w>
nation al</w>
nat ural</w>
nap kin</w>
nam es</w>
nagel lack</w>
nadelstreifen anzug</w>
nachbar schaftsladen</w>
nach ge
nach denk
na hr
na host</w>
na -tattoo</w>
n uts</w>
n onne</w>
n g</w>
n des</w>
n ched</w>
n al
n -
münz fern
mün dern</w>
mü ssen</w>
mön che</w>
mögli ch
mö bel</w>
mädchen -
musta chi
mustachi oed</w>
musk eln</w>
musik stück</w>
musik kapelle</w>
musik festival</w>
musi ker
multi -
mul ch</w>
mu stern</w>
mu sh
mu sch
mr .</w>
mountain bikes</w>
mountain bike-
motori sierten</w>
motor radrennfahrer</w>
mop ping</w>
monit ore</w>
mongol ian</w>
mon stertruck</w>
mon ks</w>
modi schen</w>
modi sch</w>
mo ved</w>
mo sque</w>
mo schee</w>
mo saik</w>
mo saic</w>
mo le</w>
mm elt</w>
mm a</w>
mix es</w>
mix ed</w>
mittl er
mittelalter licher</w>
mittelalter lichen</w>
mittel streifen</w>
mit tags
mit arbeiterin</w>
misch ung</w>
mirro red</w>
miniat ur
mini skirt</w>
min g
militäri scher</w>
militärangehöri ger</w>
militär kleidung</w>
mikro phonen</w>
middle- age</w>
mid- jump</w>
mi gra
migra tion</w>
mi ght</w>
mi ger</w>
mi d
metropol itan</w>
metall stück</w>
metall schüssel</w>
metall geländer</w>
metal lob
metal li
mensch lichen</w>
men us</w>
men sein</w>
men gen</w>
men de</w>
mem orabil
mei ster</w>
mehrfarbi gem</w>
mehr erer</w>
mega phon</w>
mega fon</w>
meeres früchten</w>
medizini sches</w>
mediti ert</w>
medit ating</w>
medi um-sized</w>
mechani schen</w>
me studio</w>
me smerized</w>
me d
me als</w>
maul tier</w>
mau ern</w>
mau er
mat schigen</w>
mat rosen
mat iner</w>
mat h</w>
mat eri
mat ely</w>
martin i</w>
marsh mal
marsch kapelle</w>
markt straße</w>
marki sen</w>
mark tes</w>
marin a</w>
mari ach
mariach i</w>
mari a
maria chi
marathon läuferin</w>
mar sh</w>
manövri eren</w>
mannequ ins</w>
mann -
maneu vers</w>
maneu vering</w>
mana gement</w>
man ual</w>
man t
man hole</w>
mal erische</w>
maje stä
magaz in</w>
ma ster</w>
ma ple</w>
ma is</w>
ma d</w>
m y
m ten</w>
m ped</w>
m olli
m mage</w>
m ly-
mly- lit</w>
m ine</w>
m i</w>
m eine</w>
m bo
lö sch
lö chern</w>
lö cher</w>
ländi scher</w>
lu x
lu pe</w>
loun ges</w>
loo p</w>
lolli pop</w>
lo ttery</w>
lo tter
lo t
lo ser</w>
lo s
lo cked</w>
ll te</w>
ll s</w>
live stock</w>
lit tered</w>
lin eal</w>
lin d
lind grünen</w>
lim b</w>
lila farbenes</w>
lie be</w>
lich keiten</w>
li ves</w>
li g</w>
li chtung</w>
li chten</w>
leucht reklame</w>
len k
lenk rad</w>
lem on</w>
leichtath let</w>
leichtath le
leichtathle tik
lei sten</w>
leh m
leder kleidung</w>
lebha ft</w>
lebensmittel verkäufer</w>
leben s</w>
leaf y</w>
lea k</w>
le ys</w>
le x
le ur</w>
le send</w>
le mon
le hn
le grill</w>
le go
le ert</w>
le e</w>
lay ered</w>
laun ching</w>
laun ches</w>
laun ch</w>
lauf kleidung</w>
lauf bekleidung</w>
lau ter</w>
lau t</w>
lau schen</w>
latz hose</w>
latin o</w>
later nen
lat ten
lass oing</w>
langärmel i
lang ärmigen</w>
land wir
land sca
land mark</w>
land es</w>
lan de
lande bahn</w>
lan ce</w>
lamp en
lader ampe</w>
lad le</w>
la vi
la tex</w>
la tex
la m
la ken</w>
la ke
lake side</w>
la cki
l öff
l ons</w>
l lama</w>
küsten linie</w>
kürbi sfeld</w>
küchen boden</w>
kü ssen
kö nn
käm pf
kä se
kä fer</w>
kurz ärmeligen</w>
kurz haariger</w>
kurz haarige</w>
kur ses</w>
kund schaft</w>
kul ture
ku scheln</w>
ku s</w>
ku geln</w>
krä f
kroko dil
krist all
kreuz fahrt
kreuzfahrt schiff</w>
kreu zen</w>
krei ch</w>
kranken wagen</w>
krab be</w>
kore an</w>
korb stuhl</w>
kor ble
korble ger</w>
kontrol liert</w>
kontrol lieren</w>
konstru ktionen</w>
konkur ri
kon tra
kon gre
kompli zierten</w>
kompli zi
komp lex</w>
kommuni ziert</w>
kommuni zieren</w>
kokosn üsse</w>
koch kleidung</w>
ko sten
ko st
ko mischen</w>
ko ffer
knö pften</w>
knie strümpfen</w>
knie schützern</w>
kni ves</w>
kni end</w>
kne ss</w>
kne el</w>
kn äuel</w>
kn u
kn its</w>
klö tzen</w>
kli ft</w>
kletter gurt</w>
kletter ausrüstung</w>
klein erer</w>
kle bt</w>
klar em</w>
kl ub</w>
kl er</w>
kl einem</w>
kin o</w>
kil l</w>
kies weg</w>
kick boxing</w>
kick boxer</w>
kick box
ki ssen
ki ssed</w>
ki ppt</w>
ket tle</w>
ket tet</w>
ker ami
kenn zeichnung</w>
ken nen</w>
kel in</w>
kek se</w>
kawasa ki</w>
kaukasi scher</w>
kaukasi sche</w>
kauf haus
kau gummi
karu ssel</w>
kartoff eln</w>
karne val</w>
kapuzen jacke</w>
kapu zenteil</w>
kani ster</w>
kanadi sche</w>
kampfspor tt
kampf sportkleidung</w>
kampf richter</w>
kamel e</w>
kal tes</w>
kahl köpfigen</w>
kaffee tisch</w>
ka ssi
ka ssen
ka pit
ka bin
k us
k tisch</w>
k t
k night</w>
k lo
k le</w>
k it</w>
jun k</w>
ju g</w>
john s</w>
jogging hose</w>
jogging anzug</w>
jesu s</w>
je doch</w>
japan er</w>
jahrmarkt s
jack son</w>
jack s</w>
jack hammer</w>
jack -
ja hr</w>
j ury</w>
j er
j ars</w>
j an
jan it
janit or</w>
j alou
itt i</w>
itali an</w>
it self</w>
it a
irokesen frisur</w>
iro ning</w>
irgend welchen</w>
ir ish</w>
interessan tes</w>
intere sted</w>
intere ssierten</w>
interagi ert</w>
inter ior</w>
inline skater</w>
infan ts</w>
industrie gebäude</w>
indi sches</w>
indi ans</w>
inder in</w>
incredi ble</w>
in vesti
in um</w>
in timate</w>
in sa
in ne</w>
in n</w>
in formal</w>
in dex</w>
in a</w>
imbiss stand</w>
imbi ss</w>
im pro
im migration</w>
ign oriert</w>
identi fi
iden tisch</w>
i si
i scher</w>
i pad</w>
hügel igen</w>
hüb sches</w>
hüb scher</w>
hörn ern</w>
hörn chen</w>
hölzer nes</w>
häu ser
hänge g
hängeg leiter</w>
hän genden</w>
hä tte</w>
hä mmert</w>
hur dles</w>
hunder te</w>
hunder ennen</w>
hunde schau</w>
hun dre
hundre ds</w>
hula-ho ops</w>
hudd ling</w>
hr werk</w>
hou ston</w>
horse -
horse- drawn</w>
hoo dies</w>
hon or</w>
holzko h
holzkoh legrill</w>
holz tür</w>
holz gebäude</w>
holz fäl
holz -
holi da
holida ys</w>
hol ing</w>
hockey mannschaften</w>
hochzu heben</w>
hochzeit stag</w>
hoch start</w>
hoch springen</w>
hoch gescho
hoch gelegten</w>
hoch druck
ho using</w>
ho ses</w>
hispano amerikaner</w>
hinunter zu
hinter rad</w>
hinter n</w>
hinter einander</w>
hinter e</w>
hinter beine</w>
hinge setzt</w>
hinder nisse</w>
hija b</w>
high ly</w>
herunter zu
herren friseur</w>
herbst tag</w>
herausra gen</w>
her de</w>
her auszu
herauszu finden</w>
her an</w>
hen na-tattoo</w>
hell em</w>
hell blauer</w>
hell blauem</w>
heine ken</w>
heim werker
hear tbeat</w>
health care</w>
head gear</w>
he iten</w>
he eled</w>
he dge</w>
he cke</w>
he bung</w>
he at</w>
hawaii- hemd</w>
hau p
hat ted</w>
hasen ohren</w>
harthol z
har kt</w>
har d-
happen ing</w>
handle bars</w>
handgelen k</w>
hand voll</w>
hand tüchern</w>
hand made</w>
hand kerchie
hand griff</w>
hand gerät</w>
hand ge
hand ful</w>
hand bewegungen</w>
han di
handi capped</w>
ham burgers</w>
halloween- kostümen</w>
halb wilden</w>
hal stü
hair net</w>
haar salon</w>
haar netz</w>
ha zard</w>
ha cke</w>
ha be</w>
ha -
h ausge
h ate</w>
gän se
gur t
gummi stiefeln</w>
gum mi</w>
gue st</w>
gu ing</w>
gs feier</w>
grü ßt</w>
größer er</w>
größ er</w>
gruppen foto</w>
gruppen bild</w>
grund stück</w>
grund schulkinder</w>
groß mutter</w>
grou ped</w>
gro wing</w>
gro unds</w>
grin det</w>
grima cing</w>
griff s
gri zz
gri pping</w>
gri d</w>
grei fer</w>
gre et</w>
gre ens</w>
gre en-
grau- weißer</w>
grau- weiße</w>
graph y</w>
grand mother</w>
grand daughter</w>
graffiti -
gradu ate</w>
gra ying</w>
govern ment</w>
gotte sdienst</w>
gor ge
gorge ous</w>
golf schläger</w>
gold farbener</w>
gokar t</w>
go of
go me
glück lichen</w>
glä ttet</w>
glä tten</w>
gleich auf</w>
glei cher</w>
gla tten</w>
gla sur</w>
gitarren spieler</w>
gitarre spieler</w>
gi schen</w>
gi fts</w>
gi eri
gieri g</w>
gh and
gg le</w>
gewän der</w>
gewäch shaus</w>
geworfen en</w>
gewin nt</w>
gewehr e</w>
gewe be</w>
gew un
getu pften</w>
getr au
getrau t</w>
gesp on
gesichts schutz</w>
gesichts masken</w>
gesi cher
gesen kt</w>
gesell schafts
geschäfts anzug</w>
geschnit zte</w>
geschmin kter</w>
geschmin kte</w>
geschla genen</w>
geschirr spüler</w>
gesch al
gerü sten</w>
gerä ts</w>
geri ssenen</w>
ger ei
gepäck stücken</w>
gepol sterten</w>
gepark te</w>
geometri schen</w>
geometri c</w>
gemüse stand</w>
gemüse markt</w>
gemäl des</w>
gemuster te</w>
gemein samen</w>
gemein same</w>
gemein de</w>
gelände maschine</w>
gelände fahrer</w>
gelen kt</w>
geldbör sen</w>
gelb- blauen</w>
gela ssenen</w>
gel o
gel and
geland et</w>
gehör schutz</w>
geh endes</w>
geh e
gegneri scher</w>
gefä hr
gefroren e</w>
geflie ßten</w>
gedu ckter</w>
gebü ckt</w>
gebäude eingang</w>
gebä ck</w>
geburtsta gsfeier</w>
gebun denen</w>
gebl ie
gebeug ter</w>
geback enen</w>
geb rä
ge waschen</w>
ge wandt</w>
ge walt</w>
ge trock
ge taucht</w>
ge stürzt</w>
ge strichenen</w>
ge stapelt</w>
ge kreuzten</w>
ge kauft</w>
ge grill
ge füttert</w>
ge fährt</w>
ge ese</w>
ge eig
ge druckt</w>
ge blockt</w>
gat e
gate way</w>
gas maske</w>
gas grill</w>
garten werkzeug</w>
garten stühlen</w>
garden s</w>
gar t</w>
gar ment</w>
gan ze</w>
gan gs
gan gen</w>
galop piert</w>
ga stronomie
ga b</w>
g ü
g tes</w>
g no
g ger</w>
g ates</w>
fü r
fü gt</w>
förm lichen</w>
för miges</w>
för mige</w>
för der
förder band</w>
fäu stlingen</w>
fäu ste</w>
fäl le</w>
fä ssern</w>
fä r
fä hre</w>
fußball trikots</w>
fußball spiels</w>
fußball netz</w>
fußball er</w>
fu hrwerk</w>
früh ling
fron t
fro sting</w>
friseur salon</w>
frisbe es</w>
fri sches</w>
fri g</w>
freun des</w>
frem d
freiluft veranstaltung</w>
freiluft konzert</w>
freiheit sstatue</w>
frei e</w>
free way</w>
französi schen</w>
fran sten</w>
fran kreich</w>
fra gen</w>
fr ance</w>
four- wheeler</w>
foto shooting</w>
fortun e</w>
form s</w>
form ellen</w>
form ations</w>
form ationen</w>
fore ver</w>
for t
for rest</w>
for mi
for klift</w>
for dert</w>
football- mannschaften</w>
football s</w>
foot prints</w>
fon d</w>
fol d-up</w>
foc uses</w>
fo yer</w>
fo berteil</w>
flughafen s</w>
flug zeugen</w>
flug zeug
flu cht</w>
floo ded</w>
floo d</w>
flo tation</w>
flie ger
flie gen
fli ghts</w>
fli ers</w>
flexi ble</w>
fle ck</w>
flash light</w>
flach em</w>
fla mbo
fla che</w>
fl yer</w>
finger tips</w>
finger nail</w>
fin al</w>
film set</w>
fil ms</w>
fil men</w>
fig ur
fi sts</w>
fi st</w>
fi red</w>
fi er
ff les</w>
feuerwehr leuten</w>
feuerwehr fahrzeug</w>
feuerwehr angehöri
feuer werksk
feu ers</w>
feu ern</w>
feu cht
festi ve</w>
fest lichen</w>
fer ry</w>
fenster bank</w>
fen sters</w>
fen ces</w>
fen ce
fence d-in</w>
fels formationen</w>
fel dern</w>
fel der</w>
fein kost
fee ds</w>
fecht wettkampf</w>
fecht kampf</w>
feat ured</w>
fe stum
fe ed</w>
fe chter</w>
fau st</w>
farb spritzern</w>
far blich</w>
fami lies</w>
fallschirm springer</w>
fall schirmen</w>
fall schirme</w>
fair way</w>
fahr gästen</w>
fahr gäste</w>
fahr erin</w>
fahr er
fahrer sitz</w>
fach kräfte</w>
fabrik arbeiter</w>
fa st
fa ssen</w>
fa ced</w>
fa ce
fa cade</w>
f öhnt</w>
f ö
f ut
f lin
f es</w>
f am
fam ous</w>
explo res</w>
expl orer</w>
experi ments</w>
ex tends</w>
ex posing</w>
ex per
ex pensive</w>
ex pe
ex it</w>
ex ca
every where</w>
every one</w>
europä isches</w>
ethni scher</w>
et es</w>
essens verkäufer</w>
ess waren</w>
es eln</w>
ers t</w>
ern ten</w>
erkun det</w>
eri ous</w>
er ör
er ungs
er ste</w>
er scheint</w>
er richtet</w>
er richten</w>
er kunden</w>
er klettert</w>
er hebung</w>
er fahrener</w>
er e
er b
equip ped</w>
entschei den</w>
entlang fährt</w>
entlang fahren</w>
enthusia stic</w>
enthusia sm</w>
entfern ten</w>
entertain ment</w>
entertain ed</w>
enter tains</w>
enter taining</w>
ent schlo
ent deckt</w>
enn bahn</w>
enga ges</w>
ener gi
en ters</w>
en ter</w>
en semble</w>
en kelin</w>
en es</w>
en ded</w>
en closed</w>
en clo
enclo sure</w>
empfan g
empana das</w>
eli ger</w>
elev ator</w>
elegan t</w>
electri cian</w>
electri cal</w>
el ten</w>
el li
el lan
el bow</w>
el ast
el a
eiss kulptur</w>
eisk rem</w>
eisen bahn</w>
eis wagens</w>
eis stand</w>
einzigar tigen</w>
einge packtes</w>
einge bo
eingang shalle</w>
einfa ch</w>
ein zut
ein stie
ein hän
ein geschal
ein gerahmte</w>
ein ander
ei stüten</w>
ei screm</w>
ei erkuchen</w>
ei de
eide ch
ehe mann</w>
ef fort</w>
ec stati
ear bu
earbu ds</w>
e ze</w>
e very</w>
e olo
e k
e di
e arring</w>
dünn er</w>
dutz ende</w>
dutz end</w>
durch schnitt
durch nä
durch einander</w>
dur cht
dunkelhäuti ges</w>
dunkel haarigen</w>
dun ks</w>
dum ps</w>
dudel sack
du stpan</w>
du ffel</w>
du e</w>
du ckt</w>
du cking</w>
drän geln</w>
dri gen</w>
dri ft</w>
dri es</w>
dri ed</w>
dress er</w>
dreirä der</w>
dre nched</w>
dre ie
dre ckigen</w>
dre ads</w>
draht seil</w>
drag ster</w>
drachen kostüm</w>
dr unk</w>
dr ein</w>
dor m</w>
doppel de
doppelde cker
doku mente</w>
do zen</w>
do d
do cu
dj -
dition ing</w>
dit ch</w>
dish washer</w>
dis ne
dire ctor</w>
dire cted</w>
dinosauri er</w>
dien st
dia show</w>
di stri
di storted</w>
di plo
di mly-lit</w>
di le</w>
di et</w>
di ck
di chten</w>
di at
deut lich</w>
dess erts</w>
desig ner
desc ri
desc ends</w>
denti st</w>
demonstra tes</w>
defen se</w>
defen ds</w>
dec als</w>
deal er</w>
de solate</w>
de picting</w>
dar um</w>
dar stellt</w>
dar kness</w>
dar kly</w>
dan ach</w>
dam pf</w>
dam en
dal matiner</w>
dachsh und</w>
da sselbe</w>
da hin
d welling</w>
d ugout</w>
d ort</w>
d ers
d ent
d ehnt</w>
d and
dand eli
cyc lone</w>
cut out</w>
cut -
cut- out</w>
custo dy</w>
cur tain</w>
cur ling</w>
cul ture</w>
cul tural</w>
cu shion</w>
cti c</w>
crou ch</w>
cro tch</w>
cro co
croco dile</w>
cri cket
cre me</w>
cre ative</w>
cra shes</w>
cra shed</w>
cra cks</w>
cowboy stiefeln</w>
cowboy kleidung</w>
cowboy hüten</w>
cover ings</w>
counter top</w>
counter s</w>
cou ch
couch tisch</w>
costum ed</w>
cor ridor</w>
cor ral</w>
cor gi</w>
cor d</w>
contain ers</w>
congreg ating</w>
congreg ated</w>
con tor
con tent</w>
con tains</w>
commut ers</w>
colli de</w>
colle cted</w>
cock tails</w>
cobb led</w>
coa st
clip board</w>
cler k</w>
cle ats</w>
cla w</w>
cla sp
cla ms</w>
ck el</w>
ci d</w>
choreo graph
chevro let</w>
chee se
che w</w>
che ers</w>
char ging</w>
cha o
cha eolo
ch y</w>
ch et</w>
ch eln</w>
ch art</w>
cer tifi
cer eal</w>
cer ami
cerami c</w>
cen tral</w>
cell s</w>
cel lo
cat es</w>
care ful</w>
car pen
car ol</w>
car ol
car ca
cap tures</w>
cap tured</w>
cap tain</w>
can ned</w>
can es</w>
camp ern</w>
camera men</w>
cam paign</w>
cal vin</w>
cabin et</w>
ca stro</w>
ca pit
ca pes</w>
ca ges</w>
ca bri
c rystal</w>
c ry</w>
c in
c ani
cani ster</w>
büro gebäude</w>
bürger steigs</w>
bühnen auftritt</w>
bücher ei</w>
bär tigen</w>
bä ren
button -
button- down
butter brot</w>
butcher ing</w>
but t</w>
bur n</w>
bur ka</w>
bunge e-
bun t
bumm eln</w>
bum per</w>
bull s</w>
bull -
budd elt</w>
bu stier</w>
bu ster</w>
bu si
bu lance</w>
bu kett</w>
bu gs</w>
bu g</w>
bu den</w>
brü stung</w>
bräun lichen</w>
brust korb</w>
brunn en
broschür en</w>
bronze statue</w>
brin dle</w>
brie fs</w>
brick- paved</w>
bri skly</w>
brenn er</w>
break fast</w>
break dancer</w>
brea st
bre itet</w>
bre ites</w>
bre eze</w>
braun- weißem</w>
braun haarigen</w>
brasi li
bra zil</w>
bra ces</w>
br ing</w>
box kampf</w>
bowling spieler</w>
boun cy</w>
boun ces</w>
boun cer</w>
boun ce</w>
bor dering</w>
bor dered</w>
boot sanlegestelle</w>
boo gie
bohr er</w>
bo wed</w>
bo ut</w>
bo je</w>
bo dies</w>
bo ating</w>
blü ten
blut druck</w>
blumen topf</w>
blumen druck</w>
blu es</w>
blow -up</w>
bloss oming</w>
blon ds</w>
blo ßen</w>
blo wn</w>
ble ckt</w>
ble ch</w>
blau- weißer</w>
blau- schwarzen</w>
blau- rosa</w>
blau- braunen</w>
blau grünem</w>
blasinstru mente</w>
blasinstru ment</w>
black top</w>
bla ss
bitt et</w>
bin der</w>
bild schirms</w>
bild schirme</w>
bil ls</w>
bil det</w>
bikini- unterteil</w>
bier gläsern</w>
bier flaschen</w>
bi stro</w>
bi ente</w>
bi en
bi cyc
bewölk tem</w>
bewer tet</w>
bewa chen</w>
betrie benen</w>
betre ut</w>
bet ter</w>
bet ten</w>
bet reibt</w>
besetz te</w>
beschädig tes</w>
beruhi gt</w>
beruf skleidung</w>
berg pfad</w>
berei chs</w>
ber itt
ber i
ber gab</w>
ben de</w>
bemal te</w>
beleuch tete</w>
belei bter</w>
beisam mensein</w>
beige farbener</w>
beige -
behinder te</w>
beg leit
beg inn
beeindruck ende</w>
bedru ckt</w>
beauti fully</w>
bear er</w>
be zeichnet</w>
be stimm
be stellung</w>
be steigen</w>
be stehenden</w>
be stand
be spritzen</w>
be schmiert</w>
be cher
be ats</w>
be ater</w>
be at
be arbeit
bearbeit ung</w>
be ans</w>
be ad</w>
baum gruppe</w>
baum bestand
bauarbeiter helm</w>
bau cht
bau arbeitern</w>
bath ed</w>
bat ons</w>
bast eln</w>
bassi st</w>
basketball wurf</w>
basketball platz</w>
basketball -
basket bälle</w>
baseball s</w>
baseball platz</w>
barrica des</w>
barri ere</w>
barbi e</w>
bar ker</w>
bar k</w>
bar ett</w>
band kollegen</w>
band age</w>
ban quet</w>
balti more</w>
bal lett</w>
bahn arbeiter</w>
bag pipe</w>
bag gage</w>
back waren</w>
back hand</w>
back -
ba serunner</w>
ba ker</w>
ba ke</w>
ba gg
b s
b rut
b rennt</w>
b reit</w>
b on</w>
b jekt</w>
b it
b ins</w>
b elnden</w>
b att
batt ling</w>
außer gewöhn
außen wand</w>
auszu ziehen</w>
aussicht spunkt</w>
ausgestop ften</w>
ausgestop fte</w>
ausgeschnitt ene</w>
ausge fransten</w>
ausge fallen
aus zuruhen</w>
aus wirft</w>
aus streckt</w>
aus land</w>
aus gelegt</w>
aus gelassen</w>
aus führt</w>
augen brau
aufnah mestudio</w>
aufkle bern</w>
aufgesetz ten</w>
aufgeh ängt</w>
aufge wühl
aufge stellten</w>
aufge malt</w>
auf wärts</w>
auf treten</w>
auf regen
auf nimmt</w>
auf nehmen</w>
auf halten</w>
auf gebaut</w>
auf bäu
au ßentreppe</w>
au dio</w>
atten d</w>
attack ieren</w>
atta ches</w>
atlan ta</w>
ation s
ati c</w>
athle ten</w>
at tired</w>
at em</w>
at em
astronau ten
astronau t</w>
assem bly</w>
ass ortment</w>
asphalt straße</w>
aschen bahn</w>
arti ge</w>
arti g</w>
arri val</w>
arran ged</w>
archite k
arch äolo
arbeitsh and
arbeit splatte</w>
arabi scher</w>
ar ten</w>
ar t
ar ra
ar kade</w>
ar guing</w>
ar chaeolo
aqu atic</w>
approxi mately</w>
appro ach</w>
app lied</w>
answ ers</w>
ani sche</w>
ani mat
angemal ten</w>
angelein t</w>
angebo t</w>
ange schaut</w>
ange malt</w>
ange kettet</w>
ange griffen</w>
ang st</w>
ang les</w>
ang ler</w>
an ziehen</w>
an tw
an sichten</w>
an schneiden</w>
an nual</w>
an no
an leitung</w>
an lass</w>
an kommenden</w>
an hält</w>
an gucken</w>
an griffs
an geschnallt</w>
an gebunden</w>
an bietet</w>
an -
ameri ka</w>
ama zing</w>
am used</w>
am bulance</w>
alum inum</w>
altmodi sche</w>
all tag</w>
all en</w>
ali g
ali en</w>
alask a</w>
al ty</w>
al tar</w>
al phabe
al bert</w>
akusti schen</w>
aktiv itäten</w>
akro bat
air line</w>
aggre ssi
afro amerikanischen</w>
afro -
afri kanerin</w>
advan tage</w>
adole scent</w>
admi res</w>
ad just</w>
ad dressing</w>
ad dresses</w>
ad ding</w>
action foto</w>
accompani es</w>
abzu fangen</w>
abge stimmten</w>
abenteu er
ab zunehmen</w>
ab zeichen</w>
ab sätzen</w>
ab seits</w>
ab schluss
ab schleppwagen</w>
ab schlag</w>
ab geschnittenen</w>
ab gelegt</w>
ab fälle</w>
a wnings</w>
a wning</w>
a we</w>
a waits</w>
a shore</w>
a sc
a po
a pfel
a im</w>
a horn
a fro</w>
a cker
a ce</w>
9 6
8 0
2 8
2 5
1 0
0 s</w>
- shaped</w>
- konzert</w>
- gruppe</w>
- geschäft</w>
- fahrer</w>
üppi g</w>
ün schen</w>
ün d
ünd in</w>
übun gs
überwa cht</w>
übersä te</w>
übers ät</w>
übergewich tiges</w>
überdach ung</w>
über schwe
überschwe mm
über schlagen</w>
über schlag</w>
über rest
überrest e</w>
über ra
über legt</w>
über la
überla denen</w>
über hang</w>
über gang</w>
über fluteten</w>
über fliegt</w>
über di
überdi men
überdimen si
überdimensi oni
ü tte</w>
ü ssen</w>
ü r</w>
ü ppigen</w>
ü lt</w>
ü f
ü cher</w>
ü che</w>
ü bri
ör pern</w>
öl fass</w>
öh le</w>
öffent liches</w>
öff nungen</w>
ö tigt</w>
ö tchen</w>
ö stlichen</w>
ö ssi
ö pfi
öpfi ge</w>
ö nn
äu sel
är mer</w>
är en</w>
är e</w>
ängsti gt</w>
äng stlich</w>
än zer</w>
än ze</w>
än gten</w>
än diger</w>
ähn lichem</w>
ähn chen</w>
äh ri
äh len</w>
ä ut
ä uft</w>
ä t
ä ste</w>
ä pfel</w>
ä gyp
ä e</w>
ß verschluss</w>
ß kanne</w>
ß ent
ß band</w>
zü gel</w>
zö ger
zäh ne
zähne putzen</w>
zwil linge</w>
zwi schen
zwei stöckigen</w>
zwei spuri
zweispuri gen</w>
zwei rad</w>
zwei kampf</w>
zwei fel
zweifel t</w>
zuschauer raum</w>
zusammen sein</w>
zusammen passenden</w>
zusammen gebauten</w>
zusammen gebaut</w>
zurück zu
zurück gelegt</w>
zun eig
zuneig ung</w>
zun e</w>
zun e-
zuhörer schaft</w>
zuhör ern</w>
zuge wand
zuge deckt</w>
zug wagg
zugwagg ons</w>
zug swagen</w>
zug hosen</w>
zug führer</w>
zug fahrt</w>
zu stellen</w>
zu stand</w>
zu laufen</w>
zu kunft</w>
zu hält</w>
zu halten</w>
zu gg
zugg lei
zu ges</w>
zu fährt</w>
zu erst</w>
zu bereit
zubereit ung</w>
zogen em</w>
zo oms</w>
zitro ne</w>
zir kus</w>
zig za
zigza g</w>
ziff ern</w>
ziel ort</w>
ziel ler</w>
ziel fernrohr</w>
zieh er</w>
ziegel steingebäude</w>
zi p-
zi mmers</w>
zi ck
zick zack</w>
zeu gt</w>
zerri ssenen</w>
zerlump ter</w>
zerklein ert</w>
zeremon iel
zeremoniel len</w>
zerbroch enen</w>
zerbroch ene</w>
zer zau
zerzau st</w>
zer legen</w>
zer kl
zerkl üf
zer fe
zerfe tzten</w>
zer bricht</w>
zen ti
zenti meter</w>
zement laster</w>
zemen tierten</w>
zelt platz</w>
zelt plane</w>
zeln de</w>
zel tet</w>
zeit gen
zeitgen össi
zeich neten</w>
zei le</w>
zehen spitzen</w>
ze iten</w>
zauber trick</w>
zauber er</w>
zahn sto
zahnsto cher</w>
zahn blüte</w>
zahn arzt</w>
za un
za pf
za ar</w>
z wirbelt</w>
z wie
z tes</w>
z ter</w>
z ot
zot t
zott eliger</w>
z or
z oph
zoph ren
z no
zno s-
znos- sub
znos-sub s</w>
z lich</w>
z körper
z entri
z da</w>
z ards</w>
z ap
zap ft</w>
z ales</w>
young ster</w>
yor kie</w>
yor k-
york- hut</w>
yoga übungen</w>
yo res</w>
yo la-
ympi cs</w>
yama ha-
ya k</w>
y- t-shirt</w>
y- spiel</w>
y- schild</w>
y- looking</w>
y- geschäft</w>
y- doo</w>
y wood</w>
y s-
y or</w>
y ong
yong san</w>
y na
y ment</w>
y ette</w>
y ells</w>
y .</w>
xy gen</w>
xi on</w>
x x
xx o
xxo ti
xxoti ca</w>
x sw
xsw o</w>
wür zt</w>
wür ste</w>
wür dig
wü tend</w>
wü chsi
wüchsi ger</w>
wär mt</w>
wäl zt</w>
wäl der</w>
wurf spiel</w>
wur zeln</w>
wunder ung</w>
wunder schön</w>
wrist band</w>
wri sts</w>
wri st</w>
wrest les</w>
wran gle</w>
wra pper</w>
wr iter</w>
worl d-
wor ten</w>
wor shi
wor ried</w>
wor ked</w>
woo den
wooden -
woo d-
won dering</w>
won der
wol f</w>
wohn viertel</w>
wohn häusern</w>
wohn heim</w>
wohn hauses</w>
wo w</w>
wo unds</w>
wo uld</w>
wo lle</w>
wo lk
wolk en
wo hin</w>
wo durch</w>
wit terten</w>
wit s</w>
wit ne
wissenschaft s
wir kun
wir kt</w>
wir belnden</w>
wir beln</w>
wir bel
winter lichen</w>
winter bekleidung</w>
wink end</w>
wink elt</w>
window si
windowsi ll</w>
win ks</w>
win kel</w>
win e
wine glass</w>
win ds</w>
win det</w>
win del
willi am
william s</w>
wildwasser rafting</w>
wild fire</w>
wiel ding</w>
wie gen</w>
wick eln</w>
wich tiges</w>
wi ster
wi se</w>
wi sch
wi s
wis cons
wiscons in</w>
wi mp
wi kin
wi ki</w>
wi gg
wi fe
wife -
wife- beater</w>
white- water</w>
white board</w>
whi sking</w>
wh a
wha ck</w>
wettei f
wetteif ert</w>
wett schwimmen</w>
wet te
wette ssen</w>
wet land</w>
werkzeug gürteln</w>
werk bank</w>
werfer hügel</w>
werden dem</w>
wer ken</w>
wen dy</w>
well- lit</w>
well en
wel t
wel der</w>
wel ches</w>
weiß- rotes</w>
weiß- roter</w>
weiß- braunem</w>
weiß haarige</w>
weiß ene</w>
weiß -</w>
weit läu
weitläu fi
wein roten</w>
wein flasche</w>
weihnachtsmann mützen</w>
weihnachts beleuchtung</w>
weihnacht smo
weihnachtsmo ti
weihnachtsmoti v</w>
weihnacht sli
weibli ch</w>
wei st</w>
wei ghts</w>
wei ght
wei de</w>
weg schaut</w>
web site</w>
we stern
western stil</w>
we st</w>
we ilt</w>
we iler</w>
we hrt</w>
we hr</w>
we ge</w>
we ek</w>
we e
we deln</w>
way- sandwich
waterpro of</w>
water- filled</w>
water falls</w>
water ed</w>
wat ery</w>
wat cher</w>
wasserstra hl</w>
wasserspren gan
wassersprengan lage</w>
wasserski -
wassers kulptur</w>
wassers kil
wasser sprit
wassersprit zer</w>
wasser spei
wasserspei er</w>
wasser schlacht</w>
wasser rohre</w>
wasser rand</w>
wasser park</w>
wasser oberfläche</w>
wasser la
wasserla che</w>
wasser fontänen</w>
wasser brunnen</w>
wasser ball
wash ers</w>
wasch mittel</w>
wasch maschinen</w>
wasch -
warten de</w>
warte zimmer</w>
wart ung
wart eh
warri or</w>
warn kleidung</w>
warn kegel</w>
waren geschäft</w>
war ter
warter aum</w>
war tend</w>
war mers</w>
war m
wand gemälde</w>
wand bemal
wandbemal ung</w>
wan ts</w>
wan ting</w>
wan do
wando bjekt</w>
wall -
wall- e</w>
wald landschaft</w>
wald gegend</w>
wald gebiets</w>
wal ze</w>
wal lowing</w>
wal greens</w>
wal ds</w>
wake boarder</w>
wake boarden</w>
wahl kampf
waff neten</w>
waff le</w>
waff en
wach leute</w>
wa ys-
wa vy</w>
wa gem
wagem uti
wa g
wag ons</w>
wa ckel
wa a
waa gere
w ünschen</w>
w y</w>
w rench</w>
w re
w k
w is</w>
w ender</w>
w enden</w>
w einen</w>
w ands</w>
vö l
vul can
vulcan .
vu itt
vuitt on</w>
vro vulcan.
vri l</w>
vorüber gehend</w>
vorüber fährt</w>
vornüber gebeugt</w>
vorn über</w>
vorder rad</w>
vorder pfoten</w>
vorbereit ungen</w>
vorbeizu kommen</w>
vorbeil äuft</w>
vorbeil auf
vorbei schwimmen</w>
vorbei kommt</w>
vorbei fahrenden</w>
vor zubereiten</w>
vor teil</w>
vor stad
vorstad th
vorstadth aus</w>
vor spiel</w>
vor rä
vorrä te</w>
vor nehmen</w>
vor neh
vorneh m</w>
vor lage</w>
vor herr
vor hand</w>
vor hand
vor gesetz
vor garten</w>
volleyball turnier</w>
volleyball team</w>
volleyball spielerinnen</w>
volleyball platz</w>
volleyball mannschaft</w>
vol ley</w>
vol les</w>
vol can
volcan o</w>
vo te</w>
vo ca
visit ors</w>
visi ert</w>
visi er</w>
vis ori
violet te</w>
viol ence</w>
vio usly</w>
vio let</w>
vili ans</w>
vietnam e
vietname si
vierer gruppe</w>
vier rä
vierrä drigen</w>
vielfäl tige</w>
viel er</w>
vie wed</w>
vie w
video spiel
video kameras</w>
video aufnahme</w>
vide othek</w>
victori a</w>
vict im</w>
vi sit</w>
vi ro
viro u</w>
vi ous</w>
vi erte</w>
vi d
vid stern</w>
vi ator</w>
veter an
verw are</w>
verti e
vertie ft</w>
vertei dig
verteidig ern</w>
versor gt</w>
versor gen</w>
verschwommen es</w>
verschwommen en</w>
verschne iter</w>
verschmi ertem</w>
verschlun genen</w>
verschieden farbiger</w>
verschieden es</w>
vers en</w>
vers al</w>
verreg neten</w>
verletz ter</w>
verkäu ferin</w>
verkleide tes</w>
verkleide ten</w>
verkehrspoli zist</w>
verkehrs zug</w>
verkehrs schild</w>
verkehrs reiche</w>
verkehr ske
verkehr s</w>
verkauf sau
verkaufsau tomaten</w>
verk ün
verheira teter</w>
verha ftet</w>
vergrößerungs glas</w>
verbor gen</w>
verbin dung</w>
veranst al
veranstal tet</w>
ver zweifelt</w>
ver ziert</w>
ver z
ver wunderung</w>
ver witterten</w>
ver ur
verur sa
verursa cht</w>
ver treiben</w>
ver tre
vertre ter</w>
ver trau
ver schmut
ver rückt</w>
ver quir
verquir lt</w>
ver passt</w>
ver ne
ver mischt</w>
ver lo
verlo ren
ver li
ver legen</w>
ver kleidung</w>
ver iz
ver hü
verhü llte</w>
ver h
ver graben</w>
ver gla
vergla sten</w>
[...]
