<unk>	0
<s>	0
</s>	0
in	-0
en	-1
er	-2
ein	-3
▁ein	-4
ch	-5
au	-6
an	-7
▁E	-8
em	-9
un	-10
▁s	-11
▁Ein	-12
ei	-13
▁M	-14
▁d	-15
it	-16
▁einem	-17
▁S	-18
el	-19
▁in	-20
und	-21
▁m	-22
▁F	-23
▁au	-24
ge	-25
▁mit	-26
ar	-27
▁auf	-28
▁und	-29
▁H	-30
ann	-31
ie	-32
te	-33
▁Mann	-34
▁B	-35
▁b	-36
sch	-37
on	-38
st	-39
rau	-40
hr	-41
▁v	-42
▁K	-43
▁einer	-44
wei	-45
▁i	-46
▁Eine	-47
ter	-48
ten	-49
▁G	-50
as	-51
or	-52
▁h	-53
al	-54
▁Frau	-55
tr	-56
es	-57
ck	-58
▁P	-59
and	-60
gen	-61
▁der	-62
▁Z	-63
▁z	-64
ich	-65
▁sch	-66
ro	-67
iel	-68
▁Mä	-69
▁eine	-70
▁g	-71
▁T	-72
▁k	-73
piel	-74
▁die	-75
am	-76
▁ge	-77
▁w	-78
▁einen	-79
▁W	-80
de	-81
▁an	-82
ht	-83
gt	-84
ben	-85
▁f	-86
▁J	-87
▁l	-88
▁Zwei	-89
chen	-90
▁Sch	-91
▁D	-92
▁im	-93
▁zu	-94
ind	-95
itz	-96
▁ste	-97
ne	-98
▁R	-99
ers	-100
ber	-101
hen	-102
▁L	-103
ung	-104
rei	-105
ier	-106
ft	-107
▁A	-108
ach	-109
▁sitz	-110
▁vor	-111
▁bl	-112
all	-113
et	-114
▁kl	-115
ner	-116
ßen	-117
▁Str	-118
um	-119
▁von	-120
nen	-121
at	-122
unge	-123
ähr	-124
▁sich	-125
ur	-126
schen	-127
▁spiel	-128
▁klein	-129
äl	-130
ad	-131
dchen	-132
▁Mädchen	-133
▁dem	-134
il	-135
pp	-136
lei	-137
▁schw	-138
▁Hund	-139
▁ro	-140
▁Gr	-141
ut	-142
▁Kind	-143
ße	-144
arz	-145
ol	-146
▁wei	-147
erson	-148
▁Person	-149
eu	-150
sen	-151
nner	-152
ot	-153
den	-154
▁Männer	-155
ahr	-156
ir	-157
▁schwarz	-158
bei	-159
▁St	-160
▁Ge	-161
▁Stra	-162
▁steht	-163
ppe	-164
pr	-165
▁den	-166
▁blau	-167
▁tr	-168
▁sein	-169
end	-170
▁sitzt	-171
ander	-172
▁j	-173
über	-174
isch	-175
▁Junge	-176
▁Men	-177
ass	-178
fen	-179
men	-180
▁bei	-181
ger	-182
le	-183
uppe	-184
än	-185
ält	-186
ik	-187
▁über	-188
▁Straße	-189
ährend	-190
▁während	-191
äu	-192
▁be	-193
▁Menschen	-194
▁r	-195
▁Gruppe	-196
der	-197
▁O	-198
ball	-199
▁ihr	-200
▁hält	-201
unter	-202
▁spielt	-203
rü	-204
emd	-205
▁V	-206
se	-207
tet	-208
▁aus	-209
▁spr	-210
cke	-211
▁Hemd	-212
▁Personen	-213
ang	-214
▁n	-215
ent	-216
▁ne	-217
acht	-218
ür	-219
▁das	-220
▁um	-221
pf	-222
inter	-223
ehr	-224
leid	-225
▁ander	-226
aar	-227
▁eines	-228
▁Wass	-229
be	-230
eil	-231
ingt	-232
▁Kinder	-233
im	-234
urch	-235
▁N	-236
▁neben	-237
▁Frauen	-238
▁stehen	-239
re	-240
▁blauen	-241
▁Wasser	-242
▁am	-243
▁gro	-244
▁durch	-245
▁ist	-246
ell	-247
ägt	-248
rad	-249
is	-250
▁roten	-251
▁sitzen	-252
▁weißen	-253
eg	-254
hn	-255
▁Drei	-256
▁spielen	-257
▁ent	-258
la	-259
icht	-260
▁p	-261
he	-262
arben	-263
ab	-264
us	-265
iert	-266
ährt	-267
▁ver	-268
▁Hand	-269
fer	-270
gr	-271
lich	-272
▁geht	-273
▁trägt	-274
elt	-275
af	-276
kt	-277
bo	-278
ick	-279
▁fährt	-280
▁Fahr	-281
▁grü	-282
▁gel	-283
teil	-284
eln	-285
▁brau	-286
▁Bo	-287
▁unter	-288
▁Leu	-289
▁Kleid	-290
▁kleines	-291
imm	-292
▁entl	-293
os	-294
▁macht	-295
▁Ober	-296
▁schau	-297
ug	-298
▁entlang	-299
och	-300
▁zwei	-301
▁springt	-302
enn	-303
anz	-304
arbei	-305
igen	-306
▁schwarzen	-307
▁junge	-308
äch	-309
agen	-310
ungen	-311
▁weiß	-312
▁kleiner	-313
▁C	-314
▁Spiel	-315
uch	-316
cken	-317
ehrer	-318
spiel	-319
ern	-320
auf	-321
▁Ko	-322
irt	-323
▁gehen	-324
▁Ar	-325
klei	-326
▁Leute	-327
om	-328
▁her	-329
▁U	-330
est	-331
▁Bl	-332
ril	-333
kleide	-334
uß	-335
▁Fel	-336
hirt	-337
gel	-338
ischen	-339
ig	-340
▁sie	-341
älter	-342
▁Ho	-343
bäu	-344
ige	-345
alten	-346
ange	-347
▁Fahrrad	-348
ler	-349
▁et	-350
▁Sk	-351
hl	-352
was	-353
▁wir	-354
▁etwas	-355
▁älter	-356
fahr	-357
▁t	-358
▁Fuß	-359
ehrere	-360
▁Ball	-361
▁seinem	-362
▁Oberteil	-363
farben	-364
eit	-365
▁lie	-366
▁großen	-367
ul	-368
uft	-369
▁hin	-370
acke	-371
nee	-372
ieren	-373
rille	-374
▁Gebäu	-375
▁gekleide	-376
ark	-377
ort	-378
grund	-379
▁Bau	-380
bt	-381
zeu	-382
▁Frei	-383
▁Kam	-384
▁Hinter	-385
▁or	-386
ild	-387
▁vers	-388
▁er	-389
▁Luft	-390
bl	-391
boar	-392
▁o	-393
▁Strand	-394
sam	-395
▁grünen	-396
äuft	-397
era	-398
▁Mehrere	-399
weg	-400
▁Tr	-401
▁st	-402
▁da	-403
▁Der	-404
▁al	-405
▁läch	-406
▁sind	-407
ör	-408
▁für	-409
▁läuft	-410
aufen	-411
▁Jungen	-412
zen	-413
ate	-414
ack	-415
▁Bas	-416
ze	-417
▁Hintergrund	-418
▁hinter	-419
▁nach	-420
oto	-421
▁arbei	-422
▁Die	-423
▁Freien	-424
▁anderen	-425
▁Jacke	-426
unger	-427
▁hat	-428
ster	-429
Shirt	-430
ett	-431
ant	-432
▁Kleidung	-433
det	-434
▁Kopf	-435
▁Schw	-436
▁junger	-437
zeug	-438
▁schaut	-439
▁Sp	-440
spieler	-441
▁vorbei	-442
üt	-443
äft	-444
▁hoch	-445
▁Schnee	-446
ank	-447
▁Haar	-448
▁Tisch	-449
ag	-450
lat	-451
▁I	-452
ühr	-453
▁Son	-454
achen	-455
angen	-456
ow	-457
ün	-458
fon	-459
menge	-460
aus	-461
▁An	-462
▁Fl	-463
▁andere	-464
▁gelben	-465
▁rot	-466
ans	-467
▁Nä	-468
itar	-469
schau	-470
▁Kl	-471
hne	-472
▁Bü	-473
stü	-474
sche	-475
▁Gebäude	-476
board	-477
▁ih	-478
ing	-479
ock	-480
unk	-481
umen	-482
▁Hut	-483
ennen	-484
▁wird	-485
ele	-486
▁Fußball	-487
fahrer	-488
▁orange	-489
ap	-490
iat	-491
▁beim	-492
▁Nähe	-493
▁Gras	-494
▁kleine	-495
amm	-496
iger	-497
▁blick	-498
▁kleinen	-499
▁Au	-500
▁Kamera	-501
ahn	-502
▁Stad	-503
▁Menschenmenge	-504
ert	-505
▁Hunde	-506
▁schwarzer	-507
art	-508
itt	-509
str	-510
▁Geh	-511
▁Park	-512
▁blon	-513
▁ber	-514
erk	-515
uck	-516
▁Boden	-517
utz	-518
len	-519
ische	-520
otor	-521
farbenen	-522
alt	-523
ennt	-524
▁Gitar	-525
etter	-526
sst	-527
ink	-528
▁bef	-529
▁ros	-530
▁Ber	-531
▁Skate	-532
▁rennt	-533
op	-534
ion	-535
deck	-536
▁Sonnen	-537
▁Es	-538
▁Feld	-539
är	-540
▁Stadt	-541
▁Straßen	-542
eig	-543
▁Vier	-544
▁ihre	-545
latz	-546
▁Foto	-547
▁le	-548
ucht	-549
▁grau	-550
▁zusam	-551
ßer	-552
einander	-553
▁pos	-554
▁ihren	-555
▁In	-556
sten	-557
eans	-558
▁Aut	-559
tes	-560
▁des	-561
▁herum	-562
cht	-563
ff	-564
▁war	-565
asiat	-566
ingen	-567
▁Pfer	-568
▁Gitarre	-569
▁zusammen	-570
▁asiat	-571
▁se	-572
▁dunk	-573
schäft	-574
▁unterh	-575
steig	-576
▁ab	-577
▁Dam	-578
▁Sand	-579
▁Motor	-580
▁Er	-581
ob	-582
kleid	-583
▁älterer	-584
ho	-585
▁fahr	-586
sp	-587
elm	-588
▁Jeans	-589
ver	-590
eigt	-591
▁dabei	-592
des	-593
raußen	-594
▁Bühne	-595
▁fahren	-596
ss	-597
▁Gehweg	-598
▁schl	-599
elle	-600
▁draußen	-601
wach	-602
olz	-603
▁re	-604
ischer	-605
▁blickt	-606
▁Skateboard	-607
▁Brille	-608
ikro	-609
▁Ges	-610
▁Base	-611
▁gest	-612
▁seine	-613
wachsen	-614
kleidung	-615
▁Mikro	-616
aby	-617
oll	-618
▁sehen	-619
▁es	-620
▁hinunter	-621
▁seinen	-622
▁Arbei	-623
ieht	-624
▁hell	-625
▁Gel	-626
wagen	-627
achtet	-628
▁Baby	-629
▁Essen	-630
▁Te	-631
dern	-632
brille	-633
ade	-634
iz	-635
▁Hän	-636
▁Stu	-637
ät	-638
ührt	-639
▁braunen	-640
▁liegt	-641
arkt	-642
▁Schl	-643
▁Holz	-644
▁weißer	-645
▁Schwimm	-646
▁lächeln	-647
▁wie	-648
aft	-649
haar	-650
▁arbeitet	-651
▁Re	-652
▁versucht	-653
uss	-654
▁Bank	-655
▁tanz	-656
▁Baum	-657
fl	-658
▁Paar	-659
zug	-660
lichen	-661
▁Wand	-662
▁tragen	-663
rä	-664
▁als	-665
▁machen	-666
▁Mau	-667
▁Baseball	-668
lag	-669
▁Dame	-670
▁laufen	-671
▁lächelt	-672
nei	-673
▁dar	-674
irm	-675
▁Un	-676
eich	-677
ffen	-678
▁ihrem	-679
ütze	-680
per	-681
▁Hü	-682
▁Me	-683
for	-684
▁große	-685
▁brauner	-686
ll	-687
usik	-688
▁Bür	-689
ket	-690
ück	-691
unst	-692
che	-693
▁Auf	-694
▁schauen	-695
ull	-696
▁kur	-697
▁gestrei	-698
▁Se	-699
ikot	-700
▁Gesicht	-701
▁Bürger	-702
immt	-703
▁betr	-704
▁gegen	-705
ald	-706
▁Klein	-707
▁sieht	-708
▁Bild	-709
▁braun	-710
▁unterhalten	-711
aum	-712
geb	-713
▁ihm	-714
assen	-715
▁Boot	-716
▁versch	-717
▁ältere	-718
▁Rad	-719
bedeck	-720
▁Rei	-721
▁zeigt	-722
▁orangefarbenen	-723
afarben	-724
▁Motorrad	-725
▁arbeiten	-726
▁junges	-727
▁kletter	-728
antel	-729
platz	-730
▁halten	-731
▁Bürgersteig	-732
sehen	-733
▁spricht	-734
lie	-735
▁grün	-736
elefon	-737
▁berei	-738
▁liest	-739
qu	-740
ßt	-741
aff	-742
▁Zu	-743
schaft	-744
ak	-745
▁un	-746
▁Hose	-747
ikan	-748
ennis	-749
▁drei	-750
aur	-751
▁Sh	-752
▁wer	-753
indet	-754
iele	-755
▁Musik	-756
▁Trikot	-757
ri	-758
ine	-759
oller	-760
▁Wald	-761
▁Hosen	-762
▁Tennis	-763
amp	-764
▁Be	-765
▁So	-766
ften	-767
▁Sonnenbrille	-768
orts	-769
▁Gew	-770
aben	-771
▁Sei	-772
▁Kunst	-773
▁Haaren	-774
▁Helm	-775
▁zum	-776
▁Band	-777
▁Meer	-778
gend	-779
▁Pferd	-780
▁Stein	-781
▁Kr	-782
▁Spr	-783
aurant	-784
▁Kü	-785
liche	-786
▁gekleidete	-787
▁Auto	-788
asch	-789
▁Tag	-790
▁rei	-791
estaurant	-792
ien	-793
oot	-794
▁sp	-795
ketball	-796
▁beob	-797
▁gelb	-798
arbeiter	-799
schu	-800
▁Arm	-801
ootball	-802
▁Felsen	-803
▁seiner	-804
euer	-805
▁rosa	-806
▁singt	-807
▁grauen	-808
▁weißem	-809
▁Mikrofon	-810
▁Restaurant	-811
▁schie	-812
▁Zuschau	-813
ängt	-814
tern	-815
▁Erwachsen	-816
mt	-817
▁Gelän	-818
ast	-819
▁Br	-820
▁Berg	-821
▁ihnen	-822
mp	-823
▁Pf	-824
▁Mantel	-825
▁Football	-826
▁Basketball	-827
▁Shorts	-828
▁blauem	-829
▁„	-830
brau	-831
gest	-832
ullo	-833
br	-834
üll	-835
este	-836
▁Eis	-837
▁Fen	-838
▁posiert	-839
asen	-840
▁Pol	-841
ah	-842
ahl	-843
ünf	-844
asse	-845
inkt	-846
asche	-847
use	-848
emand	-849
▁führt	-850
▁befindet	-851
anzug	-852
▁darauf	-853
▁Spielzeug	-854
err	-855
mer	-856
uchen	-857
▁Feuer	-858
▁klettert	-859
eben	-860
▁Das	-861
ullover	-862
▁Vor	-863
▁dunkel	-864
aun	-865
▁Bä	-866
örper	-867
▁Sport	-868
▁Fr	-869
ifor	-870
ecke	-871
ppen	-872
äufer	-873
iet	-874
net	-875
▁wirft	-876
▁Fenster	-877
▁gekleideter	-878
ckt	-879
ste	-880
▁sehr	-881
▁verk	-882
▁Blumen	-883
hnt	-884
eren	-885
▁Schu	-886
▁rennen	-887
zt	-888
aden	-889
achten	-890
▁schwarzem	-891
iv	-892
zu	-893
▁str	-894
stand	-895
änger	-896
▁blauer	-897
aten	-898
scht	-899
▁Raum	-900
▁oder	-901
▁versamm	-902
licher	-903
▁Regen	-904
schl	-905
schw	-906
▁Tre	-907
▁Ver	-908
▁Maul	-909
▁essen	-910
zer	-911
olle	-912
ucks	-913
▁rotem	-914
ill	-915
kind	-916
▁Weg	-917
▁bun	-918
▁Bade	-919
▁isst	-920
▁Kindern	-921
ain	-922
iese	-923
itten	-924
unden	-925
▁Anzug	-926
▁Arbeiter	-927
▁Wei	-928
▁Zeit	-929
▁Männern	-930
▁rosafarben	-931
ke	-932
schirm	-933
▁Geschäft	-934
bst	-935
ess	-936
▁gen	-937
hon	-938
▁Po	-939
▁anderer	-940
▁zuschau	-941
▁Pullover	-942
▁Poliz	-943
▁wartet	-944
▁schwarze	-945
we	-946
haarige	-947
▁langen	-948
▁werden	-949
▁gestreiften	-950
az	-951
immer	-952
▁bele	-953
▁Wiese	-954
▁roter	-955
▁weiße	-956
ater	-957
blau	-958
becken	-959
▁Rucks	-960
▁beleb	-961
att	-962
cher	-963
▁Kar	-964
▁Met	-965
▁posieren	-966
▁springen	-967
sk	-968
▁As	-969
▁Stuhl	-970
▁Schutz	-971
her	-972
▁Ka	-973
▁zw	-974
gang	-975
▁ins	-976
▁Bluse	-977
▁Fluss	-978
▁Schild	-979
omp	-980
▁Sn	-981
▁Buch	-982
▁überqu	-983
dr	-984
sm	-985
auft	-986
ken	-987
inden	-988
körper	-989
▁Viele	-990
▁Spieler	-991
ist	-992
ckey	-993
euch	-994
zeit	-995
ellen	-996
iegel	-997
▁viel	-998
▁Handy	-999
▁Hügel	-1000
▁Metall	-1001
▁Oberkörper	-1002
▁ho	-1003
eine	-1004
▁Fünf	-1005
▁Haus	-1006
▁voller	-1007
▁bereitet	-1008
▁umge	-1009
▁Um	-1010
ierten	-1011
▁warten	-1012
aut	-1013
fel	-1014
▁Sur	-1015
▁genie	-1016
▁Kleinkind	-1017
▁Bauarbeiter	-1018
äss	-1019
▁Al	-1020
ager	-1021
▁Mütze	-1022
▁tanzen	-1023
dem	-1024
sieht	-1025
▁oben	-1026
▁zwischen	-1027
▁betrachtet	-1028
hä	-1029
▁Ro	-1030
wand	-1031
äger	-1032
▁Mit	-1033
▁lil	-1034
ation	-1035
▁flie	-1036
▁Rennen	-1037
old	-1038
ette	-1039
▁Bus	-1040
▁zieht	-1041
ichtung	-1042
▁blonde	-1043
ue	-1044
spr	-1045
▁kn	-1046
utzt	-1047
altung	-1048
▁Schul	-1049
▁Stock	-1050
▁alter	-1051
▁schläft	-1052
alb	-1053
▁Pu	-1054
aren	-1055
ieden	-1056
isten	-1057
▁paar	-1058
erikan	-1059
▁herunter	-1060
▁Seil	-1061
▁lehnt	-1062
▁miteinander	-1063
di	-1064
▁Eink	-1065
▁Snow	-1066
▁Händen	-1067
▁Leuten	-1068
▁schnei	-1069
ücken	-1070
▁reitet	-1071
ekt	-1072
ellt	-1073
graf	-1074
stück	-1075
kel	-1076
häut	-1077
▁ihrer	-1078
▁Bäumen	-1079
▁Rucksack	-1080
▁beobachtet	-1081
▁fr	-1082
stüm	-1083
▁Pap	-1084
▁Pro	-1085
▁Markt	-1086
og	-1087
▁ö	-1088
bahn	-1089
▁Land	-1090
▁ange	-1091
weißer	-1092
▁tanzt	-1093
▁befinden	-1094
▁Radfahrer	-1095
▁Kon	-1096
▁dav	-1097
▁Unifor	-1098
▁En	-1099
▁Gl	-1100
▁gr	-1101
eton	-1102
▁See	-1103
▁Zug	-1104
▁Zaun	-1105
▁haben	-1106
▁schnee	-1107
hör	-1108
kor	-1109
▁Ski	-1110
▁vom	-1111
stein	-1112
▁schiebt	-1113
▁schneebedeck	-1114
fe	-1115
▁ru	-1116
▁Fre	-1117
▁Tur	-1118
▁all	-1119
▁Schn	-1120
▁glei	-1121
▁pink	-1122
▁Beton	-1123
aschine	-1124
ebt	-1125
ärt	-1126
amil	-1127
▁Renn	-1128
▁Gegen	-1129
stu	-1130
änn	-1131
Bahn	-1132
▁Hal	-1133
▁männ	-1134
▁Gewäss	-1135
gl	-1136
esen	-1137
rücke	-1138
▁teil	-1139
feld	-1140
▁Aus	-1141
▁gem	-1142
▁kar	-1143
achts	-1144
▁Rücken	-1145
▁umgeben	-1146
▁frei	-1147
▁Instr	-1148
ies	-1149
ampe	-1150
▁Fris	-1151
▁Famil	-1152
▁Küche	-1153
▁Schwimmbecken	-1154
od	-1155
trän	-1156
äche	-1157
inken	-1158
▁Sprung	-1159
▁Zuschauer	-1160
▁orangefarben	-1161
äd	-1162
igt	-1163
band	-1164
▁gef	-1165
reibt	-1166
▁fest	-1167
▁schein	-1168
▁Einkauf	-1169
▁telefon	-1170
▁verschieden	-1171
oh	-1172
▁son	-1173
utter	-1174
▁Graff	-1175
▁Seite	-1176
▁Welle	-1177
▁Arbeit	-1178
▁Schlag	-1179
▁Treppe	-1180
anst	-1181
emden	-1182
▁gera	-1183
▁lang	-1184
▁spaz	-1185
▁kurzen	-1186
▁trinkt	-1187
▁Graffit	-1188
▁verkauft	-1189
arb	-1190
ied	-1191
▁Or	-1192
werk	-1193
▁Out	-1194
▁ben	-1195
▁mitt	-1196
boarder	-1197
schuhen	-1198
hlen	-1199
▁Gem	-1200
innen	-1201
▁Flag	-1202
▁Schau	-1203
▁Schwarz	-1204
kl	-1205
par	-1206
▁kü	-1207
ungs	-1208
▁zur	-1209
▁Schü	-1210
isches	-1211
▁gerade	-1212
▁versammelt	-1213
▁rosafarbenen	-1214
arr	-1215
unnen	-1216
ühren	-1217
▁Roll	-1218
weißen	-1219
▁aussehen	-1220
yp	-1221
ges	-1222
ief	-1223
ser	-1224
öpf	-1225
▁wo	-1226
ittel	-1227
▁Autos	-1228
▁hängt	-1229
▁Geträn	-1230
▁Familie	-1231
anstaltung	-1232
fit	-1233
ämp	-1234
▁Cow	-1235
▁rau	-1236
Spiel	-1237
▁Verk	-1238
▁bunten	-1239
bee	-1240
weiß	-1241
▁Pla	-1242
▁ihn	-1243
arten	-1244
▁Bahn	-1245
zimmer	-1246
▁nimmt	-1247
▁Papier	-1248
▁mitten	-1249
▁belebten	-1250
▁telefoniert	-1251
lt	-1252
alen	-1253
▁Teen	-1254
▁Shirt	-1255
▁Wagen	-1256
▁offen	-1257
tlichen	-1258
▁blicken	-1259
▁schneidet	-1260
boy	-1261
ompu	-1262
ünst	-1263
▁Bik	-1264
▁Tor	-1265
eigen	-1266
▁kämp	-1267
▁sonn	-1268
aschen	-1269
blauen	-1270
▁gesch	-1271
▁schla	-1272
▁spazieren	-1273
iol	-1274
▁To	-1275
eten	-1276
▁kom	-1277
olley	-1278
stung	-1279
▁malt	-1280
▁denen	-1281
▁Wander	-1282
▁fangen	-1283
▁großer	-1284
▁Frisbee	-1285
▁Richtung	-1286
▁Teenager	-1287
▁asiatische	-1288
immel	-1289
▁foto	-1290
▁rote	-1291
▁Reihe	-1292
▁einige	-1293
▁jemand	-1294
▁schlägt	-1295
olleyball	-1296
▁fotograf	-1297
▁schwimmt	-1298
erb	-1299
fro	-1300
▁br	-1301
fall	-1302
ügen	-1303
▁Ger	-1304
esten	-1305
teten	-1306
gruppe	-1307
▁Gewässer	-1308
▁schneebedeckten	-1309
aße	-1310
ikum	-1311
ässt	-1312
▁Typ	-1313
▁Cowboy	-1314
▁gekleidet	-1315
ust	-1316
ädt	-1317
ogen	-1318
▁Rock	-1319
blikum	-1320
▁Hände	-1321
▁Mutter	-1322
▁fliegt	-1323
ee	-1324
ub	-1325
etz	-1326
kam	-1327
hmen	-1328
ters	-1329
eller	-1330
utsche	-1331
▁Compu	-1332
rüstung	-1333
▁Himmel	-1334
▁freiem	-1335
▁hinauf	-1336
geschäft	-1337
▁Publikum	-1338
tem	-1339
▁Ab	-1340
jacke	-1341
schri	-1342
▁Bart	-1343
stelle	-1344
straße	-1345
▁Rasen	-1346
▁lachen	-1347
▁vielen	-1348
▁Gebäudes	-1349
▁sonnigen	-1350
atte	-1351
▁Fels	-1352
▁Kampf	-1353
▁Brücke	-1354
▁Tasche	-1355
▁kämpfen	-1356
▁Kopfbedeck	-1357
▁Fußballspieler	-1358
fest	-1359
▁Tür	-1360
zogen	-1361
▁hebt	-1362
▁vier	-1363
▁dunklen	-1364
hut	-1365
jekt	-1366
mann	-1367
raut	-1368
▁Mar	-1369
▁Hoch	-1370
fläche	-1371
▁Platz	-1372
▁Weste	-1373
▁hohen	-1374
▁grünem	-1375
▁Zeitung	-1376
▁Geländer	-1377
mm	-1378
aub	-1379
grü	-1380
kom	-1381
▁Ju	-1382
▁Le	-1383
▁af	-1384
ling	-1385
wehr	-1386
▁Sie	-1387
▁Schal	-1388
ünstler	-1389
▁Hemden	-1390
▁Graffiti	-1391
chs	-1392
acken	-1393
inger	-1394
markt	-1395
ument	-1396
▁Hals	-1397
▁groß	-1398
▁Mannes	-1399
▁bereit	-1400
▁Schutzh	-1401
▁Erwachsene	-1402
pft	-1403
▁Ne	-1404
rich	-1405
▁Herr	-1406
▁voll	-1407
▁überqueren	-1408
▁Pool	-1409
▁schn	-1410
laster	-1411
▁Augen	-1412
▁Leben	-1413
▁Unter	-1414
▁liegen	-1415
▁mittler	-1416
▁Spielplatz	-1417
auch	-1418
igar	-1419
▁Bier	-1420
▁Glas	-1421
▁schm	-1422
▁Outfit	-1423
▁blondes	-1424
▁asiatischer	-1425
nt	-1426
▁hü	-1427
ummer	-1428
▁Zigar	-1429
haariger	-1430
▁Kopfbedeckung	-1431
anc	-1432
bank	-1433
▁Kan	-1434
▁Tro	-1435
etten	-1436
▁Flug	-1437
▁umar	-1438
▁Decke	-1439
▁Mauer	-1440
▁davon	-1441
▁Jugend	-1442
▁Schirm	-1443
▁Winter	-1444
▁weißes	-1445
▁mehrere	-1446
▁orangen	-1447
▁hellbrau	-1448
▁zuschauen	-1449
▁Kunststück	-1450
▁na	-1451
atue	-1452
hose	-1453
▁Hof	-1454
▁nack	-1455
▁blaue	-1456
▁öffen	-1457
▁verschnei	-1458
hü	-1459
ibt	-1460
▁bel	-1461
▁Team	-1462
▁alte	-1463
▁Blick	-1464
▁Schür	-1465
▁repar	-1466
▁tritt	-1467
▁Einige	-1468
▁genießt	-1469
▁bereiten	-1470
▁mittleren	-1471
▁dunkelhäut	-1472
▁ü	-1473
bar	-1474
off	-1475
▁Ch	-1476
haus	-1477
park	-1478
uckt	-1479
▁Sof	-1480
anzen	-1481
▁Dach	-1482
▁Klei	-1483
▁schö	-1484
schwarz	-1485
▁Freund	-1486
▁Jemand	-1487
▁zusieht	-1488
▁Feuerwehr	-1489
▁unterhält	-1490
▁Zuschauern	-1491
änd	-1492
schn	-1493
▁bes	-1494
▁Obst	-1495
rädern	-1496
▁Stück	-1497
schrift	-1498
▁Ziegel	-1499
▁Computer	-1500
▁Schaukel	-1501
▁karierten	-1502
ok	-1503
otos	-1504
▁Par	-1505
▁beg	-1506
brett	-1507
▁Gemü	-1508
gänger	-1509
▁alten	-1510
▁lacht	-1511
▁Alters	-1512
▁benutzt	-1513
deo	-1514
ons	-1515
▁Mo	-1516
bild	-1517
ickt	-1518
iges	-1519
▁gew	-1520
anten	-1521
sport	-1522
stuhl	-1523
▁Müll	-1524
▁Sold	-1525
▁grei	-1526
▁Menge	-1527
▁bedeck	-1528
amerikan	-1529
▁Lebensm	-1530
▁Baseballspieler	-1531
tur	-1532
▁dr	-1533
auer	-1534
▁hör	-1535
▁Bein	-1536
▁Sofa	-1537
stümen	-1538
▁Sonne	-1539
▁städt	-1540
▁hinten	-1541
▁einigen	-1542
▁zusehen	-1543
▁Fußgänger	-1544
▁Volleyball	-1545
ko	-1546
▁Kor	-1547
▁Stü	-1548
elmen	-1549
kampf	-1550
ängen	-1551
▁Mund	-1552
▁Ufer	-1553
▁nahe	-1554
▁ries	-1555
▁Asiat	-1556
▁Fotos	-1557
▁treten	-1558
oß	-1559
els	-1560
▁Ak	-1561
▁Dr	-1562
▁gl	-1563
▁Bar	-1564
▁Lei	-1565
gebäu	-1566
immen	-1567
▁unbe	-1568
▁Mitte	-1569
▁lässt	-1570
▁Mensch	-1571
▁großes	-1572
▁Gegenstand	-1573
igk	-1574
afen	-1575
halb	-1576
ines	-1577
pfen	-1578
▁Her	-1579
▁verl	-1580
▁Weihn	-1581
▁außer	-1582
▁schüt	-1583
▁führen	-1584
▁mehrer	-1585
▁Uniform	-1586
▁scheint	-1587
▁zuschaut	-1588
▁nebeneinander	-1589
▁–	-1590
egt	-1591
ini	-1592
ohn	-1593
erne	-1594
stik	-1595
▁bew	-1596
▁rut	-1597
issen	-1598
▁Bett	-1599
▁gibt	-1600
eichen	-1601
fahren	-1602
▁Braut	-1603
▁Nacht	-1604
▁kniet	-1605
▁nicht	-1606
▁Gemüse	-1607
▁farben	-1608
▁nachts	-1609
▁versuchen	-1610
ka	-1611
agt	-1612
gew	-1613
ause	-1614
ition	-1615
▁kurz	-1616
▁lila	-1617
▁viol	-1618
euchten	-1619
▁Hockey	-1620
▁Surfer	-1621
▁Schürze	-1622
▁Zigarette	-1623
▁beobachten	-1624
▁öffentlichen	-1625
ud	-1626
kon	-1627
▁Cl	-1628
itzt	-1629
▁Art	-1630
▁Zelt	-1631
▁Fisch	-1632
▁Garten	-1633
▁gelber	-1634
▁Einkaufs	-1635
▁mehreren	-1636
aw	-1637
öl	-1638
▁pr	-1639
etzt	-1640
gner	-1641
zert	-1642
ender	-1643
gehen	-1644
▁Flagge	-1645
▁Läufer	-1646
▁raucht	-1647
ärm	-1648
itzen	-1649
ollen	-1650
▁Part	-1651
▁Pfad	-1652
▁bärt	-1653
▁stre	-1654
▁Ferne	-1655
▁Grill	-1656
▁Handt	-1657
▁fängt	-1658
▁viele	-1659
▁Stufen	-1660
▁jungen	-1661
▁leuchten	-1662
▁farbenfro	-1663
▁fotografiert	-1664
▁verschneiten	-1665
kr	-1666
arn	-1667
hof	-1668
▁De	-1669
▁de	-1670
alle	-1671
hund	-1672
▁Bow	-1673
▁Eim	-1674
▁Geb	-1675
▁Kap	-1676
▁Ker	-1677
▁weg	-1678
eiten	-1679
rikan	-1680
spann	-1681
gebung	-1682
▁Armen	-1683
▁Rampe	-1684
▁Trick	-1685
▁starr	-1686
▁Nummer	-1687
▁Stange	-1688
pflaster	-1689
▁Trikots	-1690
▁Wanderer	-1691
▁einander	-1692
▁betrachten	-1693
akt	-1694
wen	-1695
öff	-1696
üst	-1697
eibe	-1698
hemd	-1699
rück	-1700
▁sur	-1701
echen	-1702
▁Back	-1703
▁Wett	-1704
lasche	-1705
▁beide	-1706
▁gleich	-1707
▁Plastik	-1708
▁trinken	-1709
▁Veranstaltung	-1710
ats	-1711
tre	-1712
heit	-1713
olgt	-1714
mütze	-1715
ocken	-1716
under	-1717
änzer	-1718
▁Geld	-1719
▁Laden	-1720
▁braune	-1721
▁Telefon	-1722
▁blonden	-1723
▁Gehsteig	-1724
▁Snowboarder	-1725
arf	-1726
vor	-1727
▁man	-1728
atten	-1729
▁Kapu	-1730
▁Tanz	-1731
▁unten	-1732
▁Kostüm	-1733
▁Roller	-1734
▁heraus	-1735
▁Bowling	-1736
untergang	-1737
▁Snowboard	-1738
▁außerhalb	-1739
▁Tennisball	-1740
Sch	-1741
ont	-1742
▁Sa	-1743
ogel	-1744
rand	-1745
▁hil	-1746
iehen	-1747
▁Surf	-1748
▁Vater	-1749
▁reden	-1750
Spieler	-1751
▁greift	-1752
▁weiter	-1753
▁Klassen	-1754
▁Musiker	-1755
▁ausgest	-1756
▁Polizist	-1757
▁unbefest	-1758
▁Instrumen	-1759
▁Skifahrer	-1760
▁Kampfsport	-1761
▁lilafarben	-1762
▁Sonnenuntergang	-1763
ume	-1764
geht	-1765
▁Che	-1766
▁Tau	-1767
▁Turn	-1768
▁dass	-1769
liches	-1770
▁hilft	-1771
▁rotes	-1772
▁beiden	-1773
▁gelbem	-1774
▁Kleidern	-1775
▁Mannschaft	-1776
me	-1777
own	-1778
ren	-1779
köpf	-1780
obil	-1781
phon	-1782
▁Asi	-1783
▁Swe	-1784
mauer	-1785
▁Hüten	-1786
atshirt	-1787
▁Bikini	-1788
▁werfen	-1789
▁zurück	-1790
▁Brunnen	-1791
▁Kletter	-1792
▁rutscht	-1793
▁Fahrzeug	-1794
▁überquert	-1795
▁Aufschrift	-1796
jak	-1797
unt	-1798
▁Ob	-1799
boot	-1800
eugt	-1801
hnen	-1802
oten	-1803
stre	-1804
▁Bei	-1805
uster	-1806
▁barf	-1807
▁legt	-1808
▁Haare	-1809
▁Vogel	-1810
▁einge	-1811
▁surft	-1812
▁Leiter	-1813
▁Kostümen	-1814
▁bärtiger	-1815
ausrüstung	-1816
▁Polizisten	-1817
umm	-1818
▁ko	-1819
ings	-1820
▁Bal	-1821
▁bem	-1822
▁pro	-1823
athon	-1824
halle	-1825
schir	-1826
stell	-1827
zentr	-1828
ünger	-1829
▁Weiß	-1830
einsam	-1831
halten	-1832
▁Damen	-1833
▁Kajak	-1834
▁Sechs	-1835
gebäude	-1836
▁Hochzeit	-1837
▁Maschine	-1838
▁gemeinsam	-1839
▁männliche	-1840
▁Sweatshirt	-1841
▁unbefestig	-1842
ed	-1843
ase	-1844
iff	-1845
▁Co	-1846
eige	-1847
ilit	-1848
osen	-1849
▁bal	-1850
▁geb	-1851
▁Korb	-1852
grünen	-1853
▁Waren	-1854
▁gelbe	-1855
▁kommt	-1856
▁wobei	-1857
▁grüner	-1858
▁nehmen	-1859
▁stellt	-1860
▁nacktem	-1861
▁genießen	-1862
äum	-1863
▁Kn	-1864
▁ir	-1865
ftem	-1866
hand	-1867
reis	-1868
▁Anz	-1869
boden	-1870
ilber	-1871
ilder	-1872
öcken	-1873
▁Pass	-1874
▁Rand	-1875
▁Schm	-1876
▁gras	-1877
mitten	-1878
▁Leine	-1879
▁Statue	-1880
▁blaues	-1881
▁jünger	-1882
▁Kopfhör	-1883
▁blonder	-1884
skleidung	-1885
▁schreibt	-1886
▁versammeln	-1887
▁Regenschirm	-1888
▁städtischen	-1889
ip	-1890
▁Y	-1891
top	-1892
form	-1893
geln	-1894
ippe	-1895
▁Wohn	-1896
iefeln	-1897
▁Eimer	-1898
otorrad	-1899
▁Getränk	-1900
▁Rutsche	-1901
▁Spiegel	-1902
▁amerikan	-1903
▁inmitten	-1904
▁Parkplatz	-1905
▁asiatischen	-1906
▁Lebensmittel	-1907
add	-1908
ätow	-1909
▁Rot	-1910
ossen	-1911
▁trad	-1912
ilitär	-1913
▁Diese	-1914
▁Reifen	-1915
▁Vorder	-1916
▁Westen	-1917
▁leeren	-1918
▁schrei	-1919
▁Stühlen	-1920
▁streckt	-1921
▁Marathon	-1922
▁sprechen	-1923
▁tradition	-1924
▁gekleideten	-1925
ön	-1926
ukt	-1927
ulp	-1928
aske	-1929
eite	-1930
reck	-1931
stän	-1932
▁Caf	-1933
▁Kat	-1934
▁gep	-1935
instr	-1936
▁Aben	-1937
▁hört	-1938
▁weib	-1939
blasen	-1940
rennen	-1941
rillen	-1942
▁Rodeo	-1943
▁guckt	-1944
▁Seifen	-1945
▁Tänzer	-1946
▁Wellen	-1947
▁durchs	-1948
▁Wassers	-1949
bewachsen	-1950
▁Geländem	-1951
▁gegenüber	-1952
▁Schlagzeug	-1953
▁Schutzhelm	-1954
▁Erwachsenen	-1955
▁pinkfarbenen	-1956
pfl	-1957
urf	-1958
▁Hu	-1959
erle	-1960
ssel	-1961
▁Ohr	-1962
▁Pfl	-1963
aptop	-1964
führt	-1965
ischt	-1966
▁Ende	-1967
▁ohne	-1968
▁lesen	-1969
▁Gegend	-1970
▁Parade	-1971
▁Pferde	-1972
▁singen	-1973
▁Soldaten	-1974
▁Umgebung	-1975
▁entspann	-1976
▁schwingt	-1977
▁Mikrophon	-1978
▁Instrument	-1979
▁Kinderwagen	-1980
▁Motorradfahrer	-1981
üß	-1982
nah	-1983
▁ch	-1984
▁fl	-1985
inie	-1986
reht	-1987
ssen	-1988
▁Gol	-1989
allen	-1990
räder	-1991
öpfen	-1992
▁Kraw	-1993
▁Sohn	-1994
▁dies	-1995
ührung	-1996
▁kaufen	-1997
▁silber	-1998
▁Konzert	-1999
▁Schuhen	-2000
▁Schüler	-2001
▁Gebäuden	-2002
▁pinkfarben	-2003
▁Erwachsener	-2004
▁gestreiftem	-2005
▁grasbewachsen	-2006
do	-2007
gn	-2008
nung	-2009
oren	-2010
verk	-2011
▁ges	-2012
chten	-2013
icher	-2014
ierte	-2015
schuh	-2016
▁Kaff	-2017
▁Werk	-2018
▁Leder	-2019
▁Schoß	-2020
▁Bergen	-2021
▁Laptop	-2022
maschine	-2023
▁Bereich	-2024
▁afrikan	-2025
▁beleuch	-2026
▁älteren	-2027
▁lächelnd	-2028
▁riesigen	-2029
▁Badeanzug	-2030
▁Uniformen	-2031
▁verkleide	-2032
▁Straßenrand	-2033
▁2	-2034
euz	-2035
gem	-2036
▁nä	-2037
ader	-2038
egel	-2039
▁Gro	-2040
▁ind	-2041
▁mar	-2042
anken	-2043
▁Tier	-2044
▁jagt	-2045
verall	-2046
▁Party	-2047
▁Finger	-2048
▁balanc	-2049
▁gelbes	-2050
▁grauem	-2051
▁starrt	-2052
▁wander	-2053
▁Treppen	-2054
▁anderes	-2055
▁Schreibt	-2056
▁Backstein	-2057
▁Baustelle	-2058
▁gepflaster	-2059
▁Handschuhen	-2060
▁Straßenecke	-2061
▁Fußballspiel	-2062
▁gegeneinander	-2063
arm	-2064
bik	-2065
anne	-2066
farb	-2067
kten	-2068
skop	-2069
▁Kir	-2070
▁Arme	-2071
▁Blau	-2072
▁Fern	-2073
▁ganz	-2074
▁rein	-2075
ulptur	-2076
▁Pause	-2077
richter	-2078
▁Jacken	-2079
▁Kuchen	-2080
▁Sänger	-2081
▁offenen	-2082
▁schlagen	-2083
▁Fahrradfahrer	-2084
▁Geländemotorrad	-2085
co	-2086
ds	-2087
mä	-2088
“.	-2089
ork	-2090
▁wä	-2091
glie	-2092
üllt	-2093
asser	-2094
tritt	-2095
ucken	-2096
▁Blät	-2097
▁Koch	-2098
▁Tour	-2099
▁abge	-2100
indern	-2101
leisch	-2102
▁Stand	-2103
▁Wasch	-2104
▁grüne	-2105
▁irgend	-2106
▁umarmt	-2107
▁Cheerle	-2108
▁Krawatte	-2109
▁Künstler	-2110
▁Schatten	-2111
▁klettern	-2112
▁schwarzes	-2113
▁dunkelhäutiger	-2114
▁El	-2115
▁Vi	-2116
iste	-2117
▁Last	-2118
▁Lauf	-2119
▁Netz	-2120
hockey	-2121
üllten	-2122
▁bekom	-2123
▁putzt	-2124
strecke	-2125
▁gegner	-2126
▁leuchtend	-2127
▁verkaufen	-2128
▁asiatisches	-2129
▁Jugendlicher	-2130
▁Schreibtisch	-2131
zä	-2132
hal	-2133
ipp	-2134
urs	-2135
▁Fü	-2136
▁Hö	-2137
luft	-2138
ockt	-2139
team	-2140
▁The	-2141
▁gut	-2142
▁hol	-2143
aften	-2144
uppen	-2145
utzen	-2146
▁alle	-2147
▁link	-2148
itarre	-2149
▁Clown	-2150
▁glück	-2151
brunnen	-2152
▁Kunden	-2153
▁unters	-2154
▁verwen	-2155
▁Kapuzen	-2156
▁Overall	-2157
▁Pferden	-2158
▁Taschen	-2159
▁Sandalen	-2160
▁jemandem	-2161
▁Schlitten	-2162
▁repariert	-2163
▁schwimmen	-2164
▁Vordergrund	-2165
▁Tennisspieler	-2166
▁unbefestigten	-2167
▁orangefarbener	-2168
St	-2169
aß	-2170
ve	-2171
▁Ä	-2172
bew	-2173
ive	-2174
rot	-2175
atur	-2176
ieds	-2177
igem	-2178
korb	-2179
lage	-2180
lung	-2181
orfen	-2182
ppich	-2183
weste	-2184
▁Büro	-2185
▁Erde	-2186
▁Fell	-2187
Shirts	-2188
gelben	-2189
▁Mobil	-2190
▁Train	-2191
▁Baumst	-2192
▁Schnau	-2193
▁Sicher	-2194
▁Spring	-2195
▁kurzer	-2196
▁schauk	-2197
▁seines	-2198
schläger	-2199
stellung	-2200
▁bedeckt	-2201
▁belebte	-2202
▁Felswand	-2203
▁Schulter	-2204
▁hellhäut	-2205
▁balanciert	-2206
▁gekleidetes	-2207
▁verschiedene	-2208
▁Footballspieler	-2209
ac	-2210
äm	-2211
▁Ü	-2212
eim	-2213
hak	-2214
ktr	-2215
ord	-2216
unn	-2217
zel	-2218
▁so	-2219
amen	-2220
chte	-2221
hang	-2222
ient	-2223
raum	-2224
▁Lab	-2225
▁fäl	-2226
ahnen	-2227
westen	-2228
▁beste	-2229
▁setzt	-2230
▁winkt	-2231
▁Schauf	-2232
▁geschm	-2233
▁schütt	-2234
▁Gelände	-2235
▁Verkehr	-2236
schlossen	-2237
▁Halsband	-2238
▁Schläger	-2239
▁Stiefeln	-2240
▁Mikroskop	-2241
▁angezogen	-2242
iedsrichter	-2243
▁Fahrrädern	-2244
▁Klassenzimmer	-2245
atz	-2246
ift	-2247
irn	-2248
lan	-2249
▁Im	-2250
▁ob	-2251
ankt	-2252
deon	-2253
eier	-2254
hält	-2255
ilfe	-2256
ugel	-2257
wegs	-2258
zaun	-2259
▁Beg	-2260
druck	-2261
fährt	-2262
äsche	-2263
▁Jahr	-2264
▁verf	-2265
gebiet	-2266
schild	-2267
treppe	-2268
▁Akkor	-2269
▁beugt	-2270
anzügen	-2271
telefon	-2272
▁Zimmer	-2273
▁chines	-2274
▁dessen	-2275
▁reiten	-2276
▁ziehen	-2277
▁Militär	-2278
▁Schlamm	-2279
▁braunem	-2280
▁schmutz	-2281
▁Flugzeug	-2282
▁Schlauch	-2283
▁Mobiltelefon	-2284
▁lilafarbenen	-2285
▁Einkaufswagen	-2286
▁grasbewachsenen	-2287
fr	-2288
pä	-2289
app	-2290
bel	-2291
kar	-2292
▁Ta	-2293
auen	-2294
dert	-2295
land	-2296
ongl	-2297
pren	-2298
sern	-2299
ückt	-2300
▁Bul	-2301
▁Kla	-2302
▁Ste	-2303
▁for	-2304
▁ras	-2305
eicht	-2306
nahme	-2307
roten	-2308
rünet	-2309
▁Fall	-2310
▁Spaß	-2311
▁Teil	-2312
▁Angel	-2313
▁Schla	-2314
▁dreht	-2315
▁fällt	-2316
bereich	-2317
▁grünes	-2318
▁küssen	-2319
▁Fleisch	-2320
▁aussieht	-2321
▁Akkordeon	-2322
▁Surfbrett	-2323
▁lächelnde	-2324
▁Weihnachts	-2325
▁rothaarige	-2326
▁Schiedsrichter	-2327
▁orangefarbenem	-2328
öh	-2329
urt	-2330
ähn	-2331
aler	-2332
igur	-2333
lett	-2334
ocht	-2335
stad	-2336
hosen	-2337
▁Ecke	-2338
▁Golf	-2339
▁Höhe	-2340
▁Kanu	-2341
▁Loch	-2342
▁Wind	-2343
▁fünf	-2344
anktop	-2345
▁Stirn	-2346
▁davor	-2347
▁redet	-2348
▁train	-2349
▁Schuhe	-2350
▁wunder	-2351
▁zeigen	-2352
fahrzeug	-2353
▁Fischer	-2354
▁Kranken	-2355
▁Badehose	-2356
▁Schaufen	-2357
▁Schultern	-2358
▁Spielfeld	-2359
▁weibliche	-2360
▁Oberteilen	-2361
▁Sicherheit	-2362
▁hellbrauner	-2363
▁Seifenblasen	-2364
▁verschiedenen	-2365
ansp	-2366
cker	-2367
dien	-2368
ehrt	-2369
ffer	-2370
haki	-2371
▁fei	-2372
▁tau	-2373
▁was	-2374
▁Dies	-2375
▁Flie	-2376
▁Pick	-2377
▁Rück	-2378
▁Toch	-2379
▁afro	-2380
▁bewe	-2381
▁kahl	-2382
untain	-2383
▁Geige	-2384
▁Innen	-2385
▁Kappe	-2386
▁Kreis	-2387
▁Tramp	-2388
▁Tromm	-2389
▁ausge	-2390
▁kocht	-2391
▁küsst	-2392
▁recht	-2393
indernis	-2394
schaften	-2395
▁Stadion	-2396
▁Tanktop	-2397
▁Teppich	-2398
▁schönen	-2399
▁Mountain	-2400
▁Pflanzen	-2401
▁Schlange	-2402
▁Lastwagen	-2403
▁erwachsen	-2404
▁Rennstrecke	-2405
▁Springbrunnen	-2406
▁gepflasterten	-2407
du	-2408
ru	-2409
omm	-2410
one	-2411
prü	-2412
▁Wü	-2413
▁Zä	-2414
afel	-2415
belt	-2416
enkt	-2417
iern	-2418
lauf	-2419
ment	-2420
zene	-2421
▁Ele	-2422
▁kon	-2423
▁öff	-2424
dient	-2425
eitet	-2426
endes	-2427
ester	-2428
unnel	-2429
▁Mitt	-2430
▁komp	-2431
▁padd	-2432
▁Bäume	-2433
brauner	-2434
▁Gerüst	-2435
▁Hunden	-2436
▁Karate	-2437
▁bemalt	-2438
köpfiger	-2439
▁Tischen	-2440
▁Tochter	-2441
▁Freunden	-2442
▁Schnauze	-2443
▁bekleide	-2444
▁Mountainbik	-2445
by	-2446
pen	-2447
pro	-2448
urr	-2449
▁Da	-2450
▁en	-2451
dach	-2452
erin	-2453
gelt	-2454
olin	-2455
wärt	-2456
▁Säu	-2457
fahrt	-2458
kappe	-2459
weiße	-2460
▁Café	-2461
▁Hula	-2462
▁Nach	-2463
hälter	-2464
igkeit	-2465
▁Kopft	-2466
▁Teich	-2467
scheibe	-2468
▁Kaffee	-2469
▁Kirche	-2470
▁brünet	-2471
▁entfer	-2472
▁frisch	-2473
farbener	-2474
▁Verkauf	-2475
▁Kapuzenp	-2476
▁Luftball	-2477
▁Hindernis	-2478
▁unterwegs	-2479
▁wundersch	-2480
▁Landschaft	-2481
▁männlicher	-2482
▁Skateboarder	-2483
▁farbenfrohen	-2484
sh	-2485
fte	-2486
nis	-2487
ool	-2488
oop	-2489
urg	-2490
▁Fe	-2491
Fahr	-2492
alto	-2493
anda	-2494
test	-2495
▁Kai	-2496
▁Sax	-2497
▁bis	-2498
▁hei	-2499
▁jog	-2500
▁ruh	-2501
alter	-2502
iform	-2503
stadt	-2504
▁fels	-2505
reifen	-2506
strukt	-2507
▁Küste	-2508
▁Stoff	-2509
▁Tasse	-2510
▁hüpft	-2511
▁jongl	-2512
ätowier	-2513
▁Balkon	-2514
▁Dieser	-2515
▁Haufen	-2516
▁hellen	-2517
▁marsch	-2518
igkeiten	-2519
▁Flasche	-2520
▁bedient	-2521
▁umarmen	-2522
▁Schaufel	-2523
▁Trampolin	-2524
▁aussehende	-2525
▁Cheerleader	-2526
▁geschlossen	-2527
▁afroamerikan	-2528
▁gegnerischen	-2529
Qu	-2530
kw	-2531
oo	-2532
pe	-2533
üs	-2534
▁1	-2535
bad	-2536
örm	-2537
arbe	-2538
zäun	-2539
▁Kur	-2540
▁Lie	-2541
▁nur	-2542
▁ärm	-2543
ammer	-2544
bogen	-2545
eifen	-2546
gerät	-2547
lagen	-2548
linie	-2549
olden	-2550
▁Mahl	-2551
▁Plat	-2552
▁Soft	-2553
▁Wein	-2554
▁holt	-2555
▁wein	-2556
iental	-2557
läufer	-2558
sprung	-2559
stücke	-2560
▁Schuh	-2561
▁Stroh	-2562
▁Farben	-2563
▁Meeres	-2564
▁Objekt	-2565
▁Seiten	-2566
▁aufger	-2567
▁befest	-2568
▁hängen	-2569
▁rechts	-2570
▁ärmell	-2571
▁Anzügen	-2572
▁Flaggen	-2573
▁Freunde	-2574
▁Gesichts	-2575
▁Parkbank	-2576
▁Schüssel	-2577
▁oriental	-2578
▁Gegenstän	-2579
▁Touristen	-2580
▁asiatisch	-2581
▁entspannt	-2582
▁schaukelt	-2583
▁verwendet	-2584
▁vollführt	-2585
▁reparieren	-2586
veranstaltung	-2587
▁Schwimmbrille	-2588
ard	-2589
del	-2590
kop	-2591
üte	-2592
▁Ke	-2593
ackt	-2594
amit	-2595
auto	-2596
tert	-2597
umpf	-2598
ürde	-2599
▁Flü	-2600
▁Hot	-2601
▁Inl	-2602
▁New	-2603
▁gie	-2604
▁wur	-2605
elten	-2606
gegen	-2607
hügel	-2608
inder	-2609
sperr	-2610
▁Hang	-2611
▁Spei	-2612
▁Terr	-2613
▁Ziel	-2614
erbung	-2615
ildern	-2616
ändern	-2617
▁Außen	-2618
▁Blatt	-2619
▁Gasse	-2620
▁Katze	-2621
▁Kreuz	-2622
▁Maske	-2623
▁aufge	-2624
▁damit	-2625
▁geöff	-2626
▁hinab	-2627
▁überf	-2628
▁Bullen	-2629
▁Fahnen	-2630
▁Helmen	-2631
▁Sachen	-2632
▁Schlaf	-2633
▁Skater	-2634
▁Steine	-2635
▁grauer	-2636
▁langem	-2637
▁steigt	-2638
schaukel	-2639
▁Asiatin	-2640
▁dunkler	-2641
▁gezogen	-2642
schwarzer	-2643
▁Kopfhörer	-2644
▁Kunstwerk	-2645
▁jongliert	-2646
▁violetten	-2647
▁Schaufenster	-2648
▁Schutzhelmen	-2649
▁beleuchteten	-2650
uh	-2651
age	-2652
aht	-2653
bis	-2654
eiß	-2655
inn	-2656
kat	-2657
ros	-2658
äst	-2659
▁kr	-2660
flug	-2661
helm	-2662
inen	-2663
▁Bad	-2664
▁übt	-2665
ement	-2666
▁Groß	-2667
▁Laub	-2668
▁Rett	-2669
▁gele	-2670
▁ruht	-2671
bewerb	-2672
kostüm	-2673
sstand	-2674
teilen	-2675
zeugen	-2676
▁Berge	-2677
▁Brett	-2678
▁heben	-2679
▁Bilder	-2680
▁Klippe	-2681
▁Skiern	-2682
▁Turner	-2683
▁Feldweg	-2684
▁Strecke	-2685
▁Straßenk	-2686
▁geschäft	-2687
▁Eishockey	-2688
▁Fallschirm	-2689
▁lächelnder	-2690
ic	-2691
yl	-2692
ale	-2693
dio	-2694
mit	-2695
üne	-2696
Hoop	-2697
emon	-2698
glas	-2699
ober	-2700
äten	-2701
▁Box	-2702
eiben	-2703
osten	-2704
rillt	-2705
zeigt	-2706
▁Glei	-2707
▁Grim	-2708
▁unge	-2709
iertem	-2710
omaten	-2711
äumten	-2712
▁Abend	-2713
▁Couch	-2714
▁Licht	-2715
▁Pickn	-2716
▁Umzug	-2717
▁Wüste	-2718
▁Zähne	-2719
▁bauen	-2720
▁bläst	-2721
▁inter	-2722
▁kauft	-2723
▁links	-2724
stühlen	-2725
▁Sitzen	-2726
▁Studen	-2727
▁barfuß	-2728
▁einsam	-2729
▁einzel	-2730
▁grillt	-2731
aufnahme	-2732
richtung	-2733
▁Projekt	-2734
▁Veranda	-2735
▁berührt	-2736
▁fliegen	-2737
▁schießt	-2738
▁Softball	-2739
▁schlafen	-2740
▁Cowboyhut	-2741
▁Sicherheits	-2742
▁Instrumenten	-2743
ay	-2744
ki	-2745
xt	-2746
“-	-2747
fft	-2748
ond	-2749
▁Qu	-2750
apel	-2751
blas	-2752
fern	-2753
inge	-2754
sent	-2755
▁Lkw	-2756
baren	-2757
chern	-2758
hoben	-2759
licht	-2760
ophon	-2761
seite	-2762
sicht	-2763
tisch	-2764
weise	-2765
▁Bach	-2766
▁Wurf	-2767
▁verh	-2768
eister	-2769
ichtet	-2770
ospiel	-2771
▁stein	-2772
führung	-2773
▁Asiate	-2774
▁Beinen	-2775
▁Bücher	-2776
▁Teller	-2777
▁allein	-2778
▁golden	-2779
▁linken	-2780
▁Blätter	-2781
▁Geschen	-2782
▁Gitarri	-2783
▁bekommt	-2784
▁reinigt	-2785
▁vorüber	-2786
▁wandert	-2787
schwarzen	-2788
verkäufer	-2789
▁Kopftuch	-2790
▁Mahlzeit	-2791
▁verfolgt	-2792
▁Wettkampf	-2793
▁hinterher	-2794
▁schüttelt	-2795
▁Handtasche	-2796
▁hellblauen	-2797
▁wunderschö	-2798
▁Instrumente	-2799
▁aussehender	-2800
▁vorbeigehen	-2801
▁überfüllten	-2802
▁dunkelhäutige	-2803
▁fotografieren	-2804
▁geschlossenen	-2805
üm	-2806
ere	-2807
orn	-2808
ürt	-2809
▁Ei	-2810
▁Jo	-2811
▁je	-2812
alon	-2813
apan	-2814
itze	-2815
päck	-2816
ross	-2817
uder	-2818
äfer	-2819
▁Erd	-2820
▁dir	-2821
▁nie	-2822
▁sau	-2823
itter	-2824
ützen	-2825
▁Grün	-2826
▁Nase	-2827
▁Ring	-2828
▁York	-2829
▁best	-2830
▁fröh	-2831
schuhe	-2832
▁Kurve	-2833
▁besch	-2834
▁hockt	-2835
▁stark	-2836
▁umher	-2837
▁Gebiet	-2838
▁Hauses	-2839
▁Reiter	-2840
▁diesem	-2841
▁schauf	-2842
▁öffnet	-2843
arbeiten	-2844
gestellt	-2845
▁Asiaten	-2846
instrumen	-2847
▁Sportler	-2848
▁bestehen	-2849
▁felsigen	-2850
▁Jahrmarkt	-2851
▁Wasserfall	-2852
▁braunhaarige	-2853
▁Personengruppe	-2854
ib	-2855
▁3	-2856
▁a	-2857
▁e	-2858
bus	-2859
ete	-2860
isk	-2861
ose	-2862
bart	-2863
baum	-2864
eles	-2865
igam	-2866
onen	-2867
räut	-2868
ütte	-2869
▁For	-2870
▁Neo	-2871
▁Wel	-2872
▁hüb	-2873
▁jub	-2874
▁wen	-2875
erfer	-2876
ippen	-2877
smann	-2878
wärts	-2879
▁Fest	-2880
▁Kart	-2881
▁Tarn	-2882
▁amüs	-2883
▁auch	-2884
▁farb	-2885
▁gebl	-2886
▁getr	-2887
▁gold	-2888
▁mehr	-2889
▁näch	-2890
▁verz	-2891
kommen	-2892
schirr	-2893
yboard	-2894
▁Bräut	-2895
▁Salto	-2896
▁Teams	-2897
eichnet	-2898
eleskop	-2899
fahrern	-2900
flasche	-2901
zentrum	-2902
▁Kissen	-2903
▁Küchen	-2904
▁gucken	-2905
▁taucht	-2906
schirmen	-2907
▁Neopren	-2908
▁Steinen	-2909
▁schnell	-2910
▁steigen	-2911
▁Getränke	-2912
▁Tätowier	-2913
▁Bräutigam	-2914
▁Fahrräder	-2915
▁Geschäfts	-2916
▁Schwimmer	-2917
▁schneiden	-2918
▁beieinander	-2919
▁hellbraunen	-2920
▁pinkfarbenem	-2921
▁dunkelhaarige	-2922
▁Winterkleidung	-2923
▁traditioneller	-2924
cr	-2925
ül	-2926
atr	-2927
bes	-2928
enk	-2929
▁Ol	-2930
eibt	-2931
eile	-2932
händ	-2933
kate	-2934
▁Nah	-2935
▁Pal	-2936
▁anh	-2937
▁neu	-2938
azier	-2939
etzen	-2940
hafen	-2941
icker	-2942
laden	-2943
scher	-2944
viert	-2945
zeuge	-2946
äcken	-2947
ällen	-2948
▁Afro	-2949
▁Kerl	-2950
▁Sees	-2951
▁Tuch	-2952
▁erkl	-2953
▁kann	-2954
▁samm	-2955
Fahrer	-2956
hängen	-2957
ierter	-2958
muster	-2959
schlag	-2960
stehen	-2961
▁beige	-2962
▁wurde	-2963
ansport	-2964
braunen	-2965
brillen	-2966
▁Fotogr	-2967
▁Gepäck	-2968
▁Gewehr	-2969
▁Wäsche	-2970
▁barfüß	-2971
▁bringt	-2972
▁gelegt	-2973
▁wäscht	-2974
bereitet	-2975
▁Gruppen	-2976
▁Mitglie	-2977
▁aufblas	-2978
▁langärm	-2979
▁streich	-2980
▁weitere	-2981
struktion	-2982
▁Rettungs	-2983
▁Terrasse	-2984
▁konzentr	-2985
▁untersch	-2986
▁Baumstamm	-2987
▁Rollstuhl	-2988
▁Lederjacke	-2989
▁untersucht	-2990
▁Fußgängerüber	-2991
hle	-2992
nes	-2993
opf	-2994
rol	-2995
sel	-2996
ton	-2997
äge	-2998
öhn	-2999
▁BM	-3000
▁He	-3001
▁Mö	-3002
ance	-3003
pfel	-3004
stag	-3005
ulli	-3006
▁Dre	-3007
▁Kuh	-3008
▁Ort	-3009
▁dan	-3010
▁ger	-3011
▁hel	-3012
▁höl	-3013
▁pfl	-3014
aktor	-3015
icken	-3016
ilden	-3017
änden	-3018
önnen	-3019
▁Blue	-3020
▁Bord	-3021
▁üben	-3022
ichten	-3023
ickelt	-3024
mantel	-3025
schein	-3026
▁Gerät	-3027
▁Kamer	-3028
▁Lager	-3029
▁Zunge	-3030
▁gießt	-3031
▁kickt	-3032
laschen	-3033
▁Kleine	-3034
▁Sieben	-3035
▁helfen	-3036
▁nassen	-3037
▁ringen	-3038
▁vollen	-3039
▁Eingang	-3040
▁Taucher	-3041
▁gleitet	-3042
▁nachdem	-3043
▁rasiert	-3044
▁darunter	-3045
▁sitzende	-3046
▁Passanten	-3047
▁sitzenden	-3048
▁Ausrüstung	-3049
▁Straßenkünstler	-3050
kü	-3051
▁Ö	-3052
are	-3053
hem	-3054
los	-3055
man	-3056
ole	-3057
ome	-3058
▁Ur	-3059
▁mö	-3060
förm	-3061
iere	-3062
ippt	-3063
itte	-3064
pfer	-3065
ugby	-3066
öcke	-3067
▁Fil	-3068
▁Kab	-3069
▁Per	-3070
▁näh	-3071
▁reg	-3072
eucht	-3073
hilfe	-3074
neten	-3075
stoff	-3076
▁Dunk	-3077
▁fert	-3078
▁land	-3079
▁nass	-3080
▁tief	-3081
▁vorn	-3082
fallen	-3083
wasser	-3084
▁Besen	-3085
▁Brust	-3086
▁Gesch	-3087
▁Matte	-3088
▁Rugby	-3089
▁Theke	-3090
▁Tromp	-3091
▁bespr	-3092
gewicht	-3093
schnitt	-3094
zäunten	-3095
▁Becher	-3096
▁Berges	-3097
▁Schiff	-3098
▁Spiels	-3099
▁Tunnel	-3100
▁hinaus	-3101
▁kommen	-3102
testelle	-3103
▁Drachen	-3104
▁Schäfer	-3105
▁Spielen	-3106
▁Trommel	-3107
▁überprü	-3108
▁Auftritt	-3109
▁Fotograf	-3110
▁Geschenk	-3111
▁Keyboard	-3112
▁Teleskop	-3113
▁gestreif	-3114
▁geworfen	-3115
▁Turnhalle	-3116
▁Weihnacht	-3117
▁sitzender	-3118
▁verkleidet	-3119
▁Kunststücke	-3120
▁Nahaufnahme	-3121
▁unterschied	-3122
▁Neoprenanzug	-3123
▁konzentriert	-3124
▁Hockeyspieler	-3125
▁amerikanische	-3126
ena	-3127
gnü	-3128
kte	-3129
ote	-3130
ult	-3131
ymp	-3132
zuf	-3133
▁Ex	-3134
▁Ki	-3135
▁Pl	-3136
crem	-3137
halt	-3138
otoc	-3139
unkt	-3140
älde	-3141
▁Ban	-3142
▁Heu	-3143
▁Mod	-3144
▁ele	-3145
amens	-3146
chter	-3147
änder	-3148
▁Mänt	-3149
▁Prof	-3150
▁Vide	-3151
▁brei	-3152
▁weit	-3153
▁Über	-3154
ettern	-3155
haufen	-3156
stufen	-3157
tasche	-3158
▁Farbe	-3159
▁Figur	-3160
▁Motoc	-3161
▁Schot	-3162
▁bunte	-3163
▁dekor	-3164
▁geben	-3165
▁ihres	-3166
chester	-3167
▁Gewand	-3168
▁Hundes	-3169
▁Karren	-3170
▁Karten	-3171
▁Koffer	-3172
▁Soldat	-3173
▁Träger	-3174
▁angelt	-3175
▁bewegt	-3176
▁feiern	-3177
▁kalten	-3178
▁lehnen	-3179
▁Kleiner	-3180
▁Polizei	-3181
▁Spazier	-3182
▁Werbung	-3183
▁braunes	-3184
▁gezeigt	-3185
▁paddelt	-3186
▁rechten	-3187
▁schreit	-3188
▁Freizeit	-3189
▁Geschirr	-3190
▁Handtuch	-3191
▁benutzen	-3192
▁brünette	-3193
▁entfernt	-3194
▁entgegen	-3195
▁schießen	-3196
bekleidung	-3197
▁Motocross	-3198
▁glücklich	-3199
▁verlassen	-3200
▁Waldgebiet	-3201
▁Wohnzimmer	-3202
▁ärmellosen	-3203
▁Schäferhund	-3204
▁Afroamerikan	-3205
▁hellhäutiger	-3206
▁Arbeitskleidung	-3207
▁"	-3208
ake	-3209
bau	-3210
wir	-3211
öte	-3212
▁Vö	-3213
asst	-3214
bung	-3215
grau	-3216
ocks	-3217
räbt	-3218
satz	-3219
unde	-3220
älle	-3221
üten	-3222
▁BMX	-3223
▁Bes	-3224
▁Dau	-3225
▁Dor	-3226
▁Frü	-3227
▁Häu	-3228
▁Jog	-3229
▁Not	-3230
▁füt	-3231
▁kau	-3232
▁tür	-3233
anger	-3234
deckt	-3235
ommen	-3236
stern	-3237
tform	-3238
▁Gang	-3239
▁Knie	-3240
▁Mess	-3241
▁Sitz	-3242
▁Vers	-3243
▁Viol	-3244
▁Wild	-3245
▁selt	-3246
gerüst	-3247
nehmen	-3248
strand	-3249
▁Jungs	-3250
▁Segel	-3251
▁Staub	-3252
▁begut	-3253
▁blond	-3254
▁folgt	-3255
▁gräbt	-3256
▁herab	-3257
▁jagen	-3258
▁kehrt	-3259
▁khaki	-3260
▁Eltern	-3261
▁Fahrer	-3262
▁Jockey	-3263
▁Ketten	-3264
▁Zement	-3265
▁elektr	-3266
▁hölzer	-3267
▁schöne	-3268
▁Mänteln	-3269
▁Schnurr	-3270
▁alleine	-3271
▁blondem	-3272
▁daneben	-3273
▁offenem	-3274
▁seltsam	-3275
▁violett	-3276
▁Behälter	-3277
▁Skulptur	-3278
mannschaft	-3279
▁Flughafen	-3280
▁Handstand	-3281
▁irgendein	-3282
▁stehenden	-3283
▁trainiert	-3284
▁Bildschirm	-3285
▁Rolltreppe	-3286
▁Gegenstände	-3287
▁Kapuzenpulli	-3288
▁chinesischen	-3289
▁geschäftigen	-3290
▁Baseballkappe	-3291
▁Tennisschläger	-3292
▁Weihnachtsbaum	-3293
ia	-3294
ym	-3295
ail	-3296
box	-3297
hlt	-3298
llt	-3299
ong	-3300
rok	-3301
▁Sm	-3302
▁US	-3303
▁We	-3304
einw	-3305
flie	-3306
plat	-3307
rock	-3308
usch	-3309
▁Mon	-3310
▁geh	-3311
▁sel	-3312
attoo	-3313
ausch	-3314
icket	-3315
ieben	-3316
jeans	-3317
kugel	-3318
salon	-3319
statt	-3320
änken	-3321
äsern	-3322
▁Brot	-3323
▁Jack	-3324
▁Klav	-3325
▁Topf	-3326
▁Zahl	-3327
▁Zahn	-3328
▁anzu	-3329
▁baut	-3330
▁fast	-3331
▁form	-3332
▁lock	-3333
legest	-3334
männer	-3335
▁Füßen	-3336
▁bewöl	-3337
▁hören	-3338
▁lange	-3339
▁statt	-3340
reckten	-3341
reichen	-3342
rutsche	-3343
zeichen	-3344
▁Ballon	-3345
▁Daumen	-3346
▁Dieses	-3347
▁Fläche	-3348
▁Gegner	-3349
▁Pfütze	-3350
▁Stapel	-3351
▁kochen	-3352
▁lassen	-3353
▁runden	-3354
▁Angelru	-3355
▁Arbeits	-3356
▁bringen	-3357
▁steilen	-3358
▁Saxophon	-3359
▁jemanden	-3360
▁mehrfarb	-3361
instrument	-3362
legestelle	-3363
▁Bluejeans	-3364
▁Hochzeits	-3365
▁Skatepark	-3366
▁Studenten	-3367
▁befestigt	-3368
▁Kopfhörern	-3369
▁lächelndes	-3370
▁Jugendliche	-3371
▁Mountainbike	-3372
▁Frisbeescheibe	-3373
▁Weihnachtsmann	-3374
tm	-3375
äg	-3376
aal	-3377
ama	-3378
bör	-3379
emp	-3380
neh	-3381
ops	-3382
▁Kä	-3383
▁Pr	-3384
▁Rä	-3385
▁Su	-3386
▁bo	-3387
ages	-3388
bern	-3389
eute	-3390
glei	-3391
merk	-3392
othe	-3393
samm	-3394
schm	-3395
seit	-3396
utel	-3397
ößer	-3398
▁Oze	-3399
▁Pit	-3400
▁Pär	-3401
▁Tab	-3402
▁bie	-3403
affel	-3404
ampen	-3405
richt	-3406
szene	-3407
▁Gass	-3408
▁Pier	-3409
▁Schr	-3410
▁halb	-3411
▁klat	-3412
▁länd	-3413
▁plan	-3414
arbeit	-3415
dessen	-3416
träger	-3417
wegung	-3418
▁Balls	-3419
▁Feier	-3420
▁Hafen	-3421
▁Hocke	-3422
▁Hürde	-3423
▁Labor	-3424
▁Schaf	-3425
▁Schne	-3426
▁Stier	-3427
▁weint	-3428
geboren	-3429
merksam	-3430
▁Bushal	-3431
▁Körper	-3432
▁Lehrer	-3433
▁Orange	-3434
▁Plakat	-3435
▁Spitze	-3436
▁heißen	-3437
▁hinein	-3438
▁mittel	-3439
▁nähert	-3440
skulptur	-3441
▁Bahnhof	-3442
▁Ballons	-3443
▁Gemälde	-3444
▁Klavier	-3445
▁Pfosten	-3446
▁Pärchen	-3447
▁Traktor	-3448
▁gelehnt	-3449
▁Trompete	-3450
▁Wandbild	-3451
▁Werkzeug	-3452
▁beschäft	-3453
▁jüngeren	-3454
▁komplett	-3455
▁scheinen	-3456
bildschirm	-3457
▁Bahnsteig	-3458
▁einzelner	-3459
▁hölzernen	-3460
▁schaufelt	-3461
▁Lebensmitt	-3462
▁Trägerhemd	-3463
▁Videospiel	-3464
▁streichelt	-3465
▁Bowlingbahn	-3466
▁Krankenhaus	-3467
▁Motorrädern	-3468
▁schmutzigen	-3469
▁kahlköpfiger	-3470
▁Sonnenbrillen	-3471
▁Bushaltestelle	-3472
▁Zuschauermenge	-3473
dy	-3474
up	-3475
adl	-3476
kan	-3477
ood	-3478
äht	-3479
äng	-3480
▁Am	-3481
▁Fa	-3482
anze	-3483
keit	-3484
lern	-3485
netz	-3486
pool	-3487
rise	-3488
zern	-3489
▁Sto	-3490
▁Ton	-3491
▁Wal	-3492
ahmen	-3493
arren	-3494
creme	-3495
euert	-3496
hüter	-3497
kates	-3498
ostüm	-3499
trick	-3500
▁Deck	-3501
▁Dorf	-3502
▁Fans	-3503
▁Gumm	-3504
▁Stab	-3505
▁kopf	-3506
Schild	-3507
anlage	-3508
eligen	-3509
schutz	-3510
stange	-3511
weißem	-3512
▁Brand	-3513
▁Gassi	-3514
▁Start	-3515
▁Strom	-3516
▁gespr	-3517
▁joggt	-3518
▁sechs	-3519
Gitarre	-3520
adlocks	-3521
gestell	-3522
gitarre	-3523
händler	-3524
ichtern	-3525
▁Bauern	-3526
▁Hammer	-3527
▁Herbst	-3528
▁Kisten	-3529
▁Nicker	-3530
▁Schlei	-3531
▁Socken	-3532
▁bewund	-3533
▁geblüm	-3534
▁rudert	-3535
▁schlaf	-3536
▁teilen	-3537
arbeitet	-3538
haarigen	-3539
▁Inlines	-3540
▁Speisen	-3541
▁Zeichen	-3542
▁brennen	-3543
▁flausch	-3544
▁geparkt	-3545
▁spritzt	-3546
▁Freiluft	-3547
▁Kreuzung	-3548
▁Mädchens	-3549
▁Rollerbl	-3550
▁goldenen	-3551
▁zeichnet	-3552
▁Gitarrist	-3553
▁Graffitis	-3554
▁Kletterer	-3555
▁Orchester	-3556
▁Picknickt	-3557
▁Trainings	-3558
▁bedeckten	-3559
▁silbernen	-3560
▁Bekleidung	-3561
▁Dreadlocks	-3562
▁Nickerchen	-3563
▁Steinmauer	-3564
▁zusammenge	-3565
▁Luftballons	-3566
▁Restaurants	-3567
▁Schnurrbart	-3568
▁Stadtstraße	-3569
▁beschäftigt	-3570
▁Bowlingkugel	-3571
▁langhaariger	-3572
▁wunderschönen	-3573
▁Menschengruppe	-3574
▁ausgestreckten	-3575
▁Einkaufszentrum	-3576
je	-3577
▁(	-3578
ask	-3579
bem	-3580
eet	-3581
eir	-3582
enz	-3583
gro	-3584
ity	-3585
mel	-3586
nem	-3587
une	-3588
▁Bi	-3589
▁Lö	-3590
▁Na	-3591
▁Ze	-3592
▁ar	-3593
▁wa	-3594
affe	-3595
ativ	-3596
ettr	-3597
innt	-3598
klam	-3599
last	-3600
pfle	-3601
rohr	-3602
tüte	-3603
unft	-3604
wett	-3605
▁Ent	-3606
▁Man	-3607
▁Min	-3608
▁Mop	-3609
▁Näh	-3610
▁Sil	-3611
▁Tax	-3612
▁Zie	-3613
▁erl	-3614
▁mus	-3615
▁nah	-3616
▁zer	-3617
ammen	-3618
draht	-3619
enden	-3620
iskut	-3621
kette	-3622
ohner	-3623
othek	-3624
präch	-3625
recht	-3626
reckt	-3627
rückt	-3628
stock	-3629
trakt	-3630
useum	-3631
wanne	-3632
äften	-3633
▁Fass	-3634
▁Füße	-3635
▁Gelb	-3636
▁Gold	-3637
▁Gürt	-3638
▁Heiß	-3639
▁Kids	-3640
▁Kies	-3641
▁Lied	-3642
▁Rede	-3643
▁Warn	-3644
▁abzu	-3645
▁aufs	-3646
▁bunt	-3647
▁kümm	-3648
▁verb	-3649
Reifen	-3650
laufen	-3651
reiche	-3652
zeuger	-3653
▁Arena	-3654
▁Bauch	-3655
▁Blume	-3656
▁Flüss	-3657
▁Hütte	-3658
▁Sandd	-3659
▁Schub	-3660
▁Typen	-3661
▁Video	-3662
▁ungew	-3663
agieren	-3664
richten	-3665
▁Essens	-3666
▁Mittag	-3667
▁Modell	-3668
▁Schule	-3669
▁direkt	-3670
▁diskut	-3671
▁gepunk	-3672
▁hochge	-3673
▁können	-3674
▁passen	-3675
▁selbst	-3676
aschinen	-3677
▁Fingern	-3678
▁Geldbör	-3679
▁Kleines	-3680
▁schwach	-3681
▁trocken	-3682
▁älteres	-3683
▁indische	-3684
▁mithilfe	-3685
landschaft	-3686
▁Einkaufst	-3687
▁Getränken	-3688
▁Hinterhof	-3689
▁Rennwagen	-3690
▁gesäumten	-3691
▁Fotografen	-3692
▁Rucksäcken	-3693
▁bearbeitet	-3694
▁Nähmaschine	-3695
▁vorbeifährt	-3696
▁Anlegestelle	-3697
▁Schlagzeuger	-3698
▁Schutzbrille	-3699
▁rosafarbenem	-3700
▁Baseballmütze	-3701
▁Baseballspiel	-3702
▁Klettergerüst	-3703
▁Spielkleidung	-3704
▁amerikanischen	-3705
▁Feuerwehrmänner	-3706
eid	-3707
erw	-3708
ika	-3709
ino	-3710
org	-3711
ott	-3712
▁La	-3713
▁lö	-3714
▁Är	-3715
ders	-3716
dium	-3717
gung	-3718
iten	-3719
leck	-3720
ortr	-3721
pack	-3722
öpfe	-3723
▁Bat	-3724
▁Bel	-3725
▁Bre	-3726
▁Kör	-3727
▁Lim	-3728
▁Piz	-3729
▁Plü	-3730
▁Süß	-3731
▁get	-3732
▁ser	-3733
▁stö	-3734
▁tre	-3735
cours	-3736
einen	-3737
ienen	-3738
orgen	-3739
rampe	-3740
udels	-3741
zeich	-3742
ämmer	-3743
▁Chor	-3744
▁Club	-3745
▁Elef	-3746
▁Herd	-3747
▁Sess	-3748
▁Teig	-3749
▁aben	-3750
▁aber	-3751
▁fegt	-3752
▁kaut	-3753
eirate	-3754
eisten	-3755
ettert	-3756
etzten	-3757
vollen	-3758
ächeln	-3759
▁Demon	-3760
▁Dinge	-3761
▁Dreck	-3762
▁Kamel	-3763
▁Kegel	-3764
▁Moped	-3765
▁Rauch	-3766
▁Ruder	-3767
▁Stamm	-3768
▁angel	-3769
▁anhat	-3770
▁dicht	-3771
▁füllt	-3772
▁glatz	-3773
▁Balken	-3774
▁Bänken	-3775
▁Rädern	-3776
▁Strick	-3777
▁Wänden	-3778
▁größer	-3779
▁runter	-3780
▁schwei	-3781
euchtung	-3782
luftball	-3783
sammlung	-3784
▁Outfits	-3785
▁Schacht	-3786
▁beladen	-3787
▁lachend	-3788
▁stellen	-3789
▁wandern	-3790
automaten	-3791
formation	-3792
▁Demonstr	-3793
▁Rennauto	-3794
▁Strohhut	-3795
▁Windhund	-3796
▁berühren	-3797
▁gehalten	-3798
▁schwenkt	-3799
▁ungewöhn	-3800
volleyball	-3801
▁Angelrute	-3802
▁Bordstein	-3803
▁Gewässers	-3804
▁Verkäufer	-3805
▁amüsieren	-3806
▁geblümten	-3807
▁steinigen	-3808
▁Abendessen	-3809
▁Kunststoff	-3810
▁Sandstrand	-3811
▁Wettbewerb	-3812
▁marschiert	-3813
▁verheirate	-3814
konstruktion	-3815
▁Heißluftball	-3816
▁aufblasbaren	-3817
▁dunkelblauen	-3818
▁Regenschirmen	-3819
▁afrikanischer	-3820
Tr	-3821
ga	-3822
▁4	-3823
▁5	-3824
ban	-3825
chn	-3826
dog	-3827
fle	-3828
hou	-3829
ieß	-3830
lem	-3831
tor	-3832
uhl	-3833
▁Kö	-3834
▁at	-3835
▁mo	-3836
ades	-3837
aube	-3838
burg	-3839
door	-3840
ität	-3841
ival	-3842
leit	-3843
säge	-3844
tmod	-3845
wimm	-3846
ären	-3847
äser	-3848
ürzt	-3849
▁Ast	-3850
▁Leg	-3851
▁fla	-3852
▁prü	-3853
▁sow	-3854
▁ähn	-3855
anien	-3856
eiger	-3857
irmen	-3858
musik	-3859
ohemd	-3860
utfit	-3861
üssel	-3862
▁Auff	-3863
▁Chin	-3864
▁Kalb	-3865
▁Krei	-3866
▁Oper	-3867
▁Puck	-3868
▁Somm	-3869
▁Trib	-3870
▁eins	-3871
▁noch	-3872
seitig	-3873
ziehen	-3874
▁Eisen	-3875
▁Fahne	-3876
▁Fahrt	-3877
▁Klapp	-3878
▁Noten	-3879
▁Stift	-3880
▁Tafel	-3881
▁rollt	-3882
▁sucht	-3883
▁tätow	-3884
ammlung	-3885
izieren	-3886
ollegen	-3887
schmuck	-3888
uniform	-3889
▁Becken	-3890
▁Einrad	-3891
▁Elektr	-3892
▁Kerzen	-3893
▁Konfer	-3894
▁Lippen	-3895
▁Palmen	-3896
▁Silhou	-3897
▁altmod	-3898
▁gepark	-3899
▁geschn	-3900
▁leicht	-3901
▁setzen	-3902
▁steckt	-3903
förmigen	-3904
ämmerung	-3905
▁Absperr	-3906
▁Ballett	-3907
▁Kleider	-3908
▁Lächeln	-3909
▁Orangen	-3910
▁Outdoor	-3911
▁Schlitt	-3912
▁Schwert	-3913
▁flachen	-3914
▁füttert	-3915
▁irgendw	-3916
▁jüngere	-3917
▁protest	-3918
▁richtet	-3919
▁riesige	-3920
▁treffen	-3921
ettrennen	-3922
schnitten	-3923
▁Gespräch	-3924
▁Schotter	-3925
▁kopfüber	-3926
▁Operation	-3927
▁Plattform	-3928
▁Wasserski	-3929
▁bewölkten	-3930
▁kariertem	-3931
▁scheinbar	-3932
▁violettem	-3933
instrumente	-3934
issenschaft	-3935
▁Motorräder	-3936
▁Schwimmbad	-3937
▁Waschsalon	-3938
▁bestehende	-3939
▁erwachsene	-3940
▁Flüssigkeit	-3941
▁Fußballfeld	-3942
▁Schlafanzug	-3943
▁Zeitschrift	-3944
▁Ziegelmauer	-3945
▁gegenseitig	-3946
▁marschieren	-3947
▁untersuchen	-3948
▁Mannschaften	-3949
▁Rollerblades	-3950
▁afrikanische	-3951
▁Feuerwehrmann	-3952
▁Picknicktisch	-3953
▁Sportkleidung	-3954
▁beigefarbenen	-3955
▁Straßenhändler	-3956
Ge	-3957
KW	-3958
ai	-3959
pt	-3960
öt	-3961
üh	-3962
bur	-3963
eep	-3964
ian	-3965
igh	-3966
tag	-3967
urm	-3968
way	-3969
ämm	-3970
üff	-3971
▁Di	-3972
▁Pe	-3973
Ober	-3974
ache	-3975
anke	-3976
buch	-3977
foto	-3978
gebr	-3979
hten	-3980
ikul	-3981
sitz	-3982
voll	-3983
zten	-3984
▁Gar	-3985
▁LKW	-3986
▁Pat	-3987
▁Pin	-3988
▁Red	-3989
▁Tal	-3990
▁dün	-3991
▁prä	-3992
etzte	-3993
ildet	-3994
leute	-3995
nimmt	-3996
ondon	-3997
▁Bass	-3998
▁Betr	-3999
▁Bill	-4000
▁Cafe	-4001
▁Esel	-4002
▁Irok	-4003
▁Lang	-4004
▁Löff	-4005
▁Robe	-4006
▁Rohr	-4007
▁Show	-4008
▁dazu	-4009
▁näht	-4010
▁will	-4011
▁zuge	-4012
braune	-4013
brücke	-4014
henden	-4015
hänger	-4016
ichter	-4017
kinder	-4018
leicht	-4019
nehmer	-4020
riseur	-4021
roller	-4022
ussell	-4023
zenden	-4024
▁Beine	-4025
▁Boots	-4026
▁Hilfe	-4027
▁Ohren	-4028
▁Piste	-4029
▁Produ	-4030
▁Super	-4031
▁beißt	-4032
▁japan	-4033
▁parkt	-4034
▁vorne	-4035
agessen	-4036
köpfige	-4037
leidung	-4038
richtet	-4039
steinen	-4040
urtstag	-4041
▁Baumes	-4042
▁Dudels	-4043
▁Herren	-4044
▁London	-4045
▁Messer	-4046
▁Podium	-4047
▁Röcken	-4048
▁Saiten	-4049
▁Tauben	-4050
▁Tricks	-4051
▁Umhang	-4052
▁bunter	-4053
▁findet	-4054
▁landet	-4055
▁treibt	-4056
▁wischt	-4057
geworfen	-4058
oberteil	-4059
springen	-4060
▁Maschen	-4061
▁Protest	-4062
▁Stangen	-4063
▁Tablett	-4064
▁gefüllt	-4065
▁sammelt	-4066
▁schlend	-4067
▁starren	-4068
sentation	-4069
▁Blättern	-4070
▁Brandung	-4071
▁Flaschen	-4072
▁Gitarren	-4073
▁Grimasse	-4074
▁Irokesen	-4075
▁Sanddüne	-4076
▁Sängerin	-4077
▁Turnerin	-4078
▁geöffnet	-4079
▁offenbar	-4080
▁planscht	-4081
▁schweißt	-4082
▁stehende	-4083
▁Badewanne	-4084
▁Elefanten	-4085
▁Geldbörse	-4086
▁Stirnband	-4087
▁Surfboard	-4088
▁indischer	-4089
▁transport	-4090
▁überprüft	-4091
▁Geburtstag	-4092
▁Geschäften	-4093
▁Grasfläche	-4094
▁Jeansjacke	-4095
▁Mitglieder	-4096
▁Sportwagen	-4097
▁Wettrennen	-4098
▁entspannen	-4099
▁herunterge	-4100
▁trainieren	-4101
▁vorbeigeht	-4102
▁Klassenraum	-4103
▁Mittagessen	-4104
▁Süßigkeiten	-4105
▁begutachtet	-4106
▁übergewicht	-4107
▁Fahrgeschäft	-4108
▁Maschendraht	-4109
▁eingezäunten	-4110
▁farbenfroher	-4111
▁Wasserflasche	-4112
▁Afroamerikaner	-4113
▁dunkelhaariger	-4114
▁Basketballspiel	-4115
cl	-4116
jo	-4117
abr	-4118
ace	-4119
bli	-4120
ial	-4121
kul	-4122
olk	-4123
uro	-4124
ymn	-4125
▁20	-4126
▁Af	-4127
▁Do	-4128
▁ak	-4129
Hemd	-4130
bare	-4131
bers	-4132
bert	-4133
dian	-4134
ernt	-4135
heim	-4136
iker	-4137
izin	-4138
kann	-4139
kurs	-4140
oben	-4141
räun	-4142
trag	-4143
wich	-4144
▁Kür	-4145
▁erh	-4146
▁fau	-4147
▁fre	-4148
▁med	-4149
▁mög	-4150
ainer	-4151
alung	-4152
anner	-4153
block	-4154
boten	-4155
decke	-4156
eilen	-4157
ernen	-4158
flekt	-4159
hören	-4160
karre	-4161
karte	-4162
kreuz	-4163
kunst	-4164
olgen	-4165
schla	-4166
usses	-4167
ustik	-4168
▁Auss	-4169
▁Floß	-4170
▁Flur	-4171
▁High	-4172
▁Händ	-4173
▁Punk	-4174
▁acht	-4175
▁baum	-4176
▁hind	-4177
▁neue	-4178
▁ober	-4179
▁prob	-4180
▁rast	-4181
▁vert	-4182
dienen	-4183
gebrei	-4184
kamera	-4185
leiter	-4186
sammen	-4187
schaut	-4188
ymnast	-4189
▁Bibli	-4190
▁Bogen	-4191
▁Einem	-4192
▁Einer	-4193
▁Karte	-4194
▁Khaki	-4195
▁Kiste	-4196
▁Later	-4197
▁Natur	-4198
▁Olymp	-4199
▁Stufe	-4200
▁Säugl	-4201
▁Vögel	-4202
▁bückt	-4203
▁engen	-4204
▁graue	-4205
▁kompl	-4206
▁malen	-4207
▁seich	-4208
artigen	-4209
mitglie	-4210
steigen	-4211
▁Achter	-4212
▁Bandan	-4213
▁Decken	-4214
▁Fernse	-4215
▁Hotdog	-4216
▁Kapuze	-4217
▁Kreide	-4218
▁Laufen	-4219
▁Reklam	-4220
▁Stehen	-4221
▁Tanzen	-4222
▁Welpen	-4223
▁fallen	-4224
▁faulen	-4225
▁joggen	-4226
▁jubeln	-4227
▁nieder	-4228
▁wendet	-4229
Oberteil	-4230
bemalung	-4231
gebunden	-4232
schlagen	-4233
▁Afrikan	-4234
▁Akustik	-4235
▁Büschen	-4236
▁Kricket	-4237
▁Müllton	-4238
▁Theater	-4239
▁Trainer	-4240
▁Violine	-4241
▁Waldweg	-4242
▁erleuch	-4243
▁ruhigen	-4244
▁schlamm	-4245
▁uniform	-4246
ennfahrer	-4247
▁Fernglas	-4248
▁Maulkorb	-4249
▁Schilder	-4250
▁Schirmen	-4251
▁befahren	-4252
▁bekommen	-4253
▁festhält	-4254
▁gleichen	-4255
▁hindurch	-4256
▁nächsten	-4257
▁reinigen	-4258
▁verlässt	-4259
▁Gewändern	-4260
▁Grimassen	-4261
▁Schildern	-4262
▁ausgebrei	-4263
▁bespritzt	-4264
▁bewundert	-4265
▁stehender	-4266
▁Aufführung	-4267
▁Bibliothek	-4268
▁Schubkarre	-4269
▁Silhouette	-4270
▁städtische	-4271
▁vielleicht	-4272
▁Motorroller	-4273
▁aussehenden	-4274
▁diskutieren	-4275
▁entlanggeht	-4276
▁gepunkteten	-4277
▁rothaariges	-4278
▁Blumenmuster	-4279
▁Straßenmusik	-4280
▁ausgestreckt	-4281
▁Teenageralter	-4282
▁glatzköpfiger	-4283
▁orangefarbene	-4284
Fl	-4285
Te	-4286
pa	-4287
akd	-4288
ari	-4289
ech	-4290
flü	-4291
how	-4292
ieb	-4293
ign	-4294
kla	-4295
mal	-4296
min	-4297
ola	-4298
ven	-4299
xen	-4300
äne	-4301
öhr	-4302
▁At	-4303
▁Gi	-4304
▁ör	-4305
Mann	-4306
aust	-4307
back	-4308
bett	-4309
biss	-4310
blät	-4311
egen	-4312
elst	-4313
elte	-4314
hlet	-4315
ilmt	-4316
lter	-4317
länd	-4318
olen	-4319
pfad	-4320
putz	-4321
rauß	-4322
ufer	-4323
uten	-4324
weis	-4325
äste	-4326
▁Akt	-4327
▁Amp	-4328
▁Pil	-4329
▁Prä	-4330
▁Som	-4331
▁erw	-4332
▁ged	-4333
abrik	-4334
affen	-4335
alken	-4336
arter	-4337
asten	-4338
iksch	-4339
iment	-4340
orden	-4341
spark	-4342
teams	-4343
waren	-4344
äumen	-4345
▁Bike	-4346
▁Euro	-4347
▁Fack	-4348
▁Freu	-4349
▁Glat	-4350
▁Kell	-4351
▁Kran	-4352
▁Mark	-4353
▁Quad	-4354
▁Wake	-4355
▁eben	-4356
▁insp	-4357
▁sand	-4358
▁webt	-4359
apelle	-4360
beutel	-4361
bstuhl	-4362
iertes	-4363
istole	-4364
leitet	-4365
lichem	-4366
ollege	-4367
rechen	-4368
stellt	-4369
trikot	-4370
wäsche	-4371
zeitig	-4372
▁Asien	-4373
▁Köche	-4374
▁Linie	-4375
▁Pfadf	-4376
▁Pudel	-4377
▁Rande	-4378
▁Szene	-4379
▁Wange	-4380
▁angem	-4381
▁bevor	-4382
▁leckt	-4383
▁legen	-4384
▁leger	-4385
▁niedr	-4386
▁rosar	-4387
einwand	-4388
fenster	-4389
haltung	-4390
▁Breakd	-4391
▁Bällen	-4392
▁Bühnen	-4393
▁Fänger	-4394
▁Kindes	-4395
▁Köpfen	-4396
▁Locken	-4397
▁Löffel	-4398
▁Moment	-4399
▁Museum	-4400
▁Poster	-4401
▁Ringer	-4402
▁Stofft	-4403
▁Stühle	-4404
▁Tattoo	-4405
▁Zöpfen	-4406
▁abends	-4407
▁bilden	-4408
▁dieser	-4409
▁feiert	-4410
▁graben	-4411
gebäudes	-4412
gelassen	-4413
geländer	-4414
schlauch	-4415
ymnastik	-4416
▁Bandana	-4417
▁Häusern	-4418
▁Jackett	-4419
▁Kameras	-4420
▁Kellner	-4421
▁Schmuck	-4422
▁Schmutz	-4423
▁beginnt	-4424
▁bewegen	-4425
▁drinnen	-4426
▁greifen	-4427
▁präsent	-4428
▁rauchen	-4429
▁spieler	-4430
geborenes	-4431
▁Aussicht	-4432
▁Ballerin	-4433
▁Fahrrads	-4434
▁Streifen	-4435
▁Torhüter	-4436
▁einsamer	-4437
▁farbigen	-4438
▁gestikul	-4439
▁lockigen	-4440
▁schieben	-4441
▁streicht	-4442
▁verdeckt	-4443
▁Dudelsack	-4444
▁Gymnastik	-4445
▁Radrennen	-4446
▁Rollschuh	-4447
▁gewickelt	-4448
▁schreiben	-4449
▁teilweise	-4450
▁Achterbahn	-4451
▁Asiatinnen	-4452
▁Innenstadt	-4453
▁Marktplatz	-4454
▁Pferdeschw	-4455
▁Radfahrern	-4456
▁aufmerksam	-4457
▁geschminkt	-4458
▁geöffneten	-4459
▁ländlichen	-4460
▁zubereitet	-4461
▁Beleuchtung	-4462
▁Tätowierung	-4463
▁Versammlung	-4464
▁rosafarbene	-4465
▁verkleidete	-4466
▁Sonnenschirm	-4467
▁gleichzeitig	-4468
▁khakifarbenen	-4469
▁Akustikgitarre	-4470
▁Reifenschaukel	-4471
▁Rettungswesten	-4472
▁Snowboardfahrer	-4473
▁Tennisspielerin	-4474
ce	-4475
id	-4476
io	-4477
yn	-4478
ys	-4479
▁-	-4480
ags	-4481
ami	-4482
bro	-4483
een	-4484
hes	-4485
irl	-4486
itr	-4487
koh	-4488
les	-4489
ore	-4490
osa	-4491
udd	-4492
utt	-4493
weh	-4494
üht	-4495
▁Bu	-4496
▁Mc	-4497
▁Mi	-4498
▁ei	-4499
▁qu	-4500
elbe	-4501
ersp	-4502
hört	-4503
iers	-4504
inde	-4505
ofon	-4506
otiv	-4507
rift	-4508
spre	-4509
wurf	-4510
▁Ess	-4511
▁Kil	-4512
▁Lac	-4513
▁Neu	-4514
▁Pel	-4515
▁Uhr	-4516
▁Wol	-4517
▁dah	-4518
▁pol	-4519
▁säu	-4520
ambur	-4521
dress	-4522
egeln	-4523
essen	-4524
falls	-4525
figur	-4526
haube	-4527
ichte	-4528
ießen	-4529
ister	-4530
ivers	-4531
kante	-4532
ligen	-4533
loser	-4534
läuft	-4535
onald	-4536
orter	-4537
sseln	-4538
stift	-4539
stuch	-4540
teilt	-4541
tlich	-4542
wandt	-4543
ündel	-4544
ürste	-4545
▁Bohr	-4546
▁Camp	-4547
▁Film	-4548
▁Home	-4549
▁Hüte	-4550
▁Kick	-4551
▁Sack	-4552
▁Tank	-4553
▁Taxi	-4554
▁Zuck	-4555
▁glän	-4556
▁neon	-4557
▁soll	-4558
▁sort	-4559
▁span	-4560
▁türk	-4561
etafel	-4562
liegen	-4563
menade	-4564
orange	-4565
orträt	-4566
statue	-4567
▁Alter	-4568
▁Beach	-4569
▁Draht	-4570
▁Durch	-4571
▁Feder	-4572
▁Flöte	-4573
▁Gehen	-4574
▁Hotel	-4575
▁Japan	-4576
▁Kontr	-4577
▁Kugel	-4578
▁Maler	-4579
▁Ozean	-4580
▁Snack	-4581
▁Türen	-4582
▁Wette	-4583
▁altes	-4584
▁knien	-4585
▁lernt	-4586
▁packt	-4587
▁prüft	-4588
▁schle	-4589
▁sowie	-4590
▁Älter	-4591
Station	-4592
Zeichen	-4593
gnügung	-4594
hobenen	-4595
ingpool	-4596
osition	-4597
schauen	-4598
spielen	-4599
station	-4600
▁Anweis	-4601
▁Banner	-4602
▁Hocker	-4603
▁Labork	-4604
▁Liefer	-4605
▁Mittel	-4606
▁Mützen	-4607
▁Namens	-4608
▁Riksch	-4609
▁Schach	-4610
▁Seilen	-4611
▁Turban	-4612
▁brauen	-4613
▁fertig	-4614
▁jubelt	-4615
▁kauert	-4616
▁marine	-4617
▁rechte	-4618
▁sauber	-4619
▁schwer	-4620
behälter	-4621
gebracht	-4622
wegungen	-4623
▁Friseur	-4624
▁Haltung	-4625
▁Hinterb	-4626
▁Händler	-4627
▁Papiere	-4628
▁Pitcher	-4629
▁Saxofon	-4630
▁Tribüne	-4631
▁Vortrag	-4632
▁Während	-4633
▁ansieht	-4634
▁besteht	-4635
▁dunklem	-4636
▁gebeugt	-4637
▁grillen	-4638
▁paddeln	-4639
▁reflekt	-4640
▁stehend	-4641
▁Anhänger	-4642
▁Golfball	-4643
▁Halstuch	-4644
▁Produkte	-4645
▁Sandwich	-4646
▁Telefonz	-4647
▁gemuster	-4648
▁klatscht	-4649
▁Dämmerung	-4650
▁Handschuh	-4651
▁Mülltonne	-4652
▁Werkstatt	-4653
▁geparkten	-4654
▁geschmink	-4655
wimmingpool	-4656
▁Badezimmer	-4657
▁Gesichtern	-4658
▁Kettensäge	-4659
▁Kunstwerke	-4660
▁Luftballon	-4661
▁Vergnügung	-4662
▁glänzenden	-4663
▁Bauarbeiten	-4664
▁Mitarbeiter	-4665
▁Plastiktüte	-4666
▁Spaziergang	-4667
▁Strickmütze	-4668
▁erwachsener	-4669
▁gestreiftes	-4670
▁langhaarige	-4671
▁vorbereitet	-4672
▁Inlineskates	-4673
▁Schwimmweste	-4674
▁gestikuliert	-4675
▁rosafarbener	-4676
▁unbefestigte	-4677
▁Tätowierungen	-4678
▁verheiratetes	-4679
▁Heißluftballon	-4680
▁Marathonläufer	-4681
▁traditionellen	-4682
▁Vergnügungspark	-4683
äb	-4684
üd	-4685
▁.	-4686
Hut	-4687
fig	-4688
häu	-4689
ieg	-4690
ike	-4691
ker	-4692
krä	-4693
kör	-4694
oga	-4695
ous	-4696
reg	-4697
rob	-4698
ron	-4699
sau	-4700
uer	-4701
vie	-4702
xas	-4703
▁DJ	-4704
▁Py	-4705
▁Zw	-4706
▁te	-4707
alte	-4708
appt	-4709
beln	-4710
dunk	-4711
ello	-4712
ffiz	-4713
jung	-4714
legt	-4715
raur	-4716
strü	-4717
zune	-4718
ächt	-4719
ände	-4720
▁201	-4721
▁Asp	-4722
▁Bam	-4723
▁Bro	-4724
▁Fit	-4725
▁Mat	-4726
▁McD	-4727
▁Mün	-4728
▁Pon	-4729
▁Spe	-4730
▁Tee	-4731
▁USA	-4732
▁ans	-4733
▁bet	-4734
▁gek	-4735
▁ich	-4736
▁mod	-4737
▁trü	-4738
▁tut	-4739
▁umr	-4740
▁ung	-4741
allow	-4742
appen	-4743
blick	-4744
eiden	-4745
enken	-4746
feier	-4747
grill	-4748
horts	-4749
küche	-4750
nisse	-4751
obahn	-4752
unken	-4753
▁City	-4754
▁Eisw	-4755
▁Herz	-4756
▁Knei	-4757
▁Padd	-4758
▁Pink	-4759
▁Röhr	-4760
▁Töpf	-4761
▁Yoga	-4762
▁hart	-4763
▁herr	-4764
▁pass	-4765
▁rück	-4766
▁trop	-4767
▁verm	-4768
▁warm	-4769
▁ziel	-4770
Kostüm	-4771
achter	-4772
arbiet	-4773
balken	-4774
becher	-4775
blauem	-4776
bungen	-4777
ession	-4778
estern	-4779
grauen	-4780
hammer	-4781
ienten	-4782
igiert	-4783
iziert	-4784
kasten	-4785
kuchen	-4786
rücken	-4787
stüten	-4788
ußball	-4789
weißes	-4790
üffelt	-4791
▁Banan	-4792
▁Biker	-4793
▁Bälle	-4794
▁Engel	-4795
▁Exper	-4796
▁Helme	-4797
▁Kante	-4798
▁Kasse	-4799
▁Kette	-4800
▁Köpfe	-4801
▁Möbel	-4802
▁Nebel	-4803
▁Sicht	-4804
▁Stahl	-4805
▁Welpe	-4806
▁aufzu	-4807
▁bräun	-4808
▁staub	-4809
▁watet	-4810
▁übers	-4811
angehör	-4812
brocken	-4813
gestrei	-4814
ierende	-4815
ständer	-4816
wehraut	-4817
öffnung	-4818
▁Bambus	-4819
▁Besitz	-4820
▁Booten	-4821
▁Gürtel	-4822
▁Inline	-4823
▁Junger	-4824
▁Klasse	-4825
▁Kragen	-4826
▁Passag	-4827
▁Perlen	-4828
▁Schafe	-4829
▁Schuss	-4830
▁Shirts	-4831
▁Ureinw	-4832
▁Werfer	-4833
▁gesäum	-4834
▁manche	-4835
▁putzen	-4836
▁suchen	-4837
▁türkis	-4838
▁verste	-4839
▁vorder	-4840
astanien	-4841
bereiten	-4842
derseite	-4843
farbigen	-4844
flugzeug	-4845
genommen	-4846
klettern	-4847
schlafen	-4848
zufangen	-4849
zunehmen	-4850
▁Asphalt	-4851
▁Cowboys	-4852
▁Dreirad	-4853
▁Fischen	-4854
▁Fliesen	-4855
▁Geräten	-4856
▁Knöpfen	-4857
▁Laptops	-4858
▁Strumpf	-4859
▁Stöcken	-4860
▁bedruck	-4861
▁fremden	-4862
▁gefleck	-4863
▁gehende	-4864
▁gemacht	-4865
▁kümmert	-4866
▁treiben	-4867
▁waschen	-4868
▁wirbelt	-4869
arbietung	-4870
asketball	-4871
bedeckten	-4872
ellschaft	-4873
schriften	-4874
spielerin	-4875
▁Autobahn	-4876
▁Bahnglei	-4877
▁Bewegung	-4878
▁Freundin	-4879
▁Holzbank	-4880
▁Laternen	-4881
▁McDonald	-4882
▁Pflaster	-4883
▁Schleife	-4884
▁Trommeln	-4885
▁Tänzerin	-4886
▁aufgerei	-4887
▁bemalten	-4888
▁interess	-4889
▁sandigen	-4890
▁schnitzt	-4891
▁serviert	-4892
ansammlung	-4893
▁Betonwand	-4894
▁Computern	-4895
▁Einkäufer	-4896
▁Konferenz	-4897
▁Schüsseln	-4898
▁Wassermel	-4899
▁angeboten	-4900
▁barfüßige	-4901
▁begeister	-4902
▁begleitet	-4903
▁beisammen	-4904
▁Asiatische	-4905
▁Breakdance	-4906
▁Brettspiel	-4907
▁Pfadfinder	-4908
▁Teilnehmer	-4909
▁Zahlreiche	-4910
▁aneinander	-4911
instrumenten	-4912
▁Badeanzügen	-4913
▁Bandmitglie	-4914
▁Krankenschw	-4915
▁Lieferwagen	-4916
▁Schneeanzug	-4917
▁Sprungbrett	-4918
▁Treppenhaus	-4919
▁Turnschuhen	-4920
▁Ureinwohner	-4921
▁Vorderseite	-4922
▁Waschbecken	-4923
▁aufgestellt	-4924
▁ausgestellt	-4925
▁flauschiger	-4926
▁gestreifter	-4927
▁herumstehen	-4928
▁spielerisch	-4929
▁verschneite	-4930
▁Geländewagen	-4931
▁Präsentation	-4932
▁Swimmingpool	-4933
▁Tarnkleidung	-4934
▁pinkfarbener	-4935
▁Footballspiel	-4936
▁Mountainbiker	-4937
▁Pferdeschwanz	-4938
▁Treppenstufen	-4939
▁braunhaariger	-4940
▁eingeschlafen	-4941
▁transportiert	-4942
▁Einkaufstasche	-4943
▁Feuerwehrleute	-4944
▁Trainingsanzug	-4945
▁schwarzhaarige	-4946
▁Beachvolleyball	-4947
▁Kapuzenpullover	-4948
bü	-4949
hm	-4950
rt	-4951
Aus	-4952
als	-4953
dre	-4954
ims	-4955
iss	-4956
ohl	-4957
oss	-4958
rib	-4959
skl	-4960
ube	-4961
wer	-4962
wol	-4963
äte	-4964
öst	-4965
▁Pa	-4966
▁Sl	-4967
▁pl	-4968
alde	-4969
arfe	-4970
denk	-4971
elig	-4972
esse	-4973
etze	-4974
fers	-4975
fert	-4976
heke	-4977
holz	-4978
iner	-4979
isse	-4980
kopf	-4981
ktem	-4982
laub	-4983
lust	-4984
mitt	-4985
nier	-4986
okal	-4987
riff	-4988
rosa	-4989
stet	-4990
vent	-4991
vers	-4992
ziel	-4993
ützt	-4994
▁App	-4995
▁Axt	-4996
▁Boo	-4997
▁Hab	-4998
▁Kie	-4999
▁Med	-5000
▁Mül	-5001
▁Reg	-5002
▁Sen	-5003
▁Zyl	-5004
▁erk	-5005
▁tie	-5006
▁tri	-5007
agger	-5008
annen	-5009
asier	-5010
auten	-5011
egten	-5012
endet	-5013
feuer	-5014
floch	-5015
front	-5016
heben	-5017
iefel	-5018
inten	-5019
maske	-5020
mäher	-5021
pfahl	-5022
rosse	-5023
ummel	-5024
xikan	-5025
ächer	-5026
üllen	-5027
▁2012	-5028
▁Amer	-5029
▁Arzt	-5030
▁Auge	-5031
▁Beam	-5032
▁Bull	-5033
▁Dock	-5034
▁Garn	-5035
▁Hier	-5036
▁Horn	-5037
▁Jeep	-5038
▁John	-5039
▁Kauf	-5040
▁Lass	-5041
▁Legg	-5042
▁Matr	-5043
▁Obje	-5044
▁Ofen	-5045
▁Pizz	-5046
▁Plan	-5047
▁Post	-5048
▁Reis	-5049
▁Rode	-5050
▁Satt	-5051
▁Skil	-5052
▁Smok	-5053
▁Text	-5054
▁Toil	-5055
▁Vert	-5056
▁Wach	-5057
▁Woll	-5058
▁Zebr	-5059
▁berg	-5060
▁deut	-5061
▁einz	-5062
▁hohe	-5063
▁krat	-5064
▁rost	-5065
▁verw	-5066
▁weil	-5067
Outfit	-5068
ackelt	-5069
bereit	-5070
bürste	-5071
feuert	-5072
graben	-5073
ierung	-5074
ischem	-5075
karren	-5076
reiter	-5077
schnei	-5078
spannt	-5079
studio	-5080
vieren	-5081
werker	-5082
ärlich	-5083
üchern	-5084
▁Apfel	-5085
▁Babys	-5086
▁Boxer	-5087
▁China	-5088
▁Fecht	-5089
▁Kerle	-5090
▁Namen	-5091
▁Netze	-5092
▁Paare	-5093
▁Pfeil	-5094
▁Stunt	-5095
▁Tiere	-5096
▁Waffe	-5097
▁abgeb	-5098
▁daran	-5099
▁deren	-5100
▁diese	-5101
▁formt	-5102
▁gesen	-5103
▁hoher	-5104
▁indem	-5105
▁jeder	-5106
▁jewei	-5107
▁knall	-5108
▁kunst	-5109
▁ruhen	-5110
▁stößt	-5111
▁traur	-5112
▁würde	-5113
▁überw	-5114
bändern	-5115
eingang	-5116
konzert	-5117
projekt	-5118
springt	-5119
trägern	-5120
▁Clowns	-5121
▁Erzeug	-5122
▁Fabrik	-5123
▁Freude	-5124
▁Geschw	-5125
▁Karton	-5126
▁Katzen	-5127
▁Kürbis	-5128
▁Muster	-5129
▁Rahmen	-5130
▁Redner	-5131
▁Stöcke	-5132
▁Säulen	-5133
▁Tracht	-5134
▁Unfall	-5135
▁bietet	-5136
▁dritte	-5137
▁drückt	-5138
▁hochzu	-5139
▁klaren	-5140
▁kurzem	-5141
▁nasser	-5142
▁rudern	-5143
▁vergnü	-5144
Geschäft	-5145
onischen	-5146
sprecher	-5147
wehrauto	-5148
▁Bauwerk	-5149
▁Begriff	-5150
▁Bildern	-5151
▁Brillen	-5152
▁Einsatz	-5153
▁Felsvor	-5154
▁Früchte	-5155
▁Gläsern	-5156
▁Kaffeet	-5157
▁Nachbar	-5158
▁Plüscht	-5159
▁Rikscha	-5160
▁Scheibe	-5161
▁Schrift	-5162
▁Stammes	-5163
▁attrakt	-5164
▁bewalde	-5165
▁dritter	-5166
▁fischen	-5167
▁militär	-5168
▁oranger	-5169
▁sammeln	-5170
▁schwebt	-5171
▁unorden	-5172
▁verschw	-5173
arterback	-5174
dunkelten	-5175
schwimmen	-5176
▁Eiscreme	-5177
▁Erdhügel	-5178
▁Holzzaun	-5179
▁Händchen	-5180
▁Lacrosse	-5181
▁Overalls	-5182
▁Picknick	-5183
▁Rücksitz	-5184
▁Säugling	-5185
▁Webstuhl	-5186
▁Zylinder	-5187
▁fröhlich	-5188
▁gehender	-5189
▁verteilt	-5190
▁Ballerina	-5191
▁Cheerlead	-5192
▁Eisenbahn	-5193
▁Holzboden	-5194
▁Karussell	-5195
▁Obststand	-5196
▁Schmetter	-5197
▁bekleidet	-5198
▁ebenfalls	-5199
▁gefüllten	-5200
▁kleineren	-5201
▁möglicher	-5202
▁passenden	-5203
▁rückwärts	-5204
▁schwingen	-5205
▁schütteln	-5206
▁seltsamen	-5207
▁streichen	-5208
▁örtlichen	-5209
▁Fußgängern	-5210
▁Landstraße	-5211
▁Schlagmann	-5212
▁Türöffnung	-5213
▁Untergrund	-5214
▁Ziegelwand	-5215
▁abgeworfen	-5216
▁bekleidete	-5217
▁gesprungen	-5218
▁männlichen	-5219
▁teilnehmen	-5220
mannschaften	-5221
▁Essensstand	-5222
▁Hockeyspiel	-5223
▁Kleinkinder	-5224
▁Laborkittel	-5225
▁Wasserspren	-5226
▁bekleideter	-5227
▁geschnitten	-5228
▁hellhäutige	-5229
▁japanischen	-5230
▁leuchtenden	-5231
▁präsentiert	-5232
▁Fußballdress	-5233
▁Gegenständen	-5234
▁Jugendlichen	-5235
▁Lebensmitteln	-5236
▁Schneeschuhen	-5237
▁Wasserrutsche	-5238
▁langärmeligen	-5239
▁orientalische	-5240
▁möglicherweise	-5241
▁silberfarbenen	-5242
▁ungewöhnlichen	-5243
▁Irokesenschnitt	-5244
▁übergewichtiger	-5245
bu	-5246
mo	-5247
ou	-5248
ph	-5249
zw	-5250
▁6	-5251
▁9	-5252
gef	-5253
hel	-5254
ins	-5255
inz	-5256
ips	-5257
isp	-5258
urz	-5259
wür	-5260
öck	-5261
üge	-5262
▁Ma	-5263
▁ex	-5264
▁ol	-5265
▁vö	-5266
Derb	-5267
anad	-5268
arte	-5269
betr	-5270
cont	-5271
digt	-5272
eide	-5273
emen	-5274
iene	-5275
ital	-5276
lech	-5277
llig	-5278
odie	-5279
oriz	-5280
part	-5281
schr	-5282
seil	-5283
udel	-5284
udio	-5285
ynch	-5286
ücke	-5287
▁Bla	-5288
▁Del	-5289
▁Fle	-5290
▁Hör	-5291
▁Kit	-5292
▁Mön	-5293
▁Pir	-5294
▁Zus	-5295
▁sto	-5296
▁zug	-5297
Derby	-5298
adung	-5299
asken	-5300
elzen	-5301
ertag	-5302
geben	-5303
genen	-5304
hause	-5305
iften	-5306
igten	-5307
inner	-5308
istor	-5309
ochen	-5310
offen	-5311
onnen	-5312
pferd	-5313
robat	-5314
schüt	-5315
ssaal	-5316
ührer	-5317
▁Acht	-5318
▁Eier	-5319
▁Ente	-5320
▁Esst	-5321
▁Farb	-5322
▁Flip	-5323
▁Font	-5324
▁Heim	-5325
▁Herk	-5326
▁Kühl	-5327
▁Pull	-5328
▁Rast	-5329
▁Sieg	-5330
▁Temp	-5331
▁Turm	-5332
▁burg	-5333
▁einf	-5334
▁gesp	-5335
▁krab	-5336
▁park	-5337
▁rund	-5338
▁tags	-5339
▁trot	-5340
alerie	-5341
blickt	-5342
garten	-5343
gelegt	-5344
gitter	-5345
iedens	-5346
iniert	-5347
jacken	-5348
kräfte	-5349
leimer	-5350
ocknet	-5351
reicht	-5352
sauger	-5353
schiff	-5354
schung	-5355
strauß	-5356
unifor	-5357
wander	-5358
▁Armee	-5359
▁Banjo	-5360
▁Drink	-5361
▁Gummi	-5362
▁Herrn	-5363
▁Inder	-5364
▁Lampe	-5365
▁Lasso	-5366
▁Paras	-5367
▁Profi	-5368
▁Puppe	-5369
▁Richt	-5370
▁Sprüh	-5371
▁Stern	-5372
▁Säule	-5373
▁Trink	-5374
▁boxen	-5375
▁filmt	-5376
▁kurze	-5377
▁ließt	-5378
▁moder	-5379
▁späht	-5380
▁stolz	-5381
▁verbr	-5382
▁Öffen	-5383
Scheibe	-5384
fernung	-5385
gläsern	-5386
leitung	-5387
orizont	-5388
paratur	-5389
steiger	-5390
stellen	-5391
viertel	-5392
▁Aufzug	-5393
▁Bootes	-5394
▁Bruder	-5395
▁Eimern	-5396
▁Fische	-5397
▁Frisur	-5398
▁Glatze	-5399
▁Gleich	-5400
▁Hallen	-5401
▁Hambur	-5402
▁Hunder	-5403
▁Körben	-5404
▁Lampen	-5405
▁Obdach	-5406
▁Partie	-5407
▁Schaum	-5408
▁Schnei	-5409
▁Schnur	-5410
▁Schutt	-5411
▁Sessel	-5412
▁Speise	-5413
▁Wolken	-5414
▁erhält	-5415
▁fischt	-5416
▁histor	-5417
▁kratzt	-5418
▁mischt	-5419
▁namens	-5420
▁oberen	-5421
▁regner	-5422
▁steile	-5423
▁strahl	-5424
▁trifft	-5425
▁öffent	-5426
Kleidung	-5427
flaschen	-5428
flochten	-5429
schüssel	-5430
▁Billard	-5431
▁College	-5432
▁Gleisen	-5433
▁Kickbox	-5434
▁Kostüme	-5435
▁Pflanze	-5436
▁Porträt	-5437
▁Rennens	-5438
▁Scheinw	-5439
▁Schneem	-5440
▁Stelzen	-5441
▁Strands	-5442
▁Streich	-5443
▁Tomaten	-5444
▁Verteid	-5445
▁blocken	-5446
▁einiger	-5447
▁gefolgt	-5448
▁gesehen	-5449
▁löschen	-5450
▁medizin	-5451
▁meisten	-5452
▁schneit	-5453
▁verschr	-5454
▁zurecht	-5455
▁überall	-5456
spielzeug	-5457
tlichkeit	-5458
uniformen	-5459
zeichnung	-5460
▁Fenstern	-5461
▁Friedens	-5462
▁Herkunft	-5463
▁Leggings	-5464
▁Leinwand	-5465
▁Schürzen	-5466
▁Zusammen	-5467
▁amüsiert	-5468
▁gefangen	-5469
▁größeren	-5470
▁jüngerer	-5471
▁rutschen	-5472
▁schminkt	-5473
▁schützen	-5474
▁seichten	-5475
▁spärlich	-5476
▁strecken	-5477
▁tagsüber	-5478
▁vergnügt	-5479
▁Feuerwerk	-5480
▁Halskette	-5481
▁Hamburger	-5482
▁Maschinen	-5483
▁Mülleimer	-5484
▁Patienten	-5485
▁Rückseite	-5486
▁Schaulust	-5487
▁Segelboot	-5488
▁Stromschn	-5489
▁Transport	-5490
▁Ziellinie	-5491
▁aufgeregt	-5492
▁burgunder	-5493
▁erklimmen	-5494
▁erreichen	-5495
▁formeller	-5496
▁kastanien	-5497
▁liegenden	-5498
▁mittelgro	-5499
▁niedrigen	-5500
▁staubigen	-5501
▁verbunden	-5502
▁verwenden	-5503
ausstellung	-5504
▁Darbietung	-5505
▁Entfernung	-5506
▁Experiment	-5507
▁Handschuhe	-5508
▁Klappstuhl	-5509
▁Lagerfeuer	-5510
▁Motorhaube	-5511
▁Richtungen	-5512
▁abgebildet	-5513
▁abgestellt	-5514
▁angebracht	-5515
▁aufgereiht	-5516
▁bewaldeten	-5517
▁fliegenden	-5518
▁lächelnden	-5519
▁männliches	-5520
▁schlendert	-5521
▁Ausstellung	-5522
▁Bauernmarkt	-5523
▁Bergsteiger	-5524
▁Erzeugnisse	-5525
▁Fahrradhelm	-5526
▁Gitarristen	-5527
▁Schulkinder	-5528
▁Straßenfest	-5529
▁Unterwäsche	-5530
▁Vorrichtung	-5531
▁aussehendes	-5532
▁Freizeitpark	-5533
▁Hinterbeinen	-5534
▁Namensschild	-5535
▁Schlauchboot	-5536
▁blondhaarige	-5537
▁festgebunden	-5538
▁regnerischen	-5539
▁unterrichtet	-5540
▁wunderschöne	-5541
▁Straßenrennen	-5542
▁Ziegelsteinen	-5543
▁afrikanischen	-5544
▁Schutzkleidung	-5545
▁unordentlichen	-5546
▁Öffentlichkeit	-5547
▁schneebedecktes	-5548
iö	-5549
ls	-5550
nä	-5551
uf	-5552
wa	-5553
▁,	-5554
▁c	-5555
ata	-5556
cre	-5557
ebe	-5558
frü	-5559
ish	-5560
itu	-5561
kle	-5562
mor	-5563
mpf	-5564
sol	-5565
tür	-5566
uhr	-5567
uld	-5568
ump	-5569
upp	-5570
uth	-5571
zus	-5572
ült	-5573
▁Et	-5574
▁du	-5575
▁fe	-5576
▁iP	-5577
▁mü	-5578
▁of	-5579
Team	-5580
abel	-5581
allt	-5582
aupt	-5583
awai	-5584
club	-5585
dukt	-5586
eife	-5587
eist	-5588
fält	-5589
gabe	-5590
ging	-5591
hack	-5592
hoch	-5593
horn	-5594
hren	-5595
imer	-5596
inos	-5597
ipfl	-5598
keln	-5599
lepp	-5600
lose	-5601
lück	-5602
mart	-5603
okol	-5604
onne	-5605
raft	-5606
ring	-5607
roll	-5608
saal	-5609
show	-5610
stab	-5611
tens	-5612
uert	-5613
uhen	-5614
zelt	-5615
ägen	-5616
ätte	-5617
ünen	-5618
▁Ang	-5619
▁Aqu	-5620
▁Con	-5621
▁Des	-5622
▁Gok	-5623
▁Lin	-5624
▁Old	-5625
▁Sub	-5626
▁Tim	-5627
▁Top	-5628
▁Wer	-5629
▁blü	-5630
▁bzw	-5631
▁bür	-5632
▁lau	-5633
apelt	-5634
armon	-5635
auber	-5636
blase	-5637
chsen	-5638
digen	-5639
eiter	-5640
gaben	-5641
gramm	-5642
griff	-5643
hunde	-5644
hörer	-5645
hütte	-5646
iesen	-5647
ilien	-5648
kater	-5649
kohol	-5650
kunft	-5651
lampe	-5652
maler	-5653
onder	-5654
pfleg	-5655
punkt	-5656
ragen	-5657
raten	-5658
schür	-5659
stall	-5660
ucher	-5661
wolke	-5662
ägers	-5663
ämmen	-5664
ärmen	-5665
ündet	-5666
ürden	-5667
▁Blas	-5668
▁Grau	-5669
▁Kilt	-5670
▁Lade	-5671
▁Papp	-5672
▁Rosa	-5673
▁Wart	-5674
▁buck	-5675
▁drib	-5676
▁fein	-5677
▁förm	-5678
▁gedr	-5679
▁grin	-5680
▁lust	-5681
▁mäht	-5682
▁wahr	-5683
▁wett	-5684
▁zahl	-5685
Trikot	-5686
ammert	-5687
blauer	-5688
bäumen	-5689
eligiö	-5690
gelber	-5691
gestür	-5692
gnügen	-5693
mützen	-5694
objekt	-5695
putzer	-5696
rochen	-5697
shorts	-5698
spielt	-5699
staben	-5700
tragen	-5701
utaten	-5702
utscht	-5703
werfen	-5704
äbchen	-5705
▁Akten	-5706
▁Ampel	-5707
▁Badem	-5708
▁Blech	-5709
▁Board	-5710
▁Cello	-5711
▁Fahrg	-5712
▁Glast	-5713
▁Hause	-5714
▁Inter	-5715
▁Kraft	-5716
▁Käfig	-5717
▁Lokal	-5718
▁Notiz	-5719
▁Pizza	-5720
▁Plate	-5721
▁Pullo	-5722
▁Rosen	-5723
▁Röhre	-5724
▁Texas	-5725
▁Zauns	-5726
▁Zeich	-5727
▁akust	-5728
▁beten	-5729
▁betet	-5730
▁darin	-5731
▁eigen	-5732
▁fasst	-5733
▁flach	-5734
▁hohes	-5735
▁holen	-5736
▁platz	-5737
▁sicht	-5738
▁türki	-5739
dachten	-5740
ipflops	-5741
schluss	-5742
verkehr	-5743
ynchron	-5744
▁Basken	-5745
▁Bildes	-5746
▁Blasen	-5747
▁Bäcker	-5748
▁Dunkel	-5749
▁Europa	-5750
▁Fliege	-5751
▁Gipfel	-5752
▁Gokart	-5753
▁Großer	-5754
▁Hallow	-5755
▁Hoodie	-5756
▁Häuser	-5757
▁Imbiss	-5758
▁Kneipe	-5759
▁Morgen	-5760
▁Platte	-5761
▁Sattel	-5762
▁Schieß	-5763
▁Sommer	-5764
▁Stativ	-5765
▁Wetter	-5766
▁Zelten	-5767
▁beißen	-5768
▁bindet	-5769
▁dicken	-5770
▁diesen	-5771
▁folgen	-5772
▁freien	-5773
▁füllen	-5774
▁heller	-5775
▁hervor	-5776
▁lernen	-5777
▁muskul	-5778
▁sieben	-5779
▁sonnen	-5780
▁spring	-5781
▁stürzt	-5782
▁verwir	-5783
▁völlig	-5784
▁warmen	-5785
▁wieder	-5786
Football	-5787
fallenen	-5788
ierenden	-5789
kommenen	-5790
pielzeug	-5791
▁Camping	-5792
▁Figuren	-5793
▁Flusses	-5794
▁Flügeln	-5795
▁Gericht	-5796
▁Jogging	-5797
▁Kartons	-5798
▁Pferder	-5799
▁Schokol	-5800
▁Station	-5801
▁Student	-5802
▁anhaben	-5803
▁ansehen	-5804
▁ausländ	-5805
▁besucht	-5806
▁breiten	-5807
▁hübsche	-5808
▁jeweils	-5809
▁schützt	-5810
▁umringt	-5811
▁unglück	-5812
▁unteren	-5813
▁ähnlich	-5814
container	-5815
eisterung	-5816
handschuh	-5817
indigkeit	-5818
wettkampf	-5819
ähnlichen	-5820
▁Aufnahme	-5821
▁Eiswagen	-5822
▁Familien	-5823
▁Horizont	-5824
▁Karohemd	-5825
▁Laufbahn	-5826
▁Läuferin	-5827
▁Mitglied	-5828
▁Parcours	-5829
▁Sandburg	-5830
▁bedienen	-5831
▁beginnen	-5832
▁betreten	-5833
▁dahinter	-5834
▁dieselbe	-5835
▁dribbelt	-5836
▁gelangen	-5837
▁gespannt	-5838
▁getragen	-5839
▁hübschen	-5840
▁passiert	-5841
▁spaziert	-5842
▁spritzen	-5843
▁vorführt	-5844
▁weiteren	-5845
▁ärmellos	-5846
Basketball	-5847
rennfahrer	-5848
scheinlich	-5849
wettbewerb	-5850
▁Arbeitern	-5851
▁Fahrzeuge	-5852
▁Flipflops	-5853
▁Flussufer	-5854
▁Großstadt	-5855
▁Halloween	-5856
▁Hochstuhl	-5857
▁Kleidungs	-5858
▁Projektor	-5859
▁Pullunder	-5860
▁Schachtel	-5861
▁Wakeboard	-5862
▁bestellen	-5863
▁entfernen	-5864
▁erhobenen	-5865
▁getroffen	-5866
▁schaukeln	-5867
▁trockenen	-5868
▁vergnügen	-5869
▁verschrän	-5870
▁Betrachter	-5871
▁Buchstaben	-5872
▁Oberfläche	-5873
▁Plüschtier	-5874
▁Regenbogen	-5875
▁Tanzfläche	-5876
▁Vorführung	-5877
▁Zahnbürste	-5878
▁angehalten	-5879
▁attraktive	-5880
▁ausgezogen	-5881
▁bedruckten	-5882
▁befahrenen	-5883
▁beleuchtet	-5884
▁geflochten	-5885
▁tätowierte	-5886
▁verzierten	-5887
▁überprüfen	-5888
▁Anweisungen	-5889
▁Baskenmütze	-5890
▁Felsbrocken	-5891
▁Fischernetz	-5892
▁Kopfschmuck	-5893
▁Musikgruppe	-5894
▁Nachrichten	-5895
▁Rasenfläche	-5896
▁Regenmantel	-5897
▁Skateboards	-5898
▁Spiegelbild	-5899
▁Steintreppe	-5900
▁Tennisplatz	-5901
▁Verteidiger	-5902
▁angezogener	-5903
▁mittelalter	-5904
▁protestiert	-5905
▁schlammigen	-5906
▁Außenbereich	-5907
▁Begeisterung	-5908
▁Konstruktion	-5909
▁Neugeborenes	-5910
▁Reklametafel	-5911
▁Scheinwerfer	-5912
▁Straßenseite	-5913
▁Straßenszene	-5914
▁Telefonzelle	-5915
▁Wasserbecken	-5916
▁Wasserfläche	-5917
▁elektrischen	-5918
▁erleuchteten	-5919
▁gepflasterte	-5920
▁heraushängen	-5921
▁orientalisch	-5922
▁wissenschaft	-5923
▁Einkaufstüten	-5924
▁Felsvorsprung	-5925
▁Feuerwehrauto	-5926
▁Fußballtrikot	-5927
▁Kampfsportler	-5928
▁Nachbarschaft	-5929
▁Verkaufsstand	-5930
▁Zeitschriften	-5931
▁uniformierter	-5932
▁Berglandschaft	-5933
▁Straßenmusiker	-5934
▁Stromschnellen	-5935
▁amerikanischer	-5936
▁elektronischen	-5937
▁orangefarbenes	-5938
▁schneebedeckte	-5939
▁Geschwindigkeit	-5940
▁Straßenarbeiter	-5941
".	-5942
An	-5943
▁X	-5944
asz	-5945
bie	-5946
bär	-5947
ddy	-5948
fol	-5949
hat	-5950
hte	-5951
ieh	-5952
ipe	-5953
kas	-5954
ogo	-5955
oly	-5956
sem	-5957
set	-5958
wel	-5959
ydr	-5960
yer	-5961
zur	-5962
äck	-5963
ärb	-5964
ügt	-5965
ütz	-5966
▁10	-5967
▁OP	-5968
▁me	-5969
▁we	-5970
Band	-5971
adet	-5972
aken	-5973
arin	-5974
deln	-5975
dent	-5976
dose	-5977
enga	-5978
enzt	-5979
erkl	-5980
flip	-5981
gibt	-5982
girl	-5983
gnis	-5984
grün	-5985
gurt	-5986
hebt	-5987
ider	-5988
ierc	-5989
iken	-5990
inis	-5991
inke	-5992
isst	-5993
itor	-5994
nach	-5995
ogie	-5996
orch	-5997
orte	-5998
oter	-5999
paar	-6000
stem	-6001
szug	-6002
vern	-6003
view	-6004
wend	-6005
will	-6006
wirt	-6007
zone	-6008
äcke	-6009
äden	-6010
öser	-6011
▁Car	-6012
▁Dig	-6013
▁Dom	-6014
▁Jet	-6015
▁Kok	-6016
▁Kul	-6017
▁Mil	-6018
▁Nad	-6019
▁Pop	-6020
▁Sar	-6021
▁Squ	-6022
▁Xyl	-6023
▁Zer	-6024
▁ang	-6025
▁beh	-6026
▁eng	-6027
▁ern	-6028
▁fal	-6029
▁kap	-6030
▁loh	-6031
▁los	-6032
▁men	-6033
▁ska	-6034
▁the	-6035
▁tun	-6036
▁uns	-6037
▁wel	-6038
Flops	-6039
apier	-6040
aster	-6041
blaue	-6042
bluse	-6043
bühne	-6044
dustr	-6045
egelt	-6046
ehren	-6047
eimer	-6048
eindr	-6049
einig	-6050
eisen	-6051
endem	-6052
farbe	-6053
kommt	-6054
lings	-6055
losen	-6056
mpfen	-6057
opoly	-6058
orten	-6059
persp	-6060
roren	-6061
stens	-6062
teile	-6063
timer	-6064
tromm	-6065
ubsch	-6066
uktur	-6067
ungsk	-6068
ätzen	-6069
▁Bark	-6070
▁Best	-6071
▁Chef	-6072
▁Dose	-6073
▁Fang	-6074
▁Filz	-6075
▁Form	-6076
▁Gurt	-6077
▁Halb	-6078
▁Huhn	-6079
▁Hüpf	-6080
▁Konf	-6081
▁Latz	-6082
▁Leit	-6083
▁Mopp	-6084
▁Pelz	-6085
▁Stil	-6086
▁Them	-6087
▁Volk	-6088
▁bast	-6089
▁erle	-6090
▁fasz	-6091
▁fern	-6092
▁lack	-6093
▁lädt	-6094
▁meiß	-6095
▁muss	-6096
▁raus	-6097
▁seit	-6098
▁stür	-6099
▁sägt	-6100
▁zerr	-6101
ailing	-6102
athlet	-6103
aufger	-6104
bällen	-6105
ektive	-6106
emonie	-6107
espiel	-6108
itteln	-6109
itzern	-6110
klasse	-6111
mittag	-6112
nungen	-6113
platte	-6114
rahmen	-6115
rauber	-6116
rieben	-6117
schlie	-6118
schuss	-6119
swagen	-6120
treide	-6121
ummern	-6122
wärtss	-6123
ämpfer	-6124
ückten	-6125
▁Blask	-6126
▁Grund	-6127
▁Halle	-6128
▁Hüfte	-6129
▁Jenga	-6130
▁Limon	-6131
▁Nagel	-6132
▁Neben	-6133
▁Osten	-6134
▁Peace	-6135
▁Pilot	-6136
▁Smart	-6137
▁Taube	-6138
▁Teddy	-6139
▁Tüten	-6140
▁Wippe	-6141
▁auszu	-6142
▁denkt	-6143
▁gehol	-6144
▁hackt	-6145
▁hohem	-6146
▁kanad	-6147
▁passt	-6148
▁regen	-6149
▁ruhig	-6150
▁rührt	-6151
▁saugt	-6152
▁tromm	-6153
▁Übung	-6154
ansicht	-6155
ationen	-6156
elmarkt	-6157
erwatte	-6158
fahrrad	-6159
fession	-6160
flügeln	-6161
gematte	-6162
geräten	-6163
inosaur	-6164
pfosten	-6165
sichtig	-6166
striert	-6167
uscheln	-6168
utschen	-6169
verkauf	-6170
▁Absatz	-6171
▁Anzahl	-6172
▁Batman	-6173
▁Blazer	-6174
▁Busses	-6175
▁Bündel	-6176
▁Fackel	-6177
▁Felskl	-6178
▁Fächer	-6179
▁Garage	-6180
▁Graben	-6181
▁Handys	-6182
▁Holzst	-6183
▁Indien	-6184
▁Jogger	-6185
▁Labrad	-6186
▁Laster	-6187
▁Leucht	-6188
▁Marmor	-6189
▁Ozeans	-6190
▁Pfanne	-6191
▁Puppen	-6192
▁Rasier	-6193
▁Reihen	-6194
▁Schrei	-6195
▁Schwer	-6196
▁Street	-6197
▁Studio	-6198
▁Tempel	-6199
▁Versch	-6200
▁Vögeln	-6201
▁Weißer	-6202
▁Ziegen	-6203
▁aufges	-6204
▁befind	-6205
▁besprü	-6206
▁beteil	-6207
▁blockt	-6208
▁bocken	-6209
▁eingew	-6210
▁hinweg	-6211
▁hocken	-6212
▁hüpfen	-6213
▁indian	-6214
▁kostüm	-6215
▁kämpft	-6216
▁möchte	-6217
▁schlei	-6218
▁skatet	-6219
▁soeben	-6220
▁sprüht	-6221
▁wettei	-6222
▁zuhört	-6223
▁Ältere	-6224
▁öffnen	-6225
armonika	-6226
bewegung	-6227
klettert	-6228
kostümen	-6229
kreuzten	-6230
ospieler	-6231
parcours	-6232
schienen	-6233
spielern	-6234
springer	-6235
stiefeln	-6236
struktur	-6237
traktion	-6238
ydranten	-6239
zeichnet	-6240
▁Auslage	-6241
▁Bananen	-6242
▁Fontäne	-6243
▁Industr	-6244
▁Jockeys	-6245
▁Kameram	-6246
▁Kartoff	-6247
▁Papiert	-6248
▁Pferdes	-6249
▁Pistole	-6250
▁Platten	-6251
▁Produkt	-6252
▁Rollers	-6253
▁Smoking	-6254
▁Staffel	-6255
▁Stiefel	-6256
▁Tourist	-6257
▁Univers	-6258
▁Walmart	-6259
▁Wildnis	-6260
▁Zigarre	-6261
▁Zutaten	-6262
▁beeindr	-6263
▁brechen	-6264
▁bürstet	-6265
▁darüber	-6266
▁dritten	-6267
▁einheim	-6268
▁legerer	-6269
▁meißelt	-6270
▁mexikan	-6271
▁richten	-6272
▁schöner	-6273
geschäfts	-6274
liegenden	-6275
schützern	-6276
▁Esstisch	-6277
▁Forscher	-6278
▁Fotograp	-6279
▁Gehstock	-6280
▁Kaufhaus	-6281
▁Laufband	-6282
▁Monopoly	-6283
▁Musikern	-6284
▁Oldtimer	-6285
▁Polohemd	-6286
▁Schlucht	-6287
▁Stabhoch	-6288
▁Wachmann	-6289
▁Wettlauf	-6290
▁Xylophon	-6291
▁angemalt	-6292
▁einsamen	-6293
▁einzelne	-6294
▁erklimmt	-6295
▁frischem	-6296
▁gefallen	-6297
▁gefroren	-6298
▁gespielt	-6299
▁gewinnen	-6300
▁hochhack	-6301
▁krabbelt	-6302
▁lachende	-6303
▁probiert	-6304
▁rostigen	-6305
▁schlecht	-6306
▁schmalen	-6307
▁schnappt	-6308
▁silberne	-6309
▁unaufger	-6310
▁unbekann	-6311
▁vorderen	-6312
▁weiterer	-6313
bewegungen	-6314
gestellten	-6315
gestürzten	-6316
▁Brautjung	-6317
▁Fernseher	-6318
▁Flugzeugs	-6319
▁Kopfstein	-6320
▁Randstein	-6321
▁Reparatur	-6322
▁Ringkampf	-6323
▁Sandhügel	-6324
▁Smartphon	-6325
▁Sommertag	-6326
▁Stadtpark	-6327
▁Steinbank	-6328
▁Teenagern	-6329
▁Unterhemd	-6330
▁Windhunde	-6331
▁Wollmütze	-6332
▁Zeremonie	-6333
▁Ziegelbau	-6334
▁anzusehen	-6335
▁bestehend	-6336
▁bockenden	-6337
▁brennende	-6338
▁dekoriert	-6339
▁faulenzen	-6340
▁gelegenen	-6341
▁rosaroten	-6342
▁schaufeln	-6343
▁schwenken	-6344
▁umgebenen	-6345
▁umzäunten	-6346
formationen	-6347
perspektive	-6348
ubschrauber	-6349
vorrichtung	-6350
▁Absperrung	-6351
▁Baumstumpf	-6352
▁Betonmauer	-6353
▁Dunkelheit	-6354
▁Fahrzeugen	-6355
▁Feldhockey	-6356
▁Grünfläche	-6357
▁Hängematte	-6358
▁Ladefläche	-6359
▁Mitspieler	-6360
▁Passagiere	-6361
▁Schachteln	-6362
▁Schneeball	-6363
▁Sporthalle	-6364
▁Supermarkt	-6365
▁angezogene	-6366
▁barfüßiger	-6367
▁begeistert	-6368
▁brennenden	-6369
▁gefleckter	-6370
▁geschlagen	-6371
▁geschmückt	-6372
▁hellgrünen	-6373
▁kompletter	-6374
▁muskulöser	-6375
▁schnüffelt	-6376
▁vorsichtig	-6377
▁Blaskapelle	-6378
▁Feuerstelle	-6379
▁Gesichtsaus	-6380
▁Jeansshorts	-6381
▁Kajakfahrer	-6382
▁Olympischen	-6383
▁Parasailing	-6384
▁Quarterback	-6385
▁Seifenblase	-6386
▁Sonnenlicht	-6387
▁Spielsachen	-6388
▁Staubsauger	-6389
▁Strumpfhose	-6390
▁Verschieden	-6391
▁Zuckerwatte	-6392
▁aufblasbare	-6393
▁aufeinander	-6394
▁aufgenommen	-6395
▁chinesische	-6396
▁irgendeinem	-6397
▁irgendeiner	-6398
▁rothaariger	-6399
▁Baseballfeld	-6400
▁Hosenträgern	-6401
▁Metallstange	-6402
▁Rugbyspieler	-6403
▁Schlafzimmer	-6404
▁Unterhaltung	-6405
▁altmodischen	-6406
▁eingewickelt	-6407
▁mehrfarbigen	-6408
▁telefonieren	-6409
orangefarbenen	-6410
▁Demonstranten	-6411
▁Demonstration	-6412
▁Geldautomaten	-6413
▁Gleichgewicht	-6414
▁Müllcontainer	-6415
▁Waschmaschine	-6416
▁Ziegelgebäude	-6417
▁verschränkten	-6418
▁Backsteinmauer	-6419
▁Wassersprenger	-6420
▁ausgeschnitten	-6421
▁orientalischer	-6422
▁unaufgeräumten	-6423
▁Backsteinstraße	-6424
▁Kopfbedeckungen	-6425
▁Motocrossfahrer	-6426
▁Musikinstrument	-6427
▁heraushängender	-6428
BH	-6429
Bo	-6430
CE	-6431
MS	-6432
Un	-6433
ca	-6434
kä	-6435
mö	-6436
pl	-6437
po	-6438
vr	-6439
ye	-6440
afé	-6441
ash	-6442
ble	-6443
eck	-6444
eis	-6445
fäl	-6446
get	-6447
hol	-6448
hrt	-6449
hän	-6450
ica	-6451
lex	-6452
ney	-6453
opp	-6454
pla	-6455
rid	-6456
tra	-6457
upf	-6458
ute	-6459
zie	-6460
övr	-6461
üle	-6462
▁Cr	-6463
▁Fu	-6464
▁Ru	-6465
▁Wa	-6466
▁eu	-6467
▁Öl	-6468
Fest	-6469
Park	-6470
Wett	-6471
alat	-6472
anzt	-6473
brot	-6474
café	-6475
dest	-6476
egte	-6477
ende	-6478
enen	-6479
eter	-6480
etti	-6481
frau	-6482
halm	-6483
hedr	-6484
iegs	-6485
ikel	-6486
imon	-6487
isur	-6488
izen	-6489
kost	-6490
loch	-6491
mark	-6492
nähe	-6493
orgt	-6494
pert	-6495
plan	-6496
pult	-6497
ragt	-6498
rami	-6499
rauf	-6500
ropä	-6501
spur	-6502
tete	-6503
uell	-6504
wohl	-6505
äter	-6506
üler	-6507
▁Bur	-6508
▁Com	-6509
▁End	-6510
▁Fir	-6511
▁Ged	-6512
▁Gän	-6513
▁Ich	-6514
▁Ihr	-6515
▁Kom	-6516
▁Mus	-6517
▁Män	-6518
▁Ord	-6519
▁Pok	-6520
▁Pul	-6521
▁Ser	-6522
▁Tut	-6523
▁Wir	-6524
▁ant	-6525
▁lok	-6526
▁org	-6527
Wagen	-6528
allye	-6529
arium	-6530
blatt	-6531
chnik	-6532
dreht	-6533
eeper	-6534
einer	-6535
essel	-6536
gress	-6537
grube	-6538
hohen	-6539
hängt	-6540
iffen	-6541
ispan	-6542
katen	-6543
kröte	-6544
later	-6545
leger	-6546
ollie	-6547
pfeln	-6548
puppe	-6549
regal	-6550
roter	-6551
troll	-6552
udeln	-6553
uller	-6554
ungsm	-6555
weder	-6556
zeria	-6557
ärger	-6558
▁Abst	-6559
▁Blut	-6560
▁Body	-6561
▁Bong	-6562
▁Brau	-6563
▁Bron	-6564
▁Coca	-6565
▁Elmo	-6566
▁Erei	-6567
▁Food	-6568
▁Früh	-6569
▁Glet	-6570
▁Haut	-6571
▁Kamm	-6572
▁Kinn	-6573
▁Kuss	-6574
▁Käse	-6575
▁Laut	-6576
▁Lenk	-6577
▁Leop	-6578
▁Neon	-6579
▁Papa	-6580
▁Popc	-6581
▁Pult	-6582
▁Seni	-6583
▁Sims	-6584
▁Skim	-6585
▁Säge	-6586
▁Tüte	-6587
▁Zitr	-6588
▁bequ	-6589
▁brät	-6590
▁budd	-6591
▁ethn	-6592
▁heim	-6593
▁iPod	-6594
▁krie	-6595
▁nied	-6596
▁patr	-6597
▁wenn	-6598
▁wäre	-6599
▁zuzu	-6600
abteil	-6601
affeln	-6602
askott	-6603
blaues	-6604
blumen	-6605
bläser	-6606
bricht	-6607
dianer	-6608
ellern	-6609
etzter	-6610
führer	-6611
gegend	-6612
grüner	-6613
hüpfen	-6614
iellen	-6615
ierend	-6616
inchen	-6617
itäten	-6618
karten	-6619
ketten	-6620
körben	-6621
lassen	-6622
nummer	-6623
olster	-6624
rauben	-6625
school	-6626
steckt	-6627
storte	-6628
treten	-6629
änzern	-6630
▁Apple	-6631
▁Bades	-6632
▁Block	-6633
▁Boote	-6634
▁Dekor	-6635
▁Dosen	-6636
▁Enten	-6637
▁Geste	-6638
▁Hasen	-6639
▁Hawai	-6640
▁Kabel	-6641
▁Kanus	-6642
▁Knien	-6643
▁Löwen	-6644
▁Möwen	-6645
▁Nahen	-6646
▁Offiz	-6647
▁Paket	-6648
▁Palme	-6649
▁Reise	-6650
▁Spinn	-6651
▁Spitz	-6652
▁Spüle	-6653
▁Tages	-6654
▁Tiger	-6655
▁Times	-6656
▁Trock	-6657
▁Ufers	-6658
▁Umhän	-6659
▁Wanne	-6660
▁Warte	-6661
▁Werbe	-6662
▁Wände	-6663
▁Zelte	-6664
▁Ziege	-6665
▁aller	-6666
▁anzug	-6667
▁beauf	-6668
▁breit	-6669
▁creme	-6670
▁erhöh	-6671
▁genau	-6672
▁inner	-6673
▁keine	-6674
▁leben	-6675
▁linke	-6676
▁mobil	-6677
▁neuen	-6678
▁richt	-6679
▁teilt	-6680
▁tippt	-6681
▁umgek	-6682
▁voran	-6683
▁zielt	-6684
Fußball	-6685
alteten	-6686
aterial	-6687
ational	-6688
boarden	-6689
eichtem	-6690
galerie	-6691
gruppen	-6692
malerei	-6693
mädchen	-6694
oreiter	-6695
ostümen	-6696
schnell	-6697
stöcken	-6698
stücken	-6699
übungen	-6700
▁Aufnah	-6701
▁Bagger	-6702
▁Beginn	-6703
▁Beutel	-6704
▁Chines	-6705
▁Domino	-6706
▁Einzel	-6707
▁Fangen	-6708
▁Fitnes	-6709
▁Habsel	-6710
▁Herzen	-6711
▁Hängeb	-6712
▁Kabeln	-6713
▁Kabine	-6714
▁Kajaks	-6715
▁Können	-6716
▁Küsten	-6717
▁Ladens	-6718
▁Leicht	-6719
▁Ochsen	-6720
▁Pfeife	-6721
▁Pinsel	-6722
▁Plüsch	-6723
▁Reisen	-6724
▁Schals	-6725
▁Schnür	-6726
▁Spider	-6727
▁Square	-6728
▁Stelle	-6729
▁Subway	-6730
▁Urlaub	-6731
▁Waffel	-6732
▁Waffen	-6733
▁albern	-6734
▁beschm	-6735
▁binden	-6736
▁bleibt	-6737
▁bricht	-6738
▁buntem	-6739
▁decken	-6740
▁dieses	-6741
▁dünnen	-6742
▁erziel	-6743
▁europä	-6744
▁ganzen	-6745
▁geflie	-6746
▁gefärb	-6747
▁gießen	-6748
▁hübsch	-6749
▁langes	-6750
▁leitet	-6751
▁nassem	-6752
▁prächt	-6753
▁regelt	-6754
▁regnet	-6755
▁reicht	-6756
▁segelt	-6757
▁trüben	-6758
▁wilden	-6759
▁zweite	-6760
bewohner	-6761
blättern	-6762
einfahrt	-6763
gelegten	-6764
ichteten	-6765
ierender	-6766
itischen	-6767
schlange	-6768
schungel	-6769
streifen	-6770
werkzeug	-6771
zuführen	-6772
▁Alkohol	-6773
▁Ansicht	-6774
▁Bikinis	-6775
▁Digital	-6776
▁Draußen	-6777
▁Fassade	-6778
▁Felsens	-6779
▁Fernseh	-6780
▁Flammen	-6781
▁Fliegen	-6782
▁Glastür	-6783
▁Landung	-6784
▁Notizen	-6785
▁Nummern	-6786
▁Objekte	-6787
▁Piraten	-6788
▁Schritt	-6789
▁Schwebe	-6790
▁Sommerk	-6791
▁Trägers	-6792
▁Töpferw	-6793
▁Versuch	-6794
▁Violett	-6795
▁Zebrast	-6796
▁anderem	-6797
▁bleiben	-6798
▁buckeln	-6799
▁frische	-6800
▁gehoben	-6801
▁kümmern	-6802
▁religiö	-6803
▁schenkt	-6804
▁schwere	-6805
▁steuert	-6806
▁säubert	-6807
▁trottet	-6808
▁verlegt	-6809
▁verschm	-6810
▁zuhause	-6811
promenade	-6812
schildern	-6813
schlitten	-6814
schwimmer	-6815
undgebung	-6816
▁Backflip	-6817
▁Broschür	-6818
▁Dinosaur	-6819
▁Ereignis	-6820
▁Fernrohr	-6821
▁Getreide	-6822
▁Indianer	-6823
▁Innenhof	-6824
▁Pizzeria	-6825
▁Rockband	-6826
▁Schienen	-6827
▁Schnorch	-6828
▁Spielern	-6829
▁Spielers	-6830
▁Textnach	-6831
▁Torbogen	-6832
▁Wartungs	-6833
▁entweder	-6834
▁faulenzt	-6835
▁frischen	-6836
▁gesäumte	-6837
▁hinteren	-6838
▁pflanzen	-6839
▁schleift	-6840
▁seichtem	-6841
▁seitlich	-6842
▁sortiert	-6843
▁trocknet	-6844
▁tätowier	-6845
▁türkisen	-6846
askottchen	-6847
aufführung	-6848
gegenstand	-6849
itarbeiter	-6850
oberfläche	-6851
unterricht	-6852
wärtssalto	-6853
▁Afrikaner	-6854
▁Badehosen	-6855
▁Badekappe	-6856
▁Barkeeper	-6857
▁Dschungel	-6858
▁Fahrzeugs	-6859
▁Fernsehen	-6860
▁Frühstück	-6861
▁Gesichter	-6862
▁Gesichtsm	-6863
▁Gletscher	-6864
▁Holzbrett	-6865
▁Industrie	-6866
▁Innenraum	-6867
▁Kaninchen	-6868
▁Kontrolle	-6869
▁McDonalds	-6870
▁Pullovern	-6871
▁Ruderboot	-6872
▁Schnuller	-6873
▁Spielerin	-6874
▁Staffelei	-6875
▁Stofftier	-6876
▁Tauziehen	-6877
▁Toiletten	-6878
▁Warnweste	-6879
▁Wintertag	-6880
▁abgesperr	-6881
▁blühenden	-6882
▁dekorativ	-6883
▁dirigiert	-6884
▁einfachen	-6885
▁fröhliche	-6886
▁gepolster	-6887
▁irgendwel	-6888
▁karierter	-6889
▁probieren	-6890
▁schlafend	-6891
▁versteckt	-6892
▁violetter	-6893
▁weinendes	-6894
Bahnstation	-6895
gestreiften	-6896
handschuhen	-6897
merksamkeit	-6898
mitarbeiter	-6899
▁Eisschnell	-6900
▁Felsklippe	-6901
▁Fischmarkt	-6902
▁Geldbeutel	-6903
▁Handwerker	-6904
▁Highschool	-6905
▁Kameramann	-6906
▁Rennfahrer	-6907
▁Smartphone	-6908
▁Stadtszene	-6909
▁Startlinie	-6910
▁Tankstelle	-6911
▁Wildwasser	-6912
▁angefeuert	-6913
▁beaufsicht	-6914
▁gestreifte	-6915
▁glückliche	-6916
▁profession	-6917
▁spielenden	-6918
▁tropischen	-6919
▁weiblichen	-6920
▁Aktentasche	-6921
▁Baumstämmen	-6922
▁Betonstufen	-6923
▁Einrichtung	-6924
▁Handtaschen	-6925
▁Hängebrücke	-6926
▁Kaffeetasse	-6927
▁Passagieren	-6928
▁Rodeoreiter	-6929
▁Schokoladen	-6930
▁Speisekarte	-6931
▁Trägershirt	-6932
▁Videokamera	-6933
▁Vorstellung	-6934
▁Wandmalerei	-6935
▁Winterjacke	-6936
▁aufgeblasen	-6937
▁einzufangen	-6938
▁gegnerische	-6939
▁gemusterten	-6940
▁geschrieben	-6941
▁pinkfarbene	-6942
▁schlafendes	-6943
▁tätowierter	-6944
▁Blumenstrauß	-6945
▁Bohrmaschine	-6946
▁Cheerleadern	-6947
▁Footballfeld	-6948
▁Gesellschaft	-6949
▁Kunstgalerie	-6950
▁Leichtathlet	-6951
▁Schlittschuh	-6952
▁Seilspringen	-6953
▁Straßenmarkt	-6954
▁Verschiedene	-6955
▁Wasserstraße	-6956
▁Wissenschaft	-6957
▁ausgebreitet	-6958
▁beeindrucken	-6959
▁geflochtenen	-6960
▁geschminktem	-6961
▁geschmückten	-6962
▁goldfarbenen	-6963
▁historischen	-6964
▁hochhackigen	-6965
▁interagieren	-6966
▁lilafarbener	-6967
▁umgestürzten	-6968
▁verschwommen	-6969
▁vorbeifahren	-6970
▁Brautjungfern	-6971
▁Cheerleaderin	-6972
▁Fahrradrennen	-6973
▁Freiluftmarkt	-6974
▁Schmetterling	-6975
▁Schwebebalken	-6976
▁Wassermelonen	-6977
▁Zebrastreifen	-6978
▁blondhaariger	-6979
▁braunhaariges	-6980
▁khakifarbener	-6981
▁traditionelle	-6982
▁Aufmerksamkeit	-6983
▁Basketballfeld	-6984
▁Habseligkeiten	-6985
▁Hundespielzeug	-6986
▁Militärangehör	-6987
▁Pflasterstraße	-6988
▁Schlittschuhen	-6989
▁ausgebreiteten	-6990
▁burgunderroten	-6991
▁hochzuklettern	-6992
▁wahrscheinlich	-6993
▁Einkaufstaschen	-6994
▁Friedenszeichen	-6995
▁Geländefahrzeug	-6996
▁Krankenhausbett	-6997
▁Stammeskleidung	-6998
▁Volleyballspiel	-6999
▁reflektierenden	-7000
.“	-7001
00	-7002
Co	-7003
Gr	-7004
Kl	-7005
Sp	-7006
bh	-7007
ct	-7008
gi	-7009
go	-7010
if	-7011
kn	-7012
▁8	-7013
Air	-7014
Aut	-7015
Kon	-7016
Rad	-7017
alk	-7018
bon	-7019
bun	-7020
car	-7021
eug	-7022
gar	-7023
hom	-7024
ide	-7025
lim	-7026
mar	-7027
mun	-7028
nev	-7029
olf	-7030
osn	-7031
our	-7032
ove	-7033
por	-7034
try	-7035
ymb	-7036
änt	-7037
öße	-7038
▁12	-7039
▁Go	-7040
▁Ir	-7041
▁Lu	-7042
▁Rü	-7043
▁Sö	-7044
▁Wä	-7045
▁co	-7046
▁dü	-7047
Cola	-7048
afft	-7049
agaz	-7050
anis	-7051
ards	-7052
ator	-7053
atze	-7054
baby	-7055
bike	-7056
book	-7057
boss	-7058
chco	-7059
chor	-7060
crew	-7061
ehen	-7062
entr	-7063
erie	-7064
etch	-7065
fass	-7066
ffet	-7067
fiel	-7068
font	-7069
ford	-7070
gelb	-7071
hüte	-7072
icke	-7073
ießt	-7074
iven	-7075
jama	-7076
lers	-7077
ltim	-7078
nern	-7079
ness	-7080
ofen	-7081
oliz	-7082
ollt	-7083
onge	-7084
pern	-7085
pipe	-7086
ppel	-7087
reit	-7088
rest	-7089
rote	-7090
saft	-7091
sich	-7092
sort	-7093
stil	-7094
uchs	-7095
wahl	-7096
wart	-7097
würd	-7098
ädel	-7099
äumt	-7100
▁Ant	-7101
▁Cam	-7102
▁Dis	-7103
▁Don	-7104
▁Fan	-7105
▁Far	-7106
▁Fäu	-7107
▁Gas	-7108
▁Kek	-7109
▁Lig	-7110
▁Meg	-7111
▁Mel	-7112
▁Pow	-7113
▁SMS	-7114
▁Van	-7115
▁Whe	-7116
▁frü	-7117
▁kor	-7118
▁nav	-7119
▁par	-7120
▁Ärm	-7121
▁Öff	-7122
▁üpp	-7123
Compu	-7124
altet	-7125
anell	-7126
arden	-7127
atein	-7128
attle	-7129
aufel	-7130
aunen	-7131
autos	-7132
boote	-7133
bälle	-7134
empor	-7135
erker	-7136
erste	-7137
esser	-7138
essor	-7139
ettel	-7140
ettes	-7141
fisch	-7142
hüten	-7143
illen	-7144
kreis	-7145
onern	-7146
oners	-7147
order	-7148
packt	-7149
party	-7150
produ	-7151
rotes	-7152
schul	-7153
spass	-7154
stron	-7155
ständ	-7156
train	-7157
trock	-7158
untry	-7159
usche	-7160
ustet	-7161
viewt	-7162
waffe	-7163
wiese	-7164
wirft	-7165
zählt	-7166
ängst	-7167
ässer	-7168
übung	-7169
ücher	-7170
üllte	-7171
▁Aufw	-7172
▁Barr	-7173
▁Blei	-7174
▁Blon	-7175
▁Chir	-7176
▁Dess	-7177
▁Eben	-7178
▁Empf	-7179
▁Jung	-7180
▁Krug	-7181
▁Live	-7182
▁Mehl	-7183
▁Pain	-7184
▁Ping	-7185
▁Polo	-7186
▁Pony	-7187
▁Pose	-7188
▁Reit	-7189
▁Saal	-7190
▁Saft	-7191
▁Spag	-7192
▁Steg	-7193
▁Tief	-7194
▁Tren	-7195
▁Wund	-7196
▁bett	-7197
▁eink	-7198
▁etwa	-7199
▁gekü	-7200
▁glät	-7201
▁hech	-7202
▁herz	-7203
▁knie	-7204
▁lebh	-7205
▁qual	-7206
▁ruft	-7207
▁senk	-7208
▁sorg	-7209
▁stud	-7210
▁wolk	-7211
agiert	-7212
ammung	-7213
besitz	-7214
bligen	-7215
booten	-7216
bunten	-7217
chcoat	-7218
detwas	-7219
eibeam	-7220
fältig	-7221
führen	-7222
gelenk	-7223
geräte	-7224
geträn	-7225
gläser	-7226
hemden	-7227
hörern	-7228
immten	-7229
ivität	-7230
koffer	-7231
kragen	-7232
lesung	-7233
minton	-7234
mittel	-7235
nneren	-7236
oshirt	-7237
ousine	-7238
outfit	-7239
papier	-7240
person	-7241
pfütze	-7242
ramide	-7243
schnee	-7244
splatz	-7245
tennis	-7246
tensiv	-7247
tresen	-7248
tunnel	-7249
tänzer	-7250
uchten	-7251
urnier	-7252
utlich	-7253
änteln	-7254
ärgert	-7255
▁Batik	-7256
▁Baums	-7257
▁Bulle	-7258
▁Busch	-7259
▁Dress	-7260
▁Faust	-7261
▁Gebir	-7262
▁Gleis	-7263
▁Griff	-7264
▁Gäste	-7265
▁Haken	-7266
▁Haust	-7267
▁Hänge	-7268
▁Kimon	-7269
▁Kunde	-7270
▁Körbe	-7271
▁Liebl	-7272
▁Liege	-7273
▁Milch	-7274
▁Minig	-7275
▁Mönch	-7276
▁Nasen	-7277
▁Parks	-7278
▁Pitch	-7279
▁Radio	-7280
▁Salat	-7281
▁Schär	-7282
▁Skist	-7283
▁Speer	-7284
▁State	-7285
▁Tauch	-7286
▁Teamk	-7287
▁Thema	-7288
▁Toten	-7289
▁Ultim	-7290
▁alber	-7291
▁armen	-7292
▁außen	-7293
▁beför	-7294
▁bohrt	-7295
▁dreck	-7296
▁event	-7297
▁freut	-7298
▁gemüt	-7299
▁helle	-7300
▁heran	-7301
▁irgen	-7302
▁leere	-7303
▁olymp	-7304
▁plant	-7305
▁rückt	-7306
▁sport	-7307
▁spült	-7308
▁still	-7309
▁wenig	-7310
▁wiegt	-7311
▁wählt	-7312
▁zeich	-7313
▁zerkl	-7314
Konzert	-7315
absperr	-7316
anzeige	-7317
blätter	-7318
braunem	-7319
brechen	-7320
deckten	-7321
dienung	-7322
hedrale	-7323
kapelle	-7324
meister	-7325
ohmarkt	-7326
pistole	-7327
platten	-7328
respiel	-7329
rutscht	-7330
schoben	-7331
skuchen	-7332
smittel	-7333
sstudio	-7334
unktion	-7335
zenerie	-7336
▁Abhang	-7337
▁Aktion	-7338
▁Amboss	-7339
▁Aschen	-7340
▁Beamte	-7341
▁Berggi	-7342
▁Besuch	-7343
▁Bulldo	-7344
▁Bürste	-7345
▁Doppel	-7346
▁Fußweg	-7347
▁Gemein	-7348
▁Golden	-7349
▁Hawaii	-7350
▁Inhalt	-7351
▁Joggen	-7352
▁Karnev	-7353
▁Kasten	-7354
▁Kegeln	-7355
▁Kittel	-7356
▁Kokosn	-7357
▁Ladung	-7358
▁Massen	-7359
▁Rallye	-7360
▁Ringen	-7361
▁Rummel	-7362
▁Schale	-7363
▁Spritz	-7364
▁Spruch	-7365
▁Stücke	-7366
▁Tische	-7367
▁Transp	-7368
▁Vaters	-7369
▁Zauber	-7370
▁Zähnen	-7371
▁abgest	-7372
▁aufhat	-7373
▁balgen	-7374
▁beigen	-7375
▁bequem	-7376
▁buntes	-7377
▁einger	-7378
▁essend	-7379
▁feuert	-7380
▁freund	-7381
▁gebaut	-7382
▁gesche	-7383
▁herein	-7384
▁kaukas	-7385
▁kehren	-7386
▁kicken	-7387
▁kommun	-7388
▁kosten	-7389
▁leiden	-7390
▁mensch	-7391
▁nackte	-7392
▁obwohl	-7393
▁pinken	-7394
▁raufen	-7395
▁schatt	-7396
▁schick	-7397
▁schält	-7398
▁sicher	-7399
▁stattf	-7400
▁surfen	-7401
▁tiefen	-7402
▁wurden	-7403
▁zündet	-7404
Computer	-7405
arinette	-7406
handwerk	-7407
köpfigen	-7408
mannszug	-7409
pflanzen	-7410
pflegten	-7411
position	-7412
schaufel	-7413
schlacht	-7414
spassage	-7415
▁Armband	-7416
▁Ausflug	-7417
▁Auswahl	-7418
▁Blument	-7419
▁Cowgirl	-7420
▁Dunkeln	-7421
▁Eisbahn	-7422
▁Empfang	-7423
▁Filzhut	-7424
▁Flanell	-7425
▁Flieger	-7426
▁Garagen	-7427
▁Gehwegs	-7428
▁Gürteln	-7429
▁Hotdogs	-7430
▁Hörsaal	-7431
▁Japaner	-7432
▁Kamelen	-7433
▁Kiefern	-7434
▁Kirchen	-7435
▁Langarm	-7436
▁Läufern	-7437
▁Nadelst	-7438
▁Perücke	-7439
▁Pfannen	-7440
▁Popcorn	-7441
▁Punkten	-7442
▁Rollern	-7443
▁Schiffs	-7444
▁Schloss	-7445
▁Schnell	-7446
▁Schwanz	-7447
▁Schweiß	-7448
▁Schwier	-7449
▁Skilift	-7450
▁Terrier	-7451
▁Trinken	-7452
▁Tänzern	-7453
▁Uferweg	-7454
▁Wohnung	-7455
▁akrobat	-7456
▁beendet	-7457
▁beschäd	-7458
▁farbige	-7459
▁fertigt	-7460
▁füttern	-7461
▁gehüllt	-7462
▁haltend	-7463
▁kompliz	-7464
▁lokalen	-7465
▁nackten	-7466
▁nacktes	-7467
▁offener	-7468
▁pflückt	-7469
▁ruhigem	-7470
▁schippt	-7471
▁stecken	-7472
▁strickt	-7473
▁tackelt	-7474
▁umgedre	-7475
▁zuhören	-7476
bereitung	-7477
fahrzeuge	-7478
gestellte	-7479
plattform	-7480
schneiden	-7481
sgeschäft	-7482
stehenden	-7483
▁Aquarium	-7484
▁Arbeiten	-7485
▁Arbeitsk	-7486
▁Ausschau	-7487
▁Autositz	-7488
▁Berghang	-7489
▁Festival	-7490
▁Fingernä	-7491
▁Fußboden	-7492
▁Gewehren	-7493
▁Hüpfburg	-7494
▁Klettern	-7495
▁Kollegen	-7496
▁Konfetti	-7497
▁Labrador	-7498
▁Mülltüte	-7499
▁National	-7500
▁Position	-7501
▁Pyramide	-7502
▁Schalter	-7503
▁Schotten	-7504
▁Schwarze	-7505
▁Schülern	-7506
▁Senioren	-7507
▁Strandes	-7508
▁Struktur	-7509
▁Training	-7510
▁Ultimate	-7511
▁Umhängen	-7512
▁angelein	-7513
▁anschaut	-7514
▁aufrecht	-7515
▁bestellt	-7516
▁besuchen	-7517
▁erhalten	-7518
▁erreicht	-7519
▁erwischt	-7520
▁gefahren	-7521
▁hochhält	-7522
▁intensiv	-7523
▁irgendwo	-7524
▁jüngeres	-7525
▁kleinere	-7526
▁kontroll	-7527
▁liegende	-7528
▁lustigen	-7529
▁modernen	-7530
▁rauchend	-7531
▁schweren	-7532
▁studiert	-7533
▁trommelt	-7534
▁versehen	-7535
▁zeichnen	-7536
Mannschaft	-7537
schaftlich	-7538
wirtschaft	-7539
▁Aufschlag	-7540
▁Badminton	-7541
▁Begleiter	-7542
▁Betonbank	-7543
▁Durchgang	-7544
▁Eislaufen	-7545
▁Golfplatz	-7546
▁Hemdbluse	-7547
▁Holztisch	-7548
▁Hydranten	-7549
▁Kellnerin	-7550
▁Khakihose	-7551
▁Landkarte	-7552
▁Leoparden	-7553
▁Limousine	-7554
▁Meeresfrü	-7555
▁Mikrofone	-7556
▁Motorboot	-7557
▁Nachtclub	-7558
▁Poloshirt	-7559
▁Professor	-7560
▁Promenade	-7561
▁Schaufeln	-7562
▁Schrauben	-7563
▁Spiderman	-7564
▁Vorlesung	-7565
▁Wanderweg	-7566
▁Wunderker	-7567
▁Zeitungen	-7568
▁bedeckter	-7569
▁befahrene	-7570
▁beteiligt	-7571
▁eventuell	-7572
▁fahrenden	-7573
▁geradeaus	-7574
▁gerichtet	-7575
▁geschoben	-7576
▁gesenktem	-7577
▁klatschen	-7578
▁platziert	-7579
▁selbstgeb	-7580
▁servieren	-7581
▁teilnimmt	-7582
▁untergeht	-7583
▁verfolgen	-7584
▁verärgert	-7585
▁Abstammung	-7586
▁Eiswaffeln	-7587
▁Kampfkunst	-7588
▁Kathedrale	-7589
▁Marktstand	-7590
▁Maulkörben	-7591
▁Metallzaun	-7592
▁Mikrofonen	-7593
▁Möbelstück	-7594
▁Nachmittag	-7595
▁Rasenmäher	-7596
▁Sackhüpfen	-7597
▁Schneemann	-7598
▁Schnorchel	-7599
▁Spielzeuge	-7600
▁Sportplatz	-7601
▁Teenagerin	-7602
▁Tischdecke	-7603
▁Trenchcoat	-7604
▁Unterricht	-7605
▁Warnwesten	-7606
▁Wasserball	-7607
▁Wasserfont	-7608
▁Werkzeugen	-7609
▁akustische	-7610
▁ausgestopf	-7611
▁barfüßiges	-7612
▁durchsucht	-7613
▁farbenfroh	-7614
▁fasziniert	-7615
▁fröhliches	-7616
▁geöffnetem	-7617
▁hellgelben	-7618
▁inspiziert	-7619
▁interviewt	-7620
▁irgendeine	-7621
▁regenbogen	-7622
▁schlendern	-7623
▁schmettert	-7624
▁sorgfältig	-7625
▁steinernen	-7626
▁streicheln	-7627
▁verbringen	-7628
▁vermutlich	-7629
▁wetteifern	-7630
▁ärmellosem	-7631
▁überblickt	-7632
▁Bahngleisen	-7633
▁Betonplatte	-7634
▁Bücherregal	-7635
▁Essenswagen	-7636
▁Fußballteam	-7637
▁Karateanzug	-7638
▁Kartenspiel	-7639
▁Lippenstift	-7640
▁Obdachloser	-7641
▁Polizeibeam	-7642
▁Schotterweg	-7643
▁Seitenlinie	-7644
▁Straßenbahn	-7645
▁Tischtennis	-7646
▁Tänzerinnen	-7647
▁Videospiele	-7648
▁Weihnachten	-7649
▁befestigten	-7650
▁begutachten	-7651
▁dekorativen	-7652
▁dekorierten	-7653
▁dreiköpfige	-7654
▁entgegenges	-7655
▁erwachsenen	-7656
▁farbenfrohe	-7657
▁flauschigen	-7658
▁gelbbrauner	-7659
▁geschäftige	-7660
▁glückliches	-7661
▁hochgehoben	-7662
▁hochspringt	-7663
▁inspizieren	-7664
▁irgendetwas	-7665
▁kostümierte	-7666
▁kunstvollen	-7667
▁mehrfarbige	-7668
▁rothaarigen	-7669
▁schmutziges	-7670
▁verlassenen	-7671
▁vierköpfige	-7672
▁wunderschön	-7673
▁überdachten	-7674
▁Badekleidung	-7675
▁Bullenreiter	-7676
▁Dekorationen	-7677
▁Fußballteams	-7678
▁Gitarrespiel	-7679
▁Hubschrauber	-7680
▁Klappstühlen	-7681
▁Küchentresen	-7682
▁Liegestühlen	-7683
▁Mannschaftsk	-7684
▁Sandskulptur	-7685
▁Schaulustige	-7686
▁Schauspieler	-7687
▁Spazierstock	-7688
▁Taucheranzug	-7689
▁abgesperrten	-7690
▁befindlichen	-7691
▁chinesischer	-7692
▁entlanggehen	-7693
▁geschminkten	-7694
▁marineblauen	-7695
▁protestieren	-7696
▁uniformierte	-7697
▁verkleideter	-7698
▁vorübergehen	-7699
pflasterstraße	-7700
▁Digitalkamera	-7701
▁Fitnessstudio	-7702
▁Karateanzügen	-7703
▁Nadelstreifen	-7704
▁Radrennfahrer	-7705
▁Schwimmwesten	-7706
▁Softballspiel	-7707
▁Spielmannszug	-7708
▁Spielzeugauto	-7709
▁Tennisschuhen	-7710
▁abgedunkelten	-7711
▁aufgeblasenen	-7712
▁beaufsichtigt	-7713
▁schwarzweißer	-7714
▁Bandmitglieder	-7715
▁Bordsteinkante	-7716
▁Fußballspielen	-7717
▁Hochzeitskleid	-7718
▁Hochzeitstorte	-7719
▁Modellflugzeug	-7720
▁Rückwärtssalto	-7721
▁Schotterstraße	-7722
▁Schwimmflügeln	-7723
▁Skateboardpark	-7724
▁Stabhochsprung	-7725
▁türkisfarbenen	-7726
▁Einkaufspassage	-7727
▁Fußgängerbrücke	-7728
▁Motorradfahrern	-7729
▁Schwierigkeiten	-7730
▁Skateboardrampe	-7731
▁Skateboardtrick	-7732
▁Strandpromenade	-7733
▁verschiedenfarb	-7734
Ar	-7735
Fr	-7736
fz	-7737
ix	-7738
ky	-7739
zz	-7740
äf	-7741
äß	-7742
ös	-7743
▁&	-7744
Bob	-7745
Str	-7746
adr	-7747
agg	-7748
ahm	-7749
ane	-7750
any	-7751
ape	-7752
ars	-7753
atu	-7754
azz	-7755
eld	-7756
flu	-7757
ham	-7758
han	-7759
ice	-7760
ilf	-7761
int	-7762
iot	-7763
iqu	-7764
mat	-7765
met	-7766
mon	-7767
nam	-7768
nte	-7769
oke	-7770
orb	-7771
osk	-7772
ota	-7773
pit	-7774
pul	-7775
pur	-7776
ree	-7777
ruh	-7778
ses	-7779
ski	-7780
stä	-7781
sur	-7782
ugt	-7783
ure	-7784
völ	-7785
ätz	-7786
öne	-7787
ühl	-7788
ümm	-7789
üss	-7790
▁11	-7791
▁Bö	-7792
▁Is	-7793
▁Li	-7794
▁Lo	-7795
▁Ri	-7796
▁Wh	-7797
▁el	-7798
▁gä	-7799
▁pf	-7800
▁wü	-7801
Bade	-7802
Base	-7803
adem	-7804
afür	-7805
akes	-7806
alie	-7807
anas	-7808
aran	-7809
arat	-7810
arst	-7811
bein	-7812
biet	-7813
brer	-7814
bter	-7815
bude	-7816
chan	-7817
eckt	-7818
ehrs	-7819
elie	-7820
esst	-7821
euen	-7822
ftet	-7823
geld	-7824
gumm	-7825
gürt	-7826
häng	-7827
ilde	-7828
jagt	-7829
kart	-7830
kelt	-7831
ktor	-7832
lass	-7833
llen	-7834
nack	-7835
nehm	-7836
nete	-7837
obby	-7838
pink	-7839
rädr	-7840
sack	-7841
sein	-7842
terr	-7843
tuch	-7844
umor	-7845
uren	-7846
zahl	-7847
zimm	-7848
ßten	-7849
ämpf	-7850
änen	-7851
öten	-7852
üsse	-7853
▁Als	-7854
▁Blu	-7855
▁Day	-7856
▁Dir	-7857
▁Dog	-7858
▁Dok	-7859
▁Drä	-7860
▁Exp	-7861
▁Hel	-7862
▁Hus	-7863
▁Hüt	-7864
▁Ind	-7865
▁Kal	-7866
▁Kau	-7867
▁Kop	-7868
▁Kre	-7869
▁Mal	-7870
▁Mix	-7871
▁Müt	-7872
▁Prü	-7873
▁Sam	-7874
▁San	-7875
▁Sol	-7876
▁Tun	-7877
▁Wäl	-7878
▁Wür	-7879
▁Zom	-7880
▁app	-7881
▁att	-7882
▁deu	-7883
▁eis	-7884
▁hal	-7885
▁jüd	-7886
▁kni	-7887
▁mat	-7888
▁met	-7889
▁ord	-7890
▁per	-7891
▁san	-7892
Teams	-7893
Tisch	-7894
achte	-7895
altes	-7896
apeln	-7897
artet	-7898
atuen	-7899
aupts	-7900
boter	-7901
ction	-7902
eugen	-7903
euten	-7904
fpipe	-7905
fälle	-7906
grüne	-7907
gäste	-7908
herum	-7909
ierer	-7910
igner	-7911
igtes	-7912
irmes	-7913
junge	-7914
kiste	-7915
klapp	-7916
kremp	-7917
lakat	-7918
legen	-7919
lässt	-7920
mitte	-7921
mobil	-7922
ohren	-7923
pierc	-7924
piste	-7925
plane	-7926
reich	-7927
reise	-7928
ridor	-7929
schel	-7930
sfest	-7931
start	-7932
steht	-7933
stöck	-7934
tafel	-7935
tetes	-7936
theke	-7937
tüten	-7938
ugeln	-7939
uldig	-7940
ulpen	-7941
umzug	-7942
unner	-7943
wache	-7944
ymbol	-7945
zügen	-7946
ßlich	-7947
ärten	-7948
▁Alte	-7949
▁Arch	-7950
▁Beim	-7951
▁Cock	-7952
▁Cola	-7953
▁Dart	-7954
▁Denk	-7955
▁Deut	-7956
▁Dirt	-7957
▁Disk	-7958
▁Fast	-7959
▁Fund	-7960
▁Hart	-7961
▁Head	-7962
▁Hebe	-7963
▁Kara	-7964
▁Kass	-7965
▁Krab	-7966
▁Lego	-7967
▁Lehm	-7968
▁Mach	-7969
▁Mais	-7970
▁Make	-7971
▁Mast	-7972
▁Mini	-7973
▁Männ	-7974
▁Münz	-7975
▁Nike	-7976
▁Open	-7977
▁Pack	-7978
▁Patr	-7979
▁Pend	-7980
▁Prie	-7981
▁Sari	-7982
▁Sche	-7983
▁Stoß	-7984
▁Trau	-7985
▁Vieh	-7986
▁Viel	-7987
▁Walk	-7988
▁Welt	-7989
▁Werb	-7990
▁Wort	-7991
▁arab	-7992
▁bumm	-7993
▁dick	-7994
▁enge	-7995
▁erst	-7996
▁gute	-7997
▁kein	-7998
▁klar	-7999
▁krei	-8000
▁leer	-8001
▁merk	-8002
▁oper	-8003
▁rang	-8004
▁stol	-8005
▁umkl	-8006
▁verd	-8007
▁winz	-8008
▁zerb	-8009
Rennen	-8010
Tattoo	-8011
Tunnel	-8012
affell	-8013
afting	-8014
blöcke	-8015
bündel	-8016
denten	-8017
eignis	-8018
eigung	-8019
eliger	-8020
ellung	-8021
entrum	-8022
eudert	-8023
flügel	-8024
frisur	-8025
gebaut	-8026
großen	-8027
grünem	-8028
grünes	-8029
hauses	-8030
helmen	-8031
ichert	-8032
iedhof	-8033
iegend	-8034
ikatur	-8035
ingham	-8036
ington	-8037
irsich	-8038
itiert	-8039
kappen	-8040
kissen	-8041
latten	-8042
masten	-8043
omplex	-8044
passen	-8045
ringen	-8046
schale	-8047
selben	-8048
steigt	-8049
strich	-8050
sätzen	-8051
uthahn	-8052
voller	-8053
werfer	-8054
äfchen	-8055
ärtner	-8056
ässern	-8057
äuchen	-8058
▁Acker	-8059
▁Bauer	-8060
▁Blase	-8061
▁Braun	-8062
▁Brief	-8063
▁Bären	-8064
▁Coach	-8065
▁Comic	-8066
▁Derby	-8067
▁Ebene	-8068
▁Front	-8069
▁Gabel	-8070
▁Gänse	-8071
▁Harfe	-8072
▁Hucke	-8073
▁Jahre	-8074
▁Juwel	-8075
▁Kamin	-8076
▁Kanal	-8077
▁Kerze	-8078
▁Kites	-8079
▁Lobby	-8080
▁Messe	-8081
▁Miami	-8082
▁Orgel	-8083
▁Paint	-8084
▁Plane	-8085
▁Ponch	-8086
▁Power	-8087
▁Preis	-8088
▁Punkt	-8089
▁Regal	-8090
▁Runde	-8091
▁Saris	-8092
▁Seife	-8093
▁Skige	-8094
▁Stach	-8095
▁Stiel	-8096
▁Sturm	-8097
▁Sturz	-8098
▁Städt	-8099
▁Sumpf	-8100
▁Tritt	-8101
▁Zehen	-8102
▁Zweig	-8103
▁abgel	-8104
▁anger	-8105
▁baden	-8106
▁badet	-8107
▁beruh	-8108
▁bevöl	-8109
▁bewer	-8110
▁biegt	-8111
▁dafür	-8112
▁deckt	-8113
▁demon	-8114
▁dünne	-8115
▁einzu	-8116
▁empor	-8117
▁ersch	-8118
▁fremd	-8119
▁gefäl	-8120
▁halbw	-8121
▁heißt	-8122
▁kaput	-8123
▁klass	-8124
▁kreis	-8125
▁künst	-8126
▁lehrt	-8127
▁lenkt	-8128
▁maler	-8129
▁minde	-8130
▁misst	-8131
▁nasse	-8132
▁neues	-8133
▁nippt	-8134
▁nächt	-8135
▁näher	-8136
▁probt	-8137
▁räumt	-8138
▁saust	-8139
▁schrä	-8140
▁stämm	-8141
▁sumpf	-8142
▁wadet	-8143
▁waten	-8144
▁zupft	-8145
▁Ärmel	-8146
Fahrrad	-8147
Werbung	-8148
aufgang	-8149
chniker	-8150
eidigen	-8151
ennbahn	-8152
farbene	-8153
figuren	-8154
fleisch	-8155
fliegen	-8156
flieger	-8157
geschen	-8158
gesicht	-8159
iebenen	-8160
issenen	-8161
istolen	-8162
mischer	-8163
mänteln	-8164
olizist	-8165
ongeBob	-8166
orangen	-8167
otebook	-8168
reckter	-8169
schlägt	-8170
schwarm	-8171
sstatue	-8172
streckt	-8173
treffen	-8174
turnier	-8175
wendung	-8176
ächlich	-8177
ätzchen	-8178
▁Abdeck	-8179
▁Anzüge	-8180
▁Athlet	-8181
▁Aufkle	-8182
▁Bahnen	-8183
▁Boogie	-8184
▁Büsche	-8185
▁Collie	-8186
▁Design	-8187
▁Diadem	-8188
▁Disney	-8189
▁Federn	-8190
▁Geiger	-8191
▁Grills	-8192
▁Kiefer	-8193
▁Kirmes	-8194
▁Lachen	-8195
▁Lappen	-8196
▁Linien	-8197
▁Marsch	-8198
▁Masken	-8199
▁Miniat	-8200
▁Montur	-8201
▁Nudeln	-8202
▁Pfoten	-8203
▁Pinata	-8204
▁Pyjama	-8205
▁Rampen	-8206
▁Reinig	-8207
▁Riemen	-8208
▁Riesen	-8209
▁Rollen	-8210
▁Ruinen	-8211
▁Steuer	-8212
▁Surfen	-8213
▁Tinten	-8214
▁Wangen	-8215
▁Wüsten	-8216
▁Zucker	-8217
▁attack	-8218
▁beschn	-8219
▁deutet	-8220
▁dicker	-8221
▁einzig	-8222
▁ersten	-8223
▁gebück	-8224
▁gejagt	-8225
▁gemalt	-8226
▁geschl	-8227
▁graues	-8228
▁großem	-8229
▁harten	-8230
▁inform	-8231
▁letzte	-8232
▁manövr	-8233
▁nasses	-8234
▁nichts	-8235
▁obdach	-8236
▁packen	-8237
▁parken	-8238
▁pustet	-8239
▁rollen	-8240
▁rundes	-8241
▁rustik	-8242
▁sollen	-8243
▁stoßen	-8244
▁stützt	-8245
▁tollen	-8246
▁verspr	-8247
▁wasser	-8248
▁winken	-8249
▁wirken	-8250
▁würden	-8251
▁zugeht	-8252
▁zweier	-8253
▁Ärmeln	-8254
Kostümen	-8255
aufgaben	-8256
auftritt	-8257
chaniker	-8258
enztisch	-8259
farbenem	-8260
farbenes	-8261
fertigen	-8262
fluteten	-8263
handlung	-8264
isierten	-8265
pullover	-8266
schonern	-8267
stattung	-8268
teiligen	-8269
umgebung	-8270
ünstlern	-8271
▁America	-8272
▁Angriff	-8273
▁Artikel	-8274
▁Aufgabe	-8275
▁Büchern	-8276
▁Denkmal	-8277
▁Dessert	-8278
▁Dirigen	-8279
▁Endzone	-8280
▁Fackeln	-8281
▁Fitness	-8282
▁Flecken	-8283
▁Führung	-8284
▁Gewicht	-8285
▁Inneren	-8286
▁Kulisse	-8287
▁Kutsche	-8288
▁Liegest	-8289
▁Medizin	-8290
▁Melonen	-8291
▁Partner	-8292
▁Patient	-8293
▁Reklame	-8294
▁Roboter	-8295
▁Schanze	-8296
▁Schlepp	-8297
▁Schädel	-8298
▁Seattle	-8299
▁Sombrer	-8300
▁Sprache	-8301
▁Tellern	-8302
▁Tisches	-8303
▁Turnier	-8304
▁Vordach	-8305
▁Wheelie	-8306
▁Zentrum	-8307
▁Zuhörer	-8308
▁abwärts	-8309
▁bastelt	-8310
▁baumges	-8311
▁beenden	-8312
▁befragt	-8313
▁betritt	-8314
▁bettelt	-8315
▁drängen	-8316
▁eigenen	-8317
▁erzählt	-8318
▁fechten	-8319
▁felsige	-8320
▁flaches	-8321
▁gebogen	-8322
▁gemisch	-8323
▁gesprei	-8324
▁gesäumt	-8325
▁grinsen	-8326
▁hechtet	-8327
▁letzten	-8328
▁mobilen	-8329
▁nackter	-8330
▁poliert	-8331
▁richtig	-8332
▁sitzend	-8333
▁stöbern	-8334
▁traurig	-8335
▁wischen	-8336
▁zuguckt	-8337
▁zweiten	-8338
▁zweiter	-8339
▁Älterer	-8340
▁Übungen	-8341
affellauf	-8342
appschuss	-8343
arsteller	-8344
kommenden	-8345
lastwagen	-8346
scheinend	-8347
strümpfen	-8348
ähnliches	-8349
▁Balkonen	-8350
▁Boxkampf	-8351
▁Brunnens	-8352
▁Bäckerei	-8353
▁Einfahrt	-8354
▁Erdboden	-8355
▁Freundes	-8356
▁Friedhof	-8357
▁Fußtritt	-8358
▁Gemeinde	-8359
▁Halfpipe	-8360
▁Holzboot	-8361
▁Kongress	-8362
▁Korridor	-8363
▁Lehrerin	-8364
▁Lichtern	-8365
▁Material	-8366
▁Matratze	-8367
▁Matrosen	-8368
▁Militärs	-8369
▁Minigolf	-8370
▁Oberhemd	-8371
▁Priester	-8372
▁Radsport	-8373
▁Rennbahn	-8374
▁Schminke	-8375
▁Schneewe	-8376
▁Spielzug	-8377
▁Teddybär	-8378
▁Truthahn	-8379
▁Verkehrs	-8380
▁Zitronen	-8381
▁außerdem	-8382
▁deutsche	-8383
▁erhöhten	-8384
▁erzielen	-8385
▁fertigen	-8386
▁funktion	-8387
▁gedrängt	-8388
▁geholfen	-8389
▁gescheck	-8390
▁gesteckt	-8391
▁gestützt	-8392
▁gewonnen	-8393
▁hellrosa	-8394
▁herausge	-8395
▁jemandes	-8396
▁künstler	-8397
▁lackiert	-8398
▁lockigem	-8399
▁nebligen	-8400
▁schicken	-8401
▁schüttet	-8402
▁stolpert	-8403
▁streiten	-8404
▁synchron	-8405
▁verkehrs	-8406
▁verkehrt	-8407
▁verletzt	-8408
▁verliert	-8409
▁verloren	-8410
▁verwirrt	-8411
▁verzieht	-8412
▁vornüber	-8413
▁zugucken	-8414
Ausrüstung	-8415
Restaurant	-8416
amerikaner	-8417
handschuhe	-8418
▁Abschluss	-8419
▁Aufwärmen	-8420
▁Bauernhof	-8421
▁Bedienung	-8422
▁Blattwerk	-8423
▁Bulldozer	-8424
▁Eiswaffel	-8425
▁Felsblock	-8426
▁Holzpfahl	-8427
▁Holzstuhl	-8428
▁Huckepack	-8429
▁Karikatur	-8430
▁Kickboxen	-8431
▁Limonaden	-8432
▁Motorroll	-8433
▁Rucksäcke	-8434
▁Schaumbad	-8435
▁Schwester	-8436
▁Schülerin	-8437
▁Skigebiet	-8438
▁Strohhalm	-8439
▁Warenkorb	-8440
▁Zeichnung	-8441
▁anschauen	-8442
▁beladenen	-8443
▁besuchten	-8444
▁betrunken	-8445
▁bewachsen	-8446
▁bewundern	-8447
▁brünettes	-8448
▁eingepack	-8449
▁einkaufen	-8450
▁einschlie	-8451
▁erledigen	-8452
▁gemütlich	-8453
▁geschnitz	-8454
▁gespritzt	-8455
▁gestapelt	-8456
▁innerhalb	-8457
▁navigiert	-8458
▁plantscht	-8459
▁reagieren	-8460
▁sitzendes	-8461
▁sortieren	-8462
▁unterhalb	-8463
▁verdienen	-8464
▁vereisten	-8465
▁verteilen	-8466
▁vollständ	-8467
▁zugewandt	-8468
Mitarbeiter	-8469
vorstellung	-8470
▁Ansammlung	-8471
▁Außenseite	-8472
▁Bademantel	-8473
▁Ballbesitz	-8474
▁Betonrampe	-8475
▁Bewegungen	-8476
▁Elternteil	-8477
▁Garagentor	-8478
▁Halsketten	-8479
▁Handgelenk	-8480
▁Khakihosen	-8481
▁Klarinette	-8482
▁Kleinstadt	-8483
▁Kragenhemd	-8484
▁Künstlerin	-8485
▁Lastwagens	-8486
▁Luftsprung	-8487
▁Plakatwand	-8488
▁Polizistin	-8489
▁Rednerpult	-8490
▁Schwertern	-8491
▁Skulpturen	-8492
▁Stadtplatz	-8493
▁Staubwolke	-8494
▁Tiefschnee	-8495
▁Türeingang	-8496
▁Wasserlauf	-8497
▁Zigaretten	-8498
▁angemaltem	-8499
▁anzuziehen	-8500
▁befestigen	-8501
▁besprechen	-8502
▁besprühten	-8503
▁blaugrünen	-8504
▁buckelnden	-8505
▁durchsicht	-8506
▁erleuchtet	-8507
▁fröhlicher	-8508
▁gemeinsame	-8509
▁geschossen	-8510
▁hellbraune	-8511
▁herrlichen	-8512
▁mindestens	-8513
▁neugeboren	-8514
▁schattigen	-8515
▁schmutzige	-8516
▁spanischer	-8517
▁umklammert	-8518
▁verlassene	-8519
▁zerbrochen	-8520
▁zueinander	-8521
gesellschaft	-8522
ungsfahrzeug	-8523
▁Absperrband	-8524
▁Bergsteigen	-8525
▁Blumenwiese	-8526
▁Dinosaurier	-8527
▁Eisskulptur	-8528
▁Freundinnen	-8529
▁Gartenstuhl	-8530
▁Golfspieler	-8531
▁Haarschnitt	-8532
▁Hafengebiet	-8533
▁Kastenwagen	-8534
▁Kleinigkeit	-8535
▁Kletterwand	-8536
▁Kopftüchern	-8537
▁Ledermantel	-8538
▁Orangensaft	-8539
▁Rollstühlen	-8540
▁Schildkröte	-8541
▁Schusswaffe	-8542
▁Schwimmerin	-8543
▁Spielzeugen	-8544
▁Staffellauf	-8545
▁Straßencafé	-8546
▁Toreinfahrt	-8547
▁Transporter	-8548
▁Weingläsern	-8549
▁anscheinend	-8550
▁anzugreifen	-8551
▁aufzunehmen	-8552
▁bräunlicher	-8553
▁grauhaarige	-8554
▁hellbraunem	-8555
▁kanadischen	-8556
▁knallbunten	-8557
▁lohfarbener	-8558
▁nächtlichen	-8559
▁olympischen	-8560
▁politischen	-8561
▁schlafenden	-8562
▁schlafender	-8563
▁schreiendes	-8564
▁springenden	-8565
▁unglücklich	-8566
▁verbundenen	-8567
▁verteidigen	-8568
▁vorbereiten	-8569
▁Afrikanische	-8570
▁Auszeichnung	-8571
▁Babyschaukel	-8572
▁Fliesenboden	-8573
▁Footballteam	-8574
▁Kindergruppe	-8575
▁Lautsprecher	-8576
▁Marathonlauf	-8577
▁Pferderennen	-8578
▁Rollerskates	-8579
▁Schneehaufen	-8580
▁Schutzwesten	-8581
▁Seilschaukel	-8582
▁Steingebäude	-8583
▁Straßenlater	-8584
▁Wassermelone	-8585
▁Werkzeuggürt	-8586
▁Wintermantel	-8587
▁funktioniert	-8588
▁grauhaariger	-8589
▁hochklettert	-8590
▁langärmligen	-8591
▁neugeborenes	-8592
▁schwimmenden	-8593
▁traditionell	-8594
▁verdunkelten	-8595
▁weißhaariger	-8596
▁übereinander	-8597
▁überkreuzten	-8598
▁Backsteinwand	-8599
▁Balletttänzer	-8600
▁Blätterhaufen	-8601
▁Fahrradreifen	-8602
▁Fensterputzer	-8603
▁Geschäftsmann	-8604
▁Informationen	-8605
▁Laternenpfahl	-8606
▁Rettungsweste	-8607
▁Schaufenstern	-8608
▁Tennisspielen	-8609
▁Textnachricht	-8610
▁blondhaariges	-8611
▁einheimischer	-8612
▁interessanten	-8613
▁kreisförmigen	-8614
▁medizinischen	-8615
▁mexikanischen	-8616
▁schwarzweißen	-8617
▁Basketballkorb	-8618
▁Eishockeyspiel	-8619
▁Hochzeitsfeier	-8620
▁Konferenztisch	-8621
▁Motorradrennen	-8622
▁Operationssaal	-8623
▁Spielzeugpferd	-8624
▁Tenniskleidung	-8625
▁Wasserfahrzeug	-8626
▁ausgestrecktem	-8627
▁dunkelhaariges	-8628
▁einschließlich	-8629
▁Heißluftballons	-8630
▁Restaurantküche	-8631
▁Spielplatzgerät	-8632
▁Tauchausrüstung	-8633
▁Wasserskifahrer	-8634
▁Wissenschaftler	-8635
AR	-8636
Be	-8637
Cl	-8638
Ex	-8639
IN	-8640
In	-8641
MC	-8642
NI	-8643
Ob	-8644
So	-8645
To	-8646
UV	-8647
aj	-8648
hö	-8649
ii	-8650
ps	-8651
ra	-8652
xi	-8653
“,	-8654
▁#	-8655
!“.	-8656
Aid	-8657
CEF	-8658
Ein	-8659
Kam	-8660
Spr	-8661
The	-8662
Tor	-8663
Ver	-8664
abe	-8665
aha	-8666
ait	-8667
aks	-8668
apr	-8669
aud	-8670
bab	-8671
bor	-8672
bot	-8673
cap	-8674
cur	-8675
ece	-8676
elz	-8677
enf	-8678
eno	-8679
ese	-8680
eup	-8681
eut	-8682
fuß	-8683
grä	-8684
iko	-8685
ird	-8686
irk	-8687
ite	-8688
ium	-8689
ixt	-8690
kol	-8691
lin	-8692
oos	-8693
sto	-8694
stö	-8695
uff	-8696
uma	-8697
urn	-8698
uts	-8699
vag	-8700
yro	-8701
zte	-8702
äbe	-8703
öch	-8704
ölf	-8705
ürz	-8706
▁19	-8707
▁30	-8708
▁5-	-8709
▁Ga	-8710
▁NY	-8711
▁Ox	-8712
▁bü	-8713
▁ed	-8714
▁he	-8715
▁ju	-8716
▁rö	-8717
▁sü	-8718
▁ur	-8719
Auto	-8720
Ball	-8721
Eink	-8722
Feld	-8723
Kopf	-8724
Land	-8725
Logo	-8726
Love	-8727
Sand	-8728
Schw	-8729
Welt	-8730
abri	-8731
afte	-8732
ahlt	-8733
ails	-8734
akko	-8735
anbe	-8736
anie	-8737
arzt	-8738
auna	-8739
aune	-8740
baut	-8741
bill	-8742
cert	-8743
dyll	-8744
edal	-8745
eedo	-8746
ehnt	-8747
eien	-8748
eilt	-8749
eish	-8750
emmt	-8751
enna	-8752
esel	-8753
fran	-8754
frei	-8755
fung	-8756
gers	-8757
gnor	-8758
grap	-8759
gren	-8760
hell	-8761
hler	-8762
holt	-8763
homa	-8764
host	-8765
iebs	-8766
ieft	-8767
ison	-8768
jahr	-8769
klus	-8770
kurr	-8771
laud	-8772
lten	-8773
mast	-8774
mähl	-8775
ocke	-8776
odil	-8777
olkl	-8778
oney	-8779
onik	-8780
ston	-8781
stro	-8782
stär	-8783
tier	-8784
trie	-8785
turm	-8786
urrt	-8787
vill	-8788
viol	-8789
wald	-8790
wink	-8791
zeln	-8792
zger	-8793
ztin	-8794
zzle	-8795
ähre	-8796
älte	-8797
öhnt	-8798
ölle	-8799
ösen	-8800
ügel	-8801
ülen	-8802
▁All	-8803
▁Alt	-8804
▁Arc	-8805
▁Brü	-8806
▁But	-8807
▁Cal	-8808
▁Cro	-8809
▁Elf	-8810
▁Fal	-8811
▁Fro	-8812
▁Gab	-8813
▁Got	-8814
▁Har	-8815
▁Hem	-8816
▁Hin	-8817
▁Hir	-8818
▁Hüh	-8819
▁Ins	-8820
▁Joe	-8821
▁Kle	-8822
▁Krü	-8823
▁Lot	-8824
▁Mac	-8825
▁Moh	-8826
▁Pos	-8827
▁Pub	-8828
▁Reh	-8829
▁Rod	-8830
▁SUV	-8831
▁Sho	-8832
▁Ter	-8833
▁Toy	-8834
▁Tub	-8835
▁UNI	-8836
▁Von	-8837
▁Wör	-8838
▁Yam	-8839
▁Zoo	-8840
▁abw	-8841
▁and	-8842
▁bed	-8843
▁fil	-8844
▁fru	-8845
▁gal	-8846
▁kam	-8847
▁kos	-8848
▁les	-8849
▁mel	-8850
▁nor	-8851
▁pur	-8852
▁rum	-8853
▁sod	-8854
▁typ	-8855
▁täg	-8856
▁une	-8857
▁wäl	-8858
Feuer	-8859
Gebäu	-8860
Jacke	-8861
Kugel	-8862
Laden	-8863
Stand	-8864
abass	-8865
ahlen	-8866
akers	-8867
akeup	-8868
alien	-8869
allel	-8870
ament	-8871
ammit	-8872
anker	-8873
anzös	-8874
apfen	-8875
apler	-8876
arena	-8877
artig	-8878
artik	-8879
ascar	-8880
asino	-8881
atzen	-8882
aufäl	-8883
bares	-8884
bkost	-8885
braun	-8886
bären	-8887
ckern	-8888
ditor	-8889
durch	-8890
echan	-8891
eitel	-8892
engel	-8893
enger	-8894
etang	-8895
euern	-8896
euers	-8897
fluss	-8898
gummi	-8899
hauer	-8900
holen	-8901
ieder	-8902
iente	-8903
ierig	-8904
iffer	-8905
iforn	-8906
igtem	-8907
ipper	-8908
iskol	-8909
itore	-8910
itzer	-8911
kamer	-8912
kanne	-8913
kegel	-8914
klame	-8915
kohle	-8916
latte	-8917
lichk	-8918
liest	-8919
linge	-8920
motiv	-8921
nchen	-8922
ograf	-8923
oskop	-8924
passt	-8925
press	-8926
regen	-8927
rolle	-8928
schar	-8929
seits	-8930
shaus	-8931
sters	-8932
strei	-8933
sturm	-8934
städt	-8935
stütz	-8936
terie	-8937
teter	-8938
teuer	-8939
ulter	-8940
ungss	-8941
urcht	-8942
urgen	-8943
ussel	-8944
volle	-8945
wegen	-8946
yline	-8947
ystem	-8948
zieht	-8949
ähnen	-8950
ästen	-8951
ünden	-8952
üsten	-8953
▁Alle	-8954
▁Allt	-8955
▁Atem	-8956
▁Benz	-8957
▁Brat	-8958
▁Bunt	-8959
▁Bust	-8960
▁Capr	-8961
▁Chem	-8962
▁Drag	-8963
▁Dreh	-8964
▁Ehem	-8965
▁Eich	-8966
▁Farm	-8967
▁Fein	-8968
▁Fond	-8969
▁Fuße	-8970
▁Föhn	-8971
▁Grab	-8972
▁Hahn	-8973
▁Heck	-8974
▁Holl	-8975
▁Inse	-8976
▁Kenn	-8977
▁Kino	-8978
▁Krok	-8979
▁Kund	-8980
▁Kurs	-8981
▁Lama	-8982
▁Leot	-8983
▁Logo	-8984
▁Mama	-8985
▁Mehr	-8986
▁Mich	-8987
▁Möwe	-8988
▁Neun	-8989
▁Okla	-8990
▁Pian	-8991
▁Prop	-8992
▁Rena	-8993
▁Rent	-8994
▁Rest	-8995
▁Shop	-8996
▁Sieb	-8997
▁Slam	-8998
▁Spir	-8999
▁Tutu	-9000
▁Verw	-9001
▁Weit	-9002
▁Zugs	-9003
▁bess	-9004
▁blät	-9005
▁drän	-9006
▁eleg	-9007
▁ents	-9008
▁flat	-9009
▁gehe	-9010
▁gekr	-9011
▁hand	-9012
▁haus	-9013
▁hier	-9014
▁hämm	-9015
▁kaum	-9016
▁knab	-9017
▁laub	-9018
▁lauf	-9019
▁live	-9020
▁lümm	-9021
▁mask	-9022
▁mass	-9023
▁mixt	-9024
▁müde	-9025
▁neug	-9026
▁ragt	-9027
▁reno	-9028
▁senf	-9029
▁wach	-9030
▁wild	-9031
▁wind	-9032
▁Üben	-9033
Kittel	-9034
Shorts	-9035
Skater	-9036
Statue	-9037
achtel	-9038
ackeln	-9039
agazin	-9040
aillen	-9041
aktion	-9042
angere	-9043
ansatz	-9044
arrang	-9045
artige	-9046
atisch	-9047
attoos	-9048
auchen	-9049
ballen	-9050
bringt	-9051
busses	-9052
denken	-9053
druckt	-9054
drängt	-9055
eidigt	-9056
enteil	-9057
ersitz	-9058
finger	-9059
funden	-9060
gangen	-9061
geroll	-9062
golden	-9063
helfer	-9064
iegelt	-9065
ietnam	-9066
indeln	-9067
inkend	-9068
irbelt	-9069
ispano	-9070
itrine	-9071
jungen	-9072
karton	-9073
kisten	-9074
klappe	-9075
klippe	-9076
lingen	-9077
messer	-9078
museum	-9079
möbeln	-9080
pfanne	-9081
puppen	-9082
queren	-9083
rollen	-9084
röcken	-9085
schnur	-9086
shalle	-9087
solven	-9088
stapel	-9089
stchen	-9090
steine	-9091
stisch	-9092
streut	-9093
strüpp	-9094
stäben	-9095
stöcke	-9096
sänger	-9097
teiler	-9098
tracht	-9099
travag	-9100
ummert	-9101
undert	-9102
usikal	-9103
wehren	-9104
zieher	-9105
ändert	-9106
äufers	-9107
▁Absch	-9108
▁Affen	-9109
▁Apart	-9110
▁Autor	-9111
▁Bandk	-9112
▁Beruf	-9113
▁Bongo	-9114
▁Bunge	-9115
▁Chefk	-9116
▁Chips	-9117
▁Clubs	-9118
▁Colle	-9119
▁Deere	-9120
▁Defen	-9121
▁Eiern	-9122
▁Eines	-9123
▁Elast	-9124
▁Enkel	-9125
▁Erdbe	-9126
▁Essst	-9127
▁Flach	-9128
▁Frühl	-9129
▁Gebet	-9130
▁Gehör	-9131
▁Geish	-9132
▁Große	-9133
▁Großm	-9134
▁Größe	-9135
▁Haupt	-9136
▁Henna	-9137
▁Husky	-9138
▁Höhle	-9139
▁Hölle	-9140
▁Imbis	-9141
▁Jongl	-9142
▁Kälte	-9143
▁Kühen	-9144
▁Lande	-9145
▁Lesen	-9146
▁Lokom	-9147
▁Marki	-9148
▁Match	-9149
▁Meter	-9150
▁Misch	-9151
▁Mundh	-9152
▁Münzt	-9153
▁Nonne	-9154
▁Pfahl	-9155
▁Piers	-9156
▁Pingu	-9157
▁Pokal	-9158
▁Press	-9159
▁Raums	-9160
▁Roben	-9161
▁Rolle	-9162
▁Rotes	-9163
▁Rudel	-9164
▁Sakko	-9165
▁Seile	-9166
▁Sofas	-9167
▁Starb	-9168
▁Stepp	-9169
▁Stopp	-9170
▁Stütz	-9171
▁Sumor	-9172
▁Taxis	-9173
▁Teile	-9174
▁Trans	-9175
▁Wisch	-9176
▁Zeige	-9177
▁Zwill	-9178
▁Zügen	-9179
▁absol	-9180
▁anbie	-9181
▁ausru	-9182
▁belei	-9183
▁darum	-9184
▁dicke	-9185
▁drein	-9186
▁edlen	-9187
▁guten	-9188
▁gähnt	-9189
▁hatte	-9190
▁hinge	-9191
▁hätte	-9192
▁hügel	-9193
▁ident	-9194
▁idyll	-9195
▁ignor	-9196
▁kalte	-9197
▁lötet	-9198
▁neigt	-9199
▁prunk	-9200
▁reist	-9201
▁stürm	-9202
▁sägen	-9203
▁tiefe	-9204
▁toter	-9205
▁unruh	-9206
▁wegen	-9207
▁wirbt	-9208
▁Ärzte	-9209
Gebäude	-9210
Schuhen	-9211
Schwimm	-9212
ausflug	-9213
auslage	-9214
billard	-9215
blöcken	-9216
chenAid	-9217
debrett	-9218
denkmal	-9219
drücken	-9220
einiger	-9221
elligen	-9222
erunner	-9223
fielder	-9224
fußball	-9225
fzettel	-9226
getränk	-9227
gleiter	-9228
griffen	-9229
häusern	-9230
irlpool	-9231
issance	-9232
kleiden	-9233
kleider	-9234
klusive	-9235
komplex	-9236
ografie	-9237
oldaten	-9238
ordnung	-9239
ristall	-9240
rünette	-9241
scheint	-9242
schicht	-9243
schigen	-9244
semarkt	-9245
skostüm	-9246
stadion	-9247
stasiat	-9248
stärker	-9249
technik	-9250
trommel	-9251
udenten	-9252
werbung	-9253
zession	-9254
änzerin	-9255
ärtiger	-9256
üsslich	-9257
▁Abendd	-9258
▁Action	-9259
▁Ananas	-9260
▁Angeln	-9261
▁Angler	-9262
▁Anlage	-9263
▁Anlass	-9264
▁Banane	-9265
▁Barren	-9266
▁Basket	-9267
▁Bekann	-9268
▁Blusen	-9269
▁Bohrer	-9270
▁Boston	-9271
▁Buffet	-9272
▁Butter	-9273
▁Bärten	-9274
▁Deckel	-9275
▁Dingen	-9276
▁Doktor	-9277
▁Dritte	-9278
▁Fahren	-9279
▁Feldes	-9280
▁Flanke	-9281
▁Fleece	-9282
▁Flügel	-9283
▁Frisch	-9284
▁Funken	-9285
▁Gebäck	-9286
▁Gewäch	-9287
▁Glasur	-9288
▁Gottes	-9289
▁Hacken	-9290
▁Happen	-9291
▁Hürden	-9292
▁Irgend	-9293
▁Jetski	-9294
▁Kamele	-9295
▁Kanone	-9296
▁Keller	-9297
▁Kirsch	-9298
▁Kronen	-9299
▁Lebens	-9300
▁Lecker	-9301
▁Lenker	-9302
▁Löcher	-9303
▁Matsch	-9304
▁Matten	-9305
▁Mütter	-9306
▁Nacken	-9307
▁Nonnen	-9308
▁Oxford	-9309
▁Paddel	-9310
▁Pickup	-9311
▁Pinien	-9312
▁Podest	-9313
▁Raster	-9314
▁Rängen	-9315
▁Schere	-9316
▁Schwan	-9317
▁Singen	-9318
▁Snacks	-9319
▁Spagat	-9320
▁Speedo	-9321
▁Sprink	-9322
▁Steins	-9323
▁Strauß	-9324
▁Symbol	-9325
▁Talent	-9326
▁Tassen	-9327
▁Truppe	-9328
▁Tulpen	-9329
▁Töpfen	-9330
▁Töpfer	-9331
▁UNICEF	-9332
▁Unters	-9333
▁Wagens	-9334
▁Waldes	-9335
▁Wochen	-9336
▁Wörter	-9337
▁Yamaha	-9338
▁aufgem	-9339
▁aufgew	-9340
▁auszur	-9341
▁baufäl	-9342
▁behand	-9343
▁bellen	-9344
▁bieten	-9345
▁bildet	-9346
▁bügelt	-9347
▁daraus	-9348
▁duscht	-9349
▁erhebt	-9350
▁erkund	-9351
▁festge	-9352
▁freuen	-9353
▁galopp	-9354
▁gebeug	-9355
▁geland	-9356
▁getupf	-9357
▁grinst	-9358
▁grüßen	-9359
▁haupts	-9360
▁herauf	-9361
▁jugend	-9362
▁kahlen	-9363
▁kargen	-9364
▁kauern	-9365
▁kostet	-9366
▁körper	-9367
▁landen	-9368
▁langer	-9369
▁lecker	-9370
▁mechan	-9371
▁muslim	-9372
▁nahöst	-9373
▁nähern	-9374
▁offene	-9375
▁ordnet	-9376
▁pflügt	-9377
▁pracht	-9378
▁prüfen	-9379
▁purpur	-9380
▁ruhige	-9381
▁schott	-9382
▁sodass	-9383
▁sowohl	-9384
▁stimmt	-9385
▁tiefes	-9386
▁welche	-9387
▁wenige	-9388
▁wählen	-9389
Baseball	-9390
Festival	-9391
Künstler	-9392
artikeln	-9393
besucher	-9394
brettern	-9395
bstiften	-9396
fahrener	-9397
festival	-9398
geschirr	-9399
getasche	-9400
goldenen	-9401
ierungen	-9402
iskolben	-9403
jungfrau	-9404
kreuzung	-9405
laufbahn	-9406
motorrad	-9407
ogitarre	-9408
pistolen	-9409
schnallt	-9410
schwarze	-9411
sgebäude	-9412
stehende	-9413
stützung	-9414
treklame	-9415
zufinden	-9416
ähnliche	-9417
▁Akrobat	-9418
▁Anblick	-9419
▁Anzeige	-9420
▁Betrieb	-9421
▁Blöcken	-9422
▁Cockpit	-9423
▁Concert	-9424
▁Country	-9425
▁Cricket	-9426
▁Drähten	-9427
▁Dunking	-9428
▁Ehemann	-9429
▁Einheim	-9430
▁Eiscrem	-9431
▁Festzug	-9432
▁Gabelst	-9433
▁Glatzen	-9434
▁Grillen	-9435
▁Gummist	-9436
▁Holztür	-9437
▁Kimonos	-9438
▁Knochen	-9439
▁Kranich	-9440
▁Krücken	-9441
▁Kämpfer	-9442
▁Kühlbox	-9443
▁Lasters	-9444
▁Leitern	-9445
▁Lichter	-9446
▁Metzger	-9447
▁Notfall	-9448
▁Ordnung	-9449
▁Packung	-9450
▁Paddeln	-9451
▁Pendler	-9452
▁Posaune	-9453
▁Prüfung	-9454
▁Reitern	-9455
▁Schafen	-9456
▁Schalen	-9457
▁Schiene	-9458
▁Schleif	-9459
▁Schrank	-9460
▁Schwein	-9461
▁Schwung	-9462
▁Seetang	-9463
▁Sesseln	-9464
▁Skyline	-9465
▁Sooners	-9466
▁Spitzen	-9467
▁Sporter	-9468
▁Stachel	-9469
▁Statuen	-9470
▁Teammit	-9471
▁Trocken	-9472
▁Vorhang	-9473
▁Windsur	-9474
▁Wäschel	-9475
▁Ziegeln	-9476
▁ansetzt	-9477
▁antiken	-9478
▁applaud	-9479
▁befreit	-9480
▁bereits	-9481
▁brünett	-9482
▁bärtige	-9483
▁dunkles	-9484
▁enthält	-9485
▁erklärt	-9486
▁flieder	-9487
▁französ	-9488
▁gefilmt	-9489
▁gegrill	-9490
▁gehören	-9491
▁geküsst	-9492
▁gleiche	-9493
▁gleiten	-9494
▁grindet	-9495
▁knappen	-9496
▁konkurr	-9497
▁kriecht	-9498
▁kurzärm	-9499
▁langsam	-9500
▁musikal	-9501
▁organis	-9502
▁pflanzt	-9503
▁rangeln	-9504
▁scharfe	-9505
▁schönes	-9506
▁stapelt	-9507
▁verrück	-9508
▁verschl	-9509
▁verzerr	-9510
▁wachsen	-9511
▁weggeht	-9512
▁wirbeln	-9513
▁zuläuft	-9514
Bahnsteig	-9515
andschaft	-9516
ashington	-9517
fahrzeugs	-9518
gemachten	-9519
geschenke	-9520
karussell	-9521
krempigen	-9522
maschinen	-9523
produkten	-9524
schbecken	-9525
schneidet	-9526
solventen	-9527
stöckigen	-9528
ungskraft	-9529
wanderweg	-9530
▁Absätzen	-9531
▁Aufdruck	-9532
▁Aufgaben	-9533
▁Ausblick	-9534
▁Ausdruck	-9535
▁Besitzer	-9536
▁Brünette	-9537
▁Bürgerkr	-9538
▁Dirigent	-9539
▁Dirtbike	-9540
▁Elasthan	-9541
▁Esswaren	-9542
▁Fahrradt	-9543
▁Freiheit	-9544
▁Gedanken	-9545
▁Gestrüpp	-9546
▁Hartholz	-9547
▁Hemdchen	-9548
▁Indische	-9549
▁Interess	-9550
▁Juwelier	-9551
▁Kleinbus	-9552
▁Kopfball	-9553
▁Krokodil	-9554
▁Maulesel	-9555
▁Miniatur	-9556
▁Muscheln	-9557
▁Münzfern	-9558
▁Notebook	-9559
▁Objekten	-9560
▁Oklahoma	-9561
▁Programm	-9562
▁Rückhand	-9563
▁Scheiben	-9564
▁Scheitel	-9565
▁Schießen	-9566
▁Schulbus	-9567
▁Schärpen	-9568
▁Sitzende	-9569
▁Skijacke	-9570
▁Skimütze	-9571
▁Skipiste	-9572
▁Spinnrad	-9573
▁Strähnen	-9574
▁Stäbchen	-9575
▁Superman	-9576
▁Synchron	-9577
▁Teppiche	-9578
▁Toilette	-9579
▁Trocknen	-9580
▁Verkaufs	-9581
▁Vorstadt	-9582
▁Wassersk	-9583
▁Zeitungs	-9584
▁albernen	-9585
▁auftritt	-9586
▁bedeckte	-9587
▁behinder	-9588
▁belebter	-9589
▁bergigen	-9590
▁beritten	-9591
▁besonder	-9592
▁blättert	-9593
▁bärtigen	-9594
▁einsames	-9595
▁entladen	-9596
▁extravag	-9597
▁gebunden	-9598
▁geduldig	-9599
▁gemalten	-9600
▁gleicher	-9601
▁glitzern	-9602
▁goldener	-9603
▁heiraten	-9604
▁kaputten	-9605
▁klammert	-9606
▁knabbert	-9607
▁knietief	-9608
▁langärml	-9609
▁laufende	-9610
▁liebkost	-9611
▁oberhalb	-9612
▁parallel	-9613
▁pfirsich	-9614
▁rasieren	-9615
▁riesiger	-9616
▁schaffen	-9617
▁schickes	-9618
▁schippen	-9619
▁schlanke	-9620
▁schließt	-9621
▁schwerer	-9622
▁seichtes	-9623
▁sichtbar	-9624
▁spielend	-9625
▁vorliest	-9626
▁vorwärts	-9627
▁winzigen	-9628
▁wolkigen	-9629
▁übergibt	-9630
Rennfahrer	-9631
Volleyball	-9632
Wettbewerb	-9633
absperrung	-9634
attraktion	-9635
gepflaster	-9636
lichkeiten	-9637
restaurant	-9638
schlagenen	-9639
strichenen	-9640
▁Aktivität	-9641
▁Angesicht	-9642
▁Anweisung	-9643
▁Apartment	-9644
▁Aufnahmen	-9645
▁Augenbrau	-9646
▁Bleistift	-9647
▁Broschüre	-9648
▁Chirurgen	-9649
▁Einkaufen	-9650
▁Einteiler	-9651
▁Esszimmer	-9652
▁Flohmarkt	-9653
▁Fotograph	-9654
▁Fundament	-9655
▁Geländern	-9656
▁Großküche	-9657
▁Halbkreis	-9658
▁Harmonika	-9659
▁Hinterrad	-9660
▁Holzkohle	-9661
▁Holzrampe	-9662
▁Holzstück	-9663
▁Hundeshow	-9664
▁Jeansrock	-9665
▁Korbleger	-9666
▁Krawatten	-9667
▁Lieblings	-9668
▁Notizbuch	-9669
▁Oberteile	-9670
▁Offiziere	-9671
▁Ohrhörern	-9672
▁Paintball	-9673
▁Passagier	-9674
▁Pressluft	-9675
▁Radfahren	-9676
▁Schaukeln	-9677
▁Schlangen	-9678
▁Schnauzer	-9679
▁Schwarzer	-9680
▁Schweißer	-9681
▁Schwimmen	-9682
▁Sonnenhut	-9683
▁SpongeBob	-9684
▁Starbucks	-9685
▁Steinwand	-9686
▁Volksfest	-9687
▁Wanderung	-9688
▁Wandtafel	-9689
▁Werkzeuge	-9690
▁Windjacke	-9691
▁Wohnmobil	-9692
▁Wohnwagen	-9693
▁abgewandt	-9694
▁angelehnt	-9695
▁angezeigt	-9696
▁befördert	-9697
▁deutscher	-9698
▁erwischen	-9699
▁fahrbaren	-9700
▁fliegende	-9701
▁führenden	-9702
▁gebückter	-9703
▁gefällten	-9704
▁gefärbten	-9705
▁gesichert	-9706
▁getackelt	-9707
▁gewaschen	-9708
▁hellroten	-9709
▁herstellt	-9710
▁indischen	-9711
▁inklusive	-9712
▁kariertes	-9713
▁kniehohen	-9714
▁langärmel	-9715
▁planschen	-9716
▁rasierten	-9717
▁schlanker	-9718
▁schließen	-9719
▁seltsames	-9720
▁spielende	-9721
▁stehendes	-9722
▁strahlend	-9723
▁trockenem	-9724
▁trockenes	-9725
▁unruhigem	-9726
▁verbringt	-9727
▁violettes	-9728
▁übernimmt	-9729
beleuchtung	-9730
gestreiftem	-9731
schulkinder	-9732
▁Angelruten	-9733
▁Aschenbahn	-9734
▁Ausführung	-9735
▁Badesachen	-9736
▁Bahngleise	-9737
▁Bauprojekt	-9738
▁Baustellen	-9739
▁Berggipfel	-9740
▁Blumenfeld	-9741
▁Blumentopf	-9742
▁Brautkleid	-9743
▁Darsteller	-9744
▁Doppeldeck	-9745
▁Einkäufern	-9746
▁Elektriker	-9747
▁Elektronik	-9748
▁Frühstücks	-9749
▁Geschichte	-9750
▁Geschirrsp	-9751
▁Handarbeit	-9752
▁Hinterteil	-9753
▁Innenseite	-9754
▁KitchenAid	-9755
▁Kontrabass	-9756
▁Laubbläser	-9757
▁Laubhaufen	-9758
▁Maiskolben	-9759
▁Meeresufer	-9760
▁Meerwasser	-9761
▁Müllbeutel	-9762
▁Outfielder	-9763
▁Pelzmantel	-9764
▁Rallyeauto	-9765
▁Rugbyspiel	-9766
▁Schläfchen	-9767
▁Schneewehe	-9768
▁Segelboote	-9769
▁Skistöcken	-9770
▁Sportlerin	-9771
▁Sportspiel	-9772
▁Sprühfarbe	-9773
▁Städtische	-9774
▁University	-9775
▁Unterseite	-9776
▁Verstärker	-9777
▁Werbetafel	-9778
▁Wäschekorb	-9779
▁abzuwehren	-9780
▁abzuwerfen	-9781
▁arbeitende	-9782
▁aufzuheben	-9783
▁diskutiert	-9784
▁frustriert	-9785
▁förmlicher	-9786
▁gefliesten	-9787
▁gefrorenen	-9788
▁genüsslich	-9789
▁gepflegten	-9790
▁ineinander	-9791
▁musizieren	-9792
▁neongrünen	-9793
▁rustikalen	-9794
▁schlummert	-9795
▁sportliche	-9796
▁tropischer	-9797
▁umeinander	-9798
▁unfertigen	-9799
▁verhindern	-9800
▁verspritzt	-9801
▁verstecken	-9802
▁verteidigt	-9803
▁Überqueren	-9804
Mannschaften	-9805
▁Absolventen	-9806
▁Angelschnur	-9807
▁Angestellte	-9808
▁Bassgitarre	-9809
▁Blumenkleid	-9810
▁Essstäbchen	-9811
▁Fensterbank	-9812
▁Feuerleiter	-9813
▁Fingernägel	-9814
▁Fischerboot	-9815
▁Flanellhemd	-9816
▁Fotographen	-9817
▁Geburtstags	-9818
▁Gehörschutz	-9819
▁Gemüsemarkt	-9820
▁Glasgebäude	-9821
▁Gruppenfoto	-9822
▁Hafenbecken	-9823
▁Haltestelle	-9824
▁Hausmeister	-9825
▁Klettergurt	-9826
▁Kunstmuseum	-9827
▁Küchentheke	-9828
▁Küchentisch	-9829
▁Langarmhemd	-9830
▁Liegestütze	-9831
▁Poolbillard	-9832
▁Radfahrerin	-9833
▁Renaissance	-9834
▁Reparaturen	-9835
▁Rockkonzert	-9836
▁Schneeengel	-9837
▁Schneehügel	-9838
▁Schuhputzer	-9839
▁Schulklasse	-9840
▁Seilrutsche	-9841
▁Sommerkleid	-9842
▁Steinstufen	-9843
▁Strafzettel	-9844
▁Strickjacke	-9845
▁Teammitglie	-9846
▁Tintenfisch	-9847
▁Töpferwaren	-9848
▁Universität	-9849
▁Wasserkante	-9850
▁Wäscheleine	-9851
▁angerichtet	-9852
▁angezogenes	-9853
▁ankommenden	-9854
▁ausgefallen	-9855
▁auszuführen	-9856
▁balancieren	-9857
▁baufälligen	-9858
▁beginnender	-9859
▁eingegraben	-9860
▁gelbbraunen	-9861
▁gespreizten	-9862
▁gestalteten	-9863
▁glücklicher	-9864
▁herausragen	-9865
▁idyllischen	-9866
▁knallgelben	-9867
▁kurzhaarige	-9868
▁lilafarbene	-9869
▁obdachloser	-9870
▁schmutzigem	-9871
▁schmutziger	-9872
▁umgedrehten	-9873
▁unterbricht	-9874
▁öffentliche	-9875
▁überwiegend	-9876
Veranstaltung	-9877
amerikanische	-9878
▁Bierflaschen	-9879
▁Dorfbewohner	-9880
▁Fahrradtrick	-9881
▁Felsenklippe	-9882
▁Fußballplatz	-9883
▁Gabelstapler	-9884
▁Gegenspieler	-9885
▁Hausaufgaben	-9886
▁Inlineskater	-9887
▁Jogginganzug	-9888
▁Meerjungfrau	-9889
▁Motorradhelm	-9890
▁Motorrollern	-9891
▁Männergruppe	-9892
▁Notenständer	-9893
▁Regenschirme	-9894
▁Schwimmhilfe	-9895
▁Sonnenschein	-9896
▁Spritzwasser	-9897
▁Stadtviertel	-9898
▁Tennisbällen	-9899
▁Vorbereitung	-9900
▁akrobatische	-9901
▁altmodischer	-9902
▁ausländische	-9903
▁beschnüffelt	-9904
▁demonstriert	-9905
▁dunkelgrünen	-9906
▁entlangfährt	-9907
▁geschminkter	-9908
▁goldfarbener	-9909
▁hellhäutigen	-9910
▁indianischer	-9911
▁lilafarbenem	-9912
▁lilafarbenes	-9913
▁medizinische	-9914
▁militärische	-9915
▁mittelgroßen	-9916
▁nacheinander	-9917
▁prachtvollen	-9918
▁rosafarbenes	-9919
▁vorbeilaufen	-9920
▁zweiteiligen	-9921
▁öffentlicher	-9922
Fußballspieler	-9923
▁Absatzschuhen	-9924
▁Blumenmädchen	-9925
▁Felsformation	-9926
▁Fußballspiels	-9927
▁Gartenstühlen	-9928
▁Gerätschaften	-9929
▁Gesichtsmaske	-9930
▁Glatzenansatz	-9931
▁Holzplattform	-9932
▁Kunsthandwerk	-9933
▁Mundharmonika	-9934
▁Protestschild	-9935
▁Schnappschuss	-9936
▁Schneidebrett	-9937
▁Schuhgeschäft	-9938
▁Skiausrüstung	-9939
▁Sportereignis	-9940
▁Sportgeschäft	-9941
▁Taucherbrille	-9942
▁Telefonmasten	-9943
▁Töpferscheibe	-9944
▁Umhängetasche	-9945
▁Unterstützung	-9946
▁Wasserfontäne	-9947
▁Wintermänteln	-9948
▁Zusammenkunft	-9949
▁afrikanisches	-9950
▁ausländischen	-9951
▁baumgesäumten	-9952
▁cremefarbenen	-9953
▁dunkelbrauner	-9954
▁hauptsächlich	-9955
▁hinunterfährt	-9956
▁laubbedeckten	-9957
▁unbefestigtem	-9958
▁verschiedener	-9959
▁Abenddämmerung	-9960
▁Badebekleidung	-9961
▁Baseballkappen	-9962
▁Baseballspiels	-9963
▁Baseballwerfer	-9964
▁Basketballwurf	-9965
▁Bikinioberteil	-9966
▁Elektrogitarre	-9967
▁Feuerwehrwagen	-9968
▁Geschäftsanzug	-9969
▁Hockeyschläger	-9970
▁Kricketspieler	-9971
▁Militäruniform	-9972
▁Schokoladeneis	-9973
▁Sonnenschirmen	-9974
▁Untergrundbahn	-9975
▁Wasserschlauch	-9976
▁breitkrempigen	-9977
▁grasbewachsene	-9978
▁orientalischen	-9979
▁vorbeigehenden	-9980
▁Bandmitgliedern	-9981
▁Basketballplatz	-9982
▁Fahrradgeschäft	-9983
▁Kleidungsstücke	-9984
▁Leopardenmuster	-9985
▁Restauranttisch	-9986
▁Rückenschwimmen	-9987
▁Straßenarbeiten	-9988
▁Treppengeländer	-9989
▁grasbewachsenes	-9990
▁schwarzhaariger	-9991
-,	-9992
..	-9993
08	-9994
5.	-9995
50	-9996
AT	-9997
GO	-9998
KE	-9999
),	-10000
ER	-10001
Kr	-10002
Le	-10003
MA	-10004
Mo	-10005
ON	-10006
Po	-10007
bä	-10008
bö	-10009
cc	-10010
da	-10011
gs	-10012
gy	-10013
hi	-10014
hy	-10015
iñ	-10016
ld	-10017
lo	-10018
lu	-10019
lö	-10020
pu	-10021
rd	-10022
sl	-10023
so	-10024
va	-10025
yd	-10026
äs	-10027
üf	-10028
▁“	-10029
Anz	-10030
Arm	-10031
Car	-10032
Eis	-10033
Gel	-10034
Lkw	-10035
Mar	-10036
Mon	-10037
Pro	-10038
Ski	-10039
Wel	-10040
abt	-10041
ada	-10042
ame	-10043
apf	-10044
awk	-10045
axi	-10046
bug	-10047
cue	-10048
day	-10049
emm	-10050
eng	-10051
ens	-10052
erz	-10053
fin	-10054
geh	-10055
hil	-10056
hio	-10057
höh	-10058
ics	-10059
ido	-10060
iki	-10061
ila	-10062
inj	-10063
jen	-10064
jub	-10065
krü	-10066
kur	-10067
ley	-10068
lig	-10069
lik	-10070
lle	-10071
obo	-10072
ora	-10073
phä	-10074
ras	-10075
rer	-10076
tro	-10077
ugs	-10078
upc	-10079
wan	-10080
ycl	-10081
zut	-10082
ßes	-10083
ßig	-10084
äol	-10085
ümp	-10086
ünd	-10087
▁14	-10088
▁24	-10089
▁96	-10090
▁Ag	-10091
▁Ap	-10092
▁DS	-10093
▁No	-10094
▁OU	-10095
▁Th	-10096
▁VW	-10097
▁em	-10098
▁pu	-10099
▁zö	-10100
Aren	-10101
Boot	-10102
Cart	-10103
Flug	-10104
Lauf	-10105
Rock	-10106
Roll	-10107
Show	-10108
Talk	-10109
Weiß	-10110
aber	-10111
achi	-10112
achs	-10113
ador	-10114
afon	-10115
agel	-10116
agle	-10117
akul	-10118
ales	-10119
amas	-10120
amik	-10121
angs	-10122
annt	-10123
anta	-10124
ante	-10125
ants	-10126
apft	-10127
appe	-10128
arty	-10129
aste	-10130
atex	-10131
atür	-10132
aunt	-10133
aßen	-10134
beam	-10135
bend	-10136
bies	-10137
blem	-10138
blon	-10139
bren	-10140
bten	-10141
come	-10142
egas	-10143
elch	-10144
ells	-10145
eman	-10146
emor	-10147
endr	-10148
fang	-10149
ffel	-10150
folg	-10151
food	-10152
frig	-10153
fuhr	-10154
füll	-10155
hals	-10156
hist	-10157
hock	-10158
hoot	-10159
höhe	-10160
ickn	-10161
iebt	-10162
iede	-10163
igan	-10164
ille	-10165
imit	-10166
inal	-10167
inar	-10168
ions	-10169
itty	-10170
itän	-10171
ivan	-10172
kade	-10173
kett	-10174
kler	-10175
krem	-10176
kter	-10177
llie	-10178
lump	-10179
malt	-10180
matr	-10181
maus	-10182
mest	-10183
mpfe	-10184
mtem	-10185
nase	-10186
nten	-10187
okus	-10188
omie	-10189
opft	-10190
orak	-10191
otst	-10192
otte	-10193
owns	-10194
oyer	-10195
oßen	-10196
pose	-10197
pper	-10198
quet	-10199
orld	-10200
rist	-10201
rott	-10202
rten	-10203
same	-10204
ssch	-10205
sste	-10206
steg	-10207
stoß	-10208
tanz	-10209
teig	-10210
teth	-10211
tief	-10212
topf	-10213
trem	-10214
uche	-10215
unch	-10216
unte	-10217
urai	-10218
uter	-10219
viet	-10220
wagg	-10221
wass	-10222
weck	-10223
weif	-10224
wein	-10225
wohn	-10226
wood	-10227
zack	-10228
zahn	-10229
zend	-10230
zept	-10231
zest	-10232
ähte	-10233
ämme	-10234
änze	-10235
ärmt	-10236
äuch	-10237
äuel	-10238
ömen	-10239
öpft	-10240
ötze	-10241
üche	-10242
üsch	-10243
üßes	-10244
▁Afr	-10245
▁Ass	-10246
▁BMW	-10247
▁Big	-10248
▁Bod	-10249
▁Bon	-10250
▁Bud	-10251
▁Cen	-10252
▁Cir	-10253
▁Cre	-10254
▁Cur	-10255
▁Dal	-10256
▁Dem	-10257
▁Dia	-10258
▁Eck	-10259
▁Fac	-10260
▁Fed	-10261
▁Fei	-10262
▁Fot	-10263
▁Gap	-10264
▁Gut	-10265
▁Jag	-10266
▁Jal	-10267
▁Kid	-10268
▁Kol	-10269
▁Las	-10270
▁Los	-10271
▁Lou	-10272
▁Lut	-10273
▁Mad	-10274
▁Nag	-10275
▁Nat	-10276
▁Ori	-10277
▁Pak	-10278
▁Pan	-10279
▁Piñ	-10280
▁Pot	-10281
▁Rep	-10282
▁Sco	-10283
▁Sel	-10284
▁Tam	-10285
▁Umr	-10286
▁Unk	-10287
▁Vis	-10288
▁Web	-10289
▁Wee	-10290
▁Wii	-10291
▁Wim	-10292
▁Wok	-10293
▁alt	-10294
▁anf	-10295
▁bez	-10296
▁bit	-10297
▁dad	-10298
▁dre	-10299
▁gig	-10300
▁hän	-10301
▁jed	-10302
▁kul	-10303
▁kön	-10304
▁maj	-10305
▁mal	-10306
▁rad	-10307
▁rie	-10308
▁run	-10309
▁süd	-10310
▁tex	-10311
▁trö	-10312
▁ört	-10313
Arena	-10314
Armee	-10315
Hosen	-10316
Kunst	-10317
Musik	-10318
Puppe	-10319
Schau	-10320
Sport	-10321
Texas	-10322
Unter	-10323
abine	-10324
ackel	-10325
adrat	-10326
agenz	-10327
agner	-10328
agten	-10329
ahmte	-10330
aktiv	-10331
album	-10332
andem	-10333
andid	-10334
annel	-10335
antes	-10336
anzer	-10337
anzig	-10338
aphon	-10339
arbie	-10340
ashow	-10341
atown	-10342
aucht	-10343
banen	-10344
bauen	-10345
bruch	-10346
buggy	-10347
bäume	-10348
chert	-10349
derin	-10350
dosen	-10351
drink	-10352
elett	-10353
ember	-10354
ertig	-10355
estät	-10356
ettet	-10357
euzen	-10358
feder	-10359
flöte	-10360
folie	-10361
fotos	-10362
gelbe	-10363
gesch	-10364
gespr	-10365
geste	-10366
gitar	-10367
gners	-10368
graue	-10369
gräbt	-10370
guckt	-10371
haben	-10372
hakis	-10373
hlten	-10374
hnten	-10375
höhle	-10376
iachi	-10377
iegen	-10378
ienst	-10379
igeun	-10380
igter	-10381
ility	-10382
illas	-10383
ineal	-10384
iness	-10385
intet	-10386
ionen	-10387
irkus	-10388
irurg	-10389
itekt	-10390
itish	-10391
käfig	-10392
kämpf	-10393
lesen	-10394
malen	-10395
netze	-10396
obern	-10397
offee	-10398
olleg	-10399
ometr	-10400
ongle	-10401
orben	-10402
orist	-10403
osaik	-10404
ouill	-10405
ppent	-10406
pulen	-10407
rauch	-10408
reihe	-10409
rohre	-10410
rotem	-10411
schee	-10412
shirt	-10413
spieß	-10414
sraum	-10415
stüte	-10416
teria	-10417
tigen	-10418
truck	-10419
trägt	-10420
ubsen	-10421
uitar	-10422
ullen	-10423
utens	-10424
utsch	-10425
vogel	-10426
wasch	-10427
wechs	-10428
weilt	-10429
welle	-10430
zeugt	-10431
Übung	-10432
ählen	-10433
äkelt	-10434
äldes	-10435
örder	-10436
ötzen	-10437
ümpel	-10438
▁Bast	-10439
▁Beob	-10440
▁Blum	-10441
▁Boje	-10442
▁Burg	-10443
▁Camc	-10444
▁Cany	-10445
▁Cast	-10446
▁Chev	-10447
▁Corg	-10448
▁Cupc	-10449
▁Doll	-10450
▁East	-10451
▁Eins	-10452
▁Erhe	-10453
▁Fach	-10454
▁Farn	-10455
▁Fire	-10456
▁Ford	-10457
▁Ganz	-10458
▁Gast	-10459
▁Graf	-10460
▁Hack	-10461
▁Heil	-10462
▁Hero	-10463
▁Jazz	-10464
▁Just	-10465
▁Kipp	-10466
▁Klub	-10467
▁Komm	-10468
▁Korn	-10469
▁Leck	-10470
▁Lehr	-10471
▁Life	-10472
▁Limo	-10473
▁Lkws	-10474
▁Loll	-10475
▁Long	-10476
▁Lupe	-10477
▁Malb	-10478
▁Mand	-10479
▁Mart	-10480
▁Maus	-10481
▁Menü	-10482
▁Mets	-10483
▁Mike	-10484
▁Minn	-10485
▁Muff	-10486
▁Mult	-10487
▁Must	-10488
▁Nahr	-10489
▁Ninj	-10490
▁Oben	-10491
▁Pilz	-10492
▁Port	-10493
▁Prit	-10494
▁Puma	-10495
▁Rass	-10496
▁Ritu	-10497
▁Rund	-10498
▁Satz	-10499
▁Sehr	-10500
▁Side	-10501
▁Sign	-10502
▁Solo	-10503
▁Spar	-10504
▁Spät	-10505
▁Ster	-10506
▁Strü	-10507
▁Tack	-10508
▁Tast	-10509
▁Ukul	-10510
▁Verb	-10511
▁Verl	-10512
▁Wade	-10513
▁Wahl	-10514
▁Wahr	-10515
▁Ware	-10516
▁Weib	-10517
▁Wend	-10518
▁Zent	-10519
▁Zopf	-10520
▁arch	-10521
▁auft	-10522
▁aufw	-10523
▁boxt	-10524
▁dort	-10525
▁dram	-10526
▁engl	-10527
▁entz	-10528
▁erör	-10529
▁flei	-10530
▁gern	-10531
▁gewe	-10532
▁grob	-10533
▁grus	-10534
▁habe	-10535
▁inne	-10536
▁ital	-10537
▁lind	-10538
▁lugt	-10539
▁läss	-10540
▁moll	-10541
▁moos	-10542
▁oliv	-10543
▁pelz	-10544
▁plau	-10545
▁proj	-10546
▁riss	-10547
▁schu	-10548
▁sehe	-10549
▁seht	-10550
▁sign	-10551
▁verg	-10552
▁vorm	-10553
▁weht	-10554
▁wirk	-10555
▁wohl	-10556
▁zeit	-10557
▁zott	-10558
Gruppe	-10559
Jungen	-10560
Klasse	-10561
Muster	-10562
Plakat	-10563
Schlag	-10564
Talkie	-10565
Tasche	-10566
altete	-10567
amaran	-10568
ammelt	-10569
ampelt	-10570
ascara	-10571
astell	-10572
ations	-10573
atland	-10574
aucher	-10575
bagger	-10576
bahnen	-10577
benden	-10578
biente	-10579
bieren	-10580
bstanz	-10581
bummel	-10582
bänder	-10583
bänken	-10584
bücher	-10585
decken	-10586
dienst	-10587
druckr	-10588
drückt	-10589
eimnis	-10590
ellack	-10591
ellten	-10592
esteck	-10593
farbig	-10594
fliegt	-10595
froren	-10596
fächer	-10597
fäller	-10598
gefähr	-10599
gelbes	-10600
gewöhn	-10601
graues	-10602
größer	-10603
hallen	-10604
hantel	-10605
heiten	-10606
hilfen	-10607
hleten	-10608
hunden	-10609
häuser	-10610
hügeln	-10611
iebene	-10612
iertel	-10613
imbiss	-10614
indung	-10615
inzess	-10616
ippten	-10617
isiert	-10618
itäter	-10619
jekten	-10620
kettet	-10621
klaren	-10622
kunden	-10623
laggen	-10624
leuten	-10625
losion	-10626
mallow	-10627
mengen	-10628
merzen	-10629
ontier	-10630
ooping	-10631
ortler	-10632
parade	-10633
pflegt	-10634
pielen	-10635
pieler	-10636
planke	-10637
podest	-10638
putzen	-10639
rechte	-10640
reifer	-10641
reihen	-10642
reisen	-10643
reiten	-10644
räumen	-10645
schaum	-10646
schlei	-10647
schuhl	-10648
sladen	-10649
spange	-10650
spitze	-10651
spunkt	-10652
sspiel	-10653
steins	-10654
stofft	-10655
stätte	-10656
säcken	-10657
termin	-10658
trennt	-10659
uckter	-10660
uddelt	-10661
umente	-10662
umhang	-10663
urfing	-10664
ustern	-10665
utzend	-10666
villon	-10667
wandte	-10668
weiser	-10669
willig	-10670
wister	-10671
wänden	-10672
yropor	-10673
zernes	-10674
zäunte	-10675
zünden	-10676
öpfige	-10677
öpften	-10678
üffeln	-10679
ümchen	-10680
üstern	-10681
üttert	-10682
▁Ahorn	-10683
▁Altar	-10684
▁Amish	-10685
▁Arten	-10686
▁Besch	-10687
▁Blond	-10688
▁Broad	-10689
▁Bucht	-10690
▁Buden	-10691
▁Cabri	-10692
▁Cargo	-10693
▁Champ	-10694
▁Chore	-10695
▁Coney	-10696
▁Cross	-10697
▁Dampf	-10698
▁Einst	-10699
▁Ellen	-10700
▁Ernte	-10701
▁Eseln	-10702
▁Felds	-10703
▁Filmp	-10704
▁First	-10705
▁Fleck	-10706
▁Fokus	-10707
▁Frack	-10708
▁Frank	-10709
▁Frise	-10710
▁Fähre	-10711
▁Gewür	-10712
▁Gleit	-10713
▁Green	-10714
▁Grube	-10715
▁Halte	-10716
▁Hecke	-10717
▁Herde	-10718
▁Herzt	-10719
▁Jacks	-10720
▁Kapuz	-10721
▁Kekse	-10722
▁Kelle	-10723
▁Kinds	-10724
▁Kliff	-10725
▁Krone	-10726
▁Käfer	-10727
▁Lader	-10728
▁Latex	-10729
▁Läden	-10730
▁Lösch	-10731
▁Marke	-10732
▁Mixer	-10733
▁Model	-10734
▁Motiv	-10735
▁Musch	-10736
▁Nudel	-10737
▁Obama	-10738
▁Offen	-10739
▁Ollie	-10740
▁Pappt	-10741
▁Pfann	-10742
▁Pirat	-10743
▁Posen	-10744
▁Puder	-10745
▁Pulli	-10746
▁Rings	-10747
▁Rohre	-10748
▁Salon	-10749
▁Sauna	-10750
▁Schie	-10751
▁Shopp	-10752
▁Short	-10753
▁Sparr	-10754
▁Sprün	-10755
▁Söhne	-10756
▁Tabak	-10757
▁Techn	-10758
▁Toast	-10759
▁Torte	-10760
▁Tutus	-10761
▁Umarm	-10762
▁Vegas	-10763
▁Waage	-10764
▁Wache	-10765
▁Weges	-10766
▁Weise	-10767
▁Weiße	-10768
▁Zebra	-10769
▁Zweck	-10770
▁Zwölf	-10771
▁Zügel	-10772
▁abzus	-10773
▁allen	-10774
▁bellt	-10775
▁beweg	-10776
▁bewir	-10777
▁blass	-10778
▁block	-10779
▁busch	-10780
▁bäuch	-10781
▁coole	-10782
▁daste	-10783
▁dehnt	-10784
▁drauf	-10785
▁duckt	-10786
▁dösen	-10787
▁eilen	-10788
▁entle	-10789
▁erfor	-10790
▁erste	-10791
▁fegen	-10792
▁feier	-10793
▁fitte	-10794
▁föhnt	-10795
▁ganze	-10796
▁geeig	-10797
▁gehäu	-10798
▁gitar	-10799
▁grüßt	-10800
▁harkt	-10801
▁innen	-10802
▁kräft	-10803
▁laden	-10804
▁liebe	-10805
▁motor	-10806
▁offiz	-10807
▁prakt	-10808
▁rasen	-10809
▁reibt	-10810
▁reißt	-10811
▁rockt	-10812
▁sagen	-10813
▁sanft	-10814
▁schäb	-10815
▁sonnt	-10816
▁spekt	-10817
▁stach	-10818
▁süßes	-10819
▁unsch	-10820
▁verst	-10821
▁volle	-10822
▁weite	-10823
▁wicht	-10824
▁wirkt	-10825
▁wühlt	-10826
▁wüten	-10827
▁zerle	-10828
▁zöger	-10829
▁Ästen	-10830
▁ängst	-10831
Anzeige	-10832
Bahnhof	-10833
Einkauf	-10834
Gelände	-10835
Overall	-10836
Turnier	-10837
Uniform	-10838
Welcome	-10839
ackenen	-10840
allenge	-10841
alocken	-10842
anische	-10843
bauwerk	-10844
beamter	-10845
bechern	-10846
bestand	-10847
braunes	-10848
brenner	-10849
bringen	-10850
elladen	-10851
endruck	-10852
ertisch	-10853
euchtet	-10854
fahrers	-10855
flocken	-10856
friseur	-10857
förmige	-10858
gebilde	-10859
gelegen	-10860
gemälde	-10861
gericht	-10862
gesetzt	-10863
hooting	-10864
ienhaus	-10865
intendo	-10866
ituosen	-10867
kameras	-10868
kindern	-10869
körpern	-10870
lichter	-10871
läufern	-10872
marktes	-10873
matiner	-10874
mähltes	-10875
nackter	-10876
oboskop	-10877
ontiere	-10878
packten	-10879
pflanze	-10880
pfleger	-10881
rennens	-10882
schlend	-10883
schloss	-10884
schwimm	-10885
schüler	-10886
skörper	-10887
spazier	-10888
spitzen	-10889
splatte	-10890
stangen	-10891
stiften	-10892
stützen	-10893
taschen	-10894
teppich	-10895
trainer	-10896
traktor	-10897
treppen	-10898
triever	-10899
ungenen	-10900
ungslos	-10901
ursalon	-10902
utender	-10903
utzende	-10904
äckchen	-10905
ähnchen	-10906
ändigen	-10907
öckchen	-10908
▁Abfall	-10909
▁Alltag	-10910
▁Angels	-10911
▁Anorak	-10912
▁Arcade	-10913
▁Arkade	-10914
▁Astron	-10915
▁Barbie	-10916
▁Barett	-10917
▁Baucht	-10918
▁Beagle	-10919
▁Bereit	-10920
▁Blüten	-10921
▁Boards	-10922
▁Boxers	-10923
▁Bungee	-10924
▁Burger	-10925
▁Button	-10926
▁Coucht	-10927
▁Donuts	-10928
▁Drinks	-10929
▁Dusche	-10930
▁Fertig	-10931
▁Feuers	-10932
▁Flugbe	-10933
▁Frosch	-10934
▁Frucht	-10935
▁Fällen	-10936
▁Fässer	-10937
▁Fäuste	-10938
▁Gedenk	-10939
▁Geisha	-10940
▁Geräte	-10941
▁Glocke	-10942
▁Gläser	-10943
▁Halstü	-10944
▁Helfer	-10945
▁Hügeln	-10946
▁Hühner	-10947
▁Hütten	-10948
▁Island	-10949
▁Jahren	-10950
▁Jalous	-10951
▁Jongle	-10952
▁Junges	-10953
▁Kandid	-10954
▁Kassen	-10955
▁Khakis	-10956
▁Klötze	-10957
▁Kochen	-10958
▁Korken	-10959
▁Krabbe	-10960
▁Kugeln	-10961
▁Kultur	-10962
▁Lakers	-10963
▁Latein	-10964
▁Latten	-10965
▁Marine	-10966
▁Maurer	-10967
▁Medien	-10968
▁Mickey	-10969
▁Mitten	-10970
▁Mosaik	-10971
▁Mönche	-10972
▁Nahost	-10973
▁Netzen	-10974
▁Ordner	-10975
▁Pfauen	-10976
▁Pferds	-10977
▁Piñata	-10978
▁Poncho	-10979
▁Pulver	-10980
▁Punkte	-10981
▁Puzzle	-10982
▁Radweg	-10983
▁Reiher	-10984
▁Ritter	-10985
▁School	-10986
▁Silber	-10987
▁Skates	-10988
▁Sketch	-10989
▁Speerw	-10990
▁Spiele	-10991
▁Spuren	-10992
▁Steaks	-10993
▁Stoffe	-10994
▁Säcken	-10995
▁Söhnen	-10996
▁Taille	-10997
▁Tambur	-10998
▁Tandem	-10999
▁Termin	-11000
▁Toyota	-11001
▁Tunika	-11002
▁Vierer	-11003
▁Vorbei	-11004
▁Walkie	-11005
▁Warten	-11006
▁Weizen	-11007
▁Zahlen	-11008
▁Zirkus	-11009
▁Zweige	-11010
▁albert	-11011
▁angeln	-11012
▁anhält	-11013
▁arrang	-11014
▁aufwir	-11015
▁backen	-11016
▁bergab	-11017
▁beugen	-11018
▁bitten	-11019
▁bittet	-11020
▁blasen	-11021
▁bleckt	-11022
▁bloßen	-11023
▁brennt	-11024
▁danach	-11025
▁denken	-11026
▁divers	-11027
▁drehen	-11028
▁drängt	-11029
▁durchn	-11030
▁dünner	-11031
▁eingeb	-11032
▁eingeh	-11033
▁entsch	-11034
▁ernten	-11035
▁falsch	-11036
▁finden	-11037
▁flache	-11038
▁gefert	-11039
▁geholt	-11040
▁gehört	-11041
▁gelang	-11042
▁geschw	-11043
▁gigant	-11044
▁hacken	-11045
▁hellem	-11046
▁jedoch	-11047
▁kaltes	-11048
▁klarem	-11049
▁kniend	-11050
▁knurrt	-11051
▁latein	-11052
▁lauter	-11053
▁lesend	-11054
▁messen	-11055
▁metall	-11056
▁modern	-11057
▁müssen	-11058
▁prahlt	-11059
▁proben	-11060
▁qualmt	-11061
▁rasten	-11062
▁rastet	-11063
▁redend	-11064
▁räumen	-11065
▁sausen	-11066
▁schräg	-11067
▁skaten	-11068
▁spülen	-11069
▁stemmt	-11070
▁stramm	-11071
▁streut	-11072
▁stutzt	-11073
▁testen	-11074
▁transp	-11075
▁trübes	-11076
▁umgibt	-11077
▁unüber	-11078
▁verreg	-11079
▁vieler	-11080
▁warmer	-11081
▁weicht	-11082
▁weiten	-11083
▁winter	-11084
▁wollen	-11085
▁wärmen	-11086
▁zerren	-11087
▁zielen	-11088
▁zwickt	-11089
▁Äpfeln	-11090
▁ändert	-11091
Flugzeug	-11092
Pullover	-11093
akulären	-11094
anhänger	-11095
aufdruck	-11096
bereichs	-11097
betriebs	-11098
bärtiger	-11099
dentisch	-11100
ettboden	-11101
farbiger	-11102
fransten	-11103
fußboden	-11104
förmiges	-11105
gehenden	-11106
händlers	-11107
häuschen	-11108
hörnchen	-11109
ifornien	-11110
leinwand	-11111
lichkeit	-11112
liegende	-11113
läuferin	-11114
marathon	-11115
mestudio	-11116
monitore	-11117
objektiv	-11118
onisches	-11119
personen	-11120
pflegter	-11121
piercing	-11122
rädrigen	-11123
scheiben	-11124
sprenger	-11125
sstation	-11126
stlingen	-11127
strecken	-11128
strümpfe	-11129
ständigt	-11130
terrasse	-11131
torhüter	-11132
training	-11133
ungsraum	-11134
ungsvoll	-11135
willigen	-11136
zestatue	-11137
zukommen	-11138
▁Abfluss	-11139
▁Abfälle	-11140
▁Agility	-11141
▁Apparat	-11142
▁Ausland	-11143
▁Balance	-11144
▁Baseman	-11145
▁Bassist	-11146
▁Beamten	-11147
▁Besteck	-11148
▁Blonder	-11149
▁Blondes	-11150
▁Bootsan	-11151
▁Bretter	-11152
▁British	-11153
▁Bustier	-11154
▁Bändern	-11155
▁Campern	-11156
▁Curling	-11157
▁Designs	-11158
▁Diashow	-11159
▁Drummer	-11160
▁Eiskrem	-11161
▁Enkelin	-11162
▁Erinner	-11163
▁Farbspr	-11164
▁Fechter	-11165
▁Filmset	-11166
▁Fließen	-11167
▁Fässern	-11168
▁Galerie	-11169
▁Gastron	-11170
▁Gebirge	-11171
▁Gebüsch	-11172
▁Gefährt	-11173
▁Gegners	-11174
▁Gewehre	-11175
▁Gärtner	-11176
▁Haustür	-11177
▁Headset	-11178
▁Hintern	-11179
▁Hispano	-11180
▁Hörnern	-11181
▁Inderin	-11182
▁Kabinen	-11183
▁Karaoke	-11184
▁Keramik	-11185
▁Kiesweg	-11186
▁Kitesur	-11187
▁Klippen	-11188
▁Kneipen	-11189
▁Laterne	-11190
▁Lenkrad	-11191
▁Leotard	-11192
▁Machete	-11193
▁Magazin	-11194
▁Mascara	-11195
▁Matador	-11196
▁Megafon	-11197
▁Mexikan	-11198
▁Minivan	-11199
▁Monster	-11200
▁Moschee	-11201
▁Mündern	-11202
▁Ohrring	-11203
▁Parkweg	-11204
▁Passant	-11205
▁Pelikan	-11206
▁Platzes	-11207
▁Problem	-11208
▁Propang	-11209
▁Reagenz	-11210
▁Rentier	-11211
▁Rüschen	-11212
▁Rüstung	-11213
▁Samurai	-11214
▁Sandale	-11215
▁Schluck	-11216
▁Schreib	-11217
▁Schwamm	-11218
▁Schwarm	-11219
▁Seesack	-11220
▁Serviet	-11221
▁Skelett	-11222
▁Spanien	-11223
▁Sprungs	-11224
▁Ständen	-11225
▁Tattoos	-11226
▁Torwart	-11227
▁Treffen	-11228
▁Ukulele	-11229
▁Unkraut	-11230
▁Urlaubs	-11231
▁Viertel	-11232
▁Wäldern	-11233
▁Zombies	-11234
▁Zukunft	-11235
▁Zweigen	-11236
▁Zweirad	-11237
▁abseits	-11238
▁basteln	-11239
▁bemalte	-11240
▁bergauf	-11241
▁betreut	-11242
▁breites	-11243
▁breitet	-11244
▁buddelt	-11245
▁bummeln	-11246
▁chirurg	-11247
▁durchge	-11248
▁einfach	-11249
▁einhänd	-11250
▁einsame	-11251
▁erinner	-11252
▁flachem	-11253
▁gebräun	-11254
▁gebückt	-11255
▁gekauft	-11256
▁geometr	-11257
▁gesenkt	-11258
▁getraut	-11259
▁gewandt	-11260
▁gewinnt	-11261
▁glätten	-11262
▁glättet	-11263
▁hellros	-11264
▁hintere	-11265
▁hämmert	-11266
▁italien	-11267
▁kleinem	-11268
▁lebhaft	-11269
▁leisten	-11270
▁lümmelt	-11271
▁modisch	-11272
▁neugier	-11273
▁oranges	-11274
▁patriot	-11275
▁prallen	-11276
▁quadrat	-11277
▁rosarot	-11278
▁schickt	-11279
▁schöpft	-11280
▁stoppen	-11281
▁strömen	-11282
▁säubern	-11283
▁tackeln	-11284
▁tauchen	-11285
▁tauscht	-11286
▁tragend	-11287
▁urbanen	-11288
▁veranst	-11289
▁vervoll	-11290
▁verwahr	-11291
▁zerlump	-11292
▁Öffnung	-11293
Spielerin	-11294
Spielzeug	-11295
Unterteil	-11296
Wettkampf	-11297
abteilung	-11298
afarbenen	-11299
angestell	-11300
arbeitung	-11301
asenmäher	-11302
eisenbahn	-11303
gestreckt	-11304
ianischer	-11305
karierten	-11306
leitungen	-11307
leppwagen	-11308
orchester	-11309
passenden	-11310
schlüssel	-11311
skünstler	-11312
spolizist	-11313
techniker	-11314
tethoskop	-11315
wanderung	-11316
örderband	-11317
▁Abschlag	-11318
▁Angriffs	-11319
▁Anziehen	-11320
▁Athleten	-11321
▁Aufsicht	-11322
▁Ausstell	-11323
▁Barriere	-11324
▁Bergpfad	-11325
▁Brettern	-11326
▁Business	-11327
▁Bücherei	-11328
▁Chefkoch	-11329
▁Chinesen	-11330
▁Designer	-11331
▁Dragster	-11332
▁Dutzende	-11333
▁Eiskunst	-11334
▁Eisstand	-11335
▁Eistüten	-11336
▁Erhebung	-11337
▁Fahrgast	-11338
▁Feinkost	-11339
▁Fensters	-11340
▁Frühling	-11341
▁Fußballs	-11342
▁Gasmaske	-11343
▁Gerüsten	-11344
▁Gesteins	-11345
▁Gewänder	-11346
▁Haarnetz	-11347
▁Handvoll	-11348
▁Handwerk	-11349
▁Hunderte	-11350
▁Internet	-11351
▁Jonglier	-11352
▁Karneval	-11353
▁Karussel	-11354
▁Kaugummi	-11355
▁Latzhose	-11356
▁Limonade	-11357
▁Luftmatr	-11358
▁Lutscher	-11359
▁Mariachi	-11360
▁Markisen	-11361
▁Maultier	-11362
▁Megaphon	-11363
▁Minirock	-11364
▁Mischung	-11365
▁Nintendo	-11366
▁Objektiv	-11367
▁Ohrhörer	-11368
▁Personal	-11369
▁Perücken	-11370
▁Prinzess	-11371
▁Protestk	-11372
▁Reporter	-11373
▁Schiffes	-11374
▁Schneest	-11375
▁Schnüren	-11376
▁Schweine	-11377
▁Smokings	-11378
▁Sombrero	-11379
▁Sprechen	-11380
▁Springen	-11381
▁Stadions	-11382
▁Steigung	-11383
▁Stoffhut	-11384
▁Styropor	-11385
▁Substanz	-11386
▁Tabletts	-11387
▁Tanktops	-11388
▁Tarnhose	-11389
▁Tastatur	-11390
▁Umhänget	-11391
▁Ungefähr	-11392
▁Vielzahl	-11393
▁Waldhorn	-11394
▁Wanderin	-11395
▁Weinglas	-11396
▁Zauberer	-11397
▁abgelegt	-11398
▁anbietet	-11399
▁angelegt	-11400
▁angucken	-11401
▁aufgereg	-11402
▁aufnimmt	-11403
▁aufregen	-11404
▁ausführt	-11405
▁auswirft	-11406
▁bedruckt	-11407
▁beruhigt	-11408
▁beschlie	-11409
▁besetzte	-11410
▁betreibt	-11411
▁bevölker	-11412
▁bewachen	-11413
▁bewertet	-11414
▁dasselbe	-11415
▁deutlich	-11416
▁drängeln	-11417
▁eingesch	-11418
▁entdeckt	-11419
▁erkundet	-11420
▁farbiger	-11421
▁farblich	-11422
▁frisches	-11423
▁gebauten	-11424
▁geblockt	-11425
▁gedruckt	-11426
▁gehenden	-11427
▁gehendes	-11428
▁gelandet	-11429
▁geparkte	-11430
▁gesicher	-11431
▁gestellt	-11432
▁gestürzt	-11433
▁getaucht	-11434
▁gewunden	-11435
▁gitarren	-11436
▁größerer	-11437
▁hübscher	-11438
▁hübsches	-11439
▁korpulen	-11440
▁kuscheln	-11441
▁lauschen	-11442
▁majestät	-11443
▁mehrerer	-11444
▁merkwürd	-11445
▁moderner	-11446
▁nachdenk	-11447
▁pflücken	-11448
▁plaudern	-11449
▁prächtig	-11450
▁rechteck	-11451
▁riesiges	-11452
▁sauberen	-11453
▁schreien	-11454
▁schubsen	-11455
▁schulter	-11456
▁schwerem	-11457
▁schwitzt	-11458
▁sprintet	-11459
▁stricken	-11460
▁stämmige	-11461
▁tauschen	-11462
▁unechten	-11463
▁unterird	-11464
▁verläuft	-11465
▁versenkt	-11466
▁versetzt	-11467
▁vielfält	-11468
▁vierbein	-11469
▁weiteres	-11470
▁Überdach	-11471
▁überlegt	-11472
Bekleidung	-11473
Kunststück	-11474
brechenden	-11475
gelassenen	-11476
größerungs	-11477
intergrund	-11478
kunststück	-11479
otorrädern	-11480
sammensein	-11481
utensilien	-11482
verschluss	-11483
vorführung	-11484
▁Anleitung	-11485
▁Asiatisch	-11486
▁Aufkleber	-11487
▁Außenwand	-11488
▁Backwaren	-11489
▁Baseballs	-11490
▁Bildhauer	-11491
▁Blickfeld	-11492
▁Blutdruck	-11493
▁Brustkorb	-11494
▁Cafeteria	-11495
▁Camcorder	-11496
▁Challenge	-11497
▁Chinatown	-11498
▁Collegest	-11499
▁Computers	-11500
▁Dokumente	-11501
▁Drahtseil	-11502
▁Drahtzaun	-11503
▁Dreiräder	-11504
▁Einkaufsk	-11505
▁Eiswagens	-11506
▁Explosion	-11507
▁Fahrgäste	-11508
▁Festumzug	-11509
▁Haarsalon	-11510
▁Handgerät	-11511
▁Handgriff	-11512
▁Herbsttag	-11513
▁Heuballen	-11514
▁Hollister	-11515
▁Holzhütte	-11516
▁Karnevals	-11517
▁Kassierer	-11518
▁Kickboxer	-11519
▁Kochjacke	-11520
▁Korbstuhl	-11521
▁Künstlern	-11522
▁Laderampe	-11523
▁Landebahn	-11524
▁Lächelnde	-11525
▁Marathons	-11526
▁Medaillen	-11527
▁Menschenm	-11528
▁Nagellack	-11529
▁Patientin	-11530
▁Produkten	-11531
▁Quadraten	-11532
▁Rennautos	-11533
▁Rennhunde	-11534
▁Retriever	-11535
▁Sanddünen	-11536
▁Sandplatz	-11537
▁Sattelzug	-11538
▁Schichten	-11539
▁Schindeln	-11540
▁Schleifen	-11541
▁Schlepper	-11542
▁Schlägern	-11543
▁Schlüssel	-11544
▁Schmerzen	-11545
▁Schnürsen	-11546
▁Schulband	-11547
▁Schwarzen	-11548
▁Skiläufer	-11549
▁Softdrink	-11550
▁Sonnentag	-11551
▁Spitzbart	-11552
▁Sporthose	-11553
▁Sprinkler	-11554
▁Stadtbild	-11555
▁Stadtteil	-11556
▁Strümpfen	-11557
▁Sturzhelm	-11558
▁Stückchen	-11559
▁Säuglings	-11560
▁Teppichen	-11561
▁Tonstudio	-11562
▁Totenkopf	-11563
▁Trompeter	-11564
▁Verlassen	-11565
▁Vorderrad	-11566
▁Vorschlag	-11567
▁Wanderern	-11568
▁Wasserspr	-11569
▁Wasserstr	-11570
▁Wasserweg	-11571
▁Weibliche	-11572
▁Whirlpool	-11573
▁Würstchen	-11574
▁Zeltplatz	-11575
▁Zugabteil	-11576
▁angeleint	-11577
▁aufgebaut	-11578
▁aufgehäng	-11579
▁aufgemalt	-11580
▁aufgewühl	-11581
▁aufhalten	-11582
▁aufnehmen	-11583
▁auftreten	-11584
▁ausgelegt	-11585
▁beleibter	-11586
▁besteigen	-11587
▁betreiben	-11588
▁bewölktem	-11589
▁darstellt	-11590
▁deutschen	-11591
▁dreckigen	-11592
▁errichten	-11593
▁errichtet	-11594
▁erscheint	-11595
▁fallenden	-11596
▁formellen	-11597
▁fremdländ	-11598
▁frischgeb	-11599
▁gedeckten	-11600
▁geduckter	-11601
▁gefrorene	-11602
▁gefüttert	-11603
▁getupften	-11604
▁gezogenen	-11605
▁gleichauf	-11606
▁hellbraun	-11607
▁hölzernes	-11608
▁hügeligen	-11609
▁ignoriert	-11610
▁indisches	-11611
▁informell	-11612
▁kleinerer	-11613
▁komischen	-11614
▁kopfstein	-11615
▁laufender	-11616
▁liegender	-11617
▁meditiert	-11618
▁modischen	-11619
▁operieren	-11620
▁patrouill	-11621
▁renoviert	-11622
▁rotweißen	-11623
▁rundherum	-11624
▁rötlichen	-11625
▁schnitzen	-11626
▁schreitet	-11627
▁schweißen	-11628
▁schützend	-11629
▁seltsamer	-11630
▁senkrecht	-11631
▁silbernes	-11632
▁spanische	-11633
▁tanzenden	-11634
▁traurigen	-11635
▁täglichen	-11636
▁tätowiert	-11637
▁umgedreht	-11638
▁verborgen	-11639
▁verletzte	-11640
▁verstreut	-11641
▁vorführen	-11642
▁wartenden	-11643
▁werdender	-11644
▁ähnlicher	-11645
▁übergeben	-11646
▁übersäten	-11647
Maskottchen	-11648
Quarterback	-11649
angehöriger	-11650
ausstattung	-11651
betriebenen	-11652
einrichtung	-11653
fahrtschiff	-11654
hallenboden	-11655
radfahrzeug	-11656
schnittenen	-11657
schuhlaufen	-11658
spaziergang	-11659
städtischen	-11660
unterwäsche	-11661
zeichnungen	-11662
▁Actionfoto	-11663
▁Arbeitstag	-11664
▁Attraktion	-11665
▁Autofahrer	-11666
▁Baserunner	-11667
▁Baumgruppe	-11668
▁Bestellung	-11669
▁Broschüren	-11670
▁Butterbrot	-11671
▁Champagner	-11672
▁Couchtisch	-11673
▁Dalmatiner	-11674
▁Eierkuchen	-11675
▁Einzelhand	-11676
▁Ellenbogen	-11677
▁Fahrersitz	-11678
▁Fahrgästen	-11679
▁Fechtkampf	-11680
▁Flughafens	-11681
▁Frankreich	-11682
▁Geldbörsen	-11683
▁Großmutter	-11684
▁Hasenohren	-11685
▁Heimatland	-11686
▁Heimwerker	-11687
▁Hochdruckr	-11688
▁Holzfäller	-11689
▁Hundeschau	-11690
▁Kartoffeln	-11691
▁Kokosnüsse	-11692
▁Kundschaft	-11693
▁Kürbisfeld	-11694
▁Lagerhalle	-11695
▁Mechaniker	-11696
▁Mikroskope	-11697
▁Musikstück	-11698
▁Müllhaufen	-11699
▁Obdachlose	-11700
▁Oberhemden	-11701
▁Obstkarren	-11702
▁Paddelboot	-11703
▁Papiertüte	-11704
▁Pappkarton	-11705
▁Prozession	-11706
▁Ringträger	-11707
▁Rollkoffer	-11708
▁Rollkragen	-11709
▁Sandwiches	-11710
▁Schläuchen	-11711
▁Schneefall	-11712
▁Schriftzug	-11713
▁Schwestern	-11714
▁Schwimmern	-11715
▁Sonnenanbe	-11716
▁Spielgerät	-11717
▁Spielhalle	-11718
▁Spruchband	-11719
▁Sprungwurf	-11720
▁Steinboden	-11721
▁Stofftiere	-11722
▁Stroboskop	-11723
▁Sumoringer	-11724
▁Tarnmuster	-11725
▁Teddybären	-11726
▁Trauzeugen	-11727
▁Turnschuhe	-11728
▁Töpferware	-11729
▁Unterlagen	-11730
▁Verkleiden	-11731
▁Verwendung	-11732
▁Volkswagen	-11733
▁Wassernähe	-11734
▁Wildblumen	-11735
▁Windsurfer	-11736
▁Wohngegend	-11737
▁Zahnspange	-11738
▁abgeschirm	-11739
▁abzufangen	-11740
▁abzunehmen	-11741
▁angebunden	-11742
▁angekettet	-11743
▁angemalten	-11744
▁angeschaut	-11745
▁arabischer	-11746
▁aufgehängt	-11747
▁aufgeregte	-11748
▁aufgesetzt	-11749
▁ausstreckt	-11750
▁auszuruhen	-11751
▁berittener	-11752
▁beschmiert	-11753
▁bespritzen	-11754
▁bezeichnet	-11755
▁blaugrünem	-11756
▁brechenden	-11757
▁bäuchlings	-11758
▁entfernten	-11759
▁erfahrener	-11760
▁erklettert	-11761
▁ethnischer	-11762
▁festlichen	-11763
▁förmlichen	-11764
▁galoppiert	-11765
▁gefließten	-11766
▁gekreuzten	-11767
▁gemusterte	-11768
▁geselligen	-11769
▁getrocknet	-11770
▁geworfenen	-11771
▁halbwilden	-11772
▁hellblauem	-11773
▁hellblauer	-11774
▁herunterzu	-11775
▁hingesetzt	-11776
▁hinunterzu	-11777
▁kanadische	-11778
▁kostenlose	-11779
▁leuchtende	-11780
▁lindgrünen	-11781
▁ländlicher	-11782
▁malerische	-11783
▁manövriert	-11784
▁marineblau	-11785
▁matschigen	-11786
▁niedliches	-11787
▁religiösen	-11788
▁rotbraunen	-11789
▁schlachtet	-11790
▁schleudert	-11791
▁schmettern	-11792
▁schnüffeln	-11793
▁schwangere	-11794
▁sichtbaren	-11795
▁transparen	-11796
▁verletzten	-11797
▁vermähltes	-11798
▁verrichtet	-11799
▁verrückter	-11800
▁verzerrtes	-11801
▁weiblicher	-11802
▁zahlreiche	-11803
▁zotteliger	-11804
▁zubereiten	-11805
▁zusammenzu	-11806
▁Überschlag	-11807
▁ärmelloses	-11808
▁übergroßen	-11809
▁überreicht	-11810
fußballspiel	-11811
spielerinnen	-11812
▁Afrikanerin	-11813
▁Astronauten	-11814
▁Außentreppe	-11815
▁Basketbälle	-11816
▁Biergläsern	-11817
▁Blumendruck	-11818
▁Briefkasten	-11819
▁Bürogebäude	-11820
▁Cowboyhüten	-11821
▁Fallschirme	-11822
▁Farbstiften	-11823
▁Fußballnetz	-11824
▁Gastronomie	-11825
▁Gemüsestand	-11826
▁Gewächshaus	-11827
▁Gruppenbild	-11828
▁Handtüchern	-11829
▁Handzeichen	-11830
▁Hindernisse	-11831
▁Hinterbeine	-11832
▁Holzgebäude	-11833
▁Hunderennen	-11834
▁Imbissstand	-11835
▁Information	-11836
▁Jogginghose	-11837
▁Kaffeetisch	-11838
▁Kalifornien	-11839
▁Kapuzenteil	-11840
▁Kartoffelch	-11841
▁Kirchenchor	-11842
▁Kostümierte	-11843
▁Küchenboden	-11844
▁Küstenlinie	-11845
▁Landschafts	-11846
▁Marktstraße	-11847
▁Metallstück	-11848
▁Mikrophonen	-11849
▁Mittelalter	-11850
▁Münztelefon	-11851
▁Oberkörpern	-11852
▁Pfannkuchen	-11853
▁Polospieler	-11854
▁Radsportler	-11855
▁Rampenlicht	-11856
▁Rastalocken	-11857
▁Rollschuhen	-11858
▁Rummelplatz	-11859
▁Schießstand	-11860
▁Schildkappe	-11861
▁Schneemobil	-11862
▁Schneeschuh	-11863
▁Schnellboot	-11864
▁Schubkarren	-11865
▁Schutzweste	-11866
▁Sicherungss	-11867
▁Spirituosen	-11868
▁Sprungtritt	-11869
▁Stadtgebiet	-11870
▁Sumpfgebiet	-11871
▁Sweatshirts	-11872
▁Tennisspiel	-11873
▁Unternehmen	-11874
▁Wakeboarden	-11875
▁Wandgemälde	-11876
▁Wasserfalls	-11877
▁Werferhügel	-11878
▁Wochenmarkt	-11879
▁Wunderkerze	-11880
▁Zeichnungen	-11881
▁Zeigefinger	-11882
▁Ziegelstein	-11883
▁akustischen	-11884
▁altmodische	-11885
▁angegriffen	-11886
▁attackieren	-11887
▁ausgelassen	-11888
▁ausgetragen	-11889
▁auszuziehen	-11890
▁außergewöhn	-11891
▁baumbestand	-11892
▁beleuchtete	-11893
▁bestehenden	-11894
▁bewachsenen	-11895
▁bräunlichen	-11896
▁eingerahmte	-11897
▁entscheiden	-11898
▁gelangweilt	-11899
▁gemeinsamen	-11900
▁geschminkte	-11901
▁geschnitzte	-11902
▁glücklichen	-11903
▁herabhängen	-11904
▁heranrollen	-11905
▁hergestellt	-11906
▁herumlaufen	-11907
▁hinterlässt	-11908
▁hochzuheben	-11909
▁interagiert	-11910
▁kaukasische	-11911
▁langärmigen	-11912
▁mittelgroße	-11913
▁offiziellen	-11914
▁prunkvollen	-11915
▁schlammiges	-11916
▁sonnendurch	-11917
▁stacheligen	-11918
▁stattfinden	-11919
▁stattfindet	-11920
▁städtischer	-11921
▁umgekippten	-11922
▁unbekannten	-11923
▁vollständig	-11924
▁voneinander	-11925
▁vornübergeb	-11926
▁vorübergeht	-11927
▁weißhaarige	-11928
▁zahlreichen	-11929
Schwimmbecken	-11930
gepflasterten	-11931
verkaufsstand	-11932
▁Arbeitsplatz	-11933
▁Bahnarbeiter	-11934
▁Bandkollegen	-11935
▁Bauarbeitern	-11936
▁Baumaschinen	-11937
▁Bereitschaft	-11938
▁Bronzestatue	-11939
▁Bürgerkriegs	-11940
▁Bürgersteigs	-11941
▁Cheerleaders	-11942
▁Choreografie	-11943
▁Fallschirmen	-11944
▁Fotoshooting	-11945
▁Friseursalon	-11946
▁Fußgängerweg	-11947
▁Golfschläger	-11948
▁Gottesdienst	-11949
▁Hochzeitstag	-11950
▁Hängegleiter	-11951
▁Kampfrichter	-11952
▁Kapuzenjacke	-11953
▁Knieschonern	-11954
▁Kochkleidung	-11955
▁Krankenwagen	-11956
▁Küchenarbeit	-11957
▁Meeresstrand	-11958
▁Monstertruck	-11959
▁Musikkapelle	-11960
▁Parkettboden	-11961
▁Pferderücken	-11962
▁Picknickbank	-11963
▁Plastikstuhl	-11964
▁Plastiktüten	-11965
▁Rennkleidung	-11966
▁Schlammgrube	-11967
▁Schottenrock	-11968
▁Schutthaufen	-11969
▁Schwimmanzug	-11970
▁Schülerinnen	-11971
▁Seitenstraße	-11972
▁Sonnenschild	-11973
▁Spielzeugzug	-11974
▁Steindenkmal	-11975
▁Stirnbändern	-11976
▁Straßenlampe	-11977
▁Straßenstand	-11978
▁Strumpfhosen	-11979
▁Teamkollegen	-11980
▁Teammitglied	-11981
▁Teppichboden	-11982
▁Theaterstück	-11983
▁Topfpflanzen	-11984
▁Trikotnummer	-11985
▁Uniformierte	-11986
▁Vogelschwarm	-11987
▁Vortragssaal	-11988
▁Wanderstöcke	-11989
▁Wartebereich	-11990
▁Wasserpfütze	-11991
▁Werbeanzeige	-11992
▁Winterjacken	-11993
▁Wunderkerzen	-11994
▁Ziegelstraße	-11995
▁abgestimmten	-11996
▁angeschnallt	-11997
▁aufgesetzten	-11998
▁ausgestopfte	-11999
▁beschädigtes	-12000
▁eingepacktes	-12001
▁entschlossen	-12002
▁europäisches	-12003
▁gegnerischer	-12004
▁gepolsterten	-12005
▁gestrichenen	-12006
▁herzförmigen	-12007
▁hochgehalten	-12008
▁hochgelegten	-12009
▁hochspringen	-12010
▁irgendwelche	-12011
▁jugendlicher	-12012
▁kahlköpfigen	-12013
▁kaukasischer	-12014
▁kommuniziert	-12015
▁kontrolliert	-12016
▁kurzhaariger	-12017
▁marineblauer	-12018
▁mechanischen	-12019
▁mehrfarbigem	-12020
▁menschlichen	-12021
▁präsentieren	-12022
▁schottischer	-12023
▁senffarbenen	-12024
▁umgefallenen	-12025
▁ungewöhnlich	-12026
▁verheiratete	-12027
▁verkleidetes	-12028
▁vorüberfährt	-12029
▁winterlichen	-12030
amerikanischen	-12031
amerikanischer	-12032
▁Asphaltstraße	-12033
▁Baseballplatz	-12034
▁Beisammensein	-12035
▁Doppeldeckerb	-12036
▁Drachenkostüm	-12037
▁Eingangshalle	-12038
▁Gepäckstücken	-12039
▁Gummistiefeln	-12040
▁Herrenfriseur	-12041
▁Interessantes	-12042
▁Knieschützern	-12043
▁Kniestrümpfen	-12044
▁Lederkleidung	-12045
▁Marschkapelle	-12046
▁Meeresfrüchte	-12047
▁Mountainbikes	-12048
▁Musikfestival	-12049
▁Picknickdecke	-12050
▁Planschbecken	-12051
▁Polizeibeamte	-12052
▁Rasensprenger	-12053
▁Regenstiefeln	-12054
▁Schlafanzügen	-12055
▁Schlammpfütze	-12056
▁Schutzbrillen	-12057
▁Seilspielzeug	-12058
▁Sonnenaufgang	-12059
▁Straßenschild	-12060
▁Telefonzellen	-12061
▁Treppenhauses	-12062
▁Ureinwohnerin	-12063
▁Vergrößerungs	-12064
▁Wasserpistole	-12065
▁Zementmischer	-12066
▁aufgestellten	-12067
▁ausgefransten	-12068
▁ausgestopften	-12069
▁beigefarbener	-12070
▁braunhaarigen	-12071
▁einzigartigen	-12072
▁französischen	-12073
▁geometrischen	-12074
▁hochgeschoben	-12075
▁irgendwelchen	-12076
▁kommunizieren	-12077
▁komplizierten	-12078
▁kontrollieren	-12079
▁kurzärmeligen	-12080
▁militärischer	-12081
▁motorisierten	-12082
▁spektakulären	-12083
▁unüberdachten	-12084
▁wunderschönes	-12085
▁Abschleppwagen	-12086
▁Aufnahmestudio	-12087
▁Aussichtspunkt	-12088
▁Berufskleidung	-12089
▁Bowlingspieler	-12090
▁Bühnenauftritt	-12091
▁Cowboykleidung	-12092
▁Cowboystiefeln	-12093
▁Fabrikarbeiter	-12094
▁Fechtwettkampf	-12095
▁Fußballtrikots	-12096
▁Gartenwerkzeug	-12097
▁Gebäudeeingang	-12098
▁Geschirrspüler	-12099
▁Gesichtsmasken	-12100
▁Gesichtsschutz	-12101
▁Gitarrespieler	-12102
▁Handbewegungen	-12103
▁Holzkohlegrill	-12104
▁Hundeschlitten	-12105
▁Irokesenfrisur	-12106
▁Jahrmarktspiel	-12107
▁Laufbekleidung	-12108
▁Leichtathletik	-12109
▁Meeresfrüchten	-12110
▁Metallarbeiter	-12111
▁Metallgeländer	-12112
▁Metallschüssel	-12113
▁Mittelstreifen	-12114
▁Neoprenanzügen	-12115
▁Ohrenschützern	-12116
▁Plastikrutsche	-12117
▁Plattenspieler	-12118
▁Schlauchbooten	-12119
▁Schlittenhunde	-12120
▁Schottenröcken	-12121
▁Schreibtischen	-12122
▁Schultertasche	-12123
▁Schwimmbeckens	-12124
▁Schwimmbrillen	-12125
▁Softballspiels	-12126
▁Sommerkleidung	-12127
▁Spazierstöcken	-12128
▁Spielautomaten	-12129
▁Straßenansicht	-12130
▁Straßenlaterne	-12131
▁Transportwagen	-12132
▁Verkehrsmittel	-12133
▁Wasserpistolen	-12134
▁Weihnachtszeit	-12135
▁Werkzeuggürtel	-12136
▁beeindruckende	-12137
▁dunkelhaarigen	-12138
▁dunkelhäutiges	-12139
▁herauszufinden	-12140
▁herunterhängen	-12141
▁hintereinander	-12142
▁interessierten	-12143
▁landwirtschaft	-12144
▁selbstgebauten	-12145
▁transportieren	-12146
▁übergewichtige	-12147
▁Bauarbeiterhelm	-12148
▁Essensverkäufer	-12149
▁Felsformationen	-12150
▁Feuerwehrleuten	-12151
▁Freiheitsstatue	-12152
▁Freiluftkonzert	-12153
▁Fußballspielern	-12154
▁Geländemaschine	-12155
▁Gitarrenspieler	-12156
▁Kettenkarussell	-12157
▁Militärkleidung	-12158
▁Musikausrüstung	-12159
▁Picknicktischen	-12160
▁Plastikflaschen	-12161
▁Softballspieler	-12162
▁Sportbekleidung	-12163
▁Steinoberfläche	-12164
▁Straßenkleidung	-12165
▁Touristengruppe	-12166
▁Transportmittel	-12167
▁Vorschlaghammer	-12168
▁abgeschnittenen	-12169
▁ausgeschnittene	-12170
▁professioneller	-12171
▁reflektierender	-12172
▁schneebedecktem	-12173
▁schwarzhaarigen	-12174
▁verkehrsreichen	-12175
▁vervollständigt	-12176
!“	-12177
,5	-12178
8,	-12179
:“	-12180
@@	-12181
AH	-12182
AI	-12183
AL	-12184
AM	-12185
AS	-12186
Am	-12187
Br	-12188
Bü	-12189
CK	-12190
Cr	-12191
De	-12192
Dr	-12193
EL	-12194
EN	-12195
EP	-12196
El	-12197
En	-12198
FC	-12199
AG	-12200
Do	-12201
GT	-12202
Go	-12203
IG	-12204
IR	-12205
IS	-12206
Ki	-12207
ME	-12208
No	-12209
Ra	-12210
Sh	-12211
Um	-12212
Vi	-12213
Wh	-12214
XX	-12215
bi	-12216
cs	-12217
cy	-12218
ey	-12219
fa	-12220
ha	-12221
ij	-12222
rr	-12223
ry	-12224
su	-12225
sz	-12226
ts	-12227
vo	-12228
vt	-12229
äh	-12230
üg	-12231
▁%	-12232
▁7	-12233
▁y	-12234
Bar	-12235
Bus	-12236
Cow	-12237
Fil	-12238
Fro	-12239
Ges	-12240
Hot	-12241
Ich	-12242
Lig	-12243
Man	-12244
Men	-12245
OME	-12246
Par	-12247
Per	-12248
Prä	-12249
Rot	-12250
Shr	-12251
Ste	-12252
Top	-12253
Zug	-12254
aat	-12255
abl	-12256
ael	-12257
afe	-12258
aki	-12259
anu	-12260
aot	-12261
ary	-12262
asy	-12263
ave	-12264
bir	-12265
bom	-12266
bow	-12267
bre	-12268
cen	-12269
cks	-12270
cus	-12271
das	-12272
ded	-12273
dis	-12274
dle	-12275
eer	-12276
ehn	-12277
eik	-12278
equ	-12279
esp	-12280
eté	-12281
eue	-12282
ffe	-12283
flä	-12284
fsm	-12285
füß	-12286
gek	-12287
gie	-12288
gre	-12289
gur	-12290
hin	-12291
ime	-12292
inc	-12293
iri	-12294
its	-12295
izz	-12296
kst	-12297
lab	-12298
lac	-12299
Swe	-12300
lay	-12301
läu	-12302
mmt	-12303
mob	-12304
mos	-12305
mus	-12306
mwe	-12307
mög	-12308
nie	-12309
not	-12310
oby	-12311
ols	-12312
ook	-12313
ory	-12314
ost	-12315
owa	-12316
pfe	-12317
pin	-12318
pon	-12319
ppt	-12320
pse	-12321
pum	-12322
rat	-12323
red	-12324
riv	-12325
siv	-12326
tab	-12327
tee	-12328
täg	-12329
täu	-12330
ual	-12331
ugh	-12332
ule	-12333
ulk	-12334
ums	-12335
ury	-12336
ves	-12337
vin	-12338
vis	-12339
vre	-12340
vul	-12341
wal	-12342
war	-12343
xus	-12344
yel	-12345
yle	-12346
yny	-12347
zul	-12348
zum	-12349
äus	-12350
äuß	-12351
öht	-12352
öss	-12353
ürr	-12354
▁28	-12355
▁80	-12356
▁Ad	-12357
▁Av	-12358
▁CD	-12359
▁DI	-12360
▁Du	-12361
▁Dü	-12362
▁Em	-12363
▁Gy	-12364
▁Gü	-12365
▁It	-12366
▁Iz	-12367
▁Je	-12368
▁LA	-12369
▁My	-12370
▁PC	-12371
▁Ps	-12372
▁SW	-12373
▁Sy	-12374
▁Tu	-12375
▁Tö	-12376
▁Ve	-12377
▁Wo	-12378
▁ad	-12379
▁ag	-12380
▁bä	-12381
▁eg	-12382
▁fü	-12383
▁ni	-12384
▁ov	-12385
▁sk	-12386
▁to	-12387
▁us	-12388
▁wi	-12389
▁är	-12390
Buch	-12391
Down	-12392
Free	-12393
Last	-12394
Loch	-12395
Pfer	-12396
Renn	-12397
Ston	-12398
Stop	-12399
glu	-12400
ruf	-12401
ylt	-12402
York	-12403
Zeit	-12404
Zwei	-12405
abet	-12406
able	-12407
abol	-12408
abst	-12409
adil	-12410
agei	-12411
agem	-12412
ahns	-12413
aker	-12414
akte	-12415
alem	-12416
alom	-12417
alut	-12418
amer	-12419
ames	-12420
ampt	-12421
anen	-12422
anna	-12423
anth	-12424
arke	-12425
arrt	-12426
asil	-12427
aubt	-12428
base	-12429
baus	-12430
bees	-12431
beil	-12432
berg	-12433
bewe	-12434
blen	-12435
bock	-12436
bton	-12437
bull	-12438
bund	-12439
chem	-12440
ches	-12441
chsk	-12442
cons	-12443
delt	-12444
dger	-12445
ding	-12446
eift	-12447
eits	-12448
elen	-12449
emde	-12450
ener	-12451
engt	-12452
erse	-12453
erst	-12454
erus	-12455
esam	-12456
esus	-12457
etta	-12458
etär	-12459
etür	-12460
eyho	-12461
fans	-12462
fige	-12463
fort	-12464
fter	-12465
gebl	-12466
gene	-12467
getr	-12468
gewä	-12469
gine	-12470
gles	-12471
hahn	-12472
hege	-12473
hend	-12474
hens	-12475
here	-12476
herr	-12477
hett	-12478
hill	-12479
hlte	-12480
hone	-12481
iade	-12482
ican	-12483
iefl	-12484
ield	-12485
ignt	-12486
ikas	-12487
ikop	-12488
illi	-12489
ills	-12490
imen	-12491
imin	-12492
ingo	-12493
ingr	-12494
inky	-12495
irgt	-12496
irlt	-12497
irmt	-12498
irth	-12499
ipl	-12500
oks	-12501
önt	-12502
▁2.	-12503
▁ud	-12504
aska	-12505
ctor	-12506
ipst	-12507
irup	-12508
ispr	-12509
itat	-12510
iter	-12511
ives	-12512
ivil	-12513
ivor	-12514
izer	-12515
kamm	-12516
kant	-12517
klat	-12518
koll	-12519
kons	-12520
krug	-12521
lade	-12522
lang	-12523
lear	-12524
lege	-12525
lehr	-12526
lied	-12527
ließ	-12528
mach	-12529
mens	-12530
mten	-12531
mund	-12532
ntag	-12533
nuss	-12534
obus	-12535
oder	-12536
ogar	-12537
ohin	-12538
oles	-12539
omat	-12540
onat	-12541
oner	-12542
ores	-12543
ornt	-12544
orse	-12545
orth	-12546
owlt	-12547
peln	-12548
pong	-12549
quis	-12550
rads	-12551
rael	-12552
rang	-12553
rank	-12554
regt	-12555
renn	-12556
rill	-12557
räte	-12558
rümm	-12559
rüpp	-12560
sarm	-12561
sker	-12562
skör	-12563
sorg	-12564
spar	-12565
spat	-12566
stes	-12567
sung	-12568
tage	-12569
tmet	-12570
trib	-12571
tron	-12572
trop	-12573
tung	-12574
turn	-12575
uern	-12576
ulch	-12577
ulen	-12578
uman	-12579
ungr	-12580
ungt	-12581
unik	-12582
urst	-12583
ushi	-12584
ustr	-12585
uthä	-12586
uven	-12587
wall	-12588
ways	-12589
webe	-12590
welt	-12591
wick	-12592
wirk	-12593
wort	-12594
ysur	-12595
zers	-12596
ztes	-12597
zuck	-12598
zugs	-12599
▁Yo	-12600
Five	-12601
Stil	-12602
ayer	-12603
cool	-12604
down	-12605
isco	-12606
quip	-12607
sive	-12608
slam	-12609
zwei	-12610
äfel	-12611
ärbt	-12612
äule	-12613
öche	-12614
önen	-12615
över	-12616
ößen	-12617
üchs	-12618
▁25.	-12619
▁Abl	-12620
▁Air	-12621
▁Ank	-12622
▁Ans	-12623
▁Bag	-12624
▁Bie	-12625
▁Boa	-12626
▁Cor	-12627
▁DJs	-12628
▁Den	-12629
▁Det	-12630
▁Dol	-12631
▁Dur	-12632
▁Ehe	-12633
▁Ell	-12634
▁Emp	-12635
▁Fau	-12636
▁Fee	-12637
▁Fes	-12638
▁Fin	-12639
▁Fäh	-12640
▁Für	-12641
▁Gef	-12642
▁Gru	-12643
▁Gur	-12644
▁Hij	-12645
▁Hip	-12646
▁Hol	-12647
▁Huf	-12648
▁Häl	-12649
▁Jim	-12650
▁Ken	-12651
▁Kos	-12652
▁Krä	-12653
▁Lad	-12654
▁Lam	-12655
▁Lav	-12656
▁LeB	-12657
▁Leb	-12658
▁Liv	-12659
▁Log	-12660
▁Mex	-12661
▁Mut	-12662
▁Mög	-12663
▁Nee	-12664
▁Nes	-12665
▁Nik	-12666
▁Nur	-12667
▁Nyl	-12668
▁Oak	-12669
▁Orn	-12670
▁Ped	-12671
▁Pee	-12672
▁Pfe	-12673
▁Ras	-12674
▁Rev	-12675
▁Rib	-12676
▁Ris	-12677
▁Roh	-12678
▁Ros	-12679
▁Scr	-12680
▁Seg	-12681
▁Sem	-12682
▁Set	-12683
▁Shr	-12684
▁Sin	-12685
▁Stö	-12686
▁Süd	-12687
▁Tae	-12688
▁Tat	-12689
▁Tom	-12690
▁Tät	-12691
▁Ves	-12692
▁Völ	-12693
▁Wik	-12694
▁YMC	-12695
▁Zun	-12696
▁abm	-12697
▁abs	-12698
▁anb	-12699
000	-12700
iac	-12701
▁13	-12702
Pool	-12703
shop	-12704
äfte	-12705
▁Dav	-12706
▁anm	-12707
▁are	-12708
▁bin	-12709
▁dok	-12710
▁dom	-12711
▁dri	-12712
▁dro	-12713
▁end	-12714
▁erd	-12715
▁erf	-12716
▁fin	-12717
▁flü	-12718
▁grö	-12719
▁kah	-12720
▁kat	-12721
▁kre	-12722
▁lin	-12723
▁mei	-12724
▁mut	-12725
▁spe	-12726
▁tes	-12727
▁tur	-12728
▁unk	-12729
▁ves	-12730
▁wod	-12731
▁wün	-12732
▁wür	-12733
▁you	-12734
▁zel	-12735
▁zul	-12736
▁öst	-12737
▁übr	-12738
Arbei	-12739
Court	-12740
Dance	-12741
Famil	-12742
Figur	-12743
Grand	-12744
Kampf	-12745
Kiste	-12746
Lager	-12747
Linie	-12748
Maske	-12749
Mouse	-12750
Obama	-12751
Rampe	-12752
Staub	-12753
Stunt	-12754
Truck	-12755
abell	-12756
adens	-12757
afeln	-12758
after	-12759
aftet	-12760
agere	-12761
agers	-12762
altem	-12763
altim	-12764
aming	-12765
ammut	-12766
ampel	-12767
ampoo	-12768
ancer	-12769
anges	-12770
aniel	-12771
anter	-12772
apper	-12773
arfes	-12774
arrer	-12775
ascht	-12776
astet	-12777
attet	-12778
ayola	-12779
beauf	-12780
becue	-12781
behör	-12782
beißt	-12783
belag	-12784
berry	-12785
bewer	-12786
blüte	-12787
boxer	-12788
bögen	-12789
börse	-12790
chest	-12791
cings	-12792
ckten	-12793
court	-12794
delst	-12795
denkt	-12796
dogge	-12797
dächt	-12798
echer	-12799
tüm	-12800
laib	-12801
ware	-12802
▁MMA	-12803
Skate	-12804
ecken	-12805
eiber	-12806
eißel	-12807
elfer	-12808
elige	-12809
eltem	-12810
eltes	-12811
emmen	-12812
entil	-12813
erkel	-12814
ersen	-12815
euder	-12816
eulen	-12817
falle	-12818
famil	-12819
felds	-12820
figen	-12821
fried	-12822
fsmäß	-12823
füllt	-12824
gabel	-12825
gebir	-12826
gebot	-12827
gehör	-12828
graph	-12829
gtuch	-12830
hafte	-12831
halte	-12832
homas	-12833
ichen	-12834
ichts	-12835
ieger	-12836
ierst	-12837
iesel	-12838
igung	-12839
immte	-12840
indel	-12841
ingsm	-12842
inium	-12843
inkan	-12844
ippie	-12845
irway	-12846
ision	-12847
ittes	-12848
kanal	-12849
katze	-12850
kelle	-12851
kontr	-12852
kraft	-12853
kranz	-12854
kshow	-12855
ktion	-12856
kuppe	-12857
lache	-12858
lanta	-12859
leppe	-12860
leuch	-12861
liegt	-12862
liner	-12863
metik	-12864
mikro	-12865
misch	-12866
motor	-12867
nacht	-12868
neter	-12869
netes	-12870
nungs	-12871
ocher	-12872
olymp	-12873
onial	-12874
otive	-12875
peier	-12876
pphut	-12877
probe	-12878
pumpe	-12879
päckt	-12880
quent	-12881
quert	-12882
rader	-12883
rasse	-12884
reien	-12885
reizt	-12886
reste	-12887
ringe	-12888
rolet	-12889
räfte	-12890
schal	-12891
schle	-12892
shänd	-12893
stalt	-12894
stert	-12895
stöps	-12896
tasse	-12897
uddel	-12898
udelt	-12899
kup	-12900
▁40	-12901
▁@@	-12902
Trock	-12903
große	-12904
ongol	-12905
oodle	-12906
ultiv	-12907
ummes	-12908
umpen	-12909
unekl	-12910
urrit	-12911
ussab	-12912
vater	-12913
veter	-12914
visor	-12915
walze	-12916
weite	-12917
wolle	-12918
ylist	-12919
zange	-12920
zeile	-12921
zeugr	-12922
ßiger	-12923
ägten	-12924
ängel	-12925
änner	-12926
änzen	-12927
ärmer	-12928
ätigt	-12929
äuche	-12930
äufen	-12931
äulen	-12932
önten	-12933
übers	-12934
ülern	-12935
ünste	-12936
üssen	-12937
▁Alum	-12938
▁Banj	-12939
▁Bann	-12940
▁Bauf	-12941
▁Beat	-12942
▁Beil	-12943
▁Beut	-12944
▁Bist	-12945
▁Bott	-12946
▁Bout	-12947
▁Bras	-12948
▁Brok	-12949
▁Brut	-12950
▁Cand	-12951
▁Cape	-12952
▁Care	-12953
▁Cell	-12954
▁Chan	-12955
▁Cher	-12956
▁Chip	-12957
▁Comp	-12958
▁Cost	-12959
▁Cycl	-12960
▁Dojo	-12961
▁Dung	-12962
▁Eide	-12963
▁Eiff	-12964
▁Eisz	-12965
▁Erfr	-12966
▁Eyel	-12967
▁Fant	-12968
▁Fing	-12969
▁Fort	-12970
▁Glüh	-12971
▁Good	-12972
▁Grem	-12973
▁Guck	-12974
▁Halt	-12975
▁Hell	-12976
▁Hind	-12977
▁Hoff	-12978
▁Hoop	-12979
▁Iowa	-12980
▁Kais	-12981
▁King	-12982
▁Komp	-12983
▁Kond	-12984
▁Kräu	-12985
▁Kurz	-12986
▁Kühe	-12987
▁Lead	-12988
▁Lehn	-12989
▁Lein	-12990
▁Lift	-12991
▁Liga	-12992
▁Läng	-12993
▁Mang	-12994
▁Mode	-12995
▁Mole	-12996
▁Morg	-12997
▁Pand	-12998
▁Penn	-12999
tory	-13000
zial	-13001
▁nöt	-13002
▁röt	-13003
Trick	-13004
seilt	-13005
öckel	-13006
ötigt	-13007
▁Bröt	-13008
▁Kürb	-13009
▁Pfau	-13010
▁Pion	-13011
▁Play	-13012
▁Pont	-13013
▁Putz	-13014
▁Quer	-13015
▁Reiß	-13016
▁Samm	-13017
▁Seah	-13018
▁Seel	-13019
▁Sein	-13020
▁Sekr	-13021
▁Sekt	-13022
▁Slum	-13023
▁Snap	-13024
▁Soda	-13025
▁Song	-13026
▁Soße	-13027
▁Spur	-13028
▁Spül	-13029
▁Star	-13030
▁Styl	-13031
▁Tage	-13032
▁Takt	-13033
▁Tang	-13034
▁Teer	-13035
▁Test	-13036
▁Tont	-13037
▁Tort	-13038
▁Trei	-13039
▁Tunn	-13040
▁Vans	-13041
▁Vase	-13042
▁Verz	-13043
▁Voll	-13044
▁Wagg	-13045
▁Warm	-13046
▁Wenn	-13047
▁Wink	-13048
▁Zick	-13049
▁Zune	-13050
▁abpr	-13051
▁abst	-13052
▁anst	-13053
▁arme	-13054
▁baby	-13055
▁bein	-13056
▁bern	-13057
▁bock	-13058
▁dann	-13059
▁drap	-13060
▁eien	-13061
▁entr	-13062
▁erfr	-13063
▁feil	-13064
▁flex	-13065
▁fort	-13066
▁gart	-13067
▁gefl	-13068
▁gere	-13069
▁halt	-13070
▁hant	-13071
▁haut	-13072
▁holl	-13073
▁holz	-13074
▁jede	-13075
▁jähr	-13076
▁kamp	-13077
▁kenn	-13078
▁kill	-13079
▁kitz	-13080
▁klim	-13081
▁kupp	-13082
▁kurv	-13083
▁köst	-13084
▁kühl	-13085
▁laut	-13086
▁leck	-13087
▁leht	-13088
▁lung	-13089
▁läng	-13090
▁mach	-13091
▁mult	-13092
▁neun	-13093
▁nuck	-13094
▁orig	-13095
▁paus	-13096
▁priv	-13097
▁rest	-13098
▁ritt	-13099
Motiv	-13100
prech	-13101
zaust	-13102
▁Budd	-13103
▁gekn	-13104
▁kore	-13105
▁roll	-13106
▁russ	-13107
▁saft	-13108
▁sper	-13109
▁sprü	-13110
▁spät	-13111
▁teur	-13112
▁trag	-13113
▁träg	-13114
▁töpf	-13115
▁umzu	-13116
▁uner	-13117
▁vors	-13118
▁wack	-13119
▁wald	-13120
▁watt	-13121
▁west	-13122
▁zehn	-13123
▁zelt	-13124
▁zerf	-13125
▁zitr	-13126
▁zufr	-13127
▁Äste	-13128
▁ärzt	-13129
Banner	-13130
Cowboy	-13131
Frisur	-13132
Kamera	-13133
Laptop	-13134
Makeup	-13135
Mutter	-13136
Nummer	-13137
Röcken	-13138
School	-13139
Skates	-13140
Tennis	-13141
Thomas	-13142
Wasser	-13143
achtes	-13144
addelt	-13145
affner	-13146
agemut	-13147
agerer	-13148
agerin	-13149
altanz	-13150
amarin	-13151
ampfen	-13152
ankees	-13153
ansäss	-13154
atcher	-13155
atoren	-13156
aubern	-13157
auntes	-13158
babies	-13159
bauten	-13160
bewegt	-13161
bilder	-13162
binden	-13163
blocks	-13164
blüten	-13165
braten	-13166
brauch	-13167
buffet	-13168
bärten	-13169
collie	-13170
dbrett	-13171
deckel	-13172
decker	-13173
dimens	-13174
drehen	-13175
drucks	-13176
dusche	-13177
ebenen	-13178
eidung	-13179
eigtem	-13180
eigten	-13181
einert	-13182
einzel	-13183
ellift	-13184
elpfad	-13185
eltern	-13186
elturm	-13187
ennten	-13188
enster	-13189
erbsen	-13190
erndes	-13191
erseys	-13192
ertage	-13193
estand	-13194
etztes	-13195
fabrik	-13196
fekten	-13197
förmig	-13198
gebuch	-13199
Art	-13200
▁63	-13201
hmte	-13202
züge	-13203
▁UFC	-13204
Coach	-13205
ssteg	-13206
verse	-13207
ydrau	-13208
▁Alph	-13209
▁Deli	-13210
▁Disp	-13211
▁Gips	-13212
▁Situ	-13213
▁Wurz	-13214
▁döst	-13215
▁fügt	-13216
anadas	-13217
anzüge	-13218
dreher	-13219
gehend	-13220
gelbem	-13221
gepäck	-13222
grenzt	-13223
haften	-13224
halter	-13225
haltet	-13226
helden	-13227
hender	-13228
hinder	-13229
ickten	-13230
ieller	-13231
ihosen	-13232
ikaner	-13233
ildren	-13234
immung	-13235
ingsum	-13236
ittert	-13237
jektiv	-13238
jenige	-13239
jubeln	-13240
kabine	-13241
katern	-13242
kegeln	-13243
kronen	-13244
krügen	-13245
kurses	-13246
köpfen	-13247
kühlen	-13248
ladung	-13249
lampen	-13250
lasten	-13251
leeren	-13252
leisen	-13253
leiten	-13254
lenker	-13255
locken	-13256
marsch	-13257
masken	-13258
nassen	-13259
neidet	-13260
netzen	-13261
netzes	-13262
ogerät	-13263
onders	-13264
ordnet	-13265
otheke	-13266
otisch	-13267
otiven	-13268
packen	-13269
pflege	-13270
pfoten	-13271
ppchen	-13272
presso	-13273
presst	-13274
roffen	-13275
schten	-13276
schule	-13277
schwer	-13278
segeln	-13279
seiten	-13280
seraum	-13281
serven	-13282
sessel	-13283
silber	-13284
singen	-13285
sjacke	-13286
skraft	-13287
smotiv	-13288
smütze	-13289
sparty	-13290
spause	-13291
spring	-13292
spuren	-13293
stheke	-13294
sweise	-13295
teriel	-13296
transp	-13297
treter	-13298
tricks	-13299
Auf	-13300
Jump	-13301
uftr	-13302
Pierc	-13303
läden	-13304
wägen	-13305
▁Ethn	-13306
▁Etwa	-13307
▁Jump	-13308
Aufkle	-13309
ologie	-13310
uerten	-13311
ulisse	-13312
unfall	-13313
ungene	-13314
ungert	-13315
ungsst	-13316
ussion	-13317
uvenir	-13318
viewen	-13319
wellen	-13320
wenden	-13321
wender	-13322
wendig	-13323
wetter	-13324
wirren	-13325
wolken	-13326
würfel	-13327
zeiten	-13328
ziegel	-13329
zucker	-13330
zäunen	-13331
ßenden	-13332
ächern	-13333
ämmten	-13334
ängtes	-13335
ärztin	-13336
önheit	-13337
öpfung	-13338
ühmten	-13339
ündeln	-13340
ützten	-13341
▁Akrob	-13342
▁Aktiv	-13343
▁Alarm	-13344
▁Algen	-13345
▁Allee	-13346
▁Amput	-13347
▁Angst	-13348
▁Anspr	-13349
▁Anste	-13350
▁Armut	-13351
▁Astro	-13352
▁Audio	-13353
▁Aufst	-13354
▁Autom	-13355
▁Baden	-13356
▁Bagel	-13357
▁Bande	-13358
▁Belag	-13359
▁Bergs	-13360
▁Biene	-13361
▁Biers	-13362
▁Bikes	-13363
▁Bilds	-13364
▁Binde	-13365
▁Blüte	-13366
▁Boxen	-13367
▁Busse	-13368
▁Bügel	-13369
▁Cater	-13370
▁Chefs	-13371
▁Cockt	-13372
▁Corgi	-13373
▁Court	-13374
▁Dachs	-13375
▁Darth	-13376
▁Delph	-13377
▁Dober	-13378
▁Dünen	-13379
▁Düsen	-13380
▁Einge	-13381
▁Eleph	-13382
▁Elfen	-13383
▁Enden	-13384
▁Faden	-13385
▁Falke	-13386
▁Field	-13387
▁Flyer	-13388
▁Folkl	-13389
▁Force	-13390
▁Franc	-13391
▁Freue	-13392
▁Fäden	-13393
▁Fülle	-13394
▁Gangs	-13395
▁Geist	-13396
▁Gelbe	-13397
▁Glück	-13398
▁Goldt	-13399
Boy	-13400
oppt	-13401
▁96.	-13402
abble	-13403
ündin	-13404
▁Pulk	-13405
▁heft	-13406
gurten	-13407
holfen	-13408
imeter	-13409
kästen	-13410
plakat	-13411
quirlt	-13412
worten	-13413
▁Burka	-13414
▁Dogge	-13415
▁Grass	-13416
▁Hacke	-13417
▁Handm	-13418
▁Haube	-13419
▁Heels	-13420
▁Heine	-13421
▁Hitze	-13422
▁Hoops	-13423
▁Houst	-13424
▁Hunds	-13425
▁Ihrem	-13426
▁Insel	-13427
▁Jacht	-13428
▁James	-13429
▁Johns	-13430
▁Kaffe	-13431
▁Kakte	-13432
▁Kanne	-13433
▁Kawas	-13434
▁Klebe	-13435
▁Korbs	-13436
▁Krieg	-13437
▁Lagen	-13438
▁Laken	-13439
▁Leuch	-13440
▁Linse	-13441
▁Lolli	-13442
▁Luxus	-13443
▁Manns	-13444
▁Mardi	-13445
▁Marsh	-13446
▁Masse	-13447
▁Miene	-13448
▁Minir	-13449
▁Mulch	-13450
▁Männe	-13451
▁Ninja	-13452
▁Notre	-13453
▁Nägel	-13454
▁Nähen	-13455
▁Näher	-13456
▁Opfer	-13457
▁Orten	-13458
▁Oster	-13459
▁Pabst	-13460
▁Papas	-13461
▁Parka	-13462
▁Perle	-13463
▁Pfote	-13464
▁Piano	-13465
▁Pools	-13466
▁Portr	-13467
▁Probe	-13468
▁Pucks	-13469
▁Puten	-13470
▁Reden	-13471
▁Ringe	-13472
▁Räder	-13473
▁Röcke	-13474
▁Samen	-13475
▁Sauer	-13476
▁Schar	-13477
▁Seils	-13478
▁Sense	-13479
▁Sieht	-13480
▁Sitze	-13481
▁Socke	-13482
▁South	-13483
▁Space	-13484
▁Spare	-13485
▁Sperr	-13486
▁Stall	-13487
▁Still	-13488
▁Stolz	-13489
▁Sträu	-13490
▁Stäbe	-13491
▁Suppe	-13492
▁Säcke	-13493
▁Taxik	-13494
▁Tiefl	-13495
▁Tiers	-13496
▁Tubas	-13497
▁Töpfe	-13498
▁Union	-13499
Vide	-13500
stif	-13501
Kitty	-13502
field	-13503
garde	-13504
▁Keks	-13505
garage	-13506
uschef	-13507
wässer	-13508
▁Light	-13509
▁Repor	-13510
▁Unsch	-13511
▁Vader	-13512
▁Veget	-13513
▁Vorsp	-13514
▁Wegen	-13515
▁Weide	-13516
▁Wells	-13517
▁Wolke	-13518
▁Wrest	-13519
▁Zange	-13520
▁Zuges	-13521
▁abend	-13522
▁abgew	-13523
▁allem	-13524
▁alles	-13525
▁anspr	-13526
▁behel	-13527
▁berät	-13528
▁betag	-13529
▁beton	-13530
▁blinz	-13531
▁bowlt	-13532
▁brust	-13533
▁dahin	-13534
▁dient	-13535
▁fehlt	-13536
▁filet	-13537
▁flank	-13538
▁freie	-13539
▁fried	-13540
▁gebau	-13541
▁geern	-13542
▁gerät	-13543
▁grell	-13544
▁guter	-13545
▁hawai	-13546
▁heiße	-13547
▁herzu	-13548
▁heute	-13549
▁hungr	-13550
▁hütet	-13551
▁immer	-13552
▁jeden	-13553
▁karge	-13554
▁kauen	-13555
▁kegel	-13556
▁kippt	-13557
▁klare	-13558
▁kniel	-13559
▁leder	-13560
▁leich	-13561
▁meine	-13562
▁meist	-13563
▁natur	-13564
▁nutzt	-13565
▁nähen	-13566
▁qualm	-13567
▁rasch	-13568
▁rauen	-13569
▁reckt	-13570
▁reiht	-13571
▁salut	-13572
▁schar	-13573
▁scher	-13574
▁schön	-13575
▁sorgt	-13576
▁speit	-13577
▁start	-13578
▁stern	-13579
▁stoch	-13580
▁süßer	-13581
▁techn	-13582
▁toben	-13583
▁tollt	-13584
▁toten	-13585
▁versp	-13586
▁vertr	-13587
▁vorzu	-13588
▁wehen	-13589
▁wehrt	-13590
▁würzt	-13591
▁zertr	-13592
▁Äpfel	-13593
▁überr	-13594
▁üppig	-13595
Familie	-13596
Kämpfer	-13597
Schrift	-13598
Spielen	-13599
free	-13600
ique	-13601
ixer	-13602
▁adr	-13603
esota	-13604
match	-13605
point	-13606
▁Hilf	-13607
ahmten	-13608
nackte	-13609
▁Bears	-13610
▁Bögen	-13611
▁Kiosk	-13612
▁Kopie	-13613
▁atmet	-13614
Steinen	-13615
Strecke	-13616
Traktor	-13617
abenden	-13618
agazine	-13619
ahrzeug	-13620
allenen	-13621
ammkopf	-13622
anlagen	-13623
apelten	-13624
apelter	-13625
apparat	-13626
artiger	-13627
artiges	-13628
artikel	-13629
atteten	-13630
auerten	-13631
ausgang	-13632
azieren	-13633
ballons	-13634
bildung	-13635
blicken	-13636
blondem	-13637
bretter	-13638
builder	-13639
dehnten	-13640
dersitz	-13641
dgerido	-13642
eckigen	-13643
eitigen	-13644
elliert	-13645
emberau	-13646
ersonen	-13647
etching	-13648
fahrene	-13649
fassade	-13650
fischen	-13651
ganlage	-13652
geblich	-13653
gehende	-13654
gemacht	-13655
geregte	-13656
gespann	-13657
gressiv	-13658
haltern	-13659
helmter	-13660
hockern	-13661
idstern	-13662
igieren	-13663
ikultur	-13664
immungs	-13665
inierte	-13666
ionette	-13667
ioniken	-13668
itieren	-13669
itzerei	-13670
kletter	-13671
klötzen	-13672
kolonne	-13673
kräften	-13674
kulisse	-13675
kutsche	-13676
kämpfer	-13677
ladenen	-13678
lastern	-13679
lichten	-13680
löchern	-13681
mustern	-13682
nehmern	-13683
nerstag	-13684
ollegin	-13685
ometern	-13686
oranger	-13687
oranges	-13688
organis	-13689
outfits	-13690
packung	-13691
perücke	-13692
planken	-13693
putztes	-13694
reibung	-13695
rolling	-13696
sammelt	-13697
schacht	-13698
schanze	-13699
koli	-13700
▁WAR	-13701
Clown	-13702
Touch	-13703
▁Tuba	-13704
▁eilt	-13705
▁kürz	-13706
curity	-13707
furcht	-13708
grenze	-13709
iffern	-13710
kühler	-13711
winkel	-13712
öchelt	-13713
▁Kebab	-13714
▁MacBo	-13715
▁Pedal	-13716
▁folkl	-13717
▁melkt	-13718
▁wälzt	-13719
Sooners	-13720
angebot	-13721
scheine	-13722
schiebt	-13723
schiene	-13724
schiffs	-13725
schland	-13726
schrank	-13727
schritt	-13728
schwemm	-13729
schwert	-13730
schürze	-13731
skegeln	-13732
spapier	-13733
sperren	-13734
sperson	-13735
spiegel	-13736
sstelle	-13737
sstunde	-13738
stocher	-13739
straßen	-13740
student	-13741
stunden	-13742
stungen	-13743
ständen	-13744
sängern	-13745
teilung	-13746
tenhund	-13747
tmetall	-13748
treffer	-13749
tribüne	-13750
trinken	-13751
ungturm	-13752
uppiger	-13753
ursacht	-13754
veranda	-13755
verband	-13756
verschm	-13757
violett	-13758
vitrine	-13759
vorlage	-13760
waggons	-13761
wasserr	-13762
zeption	-13763
ziegeln	-13764
ziellen	-13765
zimmers	-13766
üfteten	-13767
ürrisch	-13768
▁Abente	-13769
▁Abflug	-13770
▁Abwehr	-13771
▁Antiqu	-13772
▁Außenb	-13773
▁Baltim	-13774
▁Barrik	-13775
▁Batter	-13776
▁Bauten	-13777
▁Bauvor	-13778
▁Beanie	-13779
▁Beeren	-13780
▁Benzin	-13781
▁Berlin	-13782
▁Betten	-13783
▁Bissen	-13784
▁Blonde	-13785
▁Bohnen	-13786
▁Bonbon	-13787
▁Bongos	-13788
▁Border	-13789
▁Brieft	-13790
▁Brüder	-13791
▁Buches	-13792
▁Bukett	-13793
▁Burrit	-13794
▁Bussen	-13795
▁Bänder	-13796
▁Calvin	-13797
▁Campen	-13798
▁Camper	-13799
EGO	-13800
08“-	-13801
awks	-13802
phäe	-13803
▁Gäs	-13804
▁NER	-13805
World	-13806
pickn	-13807
ywood	-13808
▁1950	-13809
▁Crew	-13810
▁Jagd	-13811
▁Lila	-13812
▁Ohio	-13813
clowns	-13814
fällig	-13815
knäuel	-13816
kränze	-13817
▁Bunte	-13818
▁FedEx	-13819
▁Fotol	-13820
▁Foyer	-13821
▁Lunch	-13822
▁Memor	-13823
▁Tambo	-13824
▁Taste	-13825
▁aktiv	-13826
▁lachs	-13827
▁natür	-13828
▁zapft	-13829
Airways	-13830
Musiker	-13831
aschlik	-13832
erabend	-13833
weifelt	-13834
äologen	-13835
▁Afrika	-13836
▁Araber	-13837
▁Canyon	-13838
▁Capris	-13839
▁Casino	-13840
▁Center	-13841
▁Cheese	-13842
▁Chemie	-13843
▁Chemik	-13844
▁Circus	-13845
▁Dackel	-13846
▁Delfin	-13847
▁Drache	-13848
▁Edelst	-13849
▁Eistee	-13850
▁Entert	-13851
▁Entsch	-13852
▁Extrem	-13853
▁Falken	-13854
▁Felder	-13855
▁Felsab	-13856
▁Ferkel	-13857
▁Feucht	-13858
▁Feuerh	-13859
▁Feuert	-13860
▁Flucht	-13861
▁Flöten	-13862
▁Formal	-13863
▁Formen	-13864
▁Forsch	-13865
▁Fragen	-13866
▁Frisör	-13867
▁Führer	-13868
▁Garden	-13869
▁Gehege	-13870
▁Geigen	-13871
▁Gelbes	-13872
▁Geräts	-13873
▁Gewalt	-13874
▁Gewebe	-13875
▁Giants	-13876
▁Globus	-13877
▁Goalie	-13878
▁Golfen	-13879
▁Grafik	-13880
▁Greyho	-13881
▁Grouch	-13882
▁Großes	-13883
▁Grünes	-13884
▁Hantel	-13885
▁Harlem	-13886
▁Hecken	-13887
▁Hopper	-13888
▁Hundem	-13889
▁Hüften	-13890
▁Hügels	-13891
▁Insekt	-13892
▁Jünger	-13893
▁Kanada	-13894
▁Kanals	-13895
▁Kappen	-13896
▁Kasino	-13897
▁Kimono	-13898
▁Knöpfe	-13899
Guitar	-13900
flaggen	-13901
igeuner	-13902
portler	-13903
▁Cabrio	-13904
▁Coffee	-13905
▁Dienst	-13906
▁Kombis	-13907
▁Krügen	-13908
▁Ladent	-13909
▁Landes	-13910
▁Lanzen	-13911
▁LeBron	-13912
▁Lichts	-13913
▁Lineal	-13914
▁Louvre	-13915
▁Makeup	-13916
▁Mandel	-13917
▁Marker	-13918
▁Mauern	-13919
▁Mexiko	-13920
▁Muslim	-13921
▁Nische	-13922
▁Oliven	-13923
▁Pakete	-13924
▁Parken	-13925
▁Pferch	-13926
▁Preise	-13927
▁Presse	-13928
▁Profil	-13929
▁Profir	-13930
▁Profis	-13931
▁Rechen	-13932
▁Regeng	-13933
▁Requis	-13934
▁Rinder	-13935
▁Rocker	-13936
▁Rockst	-13937
▁Runden	-13938
▁Röhren	-13939
▁Sarong	-13940
▁Schalt	-13941
▁Scooby	-13942
▁Segeln	-13943
▁Selbst	-13944
▁Series	-13945
▁Sieger	-13946
▁Signal	-13947
▁Skispr	-13948
▁Slalom	-13949
▁Sportr	-13950
▁Statur	-13951
▁Stewar	-13952
▁Stocks	-13953
▁Streik	-13954
▁Streit	-13955
▁Stromk	-13956
▁Stromm	-13957
▁Stunde	-13958
▁Stände	-13959
▁Summer	-13960
▁Suppen	-13961
▁Tackle	-13962
▁Tasten	-13963
▁Tatort	-13964
▁Teichs	-13965
▁Teilen	-13966
▁Themen	-13967
▁Trader	-13968
▁Tragen	-13969
▁Tresen	-13970
▁Truthä	-13971
▁Tümpel	-13972
▁Umfeld	-13973
▁Umzugs	-13974
▁Urinal	-13975
▁Verand	-13976
▁Videom	-13977
▁Visier	-13978
▁Vorges	-13979
▁Waggon	-13980
▁Warter	-13981
▁Weißes	-13982
▁Windel	-13983
▁Wonder	-13984
▁Worten	-13985
▁Wälder	-13986
▁Würfel	-13987
▁Würste	-13988
▁Zombie	-13989
▁Zungen	-13990
▁abhebt	-13991
▁achten	-13992
▁angest	-13993
▁aufgeb	-13994
▁aufrei	-13995
▁ausger	-13996
▁auszus	-13997
▁auszut	-13998
▁bausch	-13999
suit	-14000
Bühne	-14001
Kiosk	-14002
Video	-14003
equin	-14004
rümmt	-14005
szöne	-14006
ynyrd	-14007
ümpfe	-14008
▁Hulk	-14009
▁Iglu	-14010
▁Jury	-14011
▁SWAT	-14012
▁ekst	-14013
Goalie	-14014
Stones	-14015
genöss	-14016
schbom	-14017
▁Cadil	-14018
▁Crocs	-14019
▁Gyros	-14020
▁Moves	-14021
▁Story	-14022
▁Unrat	-14023
▁bäckt	-14024
▁chaot	-14025
▁stets	-14026
Gesicht	-14027
flächen	-14028
mwedeln	-14029
tablett	-14030
▁Schiri	-14031
▁alltäg	-14032
▁behaar	-14033
▁beigem	-14034
▁bekann	-14035
▁besser	-14036
▁besten	-14037
▁bevölk	-14038
▁bewaff	-14039
▁braust	-14040
▁breite	-14041
▁coolen	-14042
▁dahing	-14043
▁dehnen	-14044
▁dickem	-14045
▁dunekl	-14046
▁dunkle	-14047
▁dünnes	-14048
▁düster	-14049
▁ebenso	-14050
▁eifrig	-14051
▁einarm	-14052
▁eingef	-14053
▁eingel	-14054
▁einmal	-14055
▁einzut	-14056
▁entspr	-14057
▁erfolg	-14058
▁ergrau	-14059
▁erhöht	-14060
▁erkenn	-14061
▁errich	-14062
▁erwart	-14063
▁faltet	-14064
▁fassen	-14065
▁faszin	-14066
▁festzu	-14067
▁feuern	-14068
▁filmen	-14069
▁flickt	-14070
▁frisst	-14071
▁frühen	-14072
▁furcht	-14073
▁geball	-14074
▁geform	-14075
▁gefähr	-14076
▁gelock	-14077
▁gesatt	-14078
▁gewick	-14079
▁grasen	-14080
▁halben	-14081
▁handge	-14082
▁heißes	-14083
▁helles	-14084
▁herbst	-14085
▁himmel	-14086
▁hispan	-14087
▁inspir	-14088
▁intern	-14089
▁kahlem	-14090
▁knipst	-14091
▁kultur	-14092
▁kuppel	-14093
▁kurzes	-14094
▁könnte	-14095
▁kühlen	-14096
▁leeres	-14097
▁leucht	-14098
▁lieben	-14099
▁YMCA	-14100
ganges	-14101
sarmee	-14102
▁Hijab	-14103
▁Jerus	-14104
▁Jesus	-14105
▁Sesam	-14106
▁Sushi	-14107
▁Zivil	-14108
▁islam	-14109
▁sogar	-14110
▁unkon	-14111
asilian	-14112
behörde	-14113
ikopter	-14114
irthday	-14115
kantine	-14116
kolleté	-14117
konsole	-14118
strengt	-14119
äfelten	-14120
▁Alaska	-14121
▁Engine	-14122
▁Fersen	-14123
▁Flößen	-14124
▁Mammut	-14125
▁Meißel	-14126
▁Needle	-14127
▁Pedale	-14128
▁Ribbon	-14129
▁Risiko	-14130
▁Segway	-14131
▁Sehens	-14132
▁Tomate	-14133
▁Ventil	-14134
▁Völker	-14135
▁angene	-14136
▁erregt	-14137
▁kaltem	-14138
▁kultiv	-14139
▁lilane	-14140
▁linkes	-14141
▁lässig	-14142
▁mobile	-14143
▁platzt	-14144
▁presst	-14145
▁primit	-14146
▁projiz	-14147
▁pusten	-14148
▁reihen	-14149
▁reißen	-14150
▁rettet	-14151
▁riecht	-14152
▁riesen	-14153
▁rodelt	-14154
▁schert	-14155
▁schlür	-14156
▁schock	-14157
▁schürt	-14158
▁sechsk	-14159
▁seilen	-14160
▁sendet	-14161
▁sorgen	-14162
▁speist	-14163
▁spinnt	-14164
▁spritz	-14165
▁später	-14166
▁sticht	-14167
▁stiert	-14168
▁stillt	-14169
▁stürmt	-14170
▁testet	-14171
▁textet	-14172
▁trennt	-14173
▁trotzt	-14174
▁umrand	-14175
▁verlie	-14176
▁vierte	-14177
▁volles	-14178
▁warmem	-14179
▁weiche	-14180
▁wenden	-14181
▁wiegen	-14182
▁worauf	-14183
▁wütend	-14184
▁zeltet	-14185
▁zement	-14186
▁zuerst	-14187
▁zugekn	-14188
▁zuhält	-14189
▁zögern	-14190
▁Ärztin	-14191
▁Ölfass	-14192
Badehose	-14193
Fahrzeug	-14194
Maschine	-14195
Objektiv	-14196
Piercing	-14197
Sandwich	-14198
Schaukel	-14199
▁Hündin	-14200
▁Morgan	-14201
▁dummes	-14202
Schienen	-14203
Torhüter	-14204
Trockner	-14205
achteten	-14206
astelten	-14207
atischer	-14208
chesters	-14209
derseits	-14210
designer	-14211
ditorium	-14212
eligiöse	-14213
elsteine	-14214
eltasche	-14215
ementary	-14216
erbissen	-14217
espieler	-14218
ettessen	-14219
fernrohr	-14220
formator	-14221
frorenen	-14222
früchten	-14223
fuhrwerk	-14224
gefahren	-14225
gelaufen	-14226
gemachte	-14227
gewiesen	-14228
gleitung	-14229
hauseweg	-14230
ichtigen	-14231
iedewerk	-14232
ietnames	-14233
ießkanne	-14234
ischuhen	-14235
isierung	-14236
itterten	-14237
itzender	-14238
kanister	-14239
klapptem	-14240
künstler	-14241
lichtern	-14242
personal	-14243
pfostens	-14244
polizist	-14245
ppentopf	-14246
prechung	-14247
produkte	-14248
programm	-14249
quipment	-14250
rochenen	-14251
rutschen	-14252
sbereich	-14253
schalten	-14254
schaufen	-14255
schießen	-14256
schilder	-14257
schleier	-14258
schminke	-14259
schreibt	-14260
schritte	-14261
schwelle	-14262
schwimmt	-14263
schützer	-14264
sesorten	-14265
skörpern	-14266
spritzen	-14267
spurigen	-14268
steppich	-14269
stöpseln	-14270
trommeln	-14271
underung	-14272
ungsbetr	-14273
vorspiel	-14274
wechseln	-14275
wohnheim	-14276
zeichnen	-14277
zusetzen	-14278
ängstigt	-14279
üchsiger	-14280
▁Abfahrt	-14281
▁Angehör	-14282
▁Angeles	-14283
▁Ankunft	-14284
▁Anspiel	-14285
▁Atlanta	-14286
▁Aufsitz	-14287
▁Auswirk	-14288
▁Auszeit	-14289
▁Basecap	-14290
▁Beamter	-14291
▁Bechern	-14292
▁Begleit	-14293
▁Bergweg	-14294
▁Blicken	-14295
▁Bottich	-14296
▁Boxring	-14297
▁Boxsack	-14298
▁Brauner	-14299
▁Brezeln	-14300
▁Brüsten	-14301
▁Büchert	-14302
▁Chinese	-14303
▁Chirurg	-14304
▁Company	-14305
▁Crayola	-14306
▁Deckeln	-14307
▁Defense	-14308
▁Display	-14309
▁Drahtge	-14310
▁Dutzend	-14311
▁Ehepaar	-14312
▁Elefant	-14313
▁Engelsk	-14314
▁Exponat	-14315
▁Express	-14316
▁Factory	-14317
▁Fairway	-14318
▁Farbton	-14319
▁Feldern	-14320
▁Flannel	-14321
▁Flossen	-14322
▁Frauenb	-14323
▁Freibad	-14324
▁Gebiets	-14325
▁Gebilde	-14326
▁Gebirgs	-14327
▁Gedicht	-14328
[...]
