. 56440
a 49213
in 26825
ein 18855
einem 13713
, 12901
the 10972
eine 9913
und 8934
mit 8844
auf 8753
on 8076
man 7842
mann 7813
is 7543
and 7385
of 6875
einer 6769
with 6180
an 5951
der 5036
frau 4189
woman 3976
die 3952
two 3877
zwei 3873
are 3726
einen 3486
to 3132
people 3121
im 3108
at 2939
wearing 2623
von 2363
young 2280
sich 2274
white 2221
shirt 2212
dem 2145
mädchen 2123
junge 2074
black 2004
his 1969
while 1947
vor 1937
zu 1913
blue 1875
men 1787
steht 1785
sitting 1743
girl 1724
red 1709
boy 1692
dog 1680
männer 1667
den 1632
sitzt 1625
hund 1614
standing 1614
playing 1584
group 1552
person 1513
street 1449
straße 1422
während 1397
down 1392
walking 1378
gruppe 1349
her 1319
hält 1311
spielt 1310
front 1281
das 1262
holding 1237
hemd 1217
ball 1207
hat 1187
personen 1155
über 1129
one 1094
drei 1078
water 1059
eines 1055
three 1055
by 1047
blauen 1007
frauen 994
women 987
kind 986
ist 978
neben 966
roten 960
weißen 957
stehen 945
sitzen 928
spielen 928
am 925
menschen 925
green 924
up 924
aus 915
little 915
for 911
durch 896
child 894
looking 893
bei 886
outside 871
geht 870
as 866
trägt 852
fährt 841
large 841
hand 840
wasser 825
through 813
um 798
kinder 793
yellow 781
kleines 772
children 770
brown 766
macht 747
springt 737
from 729
their 725
into 711
schwarzen 710
kleiner 702
entlang 699
small 671
next 664
other 660
leute 658
park 652
dressed 636
gehen 628
some 626
out 620
over 611
building 603
etwas 584
riding 584
running 581
mehrere 580
orange 579
seinem 578
near 571
oberteil 568
großen 567
jacket 566
around 562
another 562
t-shirt 557
baby 546
jungen 538
field 538
sidewalk 534
beach 521
crowd 521
stand 517
grünen 516
jeans 509
pink 506
stands 502
läuft 499
jumping 493
sits 493
sind 490
behind 489
fahrrad 488
jacke 486
shorts 486
hintergrund 481
kleidung 481
für 480
table 480
freien 478
grass 470
strand 469
luft 467
schaut 462
bike 462
anderen 461
background 460
snow 459
city 458
junger 456
&apos;s 444
girls 442
air 437
hinter 433
sie 431
player 431
nach 426
hut 425
tisch 425
top 422
asian 421
wall 420
looks 420
gelben 415
andere 412
gebäude 408
dogs 406
several 404
that 404
kleine 403
older 403
four 400
dress 399
vier 397
off 397
band 393
wird 387
camera 387
nähe 386
beim 384
talking 382
essen 380
lady 380
something 380
sand 378
schwarzer 376
kleinen 376
soccer 375
menschenmenge 371
skateboard 371
guitar 370
along 370
walks 369
kamera 366
boys 366
hair 365
paar 363
play 363
food 362
working 362
together 361
boden 360
vorbei 356
gras 356
hoch 355
hunde 354
er 354
smiling 353
pool 350
rock 350
schnee 347
restaurant 347
gray 343
rennt 342
game 340
picture 340
has 339
ihre 337
unter 331
car 331
plays 331
it 327
&quot; 325
holds 322
ihren 321
kleid 315
road 314
him 312
bench 310
old 308
pants 307
glasses 306
walk 304
gitarre 303
stage 303
fahren 301
feld 301
sit 301
carrying 300
älterer 299
des 299
couple 299
side 298
rennen 296
bühne 295
sein 293
zusammen 292
draußen 292
ihr 290
them 290
bicycle 287
brille 284
baseball 281
face 281
male 280
tree 279
herum 277
seine 277
race 276
basketball 276
sehen 275
kopf 275
foto 275
taking 275
gehweg 273
each 272
blickt 270
football 270
weißer 268
uniform 267
bank 267
es 267
doing 267
seinen 266
dabei 266
stadt 263
head 263
braunen 261
als 261
watching 261
across 261
dirt 260
guy 260
laufen 259
hose 259
there 259
area 258
-@@ 257
hinunter 257
blond 257
liegt 256
day 255
versucht 253
arbeitet 251
boat 250
jumps 250
hands 248
tragen 247
tennis 246
ground 246
female 245
kids 244
back 243
room 243
performing 241
bus 240
dame 240
wie 239
große 238
team 238
who 238
machen 236
brauner 236
schauen 236
eating 236
lächelt 234
being 233
using 230
orangefarbenen 229
ihrem 229
coat 229
schwarz 228
he 227
striped 227
suit 226
weg 225
under 225
ältere 224
watch 224
horse 223
many 223
ihm 222
arbeiten 221
mouth 221
purple 221
junges 220
store 219
sign 219
long 218
arm 217
wand 217
zeigt 216
bürgersteig 216
this 216
sieht 215
spricht 214
tag 213
halten 212
runs 212
liest 211
unterhalten 209
outfit 209
look 209
players 209
its 208
sunglasses 208
construction 208
reading 207
boot 204
haaren 204
clothing 203
hosen 202
microphone 202
be@@ 201
mountain 200
ocean 199
toy 199
workers 198
dark 198
viele 197
during 197
pferd 196
be 195
sonnenbrille 195
helm 195
zum 194
middle 194
watches 194
climbing 193
rosa 191
gekleidete 191
past 191
seiner 190
grauen 190
elderly 190
ge@@ 189
weißem 189
“ 188
blauem 187
helmet 187
against 187
work 186
bild 185
train 185
dancing 184
gesicht 183
singt 183
window 183
ihnen 181
rides 181
mantel 180
trick 180
or 180
auto 179
„ 178
they 178
chair 178
graffiti 177
about 177
führt 175
covered 175
klettert 174
fußball 174
posiert 174
posing 174
trees 174
felsen 173
darauf 173
wooden 173
having 173
waiting 173
outdoor 173
fünf 172
all 172
five 172
shirts 172
einige 170
befindet 169
spieler 169
swimming 169
getting 168
very 167
blauer 166
floor 166
blau 165
trying 165
anzug 164
baum 164
wirft 164
mikrofon 164
bag 164
raum 163
bar 163
ice 163
colorful 163
fenster 162
schwarzem 161
sehr 161
weiß 160
gekleideter 160
busy 160
arbeiter 159
singing 159
fence 159
line 157
jump 156
meer 155
rotem 155
schwarze 154
ins 154
oder 154
weiße 153
statue 153
wald 153
book 153
pullover 152
roter 151
isst 151
langen 151
frisbee 151
kindern 150
wiese 150
männern 150
stuhl 150
hill 150
cart 150
market 150
laying 150
anderer 149
truck 149
wartet 148
trikot 148
cap 148
tan 148
schild 147
high 147
bright 147
gestreiften 146
hats 146
ride 146
inside 146
big 145
others 145
kitchen 145
motorrad 144
cellphone 144
path 144
grassy 144
bluse 143
parade 143
someone 143
an@@ 142
making 142
springen 141
posieren 141
haar 141
takes 141
body 141
clothes 141
voller 140
werden 140
motorcycle 140
tanzen 139
light 139
umbrella 139
mütze 138
night 138
towards 138
full 138
oberkörper 137
sweatshirt 137
volleyball 137
computer 137
track 137
enjoying 137
brick 137
alter 136
rot 136
bereitet 136
er@@ 136
see 136
buch 136
board 136
metal 135
paper 134
river 134
swing 134
hügel 133
spiel 133
tank 133
shop 133
ready 133
betrachtet 132
zieht 131
surfer 131
she 131
handy 130
warten 130
s 130
blonde 130
zwischen 130
party 130
oben 129
stock 129
open 129
snowboarder 129
sweater 128
piece 128
leuten 127
schläft 127
berg 127
ab 127
colored 127
bäumen 126
geschäft 126
worker 126
art 125
hockey 125
lehnt 124
painting 124
above 124
instrument 123
reitet 123
lake 123
händen 122
dance 122
adults 122
going 122
maul 121
grill 121
run 121
music 121
fluss 120
miteinander 120
beobachtet 120
shopping 120
hard 120
vest 120
snowy 120
spielzeug 119
stick 119
surrounded 119
wave 119
ihrer 118
wagen 118
tanzt 118
phone 118
stone 118
uniforms 118
onto 118
rucksack 117
kleinkind 117
bauarbeiter 117
house 117
cowboy 117
kid 117
subway 117
outdoors 117
crowded 117
lächeln 116
radfahrer 116
couch 116
photo 116
schiebt 115
backpack 115
beside 115
smiles 115
haben 114
pole 114
vom 113
2 113
befinden 112
tasche 112
a@@ 112
seite 112
gegen 112
american 112
set 112
african 112
drinking 112
gear 112
schwimmbecken 111
küche 111
treppe 111
zaun 111
family 111
event 110
skateboarder 109
welle 109
toddler 109
fire 108
police 108
guys 108
gathered 108
rücken 107
ter 107
markt 107
holz@@ 107
kurzen 107
arms 107
hanging 107
flowers 107
fangen 106
asiatische 106
catch 106
bridge 106
away 106
ten 105
zug 105
lot 105
preparing 105
beautiful 105
schneidet 104
familie 103
verkauft 103
zur 103
object 103
steps 103
sleeping 103
costume 103
leaning 103
mitten 102
te 102
großer 102
machine 102
like 102
after 102
fishing 102
trinkt 101
haus 101
rosafarbenen 101
ab@@ 101
bikini 101
versammelt 101
jemand 101
blumen 100
hängt 100
rope 100
fountain 100
plaid 100
e@@ 99
gebäudes 99
erwachsene 99
pose 99
shirtless 99
ihn 98
rocks 98
take 98
brücke 97
rote 97
rodeo 97
adult 97
stairs 97
malt 96
gerade 96
reihe 96
show 96
telefoniert 96
shoes 96
denen 95
belebten 95
spazieren 95
nimmt 95
autos 95
bunten 95
drink 95
umgeben 94
schlägt 94
dock 94
schwimmt 94
blicken 94
selling 94
sunny 94
platz 93
ver@@ 93
winter 93
does 93
forest 93
geländer 92
gewässer 92
new 92
glass 92
setting 92
chairs 92
racing 92
weste 91
gekleidet 91
schneebedeckten 91
fußballspieler 91
hebt 91
vielen 91
sprung 91
freiem 91
tall 91
station 90
mutter 90
teams 90
flag 90
wood 90
putting 90
both 90
corner 90
hemden 89
sonnigen 89
teenager 89
hände 89
fliegt 89
publikum 89
fuß 89
short 89
pushing 89
throwing 89
himmel 88
richtung 88
i@@ 88
equipment 88
have 88
slide 88
ladies 88
between 88
kämpfen 87
seil 87
teil 87
bart 87
hohen 87
grünem 87
weißes 87
sofa 87
public 87
laughing 87
stück 86
herunter 86
dunklen 86
auf@@ 86
ein@@ 86
instruments 86
pictures 85
blaue 84
de@@ 84
kopfbedeckung 84
ski 84
zuschauen 84
plastic 84
ramp 84
view 84
asiatischer 83
zuschauer 83
blondes 83
base 83
orangen 83
bikes 83
which 83
playground 83
fish 83
poses 83
trail 83
woods 83
yard 83
tritt 82
alte 82
überqueren 82
g@@ 82
mannes 82
zeitung 82
schaukel 82
sun 82
concrete 82
beard 82
musik 81
laden 81
marathon 81
midair 81
decke 80
da 80
alten 80
hinauf 80
fest 80
bowling 80
school 80
number 80
bereiten 79
dach 79
hof 79
karierten 79
mauer 79
en@@ 79
skirt 79
seated 79
papier 78
genießt 78
davon 78
schirm 78
reads 78
distance 78
kunststück 77
d@@ 77
laptop 77
stange 77
attire 77
toward 77
get 77
just 77
what 77
bags 77
sechs 76
lacht 76
mittleren 76
zuschauern 76
beer 76
works 76
six 76
bed 76
cooking 76
mitte 75
benutzt 75
boots 75
menge 75
en 75
where 75
vests 75
cutting 75
blond-hair 75
rider 75
großes 74
t 74
in@@ 74
lässt 74
blick 74
einigen 74
court 74
cream 74
buildings 74
left 74
pulling 74
spielplatz 73
e 73
gelber 73
3 73
clown 73
baseballspieler 73
unterhält 73
alters 73
mensch 73
home 73
middle-aged 73
filled 73
zusieht 72
maschine 72
rasen 72
di@@ 72
trinken 72
f@@ 72
fotos 72
; 72
smoking 72
concert 72
box 72
sky 72
cross 72
crossing 72
cliff 72
friends 72
appears 72
lined 72
kostüm 71
nummer 71
nebeneinander 71
nahe 71
zuschaut 71
i 71
bearded 71
edge 71
showing 71
tent 71
spectators 71
mountains 71
few 71
metall@@ 70
nachts 70
bereit 70
aus@@ 70
k@@ 70
zusehen 70
armen 70
veranstaltung 70
treten 70
net 70
lila 70
– 70
make 70
horses 70
mother 70
jersey 70
cars 70
&apos; 69
ende 69
typ 69
land 69
gibt 69
ma@@ 69
ch@@ 69
surfboard 69
gegenstand 69
nearby 69
right 69
scarf 69
performs 69
bier 68
hinten 68
sonne 68
augen 68
führen 68
bereich 68
mund 68
roller 68
scheint 68
versuchen 68
zigarette 68
mo@@ 68
outfits 68
driving 68
carries 68
apron 68
perform 68
tunnel 67
mehreren 67
m@@ 67
coffee 67
fruit 67
shore 67
time 67
leaves 67
mannschaft 66
schürze 66
schal 66
zelt 66
fängt 66
einander 66
- 66
beobachten 66
rampe 66
re@@ 66
biker 66
ing 66
gentleman 66
painted 66
structure 66
parked 66
vendor 66
various 66
cigarette 66
dresses 66
students 66
flagge 65
kniet 65
bett 65
stufen 65
öffentlichen 65
kostümen 65
h@@ 65
beide 65
raucht 65
c@@ 65
trikots 65
no 65
talks 65
cup 65
vehicle 65
goggles 65
younger 65
smile 65
holz 64
tor 64
nicht 64
verschneiten 64
wanderer 64
rotes 64
rutscht 64
s@@ 64
gold 64
ferne 64
betrachten 64
liegen 64
un@@ 64
bottle 64
flying 64
door 64
flower 64
martial 64
drums 64
lying 64
hand@@ 63
grüner 63
end 63
paint 63
kicking 63
flags 63
eyes 63
bathing 63
hit 63
shot 63
erwachsener 62
unten 62
gehsteig 62
schuhen 62
blonden 62
diese 62
werfen 62
parking 62
waves 62
safety 62
rocky 62
swinging 62
newspaper 62
jackets 62
prepares 62
rain 62
leiter 61
grün 61
lachen 61
tennisball 61
gemüse 61
braune 61
drinks 61
außerhalb 61
hot 61
conversation 61
gather 61
different 61
bucket 61
arts 61
practicing 61
costumes 61
gloves 61
indian 61
uses 61
nacht 60
fahrzeug 60
schwarz-weißer 60
u-bahn 60
greift 60
snowboard 60
kleidern 60
em 60
läufer 60
skateboarding 60
ladder 60
cleaning 60
bunch 60
scene 60
competition 60
roof 60
listening 60
reden 59
legt 59
männliche 59
stellt 59
nehmen 59
musiker 59
gelbe 59
surft 59
stühlen 59
bärtiger 59
hold 59
wet 59
blanket 59
items 59
onlookers 59
staring 59
skifahrer 58
kommt 58
tür 58
hilft 58
fotografiert 58
hüten 58
d 58
b@@ 58
cafe 58
gelbem 58
display 58
aufschrift 58
stop 58
cake 58
balls 58
balloon 58
meal 58
pile 58
lawn 58
railing 58
audience 58
bicycles 58
giving 58
empty 58
bull 58
desk 58
da@@ 57
städtischen 57
ufer 57
blaues 57
rutsche 57
pass 57
sonnenuntergang 57
beiden 57
t-shirts 57
match 57
basketballspieler 57
bird 57
guckt 57
leaps 57
suits 57
military 57
dass 56
umgebung 56
damen 56
arbeit 56
leine 56
haare 56
herr 56
lo@@ 56
überquert 56
surfing 56
wedding 56
can 56
bowl 56
sliding 56
gathering 56
sports 56
vegetables 56
pointing 56
klettern 55
streckt 55
nacktem 55
schlagen 55
eimer 55
gelb 55
polizisten 55
versammeln 55
korb 55
schreibt 55
facing 55
way 55
feet 55
streets 55
before 55
competing 55
gets 55
vater 54
pfad 54
de 54
erwachsenen 54
getränk 54
gestreiftem 54
uniformen 54
handschuhen 54
polizist 54
blonder 54
pier 54
plate 54
son 54
platform 54
huge 54
helmets 54
cement 54
speaking 54
mask 54
basket 54
lesen 53
ers 53
sch@@ 53
hammer 53
brunnen 53
westen 53
leeren 53
go 53
same 53
ed 53
class 53
silver 53
bride 53
skier 53
tries 53
coming 53
classroom 53
eis 52
fisch 52
ger 52
badeanzug 52
genießen 52
jacken 52
ausrüstung 52
tricks 52
purse 52
wait 52
climbs 52
father 52
alley 52
traditional 52
sings 52
gelbes 51
ern 51
t@@ 51
garten 51
was 51
york 51
regen 51
asiatischen 51
golf 51
sort 51
ar@@ 51
break 51
y 51
fighting 51
rail 51
kissing 51
counter 51
chasing 51
animal 51
musicians 51
braut 50
ge 50
wobei 50
obst 50
sprechen 50
ohne 50
gekleideten 50
verschiedene 50
feuer 50
fell 50
kaufen 50
schlagzeug 50
deck 50
singen 50
soldaten 50
gegend 50
inmitten 50
la@@ 50
runner 50
happy 50
country 50
tie 50
stroller 50
females 50
schutzhelm 49
grüne 49
pause 49
grauem 49
al@@ 49
stein 49
parkplatz 49
wellen 49
ring 49
schwingt 49
hang 49
arme 49
riesigen 49
starrt 49
regenschirm 49
talk 49
business 49
lights 49
walkway 49
shoulder 49
lap 49
kneeling 49
screen 49
lit 49
sunset 49
throw 49
writing 49
waits 49
tattoo 48
alle 48
sohn 48
konzert 48
schwarzes 48
bergen 48
anderes 48
gebäuden 48
schuhe 48
fallen 48
glas 48
motorradfahrer 48
älteren 48
g 48
block 48
keyboard 48
gemeinsam 48
kinderwagen 48
do 48
waving 48
seen 48
blowing 48
bald 48
christmas 48
attempting 48
violin 48
grünes 47
baustelle 47
jugendlicher 47
offenen 47
straßenrand 47
straßen 47
video 47
lächelnd 47
robe 47
hört 47
straßenecke 47
fans 47
scooter 47
chinese 47
life 47
tables 47
overlooking 47
course 47
skating 47
signs 47
place 47
schoß 46
so 46
se 46
mikrophon 46
le@@ 46
vogel 46
ei@@ 46
kuchen 46
dieser 46
rad 46
zurück 46
umarmt 46
tischen 46
orangefarbener 46
gra@@ 46
jagt 46
arena 46
waren 46
pinkfarbenen 46
van 46
blond-haired 46
urban 46
hole 46
bubbles 46
says 46
artist 46
officer 46
mirror 46
putzt 45
softball 45
fast 45
schen 45
au@@ 45
mi@@ 45
pflanzen 45
gut 45
ts 45
gleich 45
ent@@ 45
krawatte 45
bu@@ 45
setzt 45
ds 45
square 45
o 45
schreibtisch 45
dunkelhäutiger 45
o@@ 45
hoodie 45
stunt 45
giant 45
leans 45
balloons 45
fixing 45
close 45
kurz 44
flasche 44
schatten 44
lkw 44
beton@@ 44
sandalen 44
netz 44
kunden 44
tes 44
repariert 44
vordergrund 44
st 44
finger 44
pitcher 44
karate 44
skate 44
alone 44
made 44
swim 44
faces 44
teenage 44
brunette 44
helping 44
leg 44
collar 44
foreground 44
gym 44
leather 44
umbrellas 44
bahn 43
loch 43
ganz 43
beugt 43
farben 43
gekleidetes 43
fahrrädern 43
ung 43
dreht 43
schlitten 43
stadium 43
fahrradfahrer 43
stiefeln 43
con@@ 43
maske 43
poster 43
podium 43
k 43
gegeneinander 43
kurzer 43
site 43
electric 43
mud 43
asleep 43
enjoy 43
sticks 43
legs 43
brightly 43
meat 43
dancers 43
headphones 43
li@@ 42
einkaufswagen 42
bedeckt 42
verkaufen 42
jemandem 42
gen 42
ziehen 42
reiten 42
lächelnde 42
st@@ 42
fahrrad@@ 42
schwimmen 42
asiatisches 42
schüler 42
balanciert 42
co@@ 42
zimmer 42
schiedsrichter 42
taschen 42
toys 42
footballspieler 42
skiing 42
pferden 42
goal 42
photographer 42
washing 42
sandals 42
among 42
swings 42
makes 42
officers 42
office 42
diving 42
falling 42
passing 42
wears 42
dessen 41
winkt 41
bo@@ 41
lich 41
wasser@@ 41
gerät 41
flip 41
gegenüber 41
weibliche 41
mar@@ 41
z@@ 41
höhe 41
spiegel 41
schläger 41
braunem 41
erde 41
fällt 41
4 41
ca@@ 41
singer 41
males 41
multicolored 41
dark-haired 41
dirty 41
church 41
barefoot 41
hiking 41
musical 41
heads 41
doorway 41
felswand 40
schulter 40
strecke 40
wo 40
zu@@ 40
( 40
schlange 40
halsband 40
klassenzimmer 40
orangefarbenem 40
tem 40
chef 40
club 40
voll 40
surfbrett 40
hellbrauner 40
football-spieler 40
mobiltelefon 40
here 40
performance 40
reaching 40
drawing 40
leash 40
accordion 40
throws 40
canoe 40
picking 40
traffic 40
overall 39
schüssel 39
belebte 39
gerüst 39
badehose 39
sche 39
handstand 39
vor@@ 39
5 39
unbefestigten 39
) 39
bäume 39
helmen 39
beige 39
skater 39
landschaft 39
ecke 39
! 39
kanu 39
oberteilen 39
sen 39
overalls 39
do@@ 39
below 39
row 39
wheel 39
shallow 39
members 39
relaxing 39
digging 39
aussieht 38
davor 38
seines 38
kajak 38
zeigen 38
hoch@@ 38
leuchtend 38
hin 38
haufen 38
ba@@ 38
steigt 38
bein 38
l@@ 38
fa@@ 38
zeit 38
festival 38
redet 38
durchs 38
deep 38
kick 38
garden 38
catching 38
hugging 38
atop 38
shovel 38
catches 38
gives 38
cat 38
microscope 38
passes 38
foot 38
bicyclist 38
kreis 37
tasse 37
flugzeug 37
telefon 37
hunden 37
hängen 37
dreadlocks 37
küsst 37
schaufel 37
um@@ 37
fleisch 37
verschiedenen 37
tanz 37
he@@ 37
gepflasterten 37
steine 37
spaß 37
makeup 37
stadion 37
rennstrecke 37
küssen 37
künstler 37
p@@ 37
kappe 37
schnauze 37
move 37
sweeping 37
resting 37
prepare 37
sleeps 37
shows 37
sled 37
climb 37
fun 37
bat 37
drum 37
leaping 37
flies 37
männlicher 36
farbenfrohen 36
ger@@ 36
schönen 36
grasbewachsenen 36
ra@@ 36
schultern 36
rolling 36
her@@ 36
seifenblasen 36
mikroskop 36
sachen 36
braun 36
tanktop 36
kai 36
asiatisch 36
tochter 36
puck 36
el@@ 36
anzügen 36
lilafarbenen 36
fall 36
lone 36
these 36
pond 36
sculpture 36
individuals 36
trunks 36
desert 36
friend 36
lots 36
splashing 36
upside 36
cold 36
conversing 36
teeth 36
daughter 36
coats 36
photograph 36
bis 35
unter@@ 35
enden 35
fläche 35
kirche 35
kocht 35
n 35
rand 35
café 35
katze 35
akkordeon 35
fußballspiel 35
violetten 35
freunde 35
küste 35
low 35
spielfeld 35
golden 35
sport 35
student 35
carnival 35
jogging 35
held 35
how 35
wrestling 35
customers 35
telescope 35
town 35
gun 35
points 35
underneath 35
tire 35
well 35
plants 35
hellen 34
liche 34
gegnerischen 34
freunden 34
braun-weißer 34
steinen 34
teich 34
lastwagen 34
steigen 34
schaukelt 34
bedient 34
ange@@ 34
unterwegs 34
parkbank 34
gasse 34
licht 34
grauer 34
bemalt 34
nur 34
ringen 34
center 34
studio 34
aussehende 34
cheerleaders 34
dinner 34
local 34
mat 34
cane 34
cyclist 34
opposing 34
themselves 34
project 34
without 34
shoulders 34
ting 34
moving 34
cut 34
dances 34
hiker 34
waters 34
eat 34
including 34
cloth 34
schutzhelmen 33
fahrer 33
sieben 33
beleuchteten 33
umarmen 33
straßen@@ 33
s-@@ 33
hell@@ 33
langem 33
über@@ 33
kommen 33
hauses 33
schwimmbrille 33
trampolin 33
fe@@ 33
reifen 33
chen 33
le 33
entspannt 33
geige 33
heben 33
damit 33
kopfhörer 33
holt 33
blatt 33
jockey 33
flaggen 33
moped 33
opening 33
booth 33
lab 33
crosswalk 33
straw 33
crying 33
pulled 33
infant 33
wooded 33
mural 33
sing 33
fight 33
trampoline 33
matching 33
racket 33
taken 33
produce 33
runners 33
skiern 32
objekt 32
m 32
verwendet 32
ges 32
gebiet 32
jongliert 32
kauft 32
teller 32
museum 32
berge 32
tuch 32
tänzer 32
ss@@ 32
schlamm 32
gen@@ 32
not 32
rest 32
bi@@ 32
hüpft 32
plane 32
teenagers 32
stuffed 32
picnic 32
gymnast 32
covering 32
sewing 32
wear 32
nose 32
bicyclists 32
athlete 32
trash 32
closed 32
attempts 32
led 32
performer 32
surface 32
shoe 32
instrumenten 31
kaffee 31
barfuß 31
grillt 31
fahnen 31
links 31
veranda 31
blumen@@ 31
bläst 31
bauen 31
sitzende 31
bilder 31
reparieren 31
e-@@ 31
dunkler 31
fahrt 31
wettkampf 31
rechts 31
lächelnder 31
feldweg 31
ruht 31
wurf 31
tier 31
taxi 31
fotografieren 31
metall 31
moment 31
klippe 31
ex@@ 31
rollerblades 31
spiel@@ 31
formal 31
schießt 31
rugby 31
books 31
ding 31
hoop 31
skis 31
lays 31
circle 31
ly 31
boxes 31
blouse 31
himself 31
hikers 31
sandy 31
chases 31
cow 31
goes 31
slope 31
balcony 31
pushes 31
lunch 31
help 31
pedestrians 31
third 31
oriental 31
auch 30
schüttelt 30
schlauch 30
vollen 30
sänger 30
werbung 30
goalie 30
mahlzeit 30
bekommt 30
abge@@ 30
schneiden 30
ert 30
position 30
handtasche 30
wüste 30
zeichen 30
nase 30
u@@ 30
beinen 30
hellblauen 30
wandert 30
ender 30
cowboyhut 30
ck@@ 30
verfolgt 30
berührt 30
geschlossenen 30
ber@@ 30
kopftuch 30
instrumente 30
springbrunnen 30
at@@ 30
stein@@ 30
london 30
me@@ 30
lift 30
hockt 30
bar@@ 30
clear 30
aussehender 30
dunkelhäutige 30
becher 30
gucken 30
ps 30
asiate 30
piano 30
hula 30
driver 30
staircase 30
puts 30
log 30
seven 30
turn 30
indoor 30
device 30
bent 30
paved 30
pulls 30
neck 30
speaks 30
bs 29
überfüllten 29
behälter 29
ro@@ 29
bringt 29
tennisspieler 29
reinigt 29
theke 29
blocks 29
auto@@ 29
teppich 29
linken 29
sport@@ 29
gezogen 29
karren 29
personengruppe 29
ho@@ 29
banner 29
sten 29
eren 29
terrasse 29
gi@@ 29
bau@@ 29
skateboards 29
reiter 29
n@@ 29
native 29
nice 29
pot 29
saxophone 29
gate 29
evening 29
wetsuit 29
heavy 29
gentlemen 29
enjoys 29
swims 29
drives 29
shaking 29
grocery 29
marching 29
gel@@ 28
heraus 28
geben 28
amerikanische 28
fahrräder 28
geld 28
ka@@ 28
koch 28
gelegt 28
salto 28
müll 28
traditioneller 28
v@@ 28
öffnet 28
schießen 28
lederjacke 28
ch 28
geländemotorrad 28
felsigen 28
part 28
üben 28
verkehr 28
stehenden 28
umzug 28
p 28
ches 28
auftritt 28
kissen 28
hinab 28
diesem 28
sandwich 28
garage 28
asiaten 28
man@@ 28
pinkfarbenem 28
asiatin 28
sheet 28
pouring 28
kayak 28
ledge 28
jean 28
kicks 28
ship 28
red-haired 28
porch 28
brown-haired 28
puddle 28
protective 28
lies 28
type 28
stream 28
tracks 28
khaki 28
garb 28
fingers 28
waterfall 28
wrapped 28
cloudy 28
fair 28
hangs 28
shaving 28
robes 28
foreign 28
steep 28
dancer 28
laundry 28
gießt 27
kerl 27
skulptur 27
nachdem 27
pferde 27
blätter 27
hellbraunen 27
projekt 27
wäscht 27
tops 27
dieses 27
rothaarige 27
glas@@ 27
taucht 27
: 27
bach 27
balkon 27
schlag 27
der@@ 27
wine 27
mound 27
schnell 27
gleitet 27
fla@@ 27
us 27
untersucht 27
cheerleader 27
kann 27
winterkleidung 27
l 27
zähne 27
blau-@@ 27
sportler 27
min@@ 27
denim 27
c 27
polo 27
kiss 27
poles 27
sale 27
paddling 27
shoveling 27
reaches 27
bread 27
luggage 27
eye 27
red-hair 27
birds 27
checking 27
opposite 27
attached 27
palm 27
backyard 27
sea 27
put 27
shooting 27
soldiers 27
skirts 27
colors 27
airplane 27
pfosten 26
allein 26
paddelt 26
brett 26
braunes 26
stapel 26
farbe 26
bikers 26
bunte 26
beieinander 26
durch@@ 26
kickt 26
zunge 26
schwimmer 26
kunst@@ 26
hals 26
schlafen 26
übt 26
will 26
wurde 26
skateboardfahrer 26
gang 26
bullen 26
ri@@ 26
den@@ 26
stoff 26
hockeyspieler 26
weitere 26
sitzender 26
coach 26
&amp; 26
passanten 26
you 26
kurve 26
tools 26
jerseys 26
flight 26
frame 26
inflatable 26
seat 26
clean 26
curb 26
tongue 26
string 26
wheelchair 26
soldier 26
laugh 26
balancing 26
windows 26
style 26
cones 26
camouflage 26
pavement 26
image 26
beton 25
viel 25
ob 25
ko@@ 25
bra@@ 25
brünette 25
lassen 25
laptops 25
kampfsport 25
berg@@ 25
getränke 25
kon@@ 25
it@@ 25
nassen 25
gräbt 25
teleskop 25
büro 25
silhouette 25
warm 25
bräutigam 25
r 25
fußgänger 25
ler 25
frisch 25
jo@@ 25
sees 25
sh@@ 25
cowboys 25
wettbewerb 25
zeichnet 25
rasiert 25
gezeigt 25
mänteln 25
touristen 25
bahn@@ 25
hören 25
helfen 25
wi@@ 25
vollführt 25
plant 25
ti@@ 25
start 25
magazine 25
bmx 25
moves 25
spray 25
ballerina 25
bubble 25
summer 25
santa 25
pipe 25
living 25
floral 25
tractor 25
happily 25
courtyard 25
eats 25
shade 25
swimsuit 25
try 25
railroad 25
walls 25
juggling 25
stool 25
floating 25
musician 25
buying 25
step 25
curly 25
laughs 25
round 25
fresh 25
fabric 25
raft 25
motorcycles 25
married 25
bottom 25
professional 25
riders 25
sell 25
cyclists 25
kehrt 24
schöne 24
baumstamm 24
verkäufer 24
f 24
arbeitskleidung 24
hinterher 24
ballons 24
fischen 24
kuh 24
schreit 24
bewegt 24
spitze 24
ha@@ 24
matte 24
können 24
stellen 24
benutzen 24
restaurants 24
aufge@@ 24
sitzenden 24
ze 24
geschirr 24
rollstuhl 24
kisten 24
ders 24
turnhalle 24
hotel 24
wasserfall 24
dra@@ 24
ben 24
ort 24
hinaus 24
angelt 24
pizza 24
ke 24
trommel 24
rädern 24
lebensmittel 24
grau 24
geh@@ 24
bringen 24
pe@@ 24
handtuch 24
straßenkünstler 24
bedeckten 24
besen 24
darunter 24
gruppen 24
runden 24
hellhäutiger 24
t-@@ 24
barbecue 24
to@@ 24
neoprenanzug 24
flip-flops 24
backwards 24
boats 24
guard 24
scaffolding 24
carriage 24
surf 24
cheering 24
multiple 24
closeup 24
either 24
acoustic 24
garbage 24
bucking 24
pair 24
marketplace 24
tube 24
groom 24
appear 24
hurdle 24
socks 24
touching 24
nap 24
suspended 24
knee 24
shown 24
bandanna 24
goods 24
pajamas 24
fahr@@ 23
eingang 23
glücklich 23
eln 23
kinder@@ 23
konzentriert 23
du@@ 23
rechten 23
feiern 23
baut 23
pa@@ 23
bekleidung 23
braunhaarige 23
lin@@ 23
hütte 23
we@@ 23
kochen 23
graben 23
acht 23
nahaufnahme 23
schuh 23
sa@@ 23
chinesischen 23
blondem 23
ck 23
ssen 23
ken 23
vorbeigehen 23
sch 23
schwarz-@@ 23
eis@@ 23
entfernt 23
horn 23
sts 23
ball@@ 23
alleine 23
teilen 23
tennisschläger 23
ru@@ 23
umher 23
studenten 23
candy 23
kapuzenpulli 23
jungs 23
berges 23
jagen 23
crew 23
live 23
derby 23
ärmellosen 23
drummer 23
y-@@ 23
verkleidet 23
ons 23
training 23
money 23
sack 23
skates 23
snack 23
post 23
heels 23
mom 23
stove 23
plaza 23
advertisement 23
kneels 23
fenced 23
dining 23
raised 23
underwater 23
hood 23
direction 23
escalator 23
climber 23
animals 23
hooded 23
welding 23
caught 23
long-haired 23
japanese 23
backpacks 23
ging 23
serving 23
airport 23
dry 23
sheep 23
german 23
paints 23
hay 23
landscape 23
towel 23
cked 23
use 23
chain 23
baum@@ 22
waldgebiet 22
geworfen 22
fliegen 22
einge@@ 22
dies 22
offenem 22
lächelndes 22
ku@@ 22
ungen 22
freund 22
gt 22
am@@ 22
linie 22
peace 22
wohnzimmer 22
elt 22
amerikanischen 22
lehnen 22
kalten 22
figur 22
ine 22
d-@@ 22
koffer 22
befestigt 22
texas 22
motorrädern 22
gegenstände 22
trainiert 22
rot-weißen 22
pen 22
abend 22
weit 22
stark 22
treffen 22
indische 22
folgt 22
po@@ 22
fotograf 22
goldenen 22
fi@@ 22
setzen 22
weihnachtsbaum 22
rolltreppe 22
ni@@ 22
ski@@ 22
hin@@ 22
sta@@ 22
jemanden 22
el 22
first 22
eins 22
gewand 22
afrikanische 22
y@@ 22
skatepark 22
bass 22
sets 22
geschäftigen 22
stadtstraße 22
good 22
print 22
2012 22
operating 22
neon 22
grilling 22
things 22
obstacle 22
vehicles 22
brushing 22
gravel 22
seems 22
participating 22
amusement 22
bending 22
individual 22
checkered 22
thrown 22
orchestra 22
teacher 22
referee 22
caucasian 22
decorated 22
athletic 22
examining 22
gemälde 21
silbernen 21
schwarz-weißen 21
schaufelt 21
nähert 21
arbeit@@ 21
rast 21
hölzernen 21
bushaltestelle 21
ling 21
hocke 21
kreuzung 21
weint 21
fri@@ 21
daumen 21
gehalten 21
ten@@ 21
fußball@@ 21
pfütze 21
bücher 21
baseballkappe 21
ausge@@ 21
ihres 21
bewegung 21
bänken 21
speisen 21
angezogen 21
verkauf 21
füßen 21
becken 21
laub 21
kunststücke 21
grün-@@ 21
tief 21
lauf@@ 21
gelehnt 21
streichelt 21
steinmauer 21
wänden 21
decken 21
dunkelhaarige 21
kiste 21
protest 21
si@@ 21
geschenk 21
tattoos 21
plakat 21
gro@@ 21
on@@ 21
theater 21
sonnenbrillen 21
seiten 21
balken 21
steilen 21
schäferhund 21
cra@@ 21
spielern 21
groß@@ 21
bei@@ 21
also 21
bildschirm 21
pitch 21
cello 21
snowboarding 21
basketball@@ 21
jugendliche 21
mannschaften 21
6 21
ckt 21
feier 21
wandbild 21
kahlköpfiger 21
komplett 21
trägerhemd 21
stones 21
1 21
amp 21
king 21
tourist 21
motocross 21
model 21
ropes 21
atv 21
map 21
crouches 21
tub 21
firefighters 21
passengers 21
pit 21
rowing 21
benches 21
harness 21
compete 21
attempt 21
scuba 21
hitting 21
rests 21
cone 21
feeding 21
muddy 21
button 21
hallway 21
only 21
practice 21
tourists 21
chest 21
haircut 21
presentation 21
photographs 21
sharing 21
sticking 21
wagon 21
opponent 21
racer 21
ich 20
gesch@@ 20
cu@@ 20
kletterer 20
ation 20
joggen 20
geparkt 20
scher 20
menschengruppe 20
joggt 20
schmutzigen 20
baseball@@ 20
mützen 20
erten 20
gepäck 20
luftballons 20
jüngeren 20
ur@@ 20
labor 20
schnee@@ 20
ses 20
banjo 20
spritzt 20
for@@ 20
kopfhörern 20
soldat 20
gold@@ 20
zuschauermenge 20
ausgestreckten 20
hürde 20
stift 20
tee 20
getränken 20
vorn 20
schnurrbart 20
scheinen 20
free 20
quarterback 20
j@@ 20
bad 20
al 20
wäsche 20
song 20
graffitis 20
scheibe 20
röcken 20
brust 20
gassi 20
cht 20
umhang 20
malen 20
klavier 20
aufführung 20
bogen 20
langhaariger 20
b 20
hau@@ 20
car@@ 20
sches 20
hugs 20
wunderschönen 20
back@@ 20
schule 20
wa@@ 20
se@@ 20
ar 20
leggings 20
lea@@ 20
form 20
fest@@ 20
gla@@ 20
heißen 20
hindernis 20
cricket 20
schirmen 20
so@@ 20
yoga 20
container 20
ce 20
balance 20
fan 20
college 20
birthday 20
apple 20
material 20
pärchen 20
ahead 20
machinery 20
hall 20
pull 20
but 20
cleans 20
fruits 20
eight 20
ted 20
jumpsuit 20
carpet 20
groups 20
figure 20
ear 20
jungle 20
action 20
mustache 20
motorcyclist 20
navy 20
long-sleeved 20
wire 20
patio 20
racetrack 20
fly 20
tool 20
sink 20
wide 20
policeman 20
headscarf 20
ears 20
speech 20
bathroom 20
guitars 20
sporting 20
herd 19
typen 19
traktor 19
seilen 19
hunde@@ 19
ki@@ 19
einzelner 19
streifen 19
teig 19
hell 19
füllt 19
tet 19
plattform 19
nähmaschine 19
farm 19
städtische 19
blume 19
vi@@ 19
schutzbrille 19
ribbon 19
fro@@ 19
geschäfts 19
bahnsteig 19
aber 19
cor@@ 19
topf 19
szene 19
rudert 19
bowlingbahn 19
john 19
u 19
stehende 19
experiment 19
te@@ 19
beschäftigt 19
violettem 19
mobile 19
fischer 19
il@@ 19
cher 19
vorrichtung 19
vorbeifährt 19
erin 19
kampf 19
kunstwerk 19
rosafarbenem 19
flughafen 19
füße 19
muster 19
herum@@ 19
anlegestelle 19
rubber 19
gitarrist 19
hula-hoop-reifen 19
jeep 19
men@@ 19
älteres 19
gelände 19
chor 19
mädchens 19
nickerchen 19
direkt 19
knien 19
gesäumten 19
bauch 19
me 19
baseballmütze 19
ziel 19
rede 19
sportveranstaltung 19
hi@@ 19
china 19
spielzeug@@ 19
apartment 19
zen 19
schwimm@@ 19
w@@ 19
dicht 19
fol@@ 19
turban 19
angel 19
stretching 19
gar@@ 19
belt 19
e-gitarre 19
lehrer 19
bun@@ 19
torhüter 19
boxer 19
army 19
pilot 19
ks 19
mall 19
col@@ 19
lacrosse 19
sp@@ 19
space 19
bushes 19
read 19
beam 19
snow-covered 19
lane 19
intersection 19
boardwalk 19
discussion 19
ceiling 19
baskets 19
swimmer 19
routine 19
fancy 19
observe 19
beverage 19
stopped 19
narrow 19
bath 19
half 19
petting 19
great 19
indoors 19
shoot 19
dune 19
hillside 19
dark-skinned 19
slides 19
eastern 19
neighborhood 19
crouching 19
tattooed 19
possibly 19
leaving 19
herself 19
smoke 19
trumpet 19
medical 19
vendors 19
horseback 19
sells 19
sh 19
ta@@ 18
spring 18
bowlingkugel 18
einkaufszentrum 18
wischt 18
farbigen 18
aufblasbaren 18
fal@@ 18
schwimmbad 18
sammelt 18
aufs 18
ker 18
geblümten 18
eltern 18
kariertem 18
clowns 18
brot 18
z 18
trompete 18
wein 18
steinigen 18
rucksäcken 18
dinge 18
afrikanischer 18
klein@@ 18
th@@ 18
scht 18
hal@@ 18
gewässers 18
amüsieren 18
angelrute 18
socken 18
blättern 18
foto@@ 18
ster 18
orchester 18
strohhut 18
beißt 18
werkzeug 18
heu 18
schmuck 18
fotografen 18
blau-weißen 18
hinterhof 18
gewehr 18
mithilfe 18
steckt 18
bro@@ 18
schlagzeuger 18
feuer@@ 18
bearbeitet 18
kaut 18
marschiert 18
schwach 18
schwarz-weiß 18
tafel 18
lachend 18
rennwagen 18
handschuh 18
per@@ 18
kette 18
berühren 18
gem 18
regenschirmen 18
bällen 18
els 18
ve 18
keep 18
geschäften 18
geräten 18
spiels 18
or@@ 18
finish 18
licher 18
renn@@ 18
stra@@ 18
anhat 18
chefs 18
schildern 18
mountainbike 18
feuerwehrmänner 18
got 18
com@@ 18
batter 18
computers 18
conference 18
4@@ 18
heart 18
color 18
dead 18
mohawk 18
entrance 18
mixing 18
ched 18
folding 18
helps 18
brush 18
hospital 18
buy 18
fencing 18
tile 18
clay 18
wheels 18
celebrating 18
squatting 18
nets 18
excited 18
ornate 18
youth 18
uniformed 18
cardboard 18
pieces 18
outstretched 18
lay 18
shepherd 18
bottles 18
puppy 18
guitarist 18
choir 18
funny 18
dishes 18
seats 18
buckets 18
maroon 18
bow 18
mostly 18
chase 18
microphones 18
klasse 17
hüte 17
gehende 17
grillen 17
schwenkt 17
cken 17
zeitschrift 17
rahmen 17
bestehende 17
motor 17
blasen 17
schiff 17
fahne 17
riesige 17
ke@@ 17
sucht 17
schweißt 17
mitarbeiter 17
mit@@ 17
schwarz-brauner 17
hü@@ 17
haar@@ 17
beigefarbenen 17
richtet 17
abendessen 17
je@@ 17
graue 17
bluejeans 17
köpfen 17
trainer 17
flachen 17
gri@@ 17
saxophon 17
chten 17
packt 17
kan@@ 17
kegel 17
mitglieder 17
flug@@ 17
jüngere 17
sandstrand 17
dunkelblauen 17
fahrgeschäft 17
hochzeit 17
schul@@ 17
haltung 17
gespräch 17
klettergerüst 17
flüssigkeit 17
drachen 17
dr@@ 17
jahrmarkt 17
treppen 17
tanz@@ 17
hilfe 17
picknicktisch 17
stufe 17
stab 17
ne@@ 17
dj 17
fegt 17
hockey@@ 17
feuerwehrmann 17
ga@@ 17
star 17
patient 17
1@@ 17
tra@@ 17
bau 17
ja@@ 17
offenbar 17
tiger 17
daneben 17
salon 17
spielkleidung 17
gegenseitig 17
hol@@ 17
bare 17
.@@ 17
factory 17
geländemotorradfahrer 17
engine 17
stier 17
wheelie 17
backsteingebäude 17
kopfüber 17
dreck 17
ut@@ 17
blazer 17
bla@@ 17
boards 17
hoops 17
ded 17
castle 17
reflective 17
member 17
sword 17
flipping 17
doctor 17
stack 17
cuts 17
leading 17
sleeveless 17
fisherman 17
ces 17
shed 17
stroll 17
doors 17
rink 17
pick 17
bear 17
rural 17
blows 17
turning 17
spraying 17
we 17
vegetable 17
bars 17
shaped 17
firetruck 17
rough 17
bowls 17
pine 17
polka 17
lines 17
item 17
grinding 17
ethnic 17
float 17
stripes 17
stares 17
library 17
inspecting 17
calf 17
broom 17
coloring 17
viewing 17
smokes 17
spinning 17
scenery 17
furniture 17
storefront 17
boxing 17
geldbörse 16
kerzen 16
körper 16
sportwagen 16
lied 16
operation 16
ter@@ 16
köche 16
paddeln 16
farbenfroher 16
all@@ 16
jeansjacke 16
brandung 16
ers@@ 16
kilt 16
reinigen 16
puppe 16
rollt 16
piste 16
vorne 16
sicht 16
drückt 16
weiß-@@ 16
ren@@ 16
lang@@ 16
bunt 16
bon@@ 16
rot-@@ 16
wandern 16
planscht 16
stangen 16
dri@@ 16
welpen 16
fre@@ 16
arbeits@@ 16
tu@@ 16
treibt 16
plastik@@ 16
wasserflasche 16
computer@@ 16
schlafanzug 16
cape 16
geschäftskleidung 16
dunkelhaariger 16
sanddüne 16
mittag 16
bekommen 16
catcher 16
füttert 16
frisbeescheibe 16
sen@@ 16
stern 16
sängerin 16
noch 16
del@@ 16
r@@ 16
bewölkten 16
grimasse 16
ms 16
waschsalon 16
kampf@@ 16
times 16
messer 16
verlassen 16
war 16
fußballfeld 16
parkt 16
leicht 16
nen 16
ad@@ 16
my 16
wife 16
begutachtet 16
ft 16
wettrennen 16
kalb 16
herab 16
bunter 16
rod 16
bahnhof 16
rennauto 16
entspannen 16
findet 16
statt 16
ballon 16
trainieren 16
jubeln 16
untersuchen 16
pre@@ 16
straßenhändler 16
grasfläche 16
lu@@ 16
lichen 16
inter@@ 16
band@@ 16
marschieren 16
häusern 16
name 16
ene 16
cool 16
badewanne 16
händler 16
turnerin 16
jockeys 16
story 16
per 16
elephant 16
come 16
ac@@ 16
downtown 16
les 16
ble 16
tied 16
broken 16
candles 16
duck 16
approaching 16
intently 16
gas 16
chalk 16
spread 16
card 16
crane 16
parents 16
cking 16
discussing 16
backs 16
emergency 16
motorbike 16
barrel 16
houses 16
dish 16
raises 16
fluffy 16
balding 16
starting 16
lamp 16
balances 16
fix 16
nighttime 16
television 16
jewelry 16
kite 16
stairway 16
overhead 16
plates 16
following 16
reach 16
gymnasium 16
rainy 16
carving 16
pigeons 16
lifting 16
objects 16
clad 16
surrounding 16
naked 16
ct 16
speed 16
listens 16
karte 15
festhält 15
fuß@@ 15
büschen 15
zöpfen 15
booten 15
zusammen@@ 15
esel 15
eingezäunten 15
starren 15
motorroller 15
dazu 15
diskutieren 15
vorüber 15
werkstatt 15
fernglas 15
zahlreiche 15
schieben 15
schubkarre 15
ate 15
näht 15
schaufenster 15
vielleicht 15
han@@ 15
har@@ 15
einrad 15
beine 15
sses 15
hinein 15
löffel 15
teaching 15
braun-schwarzer 15
turner 15
bespritzt 15
flur 15
gleichen 15
lange 15
motorräder 15
gefüllt 15
vögel 15
feuerwehr@@ 15
baumes 15
flo@@ 15
waldweg 15
kurs 15
kapuze 15
ton@@ 15
herunter@@ 15
zt 15
palmen 15
ast 15
leder@@ 15
ziegelmauer 15
pinata 15
mittel@@ 15
gs@@ 15
gten 15
bückt 15
schilder 15
cht@@ 15
los 15
militär@@ 15
orangefarbene 15
wendet 15
ohren 15
fer@@ 15
ö@@ 15
mittagessen 15
suchen 15
fallschirm 15
kor@@ 15
legen 15
mal@@ 15
kameras 15
fußgängerüberweg 15
versammlung 15
na@@ 15
tennisspielerin 15
lounge 15
sportkleidung 15
überprüft 15
fo@@ 15
spielerin 15
stirn 15
logo 15
ruhigen 15
afroamerikaner 15
baseballspiel 15
gewändern 15
blumenmuster 15
maulkorb 15
ans 15
runter 15
nah 15
engen 15
teenageralter 15
tribüne 15
usa 15
2@@ 15
caps 15
kl@@ 15
feiert 15
sand@@ 15
arm@@ 15
et@@ 15
bewundert 15
monument 15
verkleidete 15
eishockeyspieler 15
verlässt 15
hug 15
parasailing 15
lasso 15
bin 15
oranges 15
violine 15
sprinkler 15
scheinbar 15
ea@@ 15
world 15
converse 15
biking 15
shovels 15
hits 15
security 15
odd 15
numerous 15
flowered 15
unicycle 15
lounging 15
directions 15
amongst 15
swimmers 15
control 15
redheaded 15
called 15
protesting 15
participate 15
branch 15
pottery 15
raising 15
more 15
terrain 15
repair 15
wrestle 15
shaved 15
necklace 15
teammate 15
partially 15
engaged 15
headband 15
observing 15
forward 15
smaller 15
thin 15
blow 15
barber 15
follows 15
newborn 15
photos 15
electronic 15
cameras 15
turns 15
present 15
fireman 15
village 15
liquid 15
&apos;t 15
advertising 15
crosses 15
relax 15
wings 15
ping 15
papers 15
corn 15
beneath 15
shades 15
ber 14
rande 14
gleichzeitig 14
kunststoff@@ 14
gummi@@ 14
neue 14
ne 14
rei@@ 14
ente 14
zubereitet 14
turm 14
fahrzeuge 14
cker 14
aufzu@@ 14
grimassen 14
schaufeln 14
pony 14
mel@@ 14
rothaariges 14
fli@@ 14
kindes 14
bauarbeiten 14
glatzköpfiger 14
brauen 14
ä@@ 14
laden@@ 14
jubelt 14
tiere 14
richten 14
dunkel@@ 14
karussell 14
kt 14
gras@@ 14
bälle 14
afroamerikanische 14
sessel 14
ton 14
trommeln 14
ften 14
khakifarbenen 14
ofen 14
busses 14
ere 14
netze 14
nächsten 14
papier@@ 14
achterbahn 14
entlanggeht 14
webt 14
rosafarbene 14
indischer 14
ländlichen 14
vorbeigeht 14
sprüht 14
drinnen 14
lockigen 14
schaukeln 14
schmutz 14
flaschen 14
a-@@ 14
taucher 14
schreiben 14
beanie 14
far@@ 14
fahrrads 14
beleuchtung 14
demonstration 14
collie 14
beginnt 14
stirnband 14
ban@@ 14
rosafarbener 14
karten 14
ir@@ 14
go@@ 14
klatscht 14
gestreiftes 14
stehender 14
flöte 14
kante 14
america 14
khakis 14
bur@@ 14
bibliothek 14
neugeborenes 14
dose 14
hier 14
ben@@ 14
hun@@ 14
hotdog 14
einsamer 14
gläsern 14
landet 14
fahrzeugs 14
tauben 14
monopoly 14
uhr 14
blau-gelben 14
lager@@ 14
teilweise 14
lauf 14
chi@@ 14
stöcken 14
bewegen 14
rock@@ 14
len@@ 14
lobby 14
innen 14
aussehenden 14
produkte 14
reifenschaukel 14
kü@@ 14
paddle 14
bri@@ 14
football@@ 14
holen 14
akustikgitarre 14
klassenraum 14
sk@@ 14
tan@@ 14
rettungswesten 14
modern 14
? 14
greifen 14
11 14
figuren 14
tal 14
target 14
wirbelt 14
radrennen 14
snowboardfahrer 14
flips 14
verdeckt 14
rennens 14
tri@@ 14
monitor 14
tackle 14
os 14
wrestler 14
frei@@ 14
lei@@ 14
# 14
ves 14
asiatinnen 14
listen 14
aquarium 14
gegner 14
wild 14
formation 14
love 14
tea 14
falls 14
dad 14
ally 14
rainbow 14
shakes 14
whilst 14
binoculars 14
billboard 14
steel 14
donkey 14
silly 14
pan 14
skiers 14
repairs 14
job 14
loading 14
cook 14
athletes 14
fake 14
push 14
shining 14
shops 14
carry 14
trailer 14
ful 14
weaving 14
head@@ 14
casual 14
share 14
tower 14
tents 14
cobblestone 14
trunk 14
firemen 14
wading 14
calm 14
splashes 14
interacting 14
guns 14
straight 14
gift 14
machines 14
upon 14
mid 14
receiving 14
most 14
peering 14
slightly 14
rows 14
sted 14
crafts 14
airborne 14
pretty 14
pillow 14
passenger 14
photographed 14
glove 14
leads 14
aisle 14
camel 14
races 14
homeless 14
performers 14
admiring 14
polizei@@ 13
hotdogs 13
kunstwerke 13
dar@@ 13
anlage 13
abends 13
meeres 13
schwert 13
waschen 13
feuerwehrleute 13
anzu@@ 13
tut 13
elefanten 13
chte 13
kamera@@ 13
strickmütze 13
kettensäge 13
stehend 13
wange 13
mülltonne 13
stöcke 13
lernt 13
lau@@ 13
fin@@ 13
computerbildschirm 13
ve@@ 13
fan@@ 13
schi@@ 13
büro@@ 13
geparkten 13
hocker 13
unterwäsche 13
ausstellung 13
bt 13
helme 13
handschuhe 13
asien 13
türen 13
stühle 13
zer@@ 13
spaziergang 13
marktplatz 13
fen 13
fingern 13
gesichtsbemalung 13
gefüllten 13
koch@@ 13
9 13
ohr 13
kli@@ 13
welpe 13
früchte 13
unbefestigte 13
barfüßige 13
außen@@ 13
floß 13
ser 13
putzen 13
stil 13
pack 13
altes 13
waschbecken 13
ken@@ 13
let@@ 13
gehender 13
10 13
abzu@@ 13
gemacht 13
verheiratetes 13
9@@ 13
halstuch 13
rohr 13
plastiktüte 13
u-bahn-station 13
gestikuliert 13
papiere 13
glo@@ 13
langhaarige 13
leckt 13
vorbereitet 13
laufbahn 13
ozean 13
rauch 13
hindurch 13
tier@@ 13
bündel 13
che 13
box@@ 13
grin@@ 13
buffet 13
wind 13
tigen 13
ss 13
hart 13
company 13
ens 13
bilden 13
streicht 13
doll 13
aufnahme 13
dern 13
tänzerin 13
aufmerksam 13
screaming 13
hel@@ 13
lebensmittelgeschäft 13
zi@@ 13
sowie 13
gewickelt 13
musik@@ 13
spar@@ 13
bandana 13
lie@@ 13
ungs@@ 13
nt 13
lan@@ 13
fänger 13
cur@@ 13
pflanze 13
schau@@ 13
gs 13
elmo 13
manche 13
ruhen 13
gelb-@@ 13
ci@@ 13
auditorium 13
olympischen 13
radfahrern 13
mat@@ 13
ei 13
ls 13
surfen 13
age 13
ters 13
ity 13
teen 13
basketballspiel 13
care 13
boxen 13
soda 13
still 13
kayaks 13
ment 13
pro@@ 13
tv 13
venue 13
inlineskates 13
leotard 13
observes 13
spotted 13
studying 13
tropical 13
paddles 13
dusk 13
-like 13
knit 13
saw 13
chainsaw 13
check 13
customer 13
messy 13
carts 13
wheelbarrow 13
nature 13
landing 13
spoon 13
waterway 13
cans 13
tires 13
order 13
oven 13
burgundy 13
coaster 13
examines 13
debris 13
farmer 13
sized 13
eggs 13
praying 13
attention 13
autumn 13
case 13
drill 13
flute 13
if 13
stomach 13
filling 13
places 13
bystanders 13
consisting 13
cups 13
checks 13
entering 13
groceries 13
greyhound 13
lifted 13
telephone 13
barrier 13
waterfront 13
official 13
comes 13
ceremony 13
meeting 13
similar 13
dimly 13
cheer 13
bleachers 13
overweight 13
sailing 13
browsing 13
headed 13
sneakers 13
lead 13
gestures 13
ansieht 12
schwebt 12
gu@@ 12
ju@@ 12
ul@@ 12
maschinen 12
mcdonald 12
turn@@ 12
sandigen 12
treppenstufen 12
männliches 12
schale 12
bel@@ 12
kreuz 12
halle 12
feder@@ 12
kten 12
tour 12
jackett 12
ckten 12
bade@@ 12
kle@@ 12
innen@@ 12
iert 12
badeanzügen 12
zeug 12
fl@@ 12
herumstehen 12
ste 12
terrier 12
hinter@@ 12
waffe 12
aussehen 12
wassers 12
rot@@ 12
ff@@ 12
anhänger 12
ausgestellt 12
aufgestellt 12
schneeanzug 12
augen@@ 12
gericht 12
selbst 12
nach@@ 12
kümmert 12
nebel 12
sprungbrett 12
videospiel 12
tiert 12
rennfahrer 12
range 12
golfball 12
bow@@ 12
gh@@ 12
breakdance 12
vergnügungspark 12
kil@@ 12
rutschen 12
computern 12
zement 12
lampe 12
radio 12
geöffneten 12
0 12
schafe 12
design 12
ell@@ 12
artigen 12
schwimmweste 12
schüsseln 12
tarnkleidung 12
bietet 12
leinwand 12
liegenden 12
braun-weiße 12
glänzenden 12
tablett 12
gegenständen 12
dudelsack 12
müll@@ 12
kasse 12
sm@@ 12
-schild 12
liches 12
betonwand 12
pe 12
pu@@ 12
fu@@ 12
igen 12
passenden 12
traditionellen 12
land@@ 12
st. 12
weil 12
treiben 12
sol@@ 12
professor 12
badezimmer 12
pp@@ 12
verschneite 12
deren 12
em@@ 12
tätowierungen 12
pudel 12
le-@@ 12
spielerisch 12
winter@@ 12
maschendrahtzaun 12
farbener 12
ern@@ 12
schnitzt 12
angel@@ 12
bat@@ 12
prüft 12
tor@@ 12
klaren 12
er-@@ 12
frisur 12
blocken 12
wir 12
tätowierung 12
h 12
gestreifter 12
stößt 12
herz@@ 12
struktur 12
freundin 12
kleider 12
hundes 12
trainingsanzug 12
dunklem 12
mixer 12
kugel 12
kreide 12
heißluftballon 12
stadt@@ 12
tre@@ 12
sti@@ 12
mountainbiker 12
8 12
walmart 12
outdoor-@@ 12
dorf 12
par@@ 12
tracht 12
schleife 12
watet 12
nieder 12
dan@@ 12
tutu 12
amerikanischer 12
sonnenschirm 12
hula-hoop 12
gebeugt 12
hellhäutige 12
jenga 12
rollerskates 12
gesichtern 12
köpfe 12
popcorn 12
bikinis 12
paare 12
parcours 12
orange-@@ 12
fle@@ 12
no@@ 12
ver 12
stall 12
begleitet 12
bemalten 12
ringer 12
3@@ 12
beisammen 12
rings 12
sto@@ 12
arcade 12
ultimate 12
designs 12
quad 12
knöpfen 12
trucks 12
scouts 12
ny 12
cru@@ 12
w 12
cs 12
east 12
jet 12
oranger 12
burning 12
cli@@ 12
tackling 12
ballet 12
bamboo 12
bricks 12
pigtails 12
scooters 12
paperwork 12
iron 12
chicken 12
give 12
boulder 12
wires 12
ties 12
ments 12
rickshaw 12
thumbs 12
clapping 12
exhibit 12
science 12
teal 12
covers 12
ction 12
mic 12
heading 12
puppies 12
gymnastics 12
shadows 12
let 12
cooks 12
merchandise 12
far 12
countryside 12
dough 12
blankets 12
ated 12
newly 12
seem 12
touches 12
games 12
highway 12
bite 12
dust 12
shoppers 12
repairing 12
sed 12
cards 12
placing 12
tray 12
bagpipes 12
wares 12
alleyway 12
handing 12
visiting 12
patterned 12
knife 12
spanish 12
stare 12
drive 12
serves 12
wrap 12
ating 12
pillows 12
rollerblading 12
inspects 12
stops 12
suitcase 12
long-sleeve 12
sweeps 12
newspapers 12
complete 12
tossing 12
forehead 12
visible 12
olympics 12
movie 12
lecture 12
exercise 12
ching 12
knees 12
attending 12
biting 12
tape 12
beverages 12
applying 12
umpire 12
juice 12
ws 12
been 12
shirted 12
skaters 12
snowsuit 12
rad@@ 11
lieferwagen 11
kleinkinder 11
seltsamen 11
herren 11
ampel 11
kre@@ 11
cam@@ 11
grün@@ 11
park@@ 11
örtlichen 11
hohe 11
händchen 11
mitglied 11
schütteln 11
gesehen 11
wohn@@ 11
stellung 11
arzt 11
flauschiger 11
hamburger 11
pfanne 11
kopfschmuck 11
wander@@ 11
unterricht 11
geländewagen 11
ähnlichen 11
fußballdress 11
ure 11
sonnen@@ 11
ker@@ 11
pi@@ 11
jüngerer 11
grills 11
zoo 11
körben 11
baby@@ 11
kran 11
sammeln 11
präsentiert 11
männlichen 11
spritzen 11
lern 11
oni@@ 11
holzbank 11
verkaufsstand 11
leuchtenden 11
verwenden 11
farbenen 11
mischen 11
bekleideter 11
küchen@@ 11
brettspiel 11
schutz@@ 11
japanischen 11
saal 11
rückwärts 11
maler 11
kar@@ 11
essens@@ 11
ent 11
freude 11
pferdeschwanz 11
sitz 11
äu@@ 11
strand@@ 11
wein@@ 11
jugendlichen 11
serviert 11
bekleidete 11
kop@@ 11
feld@@ 11
weiter 11
sse 11
langärmeligen 11
bru@@ 11
rollen 11
stücke 11
fußgängern 11
karton 11
unterschiedlichen 11
skyline 11
bordstein 11
fischt 11
schlagmann 11
erklimmen 11
rafting 11
afroamerikanischer 11
formt 11
mu@@ 11
jeder 11
portrait 11
blood 11
ste@@ 11
babys 11
ie@@ 11
wette 11
chen@@ 11
schulkinder 11
verteilt 11
indem 11
gre@@ 11
digen 11
stiefel 11
orientalische 11
förmigen 11
oberen 11
entgegen 11
fass 11
wasserrutsche 11
säule 11
wakeboard 11
feuerwehrauto 11
ut 11
enen 11
hoher 11
en-@@ 11
eimern 11
füllen 11
streichen 11
tüten 11
locken 11
türöffnung 11
besteht 11
bre@@ 11
säugling 11
ppen 11
lebensmitteln 11
straßenverkäufer 11
hafen 11
teilnehmer 11
lebensmittel@@ 11
namen 11
säge 11
sitz@@ 11
hlen 11
gesprungen 11
spärlich 11
v 11
schlauchboot 11
ansicht 11
kleineren 11
braun-@@ 11
stürzt 11
kostüme 11
überall 11
kes 11
auge 11
obststand 11
konstruktion 11
süßigkeiten 11
leap 11
wunderschöne 11
braunhaariger 11
frauen@@ 11
halb@@ 11
enten 11
bal@@ 11
platte 11
fen@@ 11
flügeln 11
säulen 11
möglicherweise 11
strecken 11
japan 11
vorderseite 11
snacks 11
kerle 11
iel@@ 11
darbietung 11
seattle 11
gepunkteten 11
laborkittel 11
dritte 11
bekleidet 11
pinkfarbener 11
abgeworfen 11
einkaufstasche 11
sparring 11
kol@@ 11
kühl@@ 11
dol@@ 11
swimmingpool 11
sims 11
rechte 11
war@@ 11
gürtel 11
assi@@ 11
touch 11
bl@@ 11
workout 11
transportiert 11
bmx-fahrer 11
richtungen 11
ol@@ 11
innenstadt 11
tige 11
kopf@@ 11
löschen 11
weihnachtsmann 11
werfer 11
th 11
ticket 11
miami 11
hallen@@ 11
turnschuhen 11
eiscreme 11
power 11
ner 11
ließt 11
ipod 11
zone 11
et 11
ale 11
bulldozer 11
7 11
silberfarbenen 11
mop 11
hit@@ 11
film 11
diner 11
hum@@ 11
bouquet 11
morning 11
state 11
wing 11
link 11
artwork 11
patch 11
cre@@ 11
camping 11
trip 11
picks 11
lighted 11
magazines 11
cheek 11
suspenders 11
learning 11
act 11
shoreline 11
dusty 11
traveling 11
underwear 11
placed 11
injured 11
adjusting 11
ways 11
diver 11
african-american 11
rapids 11
ponytail 11
larger 11
firefighter 11
logs 11
folded 11
chatting 11
carefully 11
chess 11
ages 11
craft 11
kayaking 11
teens 11
tiny 11
printed 11
rollerskating 11
cal 11
backdrop 11
swimsuits 11
strange 11
tricycle 11
laundromat 11
creek 11
location 11
sunlight 11
loom 11
speak 11
ged 11
record 11
department 11
rice 11
gathers 11
poor 11
weather 11
floats 11
leaf 11
parachute 11
yarn 11
motorcyclists 11
sides 11
practices 11
watched 11
turquoise 11
descent 11
dives 11
opens 11
black-haired 11
planting 11
passersby 11
crouched 11
mug 11
asians 11
tights 11
snowshoes 11
lifts 11
cage 11
playfully 11
mower 11
involved 11
rally 11
meet 11
point 11
motorized 11
crossed 11
couples 11
celebration 11
surgery 11
aged 11
trolley 11
supplies 11
fashion 11
closely 11
focused 11
torch 11
bauwerk 10
kartons 10
kurze 10
spielzeug-@@ 10
ertes 10
ausflug 10
nasser 10
afrikanischen 10
violett 10
luftballon 10
erdhügel 10
bil@@ 10
klappstuhl 10
dämmerung 10
haus@@ 10
motorhaube 10
frisbee-scheibe 10
tennis@@ 10
schlendert 10
schneit 10
krankenhaus 10
schutzausrüstung 10
kom@@ 10
hills 10
c-@@ 10
einkauf@@ 10
stelzen 10
stolz 10
fasst 10
staubigen 10
erreichen 10
irgend@@ 10
kampfsport@@ 10
ße 10
größeren 10
fel@@ 10
kn@@ 10
ini@@ 10
bindet 10
unordentlichen 10
fische 10
feuert 10
talent 10
menschenansammlung 10
wolken 10
garten@@ 10
gleisen 10
rosa-@@ 10
ausgestreckt 10
spor@@ 10
mülleimer 10
mischt 10
cal@@ 10
stahl@@ 10
herkunft 10
aufgeregt 10
sel@@ 10
mast 10
arch 10
lagerfeuer 10
namens 10
namensschild 10
filmt 10
karate@@ 10
entfernung 10
verzierten 10
schie@@ 10
baseballschläger 10
aneinander 10
lachende 10
niedrigen 10
fra@@ 10
wei@@ 10
öffentlichkeit 10
kurzem 10
kabine 10
gitarren 10
kno@@ 10
eingeschlafen 10
halskette 10
reihen 10
ner@@ 10
zylinder 10
dreirad 10
abgebildet 10
vergnügt 10
perlen 10
vers@@ 10
bühnen@@ 10
vorstellung 10
lächelnden 10
asphalt 10
ebenfalls 10
trifft 10
webstuhl 10
obdachloser 10
kauert 10
geschnitten 10
soll 10
ie 10
bevor 10
wind@@ 10
bändern 10
präsentation 10
kraft 10
passt 10
fabrik 10
schwingen 10
angebracht 10
regnerischen 10
essen@@ 10
lichem 10
medi@@ 10
vortrag 10
meisten 10
wanderweg 10
unteren 10
fächer 10
schminkt 10
geschäfts@@ 10
auslage 10
wal@@ 10
mcdonalds 10
in-@@ 10
fremden 10
ungewöhnlichen 10
landstraße 10
kratzt 10
kel@@ 10
tische 10
angeboten 10
meeres@@ 10
schn@@ 10
kä@@ 10
ziegelwand 10
gefolgt 10
chips 10
gitarristen 10
bildern 10
bergsteiger 10
ing@@ 10
axt 10
notebook 10
schneeschuhen 10
ele@@ 10
sieg 10
potato 10
ziellinie 10
käfig 10
gelassen 10
bildes 10
football-@@ 10
übergewichtiger 10
musikgruppe 10
gr@@ 10
schutzkleidung 10
erzeugnisse 10
rau@@ 10
windhund 10
ot@@ 10
konferenz 10
can@@ 10
leucht@@ 10
zauns 10
laster 10
profi@@ 10
unterrichtet 10
freizeitpark 10
amüsiert 10
zer 10
fröhlich 10
läufern 10
rücksitz 10
holzboden 10
herrn 10
läuferin 10
turnier 10
su@@ 10
fliegenden 10
bestellen 10
kiosk 10
dro@@ 10
oberfläche 10
rückseite 10
fußballmannschaft 10
grand 10
saris 10
ung@@ 10
stump 10
ran@@ 10
ct@@ 10
beladen 10
partie 10
schwarzhaarige 10
bootes 10
film@@ 10
abgestellt 10
marker 10
inline 10
ziegelsteinen 10
domin@@ 10
aufgereiht 10
babies 10
batman 10
dun@@ 10
classic 10
win@@ 10
chemi@@ 10
halloween 10
series 10
fun@@ 10
qu@@ 10
news 10
ard 10
symbol 10
digital 10
tournament 10
toddlers 10
rooftop 10
frozen 10
march 10
tribal 10
nurses 10
shes 10
helicopter 10
handrail 10
mexican 10
thumb 10
maintenance 10
load 10
trashcan 10
branches 10
dge 10
washes 10
stilts 10
belts 10
pins 10
walked 10
creating 10
quickly 10
stepping 10
chopping 10
located 10
asia 10
serve 10
racers 10
scarves 10
earphones 10
sprayed 10
roadside 10
furry 10
hiding 10
brother 10
goat 10
lens 10
pots 10
pping 10
driveway 10
displays 10
pin 10
gaze 10
scaffold 10
chalkboard 10
whom 10
involving 10
pads 10
played 10
speaker 10
cop 10
decorative 10
transportation 10
canvas 10
fully 10
activity 10
contraption 10
facility 10
upward 10
shape 10
workshop 10
turned 10
juggles 10
fur 10
peeking 10
finishing 10
headdress 10
gazes 10
casually 10
ked 10
apart 10
process 10
single 10
icy 10
incline 10
gallery 10
collared 10
gray-haired 10
displaying 10
approaches 10
cute 10
hike 10
amidst 10
valley 10
over@@ 10
sideways 10
embracing 10
cheese 10
numbers 10
surfs 10
guards 10
celebrate 10
products 10
lighting 10
done 10
second 10
bedienen 9
system 9
treppenhaus 9
hu@@ 9
strands 9
schützt 9
liegende 9
heit 9
tru@@ 9
pullunder 9
hübschen 9
felsvorsprung 9
ziegel 9
drei@@ 9
krie@@ 9
fluss@@ 9
hinunter@@ 9
zeitschriften 9
gleis 9
form@@ 9
steile 9
daran 9
entfernen 9
ess@@ 9
tagsüber 9
vorführung 9
einiger 9
vergnügen 9
dahinter 9
betreten 9
welcome 9
passagiere 9
chter 9
flipflops 9
schürzen 9
ori@@ 9
einkaufen 9
straßenarbeiter 9
genen 9
sauber 9
ari@@ 9
del 9
pul@@ 9
hohem 9
cke 9
rikscha 9
bauernmarkt 9
bier@@ 9
grau-@@ 9
aussehendes 9
haut 9
nass 9
schnur 9
gäste 9
kontrolle 9
elektrischen 9
hohes 9
ue 9
teilnehmen 9
schwarz-weißem 9
warmen 9
stromschnellen 9
bir@@ 9
attraktive 9
kämpft 9
tomaten 9
erleuchteten 9
lädt 9
mäht 9
späht 9
uniformierte 9
bett@@ 9
glatze 9
regenmantel 9
diesen 9
eh@@ 9
bzw. 9
protestiert 9
puppen 9
erung 9
san@@ 9
schach 9
musikinstrumente 9
festgebunden 9
plan@@ 9
vorbei@@ 9
schachtel 9
schwarz-weiße 9
losen 9
vorführt 9
lippen 9
endes 9
fü@@ 9
ß@@ 9
bedruckten 9
holzzaun 9
flussufer 9
br@@ 9
autobahn 9
fern 9
herbst@@ 9
schützen 9
kla@@ 9
knie 9
bruder 9
p-@@ 9
einkaufstüten 9
jeweils 9
wel@@ 9
tzen 9
dritten 9
stativ 9
einrichtung 9
herbst 9
k-@@ 9
organi@@ 9
segelboot 9
bewegungen 9
schlammigen 9
heller 9
schneebedecktes 9
aussicht 9
orangefarbenes 9
wasserski 9
flusses 9
piercing 9
g-@@ 9
steintreppe 9
hinterbeinen 9
arbeitern 9
last 9
menschen@@ 9
blockt 9
ey@@ 9
ständer 9
wenn 9
rauchen 9
absperrung 9
wetter 9
rudern 9
vorderen 9
lampen 9
beleuchtet 9
erd@@ 9
gefallen 9
dribbelt 9
uniformierter 9
lernen 9
roll@@ 9
erhobenen 9
schienen 9
patienten 9
kricket 9
tätowierte 9
zeichnen 9
angezogener 9
gepflasterte 9
alt 9
probieren 9
röhre 9
blo@@ 9
peace-zeichen 9
pfeil 9
gru@@ 9
deckt 9
fur@@ 9
weg@@ 9
gelangen 9
ute 9
elle 9
besucht 9
fertig 9
fenstern 9
wagens 9
sor@@ 9
grab 9
kragen 9
völlig 9
darin 9
op@@ 9
boote 9
getroffen 9
felsbrocken 9
gestellt 9
kunst 9
ähnlich 9
bewaldeten 9
tun 9
überprüfen 9
geöffnet 9
fern@@ 9
straßenseite 9
app@@ 9
sun@@ 9
übung 9
weiteren 9
apfel 9
high-@@ 9
än@@ 9
passiert 9
fernseher 9
gelegenen 9
gender 9
schem 9
ausgezogen 9
karohemd 9
clo@@ 9
spaziert 9
pan@@ 9
sea@@ 9
say 9
ser@@ 9
teilt 9
binden 9
elementary 9
ellen 9
fassade 9
boden@@ 9
sicherheitsweste 9
sal@@ 9
essensstand 9
familien@@ 9
betrachter 9
alt@@ 9
bü@@ 9
flugzeugs 9
umringt 9
seichten 9
fenster@@ 9
wasserfläche 9
baseball-@@ 9
lon@@ 9
lokal 9
hübsche 9
steg 9
ell 9
ballon@@ 9
heruntergekommenen 9
würde 9
ns 9
künst@@ 9
außenbereich 9
schneebedeckte 9
parallel 9
luft@@ 9
öffnen 9
bohrmaschine 9
schachteln 9
etwa 9
erende 9
irokesenschnitt 9
backflip 9
beutel 9
platten 9
herr@@ 9
saxofon 9
chinesische 9
dung 9
feier@@ 9
geschwindigkeit 9
neon@@ 9
o-@@ 9
cockpit 9
dritter 9
geschi@@ 9
straßenmusiker 9
win 9
stri@@ 9
gegnerische 9
pub 9
perücke 9
barren 9
kimonos 9
tanzfläche 9
schuss 9
reklametafel 9
kapuzenpullover 9
formeller 9
befahrenen 9
dunk 9
osten 9
university 9
egg 9
begeisterung 9
attra@@ 9
punkt 9
gespannt 9
kulisse 9
snowboards 9
para@@ 9
kneipe 9
fischernetz 9
grand@@ 9
asiat 9
rasenfläche 9
jogger 9
spielers 9
5@@ 9
ic@@ 9
chil@@ 9
anhaben 9
orientalisch 9
cks 9
blin@@ 9
dessert 9
deli 9
spot 9
flannel 9
bend 9
cigar 9
chan@@ 9
out@@ 9
sho@@ 9
dis@@ 9
res 9
foods 9
ator 9
dunking 9
casino 9
down@@ 9
sters 9
gazing 9
almost 9
dive 9
bends 9
hea@@ 9
stoop 9
types 9
strolls 9
decorations 9
jogs 9
pale 9
operates 9
presenting 9
employees 9
aprons 9
service 9
highchair 9
camp 9
adjusts 9
booths 9
farmers 9
section 9
reflection 9
task 9
cing 9
foliage 9
bicycling 9
pathway 9
gardening 9
painter 9
horizon 9
clouds 9
sniffing 9
joy 9
tiled 9
pet 9
breakdancing 9
attractive 9
upset 9
tired 9
raincoat 9
french 9
brass 9
strapped 9
league 9
tags 9
grabbing 9
containing 9
handle 9
cab 9
cellphones 9
id 9
sorting 9
draw 9
bouncing 9
brushes 9
pumpkin 9
tripod 9
shiny 9
scenic 9
pencil 9
chocolate 9
checkers 9
fishes 9
featuring 9
sawing 9
even 9
handed 9
hind 9
butterfly 9
gesturing 9
really 9
beret 9
crowds 9
treat 9
dragging 9
dumpster 9
interesting 9
motion 9
built 9
peer 9
crates 9
cycling 9
chewing 9
ning 9
soap 9
than 9
displayed 9
atm 9
sledding 9
chopsticks 9
monkey 9
menu 9
jumped 9
images 9
short-haired 9
aring 9
sad 9
writes 9
stance 9
curly-haired 9
circular 9
atta@@ 9
tending 9
cloud 9
pattern 9
ducks 9
muzzle 9
afternoon 9
grabs 9
tight 9
belongings 9
cut@@ 9
trench 9
stacked 9
tail 9
cleaner 9
muzzled 9
olympic 9
begins 9
protesters 9
unique 9
heavily 9
jumper 9
wig 9
score 9
riot 9
rifle 9
recording 9
cts 9
bathtub 9
cover 9
hair@@ 9
canadian 9
erhält 8
wippe 8
straßenszene 8
du 8
weiß@@ 8
gläser 8
wildnis 8
brillen 8
farb@@ 8
fußgängerübergang 8
wanne 8
wachmann 8
rührt 8
hubschrauber 8
vier@@ 8
kal@@ 8
satz 8
pri@@ 8
verschieden 8
wegen 8
aufzug 8
knie@@ 8
schwenken 8
ozeans 8
werkzeugen 8
huhn 8
schlendern 8
sche@@ 8
schlucht 8
bürste 8
schwere 8
pinsel 8
sommertag 8
hosenträgern 8
brot@@ 8
umgebenen 8
bürstet 8
sandburg 8
bin@@ 8
seifenblase 8
ufer@@ 8
zurück@@ 8
einzel@@ 8
zuhört 8
hochstuhl 8
blöcken 8
rothaariger 8
ziegel@@ 8
saugt 8
dosen 8
aufblasbare 8
hängematte 8
spiegelbild 8
baseballfeld 8
anweisungen 8
unterhemd 8
esstisch 8
tro@@ 8
dicken 8
grill@@ 8
bagger 8
fahrradhelm 8
seil@@ 8
spielzeugauto 8
bockenden 8
hei@@ 8
fertig@@ 8
gefahren 8
horizont 8
heraushängender 8
weise 8
oping 8
fußboden 8
schlag@@ 8
fels 8
schritt 8
natur 8
hydranten 8
lö@@ 8
text 8
camping@@ 8
verschränkten 8
gitter 8
trockenen 8
mä@@ 8
schals 8
ft@@ 8
kinds 8
marine@@ 8
angezogene 8
eier 8
zielt 8
angels 8
blaskapelle 8
demonstranten 8
dunkelheit 8
legerer 8
ansehen 8
gurt 8
beachvolleyball 8
silberne 8
hr@@ 8
bestehend 8
servieren 8
bit 8
handwerker 8
metallstange 8
tern 8
ereignis 8
denkt 8
gipfel 8
straßenfest 8
versuch 8
farbiger 8
ats 8
handys 8
x@@ 8
leben@@ 8
fischer@@ 8
stu@@ 8
kies 8
pedal 8
inform@@ 8
sägt 8
schöner 8
zuhause 8
football-spiel 8
hüfte 8
jack 8
kra@@ 8
college-@@ 8
staub 8
kürbis 8
einkäufer 8
boarding 8
black@@ 8
washington 8
basketballfeld 8
zelten 8
cola 8
mitspieler 8
anti@@ 8
erer 8
arrangement 8
schnüffelt 8
lecker@@ 8
breiten 8
tur@@ 8
hockeyspiel 8
fernsehen 8
sonnenlicht 8
blau-grünen 8
hause 8
kenn@@ 8
körper@@ 8
linke 8
folgen 8
tisch@@ 8
dekoriert 8
altmodischen 8
cheerleader@@ 8
teten 8
fliege 8
fort 8
tr@@ 8
wahrscheinlich 8
dieselbe 8
schutt 8
la 8
irgendeinem 8
chern 8
nun 8
pt 8
teenagern 8
rockband 8
vorsichtig 8
sporthalle 8
geschoben 8
elektronischen 8
gebaut 8
geräte 8
papa 8
polohemd 8
lands 8
betonmauer 8
holzbrett 8
ppe 8
reicht 8
start@@ 8
taube 8
porträt 8
bodysuit 8
tete 8
sweatshirts 8
schnappt 8
gewinnen 8
buchstaben 8
gestreifte 8
betet 8
stelle 8
schuh@@ 8
mer 8
pistole 8
chs 8
schaf 8
mau@@ 8
gehstock 8
sur@@ 8
gan@@ 8
getreide 8
kr@@ 8
eingewickelt 8
hochge@@ 8
information 8
hinauf@@ 8
wache 8
ziegelgebäude 8
meißelt 8
pper 8
hero 8
regen@@ 8
gold-@@ 8
ladung 8
brennende 8
tennisplatz 8
zeremonie 8
gelb-schwarzen 8
zusammenge@@ 8
kopfbedeckungen 8
muskulöser 8
japan@@ 8
rot-schwarzen 8
angehalten 8
end@@ 8
main 8
telefonieren 8
gespielt 8
holzkonstruktion 8
deli@@ 8
onen 8
zahl 8
headset 8
pferde@@ 8
nackte 8
gießen 8
pult 8
bet@@ 8
ur 8
beißen 8
lt 8
wasserbecken 8
stadtpark 8
deck@@ 8
fahrzeugen 8
hüpfen 8
faulenzen 8
ruder 8
budd@@ 8
kamm 8
windhunde 8
nummern 8
telefonzelle 8
ziegelbau 8
probiert 8
sting 8
graues 8
indien 8
kämpfer 8
on-@@ 8
geri@@ 8
pizzeria 8
frischem 8
gymnastik@@ 8
ethni@@ 8
kajakfahrer 8
wassersprenger 8
hän@@ 8
fontäne 8
vögeln 8
ss-@@ 8
bush 8
afrikaner 8
sicherheitswesten 8
island 8
sion 8
pain 8
ang@@ 8
kegeln 8
indi@@ 8
zündet 8
steinbank 8
trocknet 8
kampfsportler 8
wollmütze 8
erte 8
skatet 8
gol@@ 8
rugbyspieler 8
body@@ 8
forscher 8
wash 8
ali@@ 8
puzzle 8
schloss 8
gleichgewicht 8
finger@@ 8
sari 8
anzahl 8
zahnbürste 8
strumpfhose 8
feuerstelle 8
rostigen 8
zuge@@ 8
bongo 8
orientalischer 8
test 8
ster@@ 8
weiterer 8
gers 8
waschmaschine 8
canyon 8
minivan 8
footballspiel 8
husky 8
kompletter 8
schmalen 8
taxis 8
obama 8
begeistert 8
haltend 8
sin@@ 8
gemüse@@ 8
kajaks 8
mü@@ 8
eishockey 8
8@@ 8
ladefläche 8
geschmückt 8
karierter 8
slam 8
nahen 8
geldautomaten 8
gehüllt 8
ven 8
spielsachen 8
grünfläche 8
darüber 8
möchte 8
hellgrünen 8
volleyballspieler 8
backsteinmauer 8
rugs 8
ite 8
ruhig 8
cowgirl 8
bord 8
ware 8
6@@ 8
che@@ 8
baseman 8
europa 8
boston 8
metal@@ 8
fish@@ 8
ford 8
ance 8
dig 8
suv 8
boogie 8
erklimmt 8
tion 8
fackel 8
starbucks 8
soeben 8
smartphone 8
facial 8
marathonläufer 8
lion 8
broad 8
circus 8
ad 8
fashioned 8
bus@@ 8
rosaroten 8
fedora 8
x 8
coun@@ 8
mani@@ 8
monk 8
return 8
badminton 8
cro@@ 8
earth 8
cast 8
ce@@ 8
chin 8
but@@ 8
british 8
barefooted 8
much 8
too 8
forested 8
fat 8
scrubs 8
napping 8
darkened 8
ped 8
bles 8
teammates 8
hur@@ 8
somewhere 8
strolling 8
cries 8
surgical 8
spins 8
plain 8
had 8
skills 8
redhead 8
transit 8
amount 8
vending 8
labeled 8
cluttered 8
hammock 8
shaggy 8
masks 8
splashed 8
waiter 8
staff 8
stuff 8
stuck 8
companion 8
stretches 8
hawaiian 8
hydrant 8
campfire 8
draped 8
white-@@ 8
fore@@ 8
shadow 8
midst 8
synchronized 8
skinny 8
squeezing 8
cherry 8
washer 8
lips 8
rug 8
underground 8
unhappy 8
protect 8
medium 8
downhill 8
cted 8
variety 8
projector 8
punch 8
purses 8
package 8
mix 8
sailboat 8
accident 8
artists 8
signing 8
candle 8
sc@@ 8
travel 8
wh@@ 8
wheeled 8
directing 8
lively 8
mid-@@ 8
fountains 8
pocket 8
buried 8
waist 8
because 8
ations 8
banners 8
cheerleading 8
eing 8
canoes 8
gown 8
bundle 8
stringed 8
mess 8
iling 8
judges 8
easel 8
beads 8
peers 8
filming 8
cally 8
harmonica 8
crayons 8
skies 8
unusual 8
warehouse 8
photographers 8
lanterns 8
daytime 8
tying 8
bridesmaids 8
laboratory 8
sprays 8
industrial 8
european 8
camels 8
homemade 8
vintage 8
when 8
pours 8
ty 8
conductor 8
muscular 8
-up 8
looked 8
tackled 8
hardwood 8
establishment 8
abandoned 8
columns 8
trains 8
gesture 8
product 8
kisses 8
india 8
hammering 8
nail 8
commercial 8
speeding 8
notes 8
employee 8
bedroom 8
figures 8
tug-of-war 8
spotlight 8
acrobatic 8
nails 8
toothbrush 8
draws 8
packed 8
religious 8
air@@ 8
bartender 8
il 8
crashing 8
create 8
waterskiing 8
destination 8
doesn 8
fields 8
followed 8
lining 8
loaded 8
murky 8
victory 8
pay 8
navigates 8
carrier 8
canal 8
drawn 8
human 8
dot 8
europe 8
ballett@@ 7
gefleckter 7
mehrfarbigen 7
packen 7
neuen 7
schwebebalken 7
geländefahrzeug 7
supermarkt 7
hundespielzeug 7
gesichts 7
pick@@ 7
hockey-@@ 7
blondhaariger 7
gern 7
stammeskleidung 7
mehr@@ 7
pullovern 7
fahrenden 7
tropischen 7
badehosen 7
zwei@@ 7
sandhügel 7
speer 7
volkswagen 7
mascara 7
parks 7
warnweste 7
untergrund 7
aufdruck 7
uns 7
kur@@ 7
videokamera 7
befahrene 7
kartenspiel 7
zimmer@@ 7
irgendwo 7
benen 7
ed@@ 7
skateboard-@@ 7
stehendes 7
gabel 7
grube 7
artikel 7
kutsche 7
kunde 7
hinteren 7
arran@@ 7
aufeinander 7
farbige 7
fang 7
bleiben 7
brechen 7
vogelperspektive 7
eilen 7
schülerin 7
fliesen 7
stro@@ 7
schutz 7
schlafend 7
ky 7
ü@@ 7
anzusehen 7
hackt 7
arti@@ 7
motocross-@@ 7
bb@@ 7
trottet 7
schenkt 7
tten 7
12 7
kellner 7
türkisen 7
maskottchen 7
disney 7
rolle 7
burgunderroten 7
musikinstrument 7
tt@@ 7
afroamerikanisches 7
krabbelt 7
tisches 7
eislaufen 7
kümmern 7
nassem 7
ladens 7
schwertern 7
fischmarkt 7
steaks 7
bleibt 7
golf@@ 7
lach@@ 7
video@@ 7
auszu@@ 7
hof@@ 7
räumen 7
mark@@ 7
chtet 7
wasserstraße 7
versteckt 7
dreh@@ 7
kaffeetasse 7
kabeln 7
zutaten 7
rü@@ 7
sst 7
weiblichen 7
deutsche 7
ziege 7
griff 7
stre@@ 7
dunkel 7
deh@@ 7
spiegel@@ 7
pf@@ 7
hochzuklettern 7
baums 7
sicherheits@@ 7
flü@@ 7
silber@@ 7
einfahrt 7
anzeige 7
pen@@ 7
mehr 7
sten@@ 7
geflochtenen 7
aktentasche 7
schlafendes 7
rin@@ 7
gerichtet 7
kostümierte 7
einzu@@ 7
grau@@ 7
ley 7
tur 7
uch 7
zentrum 7
plüschtier 7
ringkampf 7
bahnen 7
handtaschen 7
riesen@@ 7
betonstufen 7
felsens 7
spielplatz@@ 7
see@@ 7
alkohol 7
baumstumpf 7
frische 7
regnet 7
kin@@ 7
hacken 7
sortiert 7
block@@ 7
entweder 7
mer@@ 7
regelt 7
stunde 7
langes 7
geschäft@@ 7
tankstelle 7
cher@@ 7
technik 7
dünnen 7
freut 7
glückliche 7
len 7
cheerleaderin 7
hl@@ 7
chinesischer 7
solo 7
baskenmütze 7
volleyballspiel 7
die@@ 7
gte 7
kurz@@ 7
wassermelonen 7
anderem 7
voran 7
gefangen 7
profi-@@ 7
stellten 7
friseur 7
hervor 7
lab@@ 7
ganzen 7
angeln 7
kanus 7
kam@@ 7
krug 7
aller 7
braunhaariges 7
kö@@ 7
garn 7
modernen 7
stan@@ 7
beten 7
staubsauger 7
barfüßiger 7
geldbeutel 7
palme 7
klappstühlen 7
wilden 7
-hemd 7
halb 7
kameramann 7
gletscher 7
behand@@ 7
mess@@ 7
tte 7
einfachen 7
staffelei 7
des@@ 7
meter 7
star@@ 7
winterjacke 7
beginn 7
parken 7
bullenreiter 7
leger 7
tellern 7
herunterge@@ 7
mini-@@ 7
innenraum 7
promenade 7
heran@@ 7
produkt 7
nackter 7
gegn@@ 7
frisch@@ 7
laternen 7
ordnung 7
brautjungfern 7
punk@@ 7
tz@@ 7
frü@@ 7
wüsten@@ 7
zeitungen 7
pfeife 7
fer 7
schlittschuhen 7
flammen 7
violetter 7
bee 7
krei@@ 7
län@@ 7
fußballteam 7
schließen 7
laufband 7
gesichtsausdruck 7
karten@@ 7
inhalt 7
euro 7
u-bahn-@@ 7
pfadfinder 7
lou@@ 7
felsklippe 7
dige 7
cat@@ 7
rag 7
motiv 7
baumstämmen 7
passagieren 7
leitet 7
ruderboot 7
kunstgalerie 7
tig 7
mannequin 7
dach@@ 7
fernseh@@ 7
wohnung 7
rot-weißes 7
stamm 7
regal 7
fröhliche 7
bell@@ 7
gemusterten 7
einsamen 7
hocken 7
haarschnitt 7
rosen 7
kat@@ 7
einheimischer 7
nachmittag 7
footballfeld 7
snap 7
sooners 7
lets 7
abend@@ 7
zügen 7
waffel 7
team@@ 7
stand@@ 7
gelt 7
faulenzt 7
lichtern 7
geb@@ 7
ausgebreitet 7
ado@@ 7
schla@@ 7
strom 7
rück@@ 7
reflektierenden 7
begriff 7
cheerleadern 7
kamel 7
übungen 7
nis 7
segelt 7
wor@@ 7
jeansshorts 7
gei@@ 7
rasenmäher 7
stem 7
irgendeiner 7
zugs 7
ht 7
piercings 7
segel@@ 7
lers 7
habseligkeiten 7
badekappe 7
ney 7
frischen 7
seichtem 7
brennenden 7
führung 7
modell 7
interagieren 7
chip 7
ren 7
steuert 7
berglandschaft 7
geln 7
sli@@ 7
sommer@@ 7
blau@@ 7
red-@@ 7
viertel 7
volle 7
hook 7
fertigt 7
kasten 7
herzen 7
getragen 7
schleift 7
umzäunten 7
tippt 7
mon@@ 7
those 7
muss 7
fe 7
klein 7
musikinstrumenten 7
legos 7
pflasterstraße 7
werk 7
lebensmittelmarkt 7
hochhackigen 7
flie@@ 7
wieder 7
ktion 7
schülern 7
ai@@ 7
ober@@ 7
geste 7
weiß-schwarzer 7
häuser 7
genden 7
säubert 7
motocrossfahrer 7
randstein 7
ck-@@ 7
dirigiert 7
ausgebreiteten 7
wanderung 7
modell@@ 7
blech@@ 7
straßenrennen 7
cats 7
kehren 7
cafeteria 7
wählt 7
don@@ 7
badet 7
pfen 7
möwen 7
kittel 7
albern 7
backsteinstraße 7
müllcontainer 7
san 7
hil@@ 7
xylophon 7
dia@@ 7
stofftier 7
twister 7
ler@@ 7
tänzern 7
ukulele 7
wand@@ 7
fter 7
vo@@ 7
rodeoreiter 7
lilafarbener 7
zigarre 7
spielerinnen 7
historischen 7
tauziehen 7
friedenszeichen 7
wintertag 7
ll 7
zelt@@ 7
ly@@ 7
brü@@ 7
radfahren 7
model@@ 7
outfielder 7
katzen@@ 7
applau@@ 7
inse@@ 7
stadtszene 7
trüben 7
ige 7
bricht 7
pro 7
kanal 7
frog 7
khakifarbener 7
superman 7
startlinie 7
dre@@ 7
skateboarders 7
traditionelle 7
spielenden 7
shake 7
gesäumte 7
pin@@ 7
bunny 7
designer 7
im@@ 7
einkaufstaschen 7
objekte 7
gent@@ 7
hinweg 7
zeichnung 7
senior 7
swan 7
kite@@ 7
zurecht 7
bull@@ 7
u-bahnstation 7
rush 7
hour 7
boxers 7
chinatown 7
motor@@ 7
conce@@ 7
unicef 7
sleep 7
podest 7
punk 7
ops 7
boss 7
stars 7
ry 7
zweite 7
verteidiger 7
angefeuert 7
vel@@ 7
stunts 7
bronco 7
cardigan 7
slacks 7
husband 7
though 7
supermarket 7
meadow 7
crops 7
railings 7
ddles 7
tubes 7
rustic 7
starring 7
frying 7
woodland 7
adorned 7
workman 7
completing 7
trophy 7
nude 7
mouths 7
written 7
may 7
fork 7
complex 7
lush 7
stores 7
puppet 7
late 7
visor 7
cotton 7
find 7
mitt 7
feather 7
marble 7
trotting 7
od 7
thick 7
mascot 7
parent 7
fog 7
patrons 7
coa@@ 7
beating 7
resort 7
own 7
mowing 7
desks 7
crawls 7
legged 7
elder 7
policemen 7
ends 7
bling 7
conducting 7
purchase 7
ingredients 7
tracksuit 7
eling 7
dryer 7
environment 7
pped 7
mountainous 7
divers 7
pointed 7
zed 7
level 7
call 7
laid 7
separate 7
measuring 7
pans 7
sy 7
colorfully 7
support 7
raining 7
foggy 7
vacuum 7
stripe 7
beers 7
picket 7
fuzzy 7
pirate 7
gui@@ 7
advertisements 7
were 7
shawl 7
watermelons 7
presents 7
illuminated 7
shower 7
blower 7
punching 7
peaks 7
social 7
maybe 7
contest 7
bra 7
turkey 7
pigeon 7
casting 7
comfor@@ 7
discuss 7
acting 7
cigarettes 7
bounds 7
rolls 7
loa@@ 7
cameraman 7
harbor 7
bananas 7
guide 7
tarp 7
begin 7
crosscountry 7
our 7
squats 7
aqua 7
newlywed 7
warming 7
arrow 7
marked 7
barrels 7
surfers 7
seafood 7
barely 7
treadmill 7
sold 7
exercising 7
leopard 7
rafts 7
activities 7
monitors 7
temple 7
rails 7
oil 7
flock 7
battle 7
silhouetted 7
cave 7
chased 7
reception 7
hispanic 7
posed 7
quiet 7
bows 7
vibrant 7
daily 7
examine 7
named 7
fetch 7
backseat 7
entertain 7
seating 7
ys 7
dinosaur 7
strings 7
cannon 7
wilderness 7
accompanied 7
greyhounds 7
exiting 7
pops 7
ors 7
instru@@ 7
character 7
topless 7
sunbathing 7
mounted 7
fill 7
disc 7
fireworks 7
grinds 7
gg@@ 7
typing 7
licking 7
striking 7
poodle 7
skydiving 7
medieval 7
framed 7
yed 7
nine 7
drying 7
await 7
year 7
designed 7
characters 7
pyramid 7
vacuuming 7
sleeves 7
necklaces 7
ordering 7
axe 7
blurred 7
xylophone 7
amid 7
wrestlers 7
scientist 7
doctors 7
dolls 7
travels 7
speeds 7
sidelines 7
fellow 7
prepared 7
confetti 7
ced 7
upwards 7
sculptures 7
defender 7
entlang@@ 6
klarinette 6
außen 6
poli@@ 6
zeit@@ 6
gerichteten 6
bohrt 6
eisk@@ 6
hochzeitstorte 6
labrador 6
ansammlung 6
nudeln 6
zug@@ 6
fußweg 6
jeans@@ 6
dober@@ 6
schaum 6
bedeckter 6
hren 6
taucheranzug 6
dä@@ 6
warnwesten 6
klassi@@ 6
bess@@ 6
wald@@ 6
strandpromenade 6
ka 6
bares 6
bordsteinkante 6
fackeln 6
dum@@ 6
mes 6
reparaturen 6
karateanzug 6
schwimmflügeln 6
tiefes 6
brief@@ 6
bö@@ 6
dekorationen 6
eisenbahn@@ 6
schiene 6
stroh@@ 6
betonbank 6
op-@@ 6
busch 6
ufers 6
balgen 6
spielzeuge 6
karate-@@ 6
unaufgeräumten 6
lohfarbener 6
hochzeitskleidung 6
öl@@ 6
kul@@ 6
leu@@ 6
ärmellosem 6
wände 6
gürteln 6
zuckerwatte 6
mehrfarbige 6
knö@@ 6
rot-weiß-@@ 6
klatschen 6
karaoke 6
spielzeugen 6
marmor@@ 6
masken 6
hemdbluse 6
amboss 6
billard 6
bücherregal 6
metallzaun 6
q 6
pel@@ 6
schließt 6
gitarren@@ 6
reifen@@ 6
natur@@ 6
personal 6
bestellt 6
akustische 6
streich@@ 6
begleiter 6
bürger@@ 6
kranken@@ 6
einkaufspassage 6
schmutziges 6
fisch@@ 6
wer 6
ing-@@ 6
morgen 6
durchsucht 6
bikini-oberteil 6
eiswagen 6
engel@@ 6
bauer 6
scha@@ 6
beson@@ 6
jean@@ 6
haken 6
gelb@@ 6
erreicht 6
gelbbrauner 6
golfplatz 6
mülltüte 6
kletterwand 6
beamte 6
deere 6
sorgfältig 6
tieren 6
schnuller 6
buntes 6
wegs 6
raums 6
wandmalerei 6
aufrecht 6
schau 6
-spiel 6
ität 6
dunkeln 6
unterschiedlicher 6
füttern 6
zelte 6
toast 6
goldfarbenen 6
kitchenaid 6
ssen@@ 6
ger-@@ 6
herab@@ 6
-outfit 6
gegenüberliegenden 6
sacks 6
häl@@ 6
blühenden 6
gur@@ 6
salat 6
zeichnungen 6
ff 6
glückliches 6
hunder@@ 6
zähnen 6
ruhigem 6
messen 6
töpfen 6
schält 6
werkzeuge 6
welche 6
geschrieben 6
videospiele 6
inneren 6
autositz 6
abgesperrten 6
hle 6
spazierstock 6
bambus@@ 6
snow@@ 6
schaft 6
rot-weiß 6
tennisschuhen 6
mark 6
voll@@ 6
einsatz 6
lehrerin 6
geöffnetem 6
kicken 6
flieger 6
stiel 6
force 6
stoff@@ 6
dd@@ 6
erter 6
untergeht 6
donuts 6
regenbogen@@ 6
zes 6
nachtclub 6
sä@@ 6
camper 6
tischdecke 6
strickt 6
ziegeln 6
jüngeres 6
ssi@@ 6
springenden 6
beg@@ 6
ohio 6
obwohl 6
thema 6
fußballteams 6
gewehren 6
säcken 6
wett@@ 6
kleinere 6
nachbarschaft 6
schwarz-roten 6
schmetterling 6
träger 6
hosen@@ 6
mopp 6
feuerwerk 6
massen 6
licht@@ 6
tätowierter 6
bahngleisen 6
friseur@@ 6
selben 6
sms 6
wäre 6
cargo 6
abgedunkelten 6
fitnessstudio 6
kleider@@ 6
eventuell 6
bli@@ 6
befindlichen 6
us@@ 6
ordnet 6
freizeitkleidung 6
füll@@ 6
einkaufs@@ 6
deckel 6
fahrradrennen 6
kabel 6
din@@ 6
festi@@ 6
probe 6
uni@@ 6
bay 6
flug 6
fallschirm@@ 6
inspiziert 6
verlegt 6
sägen 6
colle@@ 6
schwimmwesten 6
platziert 6
sportplatz 6
mmer 6
a. 6
rennbahn 6
mmt 6
seitlich 6
burger 6
genau 6
vorbeifahren 6
ziel@@ 6
schweren 6
machete 6
motorradfahrern 6
helle 6
schaft@@ 6
pra@@ 6
marineblauen 6
wettlauf 6
punkten 6
tänzerinnen 6
rodeo@@ 6
ckter 6
schlecht 6
gemä@@ 6
türkisfarbenen 6
gebo@@ 6
gesenktem 6
mindestens 6
fau@@ 6
hörsaal 6
country-@@ 6
stiften 6
weihnachten 6
tür@@ 6
fasziniert 6
tetes 6
tw@@ 6
hellgelben 6
zahn@@ 6
tassen 6
tiefen 6
hen 6
brunnens 6
rollern 6
hüpfburg 6
ket@@ 6
braun-weißen 6
farben@@ 6
scheiben 6
gel 6
hühn@@ 6
aufwärmen 6
mei@@ 6
fußballspielen 6
grün-weißen 6
blu@@ 6
schmettert 6
gegen@@ 6
ehr@@ 6
joe 6
chte@@ 6
ochsen 6
jüdi@@ 6
nacktes 6
bandmitglieder 6
glastür 6
platzes 6
ati@@ 6
hochspringt 6
deutscher 6
gesichter 6
essenswagen 6
human@@ 6
gangs 6
pflückt 6
kirchen@@ 6
boa 6
fußgängerbrücke 6
chel@@ 6
überdachten 6
auswahl 6
hochhält 6
schlägern 6
braut@@ 6
speisekarte 6
kitteln 6
latein@@ 6
verfolgen 6
hinein@@ 6
teilnimmt 6
rauchend 6
teile 6
spani@@ 6
blumenstrauß 6
coca-cola-@@ 6
zuhören 6
hä@@ 6
trommelt 6
erwischt 6
tempel 6
bekann@@ 6
blöcke 6
flügel 6
wurden 6
halter 6
straßenmarkt 6
großstadt 6
teenagerin 6
hochgehoben 6
schwarz-braunen 6
stern@@ 6
i-@@ 6
retriever 6
schwarz-braune 6
farbenfroh 6
beigen 6
näher 6
flö@@ 6
marktstand 6
dekorierten 6
körbe 6
wiegt 6
filzhut 6
heim@@ 6
offener 6
seilspringen 6
kamel@@ 6
ruft 6
schippt 6
anschauen 6
tackelt 6
stoß 6
küchentresen 6
gos 6
essend 6
ollie 6
spa@@ 6
geradeaus 6
krü@@ 6
schiffs 6
gend 6
gepäck@@ 6
pol@@ 6
bel 6
hindernisparcours 6
engel 6
wat@@ 6
bor@@ 6
lippenstift 6
clu@@ 6
vieren 6
ketten 6
bean@@ 6
beteiligt 6
karateanzügen 6
weißhaariger 6
seife 6
gehoben 6
bulle 6
00@@ 6
limousine 6
-t-shirt 6
hellbraune 6
pflaster 6
gehenden 6
pyjama 6
ierte 6
stet 6
einzelne 6
elektroni@@ 6
wenig 6
bild@@ 6
irgendetwas 6
aufschlag 6
ör@@ 6
fußballtrikot 6
fröhliches 6
zieh@@ 6
nackten 6
coney 6
notizen 6
hand-@@ 6
nasse 6
musikern 6
geschäftige 6
pinkfarbene 6
plastik-@@ 6
nippt 6
geschlossen 6
schlafzimmer 6
umhängen 6
eng@@ 6
schwanz 6
hellbraunem 6
ug@@ 6
tutus 6
explosion 6
matratze 6
weinendes 6
stützt 6
stöbern 6
hafen@@ 6
hl 6
aten 6
anschaut 6
clown@@ 6
mm@@ 6
schlittschuh 6
spült 6
beagle 6
badekleidung 6
domino 6
alter@@ 6
rollstühlen 6
mix@@ 6
objektiv 6
aufgenommen 6
buntem 6
ani@@ 6
geschminkten 6
stoßen 6
saiteninstrument 6
besuchen 6
herz 6
aufmerksamkeit 6
eiswaffeln 6
schwester 6
automaten 6
jungen@@ 6
packung 6
live@@ 6
kronen 6
exo@@ 6
rothaarigen 6
aufgeblasenen 6
verkleideter 6
brechenden 6
pur@@ 6
lego 6
genommen 6
verärgert 6
wer@@ 6
kegel@@ 6
raufen 6
neun 6
verteilen 6
kartoffel@@ 6
pyramide 6
eri@@ 6
rollerblader 6
sauna 6
windbreaker 6
flei@@ 6
stimmt 6
halsketten 6
rodeo-@@ 6
sel 6
maulkörben 6
amish 6
ausschau 6
trink@@ 6
fs 6
camcorder 6
gelände@@ 6
sons 6
eisbahn 6
maus 6
vegas 6
rot-schwarzer 6
trenchcoat 6
dekorativen 6
polizei 6
motocross-fahrer 6
weihnachtsmannkostüm 6
memorial 6
federn 6
khakihose 6
gehwegs 6
beendet 6
farbenfrohe 6
umgestürzten 6
yamaha 6
dreiköpfige 6
landkarte 6
möbelstück 6
fertigen 6
mikrofonen 6
git@@ 6
fall@@ 6
eng 6
batik-@@ 6
montur 6
port 6
begutachten 6
holztisch 6
kunstvollen 6
gn@@ 6
kiefern 6
schaufensterfront 6
bmw 6
seitenlinie 6
pinken 6
ischen 6
mikrofone 6
anzüge 6
digitalkamera 6
schminke 6
ant 6
bears 6
inline-@@ 6
poncho 6
verlassenen 6
mets 6
schotterstraße 6
boots@@ 6
kathedrale 6
kaninchen 6
fechten 6
spongebob 6
schaulustige 6
swe@@ 6
welt 6
oberteile 6
geschminkt 6
liegestühlen 6
studiert 6
schotterweg 6
zebrastreifen 6
skateboardpark 6
keine 6
bein@@ 6
überblickt 6
inspizieren 6
24 6
innenhof 6
spitzen 6
dert 6
ske@@ 6
vegetation 6
radrennfahrer 6
farm@@ 6
dru@@ 6
mops 6
cupcakes 6
oxford 6
konfetti 6
nintendo 6
go-cart 6
strauß 6
betonplatte 6
kopfsteinpflasterstraße 6
lagen 6
einzufangen 6
tt 6
histor@@ 6
krankenschwestern 6
sombrero 6
major 6
baseballkleidung 6
sprache 6
skulpturen 6
lü@@ 6
aufhat 6
abwärts 6
terminal 6
available 6
schä@@ 6
taste 6
dges 6
helfer 6
gin@@ 6
sail 6
erinnen 6
gie 6
your 6
union 6
0@@ 6
ol 6
nichts 6
exam@@ 6
lings 6
tex@@ 6
schwarzweißer 6
lung@@ 6
modellflugzeug 6
lar 6
zombies 6
lev@@ 6
wade 6
wo@@ 6
cross@@ 6
ous 6
nike 6
geisha 6
til@@ 6
south 6
scra@@ 6
dal@@ 6
hip@@ 6
ballerinas 6
defensive 6
whole 6
pie 6
challenge 6
free@@ 6
ups 6
olive 6
climbers 6
soars 6
-colored 6
rubs 6
assembled 6
feathered 6
ence 6
wheeler 6
spatula 6
scooping 6
gap 6
muslim 6
elevated 6
coast 6
briefcase 6
slopes 6
ght 6
bib 6
bottoms 6
squ@@ 6
watering 6
probably 6
ary 6
dragon 6
weapon 6
spots 6
checked 6
gle 6
elaborate 6
anvil 6
propped 6
expanse 6
stirring 6
miniature 6
off-camera 6
favorite 6
waterskier 6
ings 6
bea@@ 6
heavyset 6
spo@@ 6
evil 6
flat 6
teddy 6
sunshine 6
barriers 6
swords 6
tomatoes 6
pipes 6
raking 6
scaling 6
rimmed 6
goatee 6
lime 6
aiming 6
within 6
wineglasses 6
relaxes 6
tons 6
stretched 6
ear@@ 6
strike 6
oms 6
bones 6
ving 6
ravine 6
crash 6
woven 6
length 6
dots 6
renaissance 6
sure 6
skull 6
strollers 6
lanes 6
snowball 6
pad 6
nightclub 6
tablecloth 6
flowery 6
knitting 6
pitching 6
personnel 6
riverbank 6
shingles 6
words 6
expression 6
pillar 6
merry-go-round 6
grasping 6
raise 6
bowtie 6
blocking 6
ssing 6
shorter 6
clap 6
bell 6
mouse 6
texting 6
roll 6
rack 6
plank 6
overlook 6
sample 6
licks 6
razor 6
socializing 6
pushed 6
citizens 6
aboard 6
crate 6
identical 6
cable 6
lovely 6
tree-lined 6
mountaintop 6
noses 6
damaged 6
any 6
upright 6
face-@@ 6
dropping 6
glacier 6
handbag 6
relay 6
mittens 6
badge 6
soup 6
liquor 6
harvesting 6
operated 6
haired 6
assisting 6
angle 6
whistle 6
flames 6
jewish 6
butcher 6
brooms 6
finished 6
dump 6
gloved 6
belly 6
hunched 6
beams 6
two-@@ 6
squad 6
somebody 6
crown 6
microscopes 6
sundress 6
shouting 6
rolled 6
devices 6
progress 6
column 6
main@@ 6
lipstick 6
clothed 6
connected 6
lie 6
ribbons 6
conte@@ 6
ture 6
piles 6
ceremonial 6
handheld 6
excitedly 6
walkers 6
features 6
stair 6
constructed 6
deer 6
follow 6
unloading 6
floors 6
jumpsuits 6
ic 6
crafting 6
hearts 6
wheelchairs 6
award 6
stride 6
special 6
mature 6
sprinklers 6
tips 6
completely 6
toe 6
lower 6
waterside 6
portable 6
well-dressed 6
ates 6
cash 6
fit 6
semi 6
creates 6
tow 6
oned 6
keys 6
nurse 6
ancient 6
scissors 6
rusty 6
antly 6
armed 6
scattered 6
seagulls 6
missing 6
deserted 6
checkout 6
kicked 6
weight 6
key 6
wed 6
mule 6
cathedral 6
cha@@ 6
fixes 6
actors 6
political 6
convenience 6
nearly 6
focus 6
clutching 6
gowns 6
congregate 6
crest 6
büsche 5
regenbogen 5
stin 5
führer 5
freizeit@@ 5
luftballon@@ 5
verkauf@@ 5
fernrohr 5
letter@@ 5
dunkelhaariges 5
bambus 5
schlafenden 5
sprung@@ 5
schlafender 5
reagieren 5
schutzwesten 5
zeitungs@@ 5
mehl 5
verdunkelten 5
cowboy-@@ 5
stroh 5
länd@@ 5
restaurantküche 5
arbeitende 5
landung 5
brät 5
lila@@ 5
hinderni@@ 5
erdboden 5
eisen@@ 5
mischer 5
coke 5
ähnliches 5
mobil@@ 5
erhöhten 5
großem 5
sitzend 5
lappen 5
erzählt 5
abdeck@@ 5
strohhalm 5
ebene 5
fts 5
schwimmerin 5
sbe@@ 5
mal 5
fecht@@ 5
vordach 5
wä@@ 5
senden 5
vermutlich 5
bettelt 5
huckepack 5
zugewandt 5
jonglier@@ 5
vorbereiten 5
finden 5
bauarbeiter@@ 5
fällen 5
ständen 5
limona@@ 5
run@@ 5
künstlerin 5
schnitt 5
feder 5
feldhockey 5
bude 5
elf 5
diadem 5
umher@@ 5
laufenden 5
rosafarbenes 5
gemisch@@ 5
erhalten 5
aufgabe 5
gewi@@ 5
erle@@ 5
formen 5
wissenschaftliches 5
befragt 5
wassermelone 5
waten 5
lieblings@@ 5
wasserskifahrer 5
schwimmenden 5
imbiss@@ 5
riemen 5
gärt@@ 5
rot-weiße 5
sei@@ 5
größe 5
reg@@ 5
kleinigkeit 5
zugeht 5
nächtlichen 5
sausages 5
unterschiedliche 5
schildkröte 5
sorgt 5
ohr@@ 5
babyschaukel 5
schaumbad 5
sie@@ 5
teddybär 5
recht 5
gymnastik 5
kopftüchern 5
hotel@@ 5
geschlagen 5
barfüßiges 5
golfspieler 5
versch@@ 5
wadet 5
müde 5
schlä@@ 5
baden 5
blase 5
pflügt 5
haube 5
schreiendes 5
kampfkunst@@ 5
kunstausstellung 5
vierköpfige 5
noten 5
besch@@ 5
fr@@ 5
synchron@@ 5
roboter 5
sandskulptur 5
schwierigkeiten 5
weingläsern 5
nah@@ 5
ffe 5
wangen 5
hor@@ 5
lä@@ 5
rundes 5
dafür 5
flaches 5
tüte 5
mama 5
küsten@@ 5
spiderman 5
messe 5
ckige 5
verkehrt 5
pitchers 5
halt 5
verdienen 5
anzug@@ 5
zubereiten 5
draht 5
jemandes 5
herausge@@ 5
blondhaariges 5
erledigen 5
verbundenen 5
unglücklich 5
fallenden 5
partner 5
bot@@ 5
ziegen 5
endzone 5
enga@@ 5
lenkt 5
entgegen@@ 5
mittelalter@@ 5
sortieren 5
fte 5
rollschuh 5
richtig 5
funktioniert 5
misches 5
eg@@ 5
mechaniker 5
felsige 5
drag 5
and@@ 5
roben 5
fahrradreifen 5
gän@@ 5
kahl@@ 5
erdbe@@ 5
schneeball 5
orten 5
pfannen 5
korridor 5
befestigen 5
zuschauer@@ 5
waffen 5
party@@ 5
kaffee@@ 5
ckte 5
skigebiet 5
sitzendes 5
ieren 5
konferenztisch 5
lautsprecher 5
rucksäcke 5
kelle 5
toreinfahrt 5
nebligen 5
leidenschaftlich 5
schmutzige 5
entertainer 5
blumenwiese 5
schweiß@@ 5
hochklettert 5
gene 5
zement@@ 5
kilts 5
freuen 5
deln 5
stäbchen 5
kugel@@ 5
dschungel 5
jeans-@@ 5
medail@@ 5
straßencafé 5
männer@@ 5
besucher 5
betrun@@ 5
high-fives 5
reis 5
5-@@ 5
wür@@ 5
freundinnen 5
bten 5
netzen 5
streicheln 5
kel 5
blättert 5
minigolf 5
kindergruppe 5
geschen@@ 5
skate-park 5
einschließlich 5
rängen 5
gemütlich 5
hahn 5
interessanten 5
schnorchel 5
fliesenboden 5
kastanien@@ 5
fensterputzer 5
heißluftballons 5
dü@@ 5
sackhüpfen 5
aufgaben 5
erinn@@ 5
drängen 5
hochzeitsgesellschaft 5
beoba@@ 5
wagen@@ 5
wetteifern 5
misst 5
berghang 5
umge@@ 5
aufgeregte 5
get@@ 5
wil@@ 5
vorder@@ 5
zigaretten 5
hawaii@@ 5
befördert 5
tischtennis 5
kni@@ 5
ledermantel 5
älter 5
weiß-brauner 5
lichter 5
bereit@@ 5
lackiert 5
polo@@ 5
staffellauf 5
frem@@ 5
ähnliche 5
bananen 5
hte 5
mp@@ 5
mönch 5
besitz@@ 5
schneehaufen 5
limo 5
gartenstuhl 5
flaschen@@ 5
schöpft 5
gende 5
stisch 5
stecken 5
m-@@ 5
zten 5
cow@@ 5
-hut 5
banane 5
kampfspor@@ 5
nachrichten 5
bastelt 5
heu@@ 5
abhang 5
felsblock 5
stru@@ 5
kun@@ 5
gon@@ 5
slo@@ 5
kein 5
büchern 5
leere 5
food-@@ 5
beenden 5
sta 5
chts@@ 5
plakatwand 5
flu@@ 5
touristen@@ 5
besuchten 5
angemaltem 5
pflanzt 5
köpfige 5
spie@@ 5
mike 5
grüßen 5
ruinen 5
kamin 5
ketten@@ 5
schattigen 5
gemalt 5
weite 5
wintermantel 5
parka 5
schleifen 5
abstammung 5
stätte 5
priester 5
kamelen 5
sesseln 5
stricken 5
stür@@ 5
kleinstadt 5
vereisten 5
beaufsichtigt 5
wii 5
vase 5
zupft 5
lama 5
klappe 5
oldtimer 5
hochzeitsfeier 5
kleidungs@@ 5
wachsen 5
anzugreifen 5
geträn@@ 5
fahrern 5
bauernhof 5
blau-roten 5
produkten 5
traurig 5
geiger 5
lut@@ 5
dreirä@@ 5
haarigen 5
sattel 5
grauhaariger 5
weiß-braune 5
bergsteigen 5
weihnachts@@ 5
gute 5
bademantel 5
armband 5
batman-@@ 5
dünn@@ 5
werbe@@ 5
letzten 5
katzen 5
blondhaarige 5
stäben 5
bedienung 5
lehrt 5
ig 5
bekleidungsgeschäft 5
dünne 5
labor@@ 5
national@@ 5
poloshirt 5
ckelt 5
ische 5
szenerie 5
spielzug 5
tank-top 5
betrie@@ 5
langärmligen 5
ausstattung 5
senioren 5
cy@@ 5
schädel 5
führenden 5
piraten@@ 5
gesteckt 5
broad@@ 5
kie@@ 5
gren@@ 5
golden@@ 5
ringe 5
denkmal 5
diges 5
hebe@@ 5
betonrampe 5
vaters 5
krankenhausbett 5
bücher@@ 5
eiswaffel 5
farbenem 5
super@@ 5
mach@@ 5
pft 5
lieren 5
afri@@ 5
kas 5
befin@@ 5
kanone 5
harten 5
tennisspielen 5
holzstuhl 5
crocs 5
dojo 5
steinernen 5
torbogen 5
streiten 5
tä@@ 5
zen@@ 5
gabe 5
schen@@ 5
blaugrünen 5
wasserfahrzeug 5
räumt 5
elternteil 5
unfall 5
gestützt 5
seilschaukel 5
fil@@ 5
-kostüm 5
lle 5
chinesi@@ 5
außerdem 5
lenker 5
schusswaffe 5
uferweg 5
stag 5
happen 5
verschiedenfarbigen 5
desig@@ 5
ragt 5
pink-@@ 5
klat@@ 5
einsatz@@ 5
schläuchen 5
nagel 5
ureinwohner 5
schrank 5
safe 5
home@@ 5
marke 5
met 5
gejagt 5
stapeln 5
geburtstag@@ 5
ze@@ 5
geholfen 5
pustet 5
stadtplatz 5
orangensaft 5
gay 5
teilung 5
reit@@ 5
probt 5
flauschigen 5
spuren 5
höhle 5
flanke 5
hochzeitskleid 5
skateboardrampe 5
ärmel 5
eu@@ 5
amm@@ 5
shell 5
beige@@ 5
beladenen 5
buckelnden 5
geschminktem 5
gebilde 5
lar@@ 5
fußtritt 5
schüttet 5
obst@@ 5
scheinwerferlicht 5
fliegende 5
kapuzen@@ 5
brünettes 5
segeln 5
horns 5
bewundern 5
metallgegenstand 5
kollegen 5
dicker 5
stabhochsprung 5
fallenen 5
tel 5
milch@@ 5
jahrmarkt@@ 5
briti@@ 5
pfahl 5
enge 5
meere@@ 5
stäbe 5
poliert 5
redner 5
blätterhaufen 5
skleidung 5
grauhaarige 5
sicher 5
straining 5
kragenhemd 5
knallbunten 5
würden 5
är@@ 5
kahl 5
inner@@ 5
springer 5
indianer 5
fit@@ 5
krä@@ 5
käse 5
heraus@@ 5
reisen 5
verbringen 5
scher@@ 5
strandes 5
kinn 5
/ 5
strei@@ 5
hechtet 5
rot-blauen 5
angestellte 5
gebäude@@ 5
ulti@@ 5
tzchen 5
krankenschwester 5
zauber@@ 5
pickup 5
werk@@ 5
kick@@ 5
felds 5
verwirrt 5
geschmückten 5
dusche 5
durchsich@@ 5
einhei@@ 5
internet 5
gespritzt 5
windsurfer 5
pfadfinder@@ 5
geschäftsmann 5
interview 5
schaffen 5
show@@ 5
intensiv 5
auszeichnung 5
pla@@ 5
akti@@ 5
stolpert 5
notebooks 5
ertem 5
ami@@ 5
geschossen 5
make-up 5
zweiten 5
jack@@ 5
eisschnellläufer 5
fon@@ 5
wasserlauf 5
spielende 5
feh@@ 5
tauchausrüstung 5
schanze 5
las 5
irgendeine 5
militärische 5
erzielen 5
itali@@ 5
ehen 5
verletzt 5
ausgestrecktem 5
lun@@ 5
ffel 5
lastwagens 5
polizistin 5
schwarz-blauen 5
vorlesung 5
mickey 5
kerze 5
beleu@@ 5
runde 5
ftet 5
marki@@ 5
versehen 5
gedrängt 5
harfe 5
reichen 5
cho@@ 5
afroamerikanerin 5
wasch@@ 5
programm 5
dinosauri@@ 5
gleiche 5
bmx-rad 5
türeingang 5
kti@@ 5
hochzeits@@ 5
anzuziehen 5
coca 5
halfpipe 5
erleuchtet 5
green@@ 5
blattwerk 5
arbeitsplatz 5
wirbt 5
wok 5
rückwärtssalto 5
überkreuzten 5
balletttän@@ 5
paket 5
navigiert 5
verzieht 5
brettern 5
schalter 5
besitz 5
enth@@ 5
möbeln 5
bieten 5
transporter 5
schweißen 5
bechern 5
anorak 5
motorboot 5
eishockeyspiel 5
life@@ 5
golfer 5
buses 5
oberhemd 5
gepunk@@ 5
rum 5
toyota 5
ob@@ 5
wahr@@ 5
mas 5
künstl@@ 5
erischen 5
gefal@@ 5
paintball 5
butter 5
zuguckt 5
vers 5
fahren@@ 5
zugucken 5
verliert 5
tages 5
durchgang 5
skateboardtrick 5
rasieren 5
motorradrennen 5
plantscht 5
informationen 5
pokal 5
warenkorb 5
jung@@ 5
personen@@ 5
-band 5
mini@@ 5
bräunlicher 5
scheinwerfer 5
tail@@ 5
plastik 5
deutet 5
heißt 5
s. 5
tiges 5
medizinische 5
ham 5
kastanienbraunen 5
betritt 5
diverse 5
princess 5
textnachricht 5
chirur@@ 5
fließen@@ 5
fä@@ 5
politischen 5
herrlichen 5
ssion 5
medizinischen 5
panel 5
ade 5
balkonen 5
schauspieler 5
tuba 5
mul@@ 5
rangeln 5
ärmeln 5
long@@ 5
emo@@ 5
garagentor 5
fix@@ 5
gendes 5
interviewt 5
gedenk@@ 5
jahre 5
backsteinwand 5
freiluft@@ 5
dem@@ 5
anscheinend 5
hemdchen 5
rohre 5
tickets 5
kanadischen 5
rednerpult 5
ds-@@ 5
play@@ 5
album 5
sandwiches 5
coo@@ 5
verlassene 5
phones 5
boarder 5
trio 5
dok@@ 5
operationssaal 5
lose 5
char@@ 5
umklammert 5
ener 5
prote@@ 5
best 5
schar 5
prayer 5
di 5
sh-@@ 5
hellrosa 5
zebra@@ 5
top@@ 5
mod@@ 5
berlin 5
khaki-@@ 5
mati@@ 5
marathonlauf 5
braun@@ 5
gewonnen 5
unterhalb 5
lakers 5
außenseite 5
schaufenstern 5
spanischer 5
transport 5
tics 5
ya@@ 5
wonder 5
zebra 5
hängebrücke 5
tele@@ 5
barkeeper 5
uti@@ 5
slowly 5
lei 5
kna@@ 5
ponchos 5
pee 5
pop 5
lation 5
fitness 5
zweiter 5
barri@@ 5
schwarzweißen 5
moder@@ 5
mannschaftskollegen 5
iz@@ 5
steam 5
high@@ 5
ballbesitz 5
hung 5
reporter 5
henna 5
buggy 5
double 5
monster 5
gliding 5
metro 5
seesaw 5
ascending 5
grown 5
drilling 5
flowing 5
wards 5
tribe 5
sweaters 5
bakery 5
sharp 5
javelin 5
partying 5
applies 5
fills 5
antique 5
sheer 5
barbecuing 5
petals 5
curved 5
flaming 5
torches 5
smooth 5
breath 5
knee-high 5
searching 5
ining 5
pride 5
perhaps 5
backlit 5
cartwheel 5
sound 5
padded 5
cooked 5
consul@@ 5
persons 5
cooler 5
tiara 5
bookshelf 5
cle@@ 5
makeshift 5
interviewed 5
cheer@@ 5
watermelon 5
backhoe 5
rubble 5
interact 5
cap@@ 5
floaties 5
multicolor 5
stacks 5
wers 5
wiping 5
crawling 5
split 5
tongs 5
thing 5
vertical 5
winding 5
pacifier 5
bundled 5
served 5
exhibition 5
hear 5
robot 5
ities 5
pauses 5
mates 5
combat 5
suitcases 5
handles 5
cheeks 5
peak 5
uring 5
plush 5
cen@@ 5
convention 5
baked 5
shoeshine 5
shines 5
soft 5
emerges 5
greenery 5
tly 5
handling 5
blindfolded 5
instructing 5
concentrates 5
message 5
cloths 5
goats 5
steers 5
affe@@ 5
lean 5
roadwork 5
storm 5
community 5
ils 5
competitors 5
tugging 5
yelling 5
cti@@ 5
register 5
shoo@@ 5
stretch 5
weapons 5
clothesline 5
campers 5
beginning 5
chat 5
slicing 5
tomato 5
backstroke 5
poodles 5
leashes 5
posts 5
masked 5
shack 5
waitress 5
balanced 5
recreational 5
contents 5
blocked 5
cradles 5
aid 5
trays 5
saying 5
motorbikes 5
ward 5
ssed 5
unfinished 5
bul@@ 5
toilet 5
dribbles 5
parachuting 5
snaps 5
clearing 5
installing 5
unds 5
tions 5
parachutes 5
hammers 5
glider 5
wning 5
snowman 5
carried 5
splash 5
fairy 5
marches 5
baton 5
foam 5
shelves 5
perched 5
herding 5
suburban 5
passed 5
conditions 5
dilapidated 5
run-down 5
carved 5
cri@@ 5
bing 5
bounding 5
banana 5
vely 5
artistic 5
nicely 5
backward 5
tumbling 5
completed 5
cityscape 5
chained 5
magnifying 5
ly-@@ 5
ruins 5
fireplace 5
clock 5
scantily 5
huddle 5
dyed 5
priest 5
ume 5
apples 5
sailboats 5
girlfriend 5
pedestrian 5
escape 5
daylight 5
singers 5
towels 5
sweatsuit 5
trimming 5
latin 5
rowboat 5
appearing 5
ax 5
collecting 5
ators 5
parts 5
lost 5
comfortable 5
mothers 5
cows 5
forming 5
archway 5
embrace 5
chunk 5
opened 5
eyeglasses 5
lowered 5
mustard 5
starts 5
inspect 5
earrings 5
least 5
vocalist 5
passerby 5
attentively 5
white-haired 5
massive 5
states 5
oar 5
blurry 5
chains 5
sponsored 5
struggling 5
peacock 5
attendant 5
watercraft 5
rake 5
crazy 5
reclines 5
shady 5
rounding 5
huddled 5
descending 5
fishermen 5
cattle 5
tuxedo 5
americans 5
dly 5
kites 5
caricature 5
equestrian 5
bites 5
want 5
bushy 5
tossed 5
snowcapped 5
angry 5
cookies 5
canopy 5
carve 5
mattress 5
includes 5
donkeys 5
occupied 5
breaks 5
besides 5
jog 5
utility 5
consi@@ 5
leaned 5
gum 5
dominoes 5
dotted 5
barking 5
arrive 5
clarinet 5
om 5
assistant 5
storefronts 5
curve 5
unknown 5
strap 5
braided 5
poking 5
button-up 5
hairstyle 5
sister 5
theme 5
crowns 5
tic 5
ckers 5
drivers 5
dropped 5
scales 5
stry 5
ously 5
apparatus 5
armor 5
confused 5
surgeons 5
sailor 5
directs 5
scout 5
businessman 5
brow 5
pinned 5
stle 5
ght@@ 5
stylish 5
lantern 5
returns 5
expressions 5
lingerie 5
workmen 5
ored 5
struggles 5
claus 5
feathers 5
season 5
themed 5
harp 5
spike 5
elephants 5
exploring 5
excitement 5
pinstriped 5
digs 5
mats 5
historic 5
snowboarders 5
comforting 5
eagerly 5
ned 5
tunic 5
contin@@ 5
graffitied 5
carousel 5
coolers 5
blue-@@ 5
merchant 5
champagne 5
stroke 5
opponents 5
competitive 5
decorating 5
given 5
mate 5
shar@@ 5
campsite 5
rollerskaters 5
observers 5
offering 5
sheets 5
photographing 5
eye@@ 5
holes 5
hoo@@ 5
positioned 5
posters 5
bly 5
varying 5
löwen 4
schickes 4
langsam 4
nacheinander 4
neongrünen 4
streut 4
pf 4
gemalten 4
kaput@@ 4
bie@@ 4
schwarz-gelben 4
urinal 4
krawatten 4
gam@@ 4
wettbewer@@ 4
steinwand 4
gelen@@ 4
windjacke 4
instal@@ 4
loh@@ 4
öffentliche 4
sicher@@ 4
dorfbewohner 4
ernte 4
elektrogitarre 4
bewachsenen 4
groß 4
schei@@ 4
farbig 4
strahlend 4
matsch 4
broschüre 4
gefär@@ 4
bter 4
kelt 4
bäckerei 4
dicke 4
bä@@ 4
schar@@ 4
kräfte 4
schläfchen 4
funken 4
mmten 4
extravagan@@ 4
antiken 4
benz@@ 4
wort 4
hinterteil 4
lkws 4
fußballplatz 4
hockern 4
stirnbändern 4
umhängetasche 4
verhindern 4
jong@@ 4
gap-@@ 4
pabst 4
meerwasser 4
juwelier@@ 4
rollschuh@@ 4
schmi@@ 4
einteiler 4
anblick 4
wirken 4
walkman 4
erklärt 4
sollen 4
fels@@ 4
grinst 4
geschichte 4
latz 4
gebü@@ 4
nasen@@ 4
mittelgroßen 4
fell@@ 4
huts 4
zel@@ 4
glücklicher 4
elmo-@@ 4
sodass 4
entlanggehen 4
kün@@ 4
angelehnt 4
pendler 4
wan@@ 4
mme 4
lager 4
aufen 4
sab@@ 4
hn@@ 4
hänge@@ 4
pfe 4
gepolster@@ 4
picknick 4
packten 4
spring@@ 4
töpferscheibe 4
kreide@@ 4
hler 4
ßen 4
statuen 4
hinunterfährt 4
holzboot 4
ham@@ 4
ungefähr 4
billi@@ 4
sportlerin 4
gelb-grünen 4
sende 4
geburtstag 4
gela@@ 4
strickjacke 4
zeitung@@ 4
gele@@ 4
wakeboarding 4
gewür@@ 4
gespreizten 4
musizieren 4
eisenbahnschienen 4
langer 4
ausgestreckter 4
holzplattform 4
wit@@ 4
besuch 4
piers 4
gehören 4
grün-gelben 4
isla@@ 4
sichtbaren 4
umgedreht 4
blut@@ 4
ord@@ 4
nete 4
eyeliner 4
blü@@ 4
high-five 4
wenige 4
drücken 4
elektro@@ 4
bereits 4
gefliesten 4
fleisch@@ 4
vin@@ 4
wasserschlauch 4
leuchten@@ 4
buch@@ 4
handlung 4
prüfung 4
schwein 4
fahrbaren 4
schwung 4
aufzuheben 4
ananas 4
zange 4
sonnenschein 4
baumgesäumten 4
tennisbällen 4
migen 4
eiern 4
schnauzer 4
eigenen 4
softball@@ 4
gelbbraunen 4
kriecht 4
panda 4
gebir@@ 4
dirtbike 4
guten 4
light-@@ 4
ette 4
kaffe@@ 4
wolkigen 4
fischerboot 4
go-kar@@ 4
posaune 4
vorbeigehenden 4
schulbus 4
halte@@ 4
mexikanischen 4
wasserkante 4
schwerer 4
pfei@@ 4
route 4
hochzeit@@ 4
sicherheitsausrüstung 4
ausstellungs@@ 4
liebkost 4
verkehrsmittel 4
clubs 4
signi@@ 4
michigan 4
14 4
anhän@@ 4
zitronen 4
geburtstagskuchen 4
städtischer 4
tim 4
situation 4
nten 4
sagen 4
beach@@ 4
kirsch@@ 4
verkäufers 4
schna@@ 4
weit@@ 4
töpferwaren 4
herstellt 4
altmodischer 4
gabelstapler 4
reiher 4
manns 4
knochen 4
besprühten 4
warmer 4
bemal@@ 4
leuchtende 4
bügelt 4
unruhigem 4
cowboy@@ 4
winzigen 4
türki@@ 4
leitern 4
laubbedeckten 4
hügeln 4
tage 4
offene 4
regenschirme 4
küchentheke 4
afrikanisches 4
flanellhemd 4
mann@@ 4
nudel@@ 4
kunststoff 4
daraus 4
kaum 4
steingebäude 4
keyboards 4
schlanker 4
stliche 4
digt 4
zweig 4
lung 4
leben 4
straßenarbeiten 4
vorliest 4
post@@ 4
gelb-weißen 4
wells 4
hack@@ 4
gleit@@ 4
festzug 4
intere@@ 4
tauchen 4
gehört 4
staunen 4
geschla@@ 4
würstchen 4
pun@@ 4
angerichtet 4
knieschonern 4
hobenen 4
berry 4
toiletten 4
ripp@@ 4
jahren 4
händ@@ 4
halten@@ 4
pulver 4
bleistift 4
ß 4
sschen 4
schieß@@ 4
spielhalle 4
freiwilli@@ 4
ller 4
dirigent 4
kopfball 4
intervie@@ 4
sam@@ 4
notre 4
zweier 4
mop@@ 4
sat@@ 4
angeles 4
wäscheleine 4
metallkonstruktion 4
chri@@ 4
liegender 4
seiten@@ 4
schönes 4
arme@@ 4
militäruniform 4
militärangehörige 4
küchentisch 4
schindeln 4
bucht 4
ffen 4
abgewandt 4
shügel 4
mor@@ 4
spülen 4
bahngleise 4
iten 4
steinstufen 4
ausdruck 4
ineinander 4
mexikanische 4
spielplatzgerät 4
fässer 4
zweiteiligen 4
nasses 4
ssel@@ 4
zueinander 4
projektor 4
riesiger 4
isch 4
felsen@@ 4
verspritzt 4
besitzer 4
maski@@ 4
halloween-@@ 4
fröhlicher 4
schaufensterpuppe 4
skostüm 4
kellnerin 4
stocks 4
urnier 4
absol@@ 4
erend 4
aktivität 4
sonnenhut 4
gut@@ 4
iter 4
frei 4
eingegraben 4
laub@@ 4
schwangere 4
blau-weiß 4
muscheln 4
bele@@ 4
freiluftmarkt 4
öffnung 4
lötet 4
felsenklippe 4
gyro 4
winken 4
ier@@ 4
itt@@ 4
ausländischen 4
lebensmittelgeschäfts 4
apparat 4
knallgelben 4
lässi@@ 4
stü@@ 4
briefkasten 4
frisbee-@@ 4
folie 4
kamer@@ 4
tabletts 4
baumaschinen 4
shampoo 4
beil 4
chor@@ 4
maiskolben 4
duscht 4
laubbläser 4
möwe 4
gähnt 4
utensilien 4
kickboxen 4
lugt 4
verschiedener 4
schu@@ 4
taucherbrille 4
knurrt 4
toilette 4
hulk 4
schnappschuss 4
fitness@@ 4
vorbereitung 4
famili@@ 4
vieh 4
schneeengel 4
antiqu@@ 4
the@@ 4
rie@@ 4
schwelle 4
ctor 4
turf 4
truthahn 4
tö@@ 4
blumenkleid 4
dunkelgrünen 4
imit@@ 4
hölle 4
berggipfel 4
schneemann 4
kuchen@@ 4
gefrorenen 4
wildwasser 4
fein 4
skimütze 4
befestigten 4
fru@@ 4
entwir@@ 4
bassgitarre 4
staun@@ 4
einsame 4
nung 4
vorhang 4
zusammenzu@@ 4
llt 4
aktion 4
keller 4
skipiste 4
träger@@ 4
übergibt 4
prachtvollen 4
schw@@ 4
dam@@ 4
gener@@ 4
reise 4
weihnachtsgeschenke 4
motorrollern 4
mundharmonika 4
geländern 4
ausm@@ 4
enthält 4
schwimmhilfe 4
holzpfahl 4
brautkleid 4
scho@@ 4
sprin@@ 4
chung 4
schwarzhaariger 4
neten 4
diagra@@ 4
angezeigt 4
baufälligen 4
papp@@ 4
gleiten 4
münz@@ 4
prächtigen 4
sparty 4
ero@@ 4
adi@@ 4
express 4
schle@@ 4
tief@@ 4
superman-@@ 4
seminar 4
aqu@@ 4
pfoten 4
wunder@@ 4
hauptsächlich 4
edlen 4
ballen 4
fair@@ 4
schafen 4
lusti@@ 4
tandem 4
aufnahmen 4
frühstücks@@ 4
x-@@ 4
st-@@ 4
gl@@ 4
gefilmt 4
fft 4
bandmitgliedern 4
sturzhelm 4
gesp@@ 4
herein@@ 4
holzrampe 4
beginnen 4
telefonmasten 4
-kleidung 4
bowling-kugel 4
menü 4
wählen 4
gebauten 4
schneehügel 4
ast@@ 4
metz@@ 4
gefärbten 4
reitern 4
gebirge 4
kalte 4
gestalteten 4
bildhauer 4
ien 4
hafengebiet 4
segelboote 4
sportspiel 4
ffs 4
skiausrüstung 4
seltsam 4
saust 4
stol@@ 4
stuhl@@ 4
ausländische 4
locken@@ 4
leopardenmuster 4
heiraten 4
wäschekorb 4
feuerleiter 4
trockenem 4
offiziellen 4
trockenes 4
verstärker 4
alen 4
kälte 4
whirlpool 4
jazz@@ 4
schwer 4
skraft 4
orientalischen 4
süd@@ 4
plüsch@@ 4
bärten 4
bergigen 4
sandplatz 4
tenniskleidung 4
gesäumt 4
weggeht 4
grei@@ 4
geblüm@@ 4
rocker 4
session 4
notenständer 4
mütter 4
angezogenes 4
tiefe 4
bedeckte 4
zunehmen 4
brand 4
diskutiert 4
kreisförmigen 4
deutschen 4
geduldig 4
gehaltenen 4
kricketspieler 4
töpfe 4
professioneller 4
aufgesetz@@ 4
quadraten 4
menden 4
capris 4
eln@@ 4
hispani@@ 4
arren 4
machte 4
go-@@ 4
inder 4
rot-weiß-blauen 4
theater@@ 4
gesichtsmaske 4
choreografie 4
broch@@ 4
gesichert 4
angelschnur 4
hausaufgaben 4
krone 4
motorrad@@ 4
freiluf@@ 4
fei@@ 4
mikroskope 4
flan@@ 4
lustigen 4
früh@@ 4
lings@@ 4
badebekleidung 4
ruhige 4
abzuwerfen 4
vorübergehen 4
klapp@@ 4
letter 4
neigt 4
grasbewachsenes 4
violettes 4
verschiedenfarbige 4
gge 4
unfertigen 4
oklahoma-@@ 4
gegenspieler 4
getackelt 4
sportereignis 4
gefle@@ 4
täglichen 4
mmen@@ 4
sichtbar 4
gelegten 4
kaputten 4
felsformation 4
rasiertem 4
mmern 4
beschnüffelt 4
bandan@@ 4
re-@@ 4
ven@@ 4
bekleide@@ 4
krücken 4
liter@@ 4
überwiegend 4
sakko 4
irgendein 4
meeresufer 4
reist 4
drum@@ 4
bulldo@@ 4
pp 4
ums 4
hellroten 4
verbunden 4
tropischer 4
weht 4
drahtzaun 4
affen 4
glatzenansatz 4
lockigem 4
pool@@ 4
fran@@ 4
erwischen 4
iti@@ 4
ath@@ 4
cour@@ 4
gestrüpp 4
hör@@ 4
sky@@ 4
sigen 4
spüle 4
begleitung 4
sowohl 4
knei@@ 4
schlanke 4
gokar@@ 4
landen 4
prallen 4
straßenbahn@@ 4
merkwür@@ 4
flecken 4
base@@ 4
inder@@ 4
gelegen@@ 4
protestschild 4
förmlicher 4
sicherheitskleidung 4
verstecken 4
hübsch 4
knappen 4
highschool-@@ 4
gefällten 4
drähten 4
u-bahn-tunnel 4
hofs 4
innenseite 4
leuchten 4
hydrau@@ 4
chef@@ 4
eien 4
loko@@ 4
elektriker 4
geschenk@@ 4
cremefarbenen 4
oberhalb 4
rustikalen 4
liga 4
link@@ 4
kühlen 4
baseballkappen 4
dunkles 4
rückenschwimmen 4
chtes 4
hundeshow 4
bellen 4
vogel@@ 4
schuhgeschäft 4
dritte-welt-land 4
zwölf 4
sofas 4
hellhäuti@@ 4
harmonika 4
zo@@ 4
ellen@@ 4
prüfen 4
schreien 4
absolventen 4
cyc@@ 4
europä@@ 4
besetz@@ 4
trocken@@ 4
comic@@ 4
notizbuch 4
bauprojekt 4
ziert 4
brust@@ 4
angelruten 4
au 4
segway 4
sonnen 4
denes 4
mig 4
kür@@ 4
anischer 4
rettungsweste 4
entladen 4
schwei@@ 4
ft-@@ 4
tollen 4
spiele 4
freund@@ 4
konzer@@ 4
fuße 4
fundament 4
lerinnen 4
al-@@ 4
football-feld 4
unterhaltung 4
dingen 4
daneben@@ 4
einkäufern 4
ansetzt 4
engli@@ 4
langärmli@@ 4
angen 4
pink@@ 4
flag@@ 4
herauf 4
hüpf@@ 4
horizon@@ 4
farbstiften 4
beckens 4
spielzeugpferd 4
planschbecken 4
verzi@@ 4
indischen 4
unbefestigtem 4
unterseite 4
gener 4
skaten 4
amput@@ 4
she@@ 4
spare 4
wasserfontäne 4
seltsames 4
kargen 4
deut@@ 4
hotdog-@@ 4
vs 4
eres 4
nike-@@ 4
rückhand 4
brünett 4
druck@@ 4
sommerkleid 4
bevor@@ 4
dlichen 4
reiniger 4
asphalt@@ 4
grund 4
planschen 4
spe@@ 4
gestapel@@ 4
schärpen 4
lilafarbene 4
hellhäutigen 4
schichten 4
halbkreis 4
trag@@ 4
tenni@@ 4
erhö@@ 4
getränke@@ 4
zier@@ 4
gast 4
campus 4
gesche@@ 4
markt@@ 4
fallschirmspringen 4
abzuwehren 4
akkordeonspieler 4
web@@ 4
gewe@@ 4
noten@@ 4
schwer@@ 4
akrobati@@ 4
essstäbchen 4
budwei@@ 4
auszuführen 4
gerin 4
volleyball-@@ 4
rö@@ 4
baustellen@@ 4
albernen 4
softballspielerin 4
dramati@@ 4
eil 4
fleece 4
pelzmantel 4
bas@@ 4
zuzu@@ 4
umeinander 4
2008 4
turnschuhe 4
put@@ 4
kranich 4
oll@@ 4
schrei@@ 4
pastor 4
hello 4
kitty 4
and-@@ 4
ausgeschnittenen 4
knabbert 4
verkehr@@ 4
melonen 4
smit@@ 4
000 4
wischen 4
ring@@ 4
fußball-@@ 4
motive 4
chirurgen 4
op-kittel 4
feldes 4
basketballkorb 4
mmel 4
pitbull 4
kariertes 4
bequem 4
thomas 4
ster-@@ 4
ausblick 4
baren 4
absperrband 4
burrit@@ 4
dö@@ 4
apple-@@ 4
gedeckten 4
ssenen 4
aufkleber 4
kuss 4
frustriert 4
stoffe 4
begeister@@ 4
us-@@ 4
rettungsschwimmer 4
machten 4
rudel 4
grasbewachsene 4
verteidigen 4
bögen 4
stapelt 4
zombie 4
demonstriert 4
verbringt 4
hock@@ 4
jä@@ 4
goldener 4
toter 4
techni@@ 4
rasen@@ 4
backen 4
rags 4
michael 4
biegt 4
lasters 4
rest@@ 4
bretter 4
ll@@ 4
college@@ 4
dunkelbrauner 4
cken@@ 4
hatte 4
kolle@@ 4
jeansrock 4
durchge@@ 4
truppe 4
läden 4
schwarz@@ 4
itä@@ 4
sprungs 4
sketch 4
tanzende 4
besprechen 4
spielautomaten 4
protestieren 4
umgedrehten 4
konzert@@ 4
laubhaufen 4
bela@@ 4
alli@@ 4
rugby@@ 4
rasierten 4
elefan@@ 4
fingernägel 4
geheim@@ 4
b-@@ 4
silk 4
schlummert 4
schri@@ 4
erhebt 4
seile 4
hir@@ 4
genüsslich 4
erungen 4
burg 4
bissen 4
idyllischen 4
schwimmern 4
wintermänteln 4
paris 4
spagat 4
darth 4
zucker@@ 4
disk@@ 4
sam 4
schriftzug 4
easter 4
hunt 4
bum@@ 4
religiöse 4
gitarre@@ 4
banjo@@ 4
pro-@@ 4
balancieren 4
entu@@ 4
indiani@@ 4
wissenschaftler 4
tortillas 4
lich@@ 4
flieder@@ 4
skilift 4
zenden 4
wild@@ 4
decker 4
gipfeln 4
gestell 4
anweisung 4
jim 4
treppen@@ 4
matten 4
zuläuft 4
stier@@ 4
häu@@ 4
leit@@ 4
ble@@ 4
stö@@ 4
bers 4
yant 4
trainings@@ 4
bands 4
schwan 4
angesicht 4
pferdes 4
shalle 4
benden 4
akrobatische 4
linien 4
backsteingebäudes 4
abenddämmerung 4
kaufhaus 4
strümpfe 4
stücken 4
glü@@ 4
belag 4
hen@@ 4
geholt 4
hügels 4
absatzschuhen 4
lokalen 4
hinab@@ 4
korbs 4
treppengeländer 4
fäl@@ 4
convers@@ 4
einsames 4
nähen 4
bmx-@@ 4
bürgerkrie@@ 4
drehen 4
löwen@@ 4
strähnen 4
glitzern@@ 4
baseballspiels 4
border 4
kahlen 4
3rd 4
maulesel 4
sser 4
waldes 4
blut 4
badesachen 4
friedhof 4
wolke 4
lacrosse-@@ 4
fahrradtrick 4
offiziere 4
pferderennen 4
mensch@@ 4
flohmarkt 4
raus 4
sonnenschirmen 4
bärtige 4
farbenes 4
ag@@ 4
sagt 4
agility 4
verkleiden 4
penske 4
staubwolke 4
jug@@ 4
laterne 4
digger 4
und@@ 4
dut@@ 4
challen@@ 4
ge-@@ 4
breitkrempigen 4
ersten 4
kastenwagen 4
rallyeauto 4
landschaft@@ 4
labradoodle 4
kunstmuseum 4
sedan 4
multi@@ 4
innerhalb 4
bern@@ 4
darsteller 4
sprühfarbe 4
va@@ 4
proje@@ 4
spinnrad 4
äl@@ 4
fahrradgeschäft 4
kauern 4
vorwärts 4
ti 4
ine@@ 4
armee 4
inning 4
aufzunehmen 4
bräun@@ 4
leck@@ 4
handwerk 4
obst- 4
blickfeld 4
tion@@ 4
sands 4
francisco 4
ktion@@ 4
stadtviertel 4
sty@@ 4
kirme@@ 4
entgegengesetzte 4
isches 4
spielmannszug 4
beamten 4
blumenfeld 4
gepflegten 4
lim@@ 4
bill 4
meerjungfrau 4
gleich@@ 4
krügen 4
trocknen 4
save 4
hopper 4
letzte 4
kniehohen 4
entre@@ 4
spielend 4
billy 4
menschenschlange 4
sportliche 4
langarmhemd 4
toten@@ 4
espresso 4
pon@@ 4
bikinioberteil 4
kleidungsstücke 4
bener 4
scre@@ 4
cki@@ 4
lage 4
glasgebäude 4
gigan@@ 4
nähern 4
kleinbus 4
boar@@ 4
großküche 4
indianischer 4
fotograph 4
kers 4
schneidebrett 4
hippie 4
schrift 4
objekten 4
laufender 4
tee@@ 4
kanne 4
dom 4
fotographen 4
isra@@ 4
poolbillard 4
jum@@ 4
laufende 4
grün-weiß 4
orange@@ 4
gezogenen 4
absperrungen 4
gebückter 4
schmettern 4
schere 4
mac@@ 4
militärs 4
inklusive 4
esszimmer 4
hausmeister 4
blusen 4
geschäf@@ 4
@ 4
mixt 4
vietnamese 4
militäruniformen 4
schippen 4
denken 4
müllbeutel 4
chie@@ 4
california 4
50 4
% 4
sla@@ 4
männergruppe 4
tails 4
gerätschaften 4
30@@ 4
befreit 4
gy@@ 4
ding@@ 4
mobilen 4
browni@@ 4
matador 4
kiefer 4
ausführung 4
fanta@@ 4
gedanken 4
stell@@ 4
unterbricht 4
spazier@@ 4
terminals 4
fußballmannschaften 4
sexy 4
schmutziger 4
strafzettel 4
schokoladeneis 4
sum@@ 4
portraits 4
ohrhörern 4
darts 4
karikatur 4
ma 4
zers 4
haltestelle 4
sprüh@@ 4
stant 4
soon 4
tend 4
sha@@ 4
kostü@@ 4
feuerwehrwagen 4
mob 4
stock@@ 4
obdachlose 4
bevölk@@ 4
stat@@ 4
bucks 4
boutique 4
liegestütze 4
statur 4
didgeri@@ 4
doo 4
tors 4
harlem 4
werbetafel 4
heimat@@ 4
girl@@ 4
luftsprung 4
produ@@ 4
v-@@ 4
fegen 4
195@@ 4
empor 4
mexico 4
hon@@ 4
30 4
kühen 4
betrieb 4
ärzte 4
belebter 4
builder 4
roller-derby-spiel 4
cadillac 4
unge@@ 4
comi@@ 4
ritual 4
grund@@ 4
vitrine 4
komo@@ 4
jen@@ 4
20@@ 4
zeug@@ 4
blumenmädchen 4
vo 4
chine@@ 4
,@@ 4
kostet 4
moose 4
ple@@ 4
nel 4
ffi@@ 4
kimono 4
aer@@ 4
hs 4
volksfest 4
cel@@ 4
mädchen@@ 4
va 4
tattoo-künstler 4
louvre 4
elektri@@ 4
untergrundbahn 4
again 4
signal 4
athlet 4
wettkampf@@ 4
rit@@ 4
corn@@ 4
tau@@ 4
stau@@ 4
zweige 4
samurai 4
acce@@ 4
penn 4
sportbekleidung 4
schnitzen 4
eds 4
manövriert 4
radfahrerin 4
mustang 4
geküsst 4
needle 4
pl@@ 4
poker 4
real 4
change 4
ia 4
13 4
key@@ 4
kne@@ 4
cop@@ 4
khakihosen 4
part@@ 4
patron 4
38 4
leotards 4
boo@@ 4
footballteam 4
baseballwerfer 4
orioles 4
fum@@ 4
veteran 4
inline@@ 4
defen@@ 4
63 4
jetski 4
jour@@ 4
hou@@ 4
minnesota 4
iowa 4
rodgers 4
sun-@@ 4
inten@@ 4
kee@@ 4
experi@@ 4
hollister 4
fiel@@ 4
ppers 4
oakland 4
kopf-@@ 4
ey 4
kicker 4
physi@@ 4
amaran 4
lebron 4
james 4
colum@@ 4
powerpoint 4
badminton@@ 4
enthusiast 4
extreme 4
ets 4
roadway 4
know 4
trained 4
packing 4
weird 4
propane 4
villagers 4
youths 4
directly 4
smoothing 4
solitary 4
footbridge 4
communicating 4
brochure 4
pancake 4
extremely 4
firetrucks 4
flour 4
weathered 4
dozens 4
burgers 4
reddish 4
four@@ 4
automobile 4
driven 4
pretending 4
removing 4
structures 4
stools 4
constructing 4
headbands 4
speedo 4
seeds 4
aters 4
jewelery 4
seaweed 4
pig 4
paintbrush 4
grins 4
chop@@ 4
tip 4
ies 4
apparel 4
early 4
cul@@ 4
retail 4
begging 4
crab 4
piggyback 4
cream@@ 4
lip 4
weeds 4
mea@@ 4
sucking 4
someones 4
hips 4
statues 4
circu@@ 4
cting 4
stirs 4
orders 4
straps 4
buoy 4
unseen 4
arid 4
tightly 4
ther 4
cartoon 4
turtle 4
atten@@ 4
bookstore 4
headscarves 4
rode 4
spear 4
peeks 4
stationary 4
wades 4
crib 4
earmuffs 4
plowing 4
formed 4
val 4
overhang 4
terrace 4
videotaping 4
youngsters 4
flea 4
less 4
graduation 4
trombone 4
megaphone 4
substance 4
intri@@ 4
cate 4
tasting 4
waring 4
drops 4
lemons 4
salad 4
inflated 4
gated 4
picker 4
yo-yo 4
whispering 4
oxen 4
word 4
mesh 4
strikes 4
emerging 4
ladders 4
charcoal 4
dolphin 4
sculpting 4
liberty 4
loose 4
pastries 4
pant 4
fati@@ 4
gues 4
mechanic 4
exciting 4
siting 4
comp@@ 4
ries 4
vast 4
powder 4
submerged 4
beat 4
gyp@@ 4
sniffs 4
readying 4
tattered 4
cause 4
bringing 4
peeling 4
participants 4
passionately 4
bush@@ 4
soldering 4
lear@@ 4
weave 4
instructor 4
rabbit 4
rocking 4
technique 4
curious 4
owners 4
dirt-@@ 4
gle@@ 4
sunhat 4
avoid 4
likely 4
exposed 4
occurring 4
controls 4
vering 4
pregnant 4
advent@@ 4
cleaned 4
shields 4
cent 4
cycles 4
floppy 4
mailbox 4
litter 4
strip 4
lid 4
thinking 4
seagull 4
spi@@ 4
overturned 4
messenger 4
potted 4
despite 4
think 4
ures 4
freshly 4
such 4
delicious 4
pressure 4
wrapping 4
glan@@ 4
mountainside 4
hopscotch 4
archite@@ 4
typical 4
galloping 4
topic 4
imp@@ 4
rear 4
mustached 4
hikes 4
blue-green 4
playpen 4
cinder 4
photography 4
basement 4
winning 4
cabin 4
roping 4
retrieving 4
lifeguards 4
stay 4
cupcake 4
piled 4
snowing 4
bridal 4
crayon 4
tery 4
studies 4
slot 4
hauling 4
ature 4
supervi@@ 4
layers 4
technology 4
swampy 4
actively 4
paws 4
breaking 4
chickens 4
leafless 4
scratching 4
organizing 4
metallic 4
ice-@@ 4
spikes 4
helmeted 4
sloping 4
ssy 4
greeting 4
circ@@ 4
selecting 4
sight 4
sculptor 4
chiseling 4
ass@@ 4
twirling 4
overcoat 4
tosses 4
plucking 4
guitarists 4
accepting 4
long-@@ 4
aerial 4
speakers 4
media 4
casts 4
bats 4
ight 4
wicker 4
prizes 4
jazz 4
basketballs 4
beards 4
saddle 4
bowler 4
poverty 4
tiles 4
coca-cola 4
stocking 4
half@@ 4
organ 4
brea@@ 4
bathrobe 4
spiked 4
bracelet 4
known 4
ately 4
sunrise 4
adorable 4
shit 4
alike 4
convertible 4
snorkel 4
squares 4
remote 4
chested 4
lonely 4
pokes 4
streetlight 4
bungee 4
cords 4
once 4
weighing 4
tightrope 4
stacking 4
came 4
projected 4
western 4
washed 4
viewer 4
engage 4
oklahoma 4
ref 4
floored 4
dribbling 4
banging 4
markings 4
peach 4
lap@@ 4
arabic 4
sweaty 4
craftsman 4
impressive 4
crutches 4
used 4
africa 4
oversized 4
comb 4
vacation 4
tram 4
currently 4
shoots 4
outs 4
noodles 4
ery 4
scrap 4
carpeted 4
roses 4
dolly 4
demonstrating 4
slip 4
railway 4
siding 4
inspect@@ 4
drop 4
lic 4
calling 4
powered 4
loco@@ 4
shapes 4
ying 4
aircraft 4
hooping 4
lled 4
kayaker 4
descend 4
flatbed 4
twelve 4
cou@@ 4
button-down 4
helped 4
sandal 4
unidentified 4
closer 4
surround 4
zing 4
except 4
taught 4
sleeve 4
mechanical 4
plea@@ 4
purchasing 4
fetching 4
med 4
snake 4
kayakers 4
foundation 4
one-@@ 4
milk 4
over-sized 4
break@@ 4
blan@@ 4
daughters 4
competes 4
build 4
wool 4
texts 4
ridding 4
beyond 4
warning 4
participates 4
sheepdog 4
seniors 4
decide 4
via 4
kiddie 4
wraps 4
workbench 4
areas 4
fluorescent 4
steer 4
sashes 4
stairwell 4
scottish 4
eatery 4
county 4
surroundings 4
sip 4
celebrates 4
boulders 4
pirates 4
note 4
dramatically 4
poised 4
strawberry 4
owner 4
enjo@@ 4
paintings 4
attraction 4
patrol 4
file 4
colli@@ 4
kitten 4
jar 4
coconuts 4
bronze 4
scared 4
landed 4
alcohol 4
thy 4
chews 4
skimpy 4
spandex 4
caution 4
ramps 4
promoting 4
blade 4
diners 4
frustrated 4
wipes 4
ping-pong 4
rea@@ 4
cubicle 4
muzzles 4
pictured 4
tuning 4
quick 4
tackles 4
storage 4
dding 4
forces 4
nat@@ 4
collection 4
deci@@ 4
shing 4
black-@@ 4
goers 4
electronics 4
artificial 4
temporary 4
dunes 4
gued 4
swi@@ 4
receive 4
keeping 4
fourth 4
tagged 4
fed 4
letters 4
puffy 4
defenders 4
sumo 4
sprinting 4
gling 4
contemplating 4
guarding 4
created 4
firing 4
violinist 4
wetsuits 4
bag@@ 4
sco@@ 4
hawk 4
able 4
mind 4
cruise 4
loo@@ 4
maneuver 4
seashore 4
itted 4
ical 4
open-air 4
receives 4
stockings 4
hilly 4
returning 4
rec@@ 4
frames 4
itude 4
civil 4
shave 4
motorboat 4
era 4
intense 4
sorts 4
cemetery 4
cles 4
sunbathers 4
cookie 4
exits 4
quaint 4
yellow-@@ 4
brimmed 4
lock 4
professionals 4
mmed 4
unpaved 4
marks 4
-down 4
fighter 4
joggers 4
extended 4
cables 4
old-fashioned 4
prints 4
ingly 4
spin 4
else 4
soil 4
wigs 4
gymnastic 4
chubby 4
runway 4
law 4
enforcement 4
disk 4
mermaid 4
unpacking 4
octopus 4
troops 4
enthusiastically 4
polish 4
slab 4
mac 4
preparation 4
stalks 4
slender 4
padding 4
write 4
tap 4
incoming 4
fashionable 4
rabbits 4
hidden 4
clim@@ 4
decora@@ 4
fine 4
ines 4
scale 4
asking 4
thought 4
ong 4
holiday 4
postal 4
concentra@@ 4
torn 4
wns 4
swimwear 4
balconies 4
taller 4
similarly 4
graphic 4
parasol 4
spectate 4
thers 4
slices 4
magi@@ 4
bookbag 4
coveralls 4
rous 4
pillars 4
trims 4
drainage 4
rounds 4
possession 4
scoop 4
trie@@ 3
bs@@ 3
ausgestopften 3
angebunden 3
gangen 3
ehemann 3
picknicktischen 3
ek@@ 3
won@@ 3
do-@@ 3
sprungtritt 3
propan@@ 3
gasgrill 3
nische 3
stückchen 3
sender 3
gefrorene 3
ignoriert 3
haupt@@ 3
reklame@@ 3
duckt 3
senkrecht 3
glättet 3
hnen 3
schlauchbooten 3
ßi@@ 3
stamms 3
smat@@ 3
telef@@ 3
kommuniziert 3
walkie-talkie 3
restauranttisch 3
rä@@ 3
ungsk@@ 3
lösch@@ 3
latzhose 3
lehr@@ 3
reibt 3
pflege@@ 3
zünden 3
seifen@@ 3
dutzende 3
krab@@ 3
feuers 3
lichten 3
käfer 3
zehn 3
es@@ 3
stischen 3
kanister 3
wassernähe 3
blüten@@ 3
radfahrzeug 3
umgekippten 3
sticht 3
küssen@@ 3
teamkollegen 3
gesichts@@ 3
seilspielzeug 3
altmodische 3
glatten 3
atem 3
viel@@ 3
zusammenkunft 3
diet 3
gebunden 3
wartungsarbeiten 3
schutzweste 3
ak@@ 3
ilt 3
mehrfarbigem 3
betten 3
gü@@ 3
waggon 3
zerklein@@ 3
hochzuheben 3
shish 3
zweigen 3
komplex 3
platz@@ 3
laderampe 3
dinosaurier 3
prinzess@@ 3
sichert 3
stellte 3
wur@@ 3
kapuzenjacke 3
athleten 3
leitungen 3
schten 3
breit 3
giert 3
kappen 3
schräg 3
oran@@ 3
zwanzig 3
mehrerer 3
schildkappe 3
teur@@ 3
leisten 3
chteten 3
krabbe 3
drachen@@ 3
hochzeitstag 3
glä@@ 3
gottesdienst 3
tastatur 3
sonnenschild 3
golfschläger 3
kampfsportkleidung 3
vorführen 3
blich 3
progra@@ 3
mahl@@ 3
schotter@@ 3
ghand@@ 3
ffer@@ 3
misch@@ 3
unkraut 3
fensterbank 3
wasserweg 3
weiblicher 3
gart 3
stirn@@ 3
vollge@@ 3
glatz@@ 3
köpfigen 3
plan 3
komplizierten 3
gemäldes 3
schlachtet 3
pferds 3
jahrmarkts@@ 3
käfi@@ 3
ungewöhnlich 3
indian@@ 3
cello@@ 3
aufwärts 3
tene 3
gesenkt 3
mongolian 3
leuchtreklame 3
übergeben 3
impro@@ 3
fass@@ 3
dutzend 3
diger 3
kapuzenteil 3
miniatur@@ 3
unt 3
arbeitsplatte 3
bestellung 3
militärangehöriger 3
sle@@ 3
gerissenen 3
radweg 3
fensters 3
version 3
tchen 3
hunderennen 3
schwimmanzug 3
bake 3
vierb@@ 3
nerin 3
boje 3
schwamm 3
bärtigen 3
egt 3
stüte 3
verletzte 3
ungslos 3
hawaii-hemd 3
wakeboards 3
darum 3
gewinnt 3
schultertasche 3
sturm@@ 3
gieren 3
sz@@ 3
famous 3
flache 3
kürbisfeld 3
wasserpfütze 3
heraush@@ 3
ängt 3
schicken 3
sorten 3
ziegelstraße 3
abfälle 3
apo@@ 3
pfer 3
knall@@ 3
trägern 3
baumgruppe 3
sperren 3
kletter@@ 3
gerü@@ 3
erklettert 3
schwert@@ 3
einfach 3
flachem 3
angeleint 3
kippt 3
gateway 3
mierter 3
durcheinander 3
klettergurt 3
frig 3
hr 3
beginn@@ 3
farbspritzern 3
absperr@@ 3
begleit@@ 3
bildet 3
spitzbart 3
spannen 3
kuscheln 3
gekreuzten 3
zitronen@@ 3
gradu@@ 3
stellungen 3
parkettboden 3
blumentopf 3
terin 3
für@@ 3
arkade 3
dj@@ 3
gewalt 3
brut@@ 3
aufnehmen 3
acker@@ 3
drahtseil 3
bass@@ 3
komischen 3
megafon 3
zige 3
ethnischer 3
tropfen 3
gemüsemarkt 3
pappkarton 3
schafft 3
substanz 3
lampen@@ 3
sportteam 3
kommen@@ 3
apfel@@ 3
kontrolliert 3
jogginganzug 3
spre@@ 3
koffer@@ 3
mitarbeiterin 3
angler 3
außenwand 3
feuerwehrangehöri@@ 3
traktor@@ 3
greifer 3
herauszufinden 3
baseballplatz 3
trockner 3
lehm@@ 3
urbanen 3
seh@@ 3
fassen 3
plüsch-@@ 3
chevrolet 3
gebackenen 3
zäunte 3
jack-@@ 3
stheke 3
reparatur 3
vermähltes 3
eidech@@ 3
lacki@@ 3
schuhputzer 3
shosen 3
archäolo@@ 3
gischen 3
saiteninstrumente 3
dreiräder 3
fün@@ 3
stoffen 3
wasserpistole 3
verzerrtes 3
skistöcken 3
wildwasser@@ 3
überführung 3
surfboarder 3
verläuft 3
ations@@ 3
erkundet 3
sushi 3
ppt 3
kommunizieren 3
street@@ 3
bergab 3
fliegen@@ 3
klötzen 3
lig 3
getupften 3
angst 3
auen 3
stramm 3
metallstück 3
schmiede@@ 3
goldfarbener 3
wandtafel 3
bewölktem 3
wechs@@ 3
matschigen 3
arbeitshand@@ 3
werkzeuggürtel 3
aufregen@@ 3
gemein@@ 3
cells 3
dünner 3
zwickt 3
blasinstrumente 3
fragen 3
gefährt 3
mountain@@ 3
gescho@@ 3
twä@@ 3
lotter@@ 3
synchroni@@ 3
kassen@@ 3
astronauten@@ 3
soldaten@@ 3
plastikrutsche 3
riesiges 3
training@@ 3
lineal 3
eingepacktes 3
malerische 3
rums 3
türkis 3
müssen 3
antw@@ 3
cowboystiefeln 3
mischung 3
weiß-blauen 3
zahnspange 3
gä@@ 3
unken 3
skorb 3
still@@ 3
holzkohlegrill 3
mittl@@ 3
takt 3
slow 3
hochspringen 3
schokoladen@@ 3
wunderkerze 3
dj-@@ 3
zigeuner@@ 3
frankreich 3
eingebo@@ 3
pflücken 3
förmlichen 3
anlass 3
gemusterte 3
teppiche 3
rennautos 3
rockt 3
kt@@ 3
spira@@ 3
zweck 3
wartebereich 3
raft@@ 3
skijacke 3
bohrer 3
mosaik 3
gewun@@ 3
spielzeugzug 3
amp@@ 3
lebha@@ 3
staubsaugerschlauch 3
reflektierender 3
behinderte 3
offen 3
immigration 3
bierflaschen 3
feuern 3
gastronomie@@ 3
bittet 3
halloween-kostümen 3
gerei@@ 3
rasier@@ 3
renoviert 3
kaukasischer 3
fö@@ 3
hn 3
angelein@@ 3
voneinander 3
ausgelassen 3
pirat 3
hnen@@ 3
präsentieren 3
linge 3
stahl 3
schnau@@ 3
kampfsportt@@ 3
unterlage 3
eingeschal@@ 3
plastiktüten 3
bergpfad 3
wissenschaftlichen 3
buddelt 3
bestehenden 3
geschminkte 3
ausführt 3
prozession 3
sitze 3
abenteuer@@ 3
gall@@ 3
mick@@ 3
gebückt 3
afroamerikanischen 3
würfel 3
halstü@@ 3
fallen@@ 3
versetzt 3
opf 3
marktstraße 3
kugeln 3
ry-@@ 3
meine 3
spir@@ 3
clipboard 3
ros@@ 3
gemuster@@ 3
inne 3
lux@@ 3
houston 3
gelassenen 3
sperrt 3
wirk@@ 3
grundstück 3
sinn 3
prunkvollen 3
herbsttag 3
rasierer 3
frau@@ 3
henna-tattoo 3
schnor@@ 3
ffe@@ 3
son@@ 3
felsformationen 3
seilt 3
bewachen 3
beugen 3
heimwerker@@ 3
fes 3
aschenbahn 3
handvoll 3
holz-@@ 3
incredible 3
fallschirmspringer 3
erfahrener 3
wohngegend 3
unterschied@@ 3
lichtung 3
zäun@@ 3
gemeinde 3
städ@@ 3
sommer 3
itäten 3
verwahrlo@@ 3
könn@@ 3
touristengruppe 3
bene 3
gesä@@ 3
steig 3
schutthaufen 3
tarnmuster 3
u-bahn-wagen 3
bikini-unterteil 3
sport-bh 3
chten@@ 3
cheln 3
astro@@ 3
gierig 3
stlichen 3
steh@@ 3
lupe 3
identisch 3
ät 3
ett 3
blutdruck 3
blau-rosa 3
stützen 3
essensverkäufer 3
rennhunde 3
verkehrsreichen 3
wanderern 3
hängegleiter 3
tages@@ 3
auswirft 3
geometrischen 3
ostasiati@@ 3
ausgelegt 3
angeschnallt 3
hingesetzt 3
sessen 3
kochkleidung 3
pelz@@ 3
galoppiert 3
schneewehe 3
hintere 3
burgunder@@ 3
waldhorn 3
beschädigtes 3
schmutzigem 3
sattelzug 3
pst 3
selbst@@ 3
kaltes 3
lebensmittelverkäufer 3
foyer 3
buden 3
formellen 3
bespritzen 3
saiten 3
front@@ 3
friseursalon 3
wanderstöcke 3
fairway 3
nägel 3
elten 3
richtern 3
jalou@@ 3
krokodil@@ 3
schleier 3
verdre@@ 3
verschmi@@ 3
regalen 3
torwart 3
jer@@ 3
größer 3
seitenstraße 3
betreut 3
freun@@ 3
knu@@ 3
weihnachtsmann@@ 3
bustier 3
akustischen 3
walmart-@@ 3
veranstaltungsort 3
zapfen 3
abzeichen 3
meister 3
weihnachtszeit 3
neues 3
fässern 3
suppe 3
pokemon 3
bracht 3
tauscht 3
speist 3
zuschau@@ 3
trock@@ 3
tote 3
latex@@ 3
kiesweg 3
rads 3
gänse@@ 3
blüm@@ 3
bären 3
erhebung 3
danach 3
ssiert 3
verletzten 3
gekauft 3
schlepper 3
verrichtet 3
rot-weißer 3
biergläsern 3
und-@@ 3
ähn@@ 3
gelän@@ 3
medizinisches 3
hochgelegten 3
schwul@@ 3
ausgestopfte 3
seht 3
bahnarbeiter 3
kontrollieren 3
aufgesetzten 3
stillt 3
way-@@ 3
grau-weiße 3
schwestern 3
kabin@@ 3
beamter 3
spfad 3
usa-@@ 3
einstie@@ 3
metallob@@ 3
fast@@ 3
holzgebäude 3
ca 3
dorf@@ 3
dent@@ 3
stadtbild 3
drein 3
angekettet 3
segel 3
teppichen 3
weiß-grauen 3
passender 3
telefon@@ 3
rikscha@@ 3
gasmaske 3
eingangshalle 3
tennisspiel 3
flugzeug@@ 3
damen@@ 3
laufkleidung 3
gne 3
verloren 3
geschnitzte 3
wieder@@ 3
desserts 3
landes 3
sicht@@ 3
mädchen-@@ 3
drängt 3
karneval 3
pal@@ 3
europäisches 3
tze 3
zufahrt 3
komplizi@@ 3
handgelenk 3
gesichtsmasken 3
geduckter 3
erisch 3
winterjacken 3
flucht 3
basteln 3
hübsches 3
leitung 3
oi@@ 3
campern 3
förmige 3
blei@@ 3
liefer@@ 3
outdoor-veranstaltung 3
auszuruhen 3
geöffne@@ 3
handgelen@@ 3
bukett 3
fußballtrikots 3
übereinander 3
geschlagenen 3
orange-weiß 3
schwerem 3
entdeckt 3
kurzhaariger 3
steigung 3
metalli@@ 3
wasserfalls 3
musikstück 3
haarsalon 3
fähre 3
kill 3
handtüchern 3
gebäck 3
cool@@ 3
ssel 3
fäuste 3
korbstuhl 3
verstreut 3
preise 3
rummel 3
schenden 3
amerika 3
glücklichen 3
druck 3
pau@@ 3
t. 3
ausgefallen@@ 3
hellem 3
gewächshaus 3
reklame 3
hörnern 3
rötlichen 3
überfüll@@ 3
bowlingspieler 3
monitore 3
schlitten@@ 3
bastel@@ 3
halbwilden 3
sw@@ 3
gartenwerkzeug 3
bock@@ 3
bootsanlegestelle 3
sky-@@ 3
wohl 3
langärmeli@@ 3
lego@@ 3
klar@@ 3
plastikstuhl 3
neu 3
steck 3
stachel@@ 3
freiluftkonzert 3
zäh@@ 3
galerie 3
fußgängerüber@@ 3
zz@@ 3
lum@@ 3
biente 3
ischer 3
vogelschwarm 3
bleckt 3
angegriffen 3
liebe 3
backwaren 3
dalmatiner 3
kniestrümpfen 3
fußballnetz 3
dasselbe 3
eisenbahn 3
mr. 3
parkweg 3
filmset 3
gelenkt 3
erör@@ 3
grau-weißer 3
baseballs 3
ingham 3
bedeck@@ 3
doppel@@ 3
einander@@ 3
qual@@ 3
durchnä@@ 3
empfan@@ 3
kerami@@ 3
marschkapelle 3
buster 3
leichtathlet 3
straßenlaterne 3
wohnwagen 3
bungee-@@ 3
schmerzen 3
hätte 3
brustkorb 3
gehe@@ 3
gerüsten 3
sbehälter 3
gebeugter 3
rotbraunen 3
verheiratete 3
proji@@ 3
rollkragenpullover 3
senffarbenen 3
backstein@@ 3
niedliches 3
ziegen@@ 3
drachenkostüm 3
flieger@@ 3
rastet 3
baumbestand@@ 3
weges 3
klammert 3
positi@@ 3
nut@@ 3
sportgeschäft 3
scrabble 3
häuser@@ 3
kristall@@ 3
erwachsen@@ 3
beschäf@@ 3
sooners-@@ 3
attackieren 3
angriffs@@ 3
violett-@@ 3
football-mannschaften 3
28@@ 3
vortragssaal 3
sängern 3
glätten 3
oldtimer-@@ 3
cabri@@ 3
ckigen 3
albert 3
sieb 3
pulli 3
redend 3
mten 3
ders@@ 3
span@@ 3
übergewichtige 3
arabi@@ 3
pods 3
synchron 3
karussel 3
gebundenen 3
ita@@ 3
picknickbank 3
verschwit@@ 3
kurzhaarige 3
einhän@@ 3
stutzt 3
ron@@ 3
schafts@@ 3
hö@@ 3
sprintet 3
samen 3
gehörschutz 3
bezeichnet 3
passant 3
ähnlicher 3
barriere 3
frisbees 3
maler@@ 3
mann-@@ 3
é 3
breites 3
-konzert 3
schlammgrube 3
dick@@ 3
reißen 3
kapit@@ 3
stad@@ 3
basketballwurf 3
allen 3
lam@@ 3
wörter 3
verkaufs@@ 3
aufgehängt 3
übergroßen 3
custody 3
hintern 3
gespon@@ 3
schalen 3
posen 3
kissen@@ 3
tulpen 3
dehnt 3
gebeug@@ 3
kleinem 3
stum@@ 3
rodeo-arena 3
durcht@@ 3
gokart 3
vorbeilaufen 3
gestrichenen 3
lebhaft 3
putz@@ 3
drag@@ 3
hinterrad 3
gummi 3
örtlicher 3
95@@ 3
restauran@@ 3
blau-braunen 3
testen 3
mündern 3
itti 3
laut 3
anleitung 3
verrückter 3
vorm 3
brennt 3
buck@@ 3
gesellschafts@@ 3
sporthose 3
sste 3
gruppenbild 3
frühling@@ 3
unechten 3
schigen 3
rundherum 3
berufskleidung 3
beri@@ 3
handgerät 3
industri@@ 3
transportwagen 3
mauern 3
gemü@@ 3
bandkollegen 3
burn 3
beigefarbener 3
ter-@@ 3
kitt@@ 3
betriebenen 3
größ@@ 3
straßenbahn 3
cup@@ 3
ke-@@ 3
roo@@ 3
arr@@ 3
wunderkerzen 3
ssa@@ 3
mauer@@ 3
abgeschnittenen 3
gegrill@@ 3
hinunterzu@@ 3
ästen 3
jogginghose 3
pn@@ 3
landwir@@ 3
gurt@@ 3
schwimmflügel 3
spanien 3
arra@@ 3
porträts 3
schwitzt 3
pingu@@ 3
heiten 3
kongre@@ 3
ra 3
alphabe@@ 3
bücherei 3
fleck 3
kaffeetisch 3
hellblauem 3
werbeanzeige 3
möbel 3
statt@@ 3
haup@@ 3
button-down@@ 3
schü@@ 3
tanzenden 3
-geschäft 3
pfer@@ 3
sandale 3
vern 3
gartenstühlen 3
früchten 3
identifi@@ 3
fort@@ 3
kran@@ 3
kleinerer 3
latten@@ 3
kler 3
bon 3
trü@@ 3
vorschlaghammer 3
klo@@ 3
bauarbeiterhelm 3
energi@@ 3
hasenohren 3
aben@@ 3
brocken 3
eiswagens 3
trauzeugen 3
verwendung 3
spektakulären 3
stethoskop 3
geldbörsen 3
reh 3
gung 3
mechanischen 3
geeig@@ 3
bearbeitung 3
shi@@ 3
onne 3
softballspieler 3
zementmischer 3
gitarrenspieler 3
saft 3
geschir@@ 3
blues 3
orchester@@ 3
unterstützung 3
wildblumen 3
betreibt 3
kreuzen 3
ausstreckt 3
enes 3
trit@@ 3
mittelstreifen 3
denden 3
shü@@ 3
flyer 3
wü@@ 3
kekse 3
artig 3
mil@@ 3
größerer 3
funden 3
fahrersitz 3
industriegebäude 3
cket 3
steinweg 3
beat@@ 3
feuerwerksk@@ 3
örper 3
mole 3
winkel@@ 3
bull-@@ 3
zahlreichen 3
gewaschen 3
schaufenster@@ 3
weiter@@ 3
spanische 3
modischen 3
magazin 3
ehe@@ 3
vw 3
bären@@ 3
umgibt 3
hindernisse 3
ziegel-@@ 3
stände 3
nu@@ 3
ckel 3
bänder 3
schreib@@ 3
priv@@ 3
muskeln 3
pavillon 3
gefähr@@ 3
schreitet 3
gemeinsame 3
isi@@ 3
fordert 3
ppel@@ 3
aufgereg@@ 3
ür@@ 3
nieder@@ 3
art@@ 3
äpfeln 3
gebiets 3
mengen 3
teammitglied 3
sprit@@ 3
wasserpistolen 3
brasili@@ 3
kaufhaus@@ 3
sch-@@ 3
abzufangen 3
om@@ 3
entscheiden 3
sonnendurchfluteten 3
zerren 3
seahawks 3
weinglas 3
bereichs 3
verwirr@@ 3
ien@@ 3
mittags@@ 3
aktivitäten 3
metallgeländer 3
vera@@ 3
säubern 3
orange-weißen 3
besteigen 3
dichten 3
herausragen 3
vollständig 3
angemalt 3
bürogebäude 3
traurigen 3
sonn@@ 3
tag@@ 3
straßenstand 3
nahost 3
auftreten 3
wühlt 3
lenkrad 3
tiger@@ 3
beleibter 3
spielgerät 3
getaucht 3
irokesenfrisur 3
übers 3
deutlich 3
rechen 3
getraut 3
mexi@@ 3
kaugummi@@ 3
puppen@@ 3
konstruktionen 3
dienst@@ 3
schwimmbrillen 3
spen@@ 3
det 3
kassi@@ 3
bildschirme 3
grundschulkinder 3
arten 3
schluck 3
zeugen 3
wie@@ 3
couchtisch 3
picknickdecke 3
zung 3
breitet 3
dachshund 3
hängenden 3
werdender 3
mais 3
diashow 3
seilrutsche 3
schulter@@ 3
ringträger 3
knöpften 3
tarnhose 3
religiösen 3
aufklebern 3
stabhoch@@ 3
piraten 3
cheese@@ 3
notiz 3
bagg@@ 3
marshmal@@ 3
lows 3
-gruppe 3
nachrichten@@ 3
festlichen 3
spritzwasser 3
gewandt 3
wartungsarbeiter 3
großmutter 3
iner 3
säcke 3
gestapelt 3
seetang 3
jahr@@ 3
freie 3
stop@@ 3
schneebedecktem 3
frie@@ 3
dunkelhäutiges 3
küstenlinie 3
dün@@ 3
netzes 3
mana@@ 3
wun@@ 3
styropor@@ 3
sno@@ 3
schwimmbeckens 3
nacht@@ 3
meditiert 3
zahlen 3
imbissstand 3
bende 3
interessantes 3
regenstiefeln 3
schlammpfütze 3
stripe@@ 3
nied@@ 3
farblich 3
stimm@@ 3
bauarbeitern 3
startet 3
kies@@ 3
sack@@ 3
alien 3
ndes 3
fond 3
sar@@ 3
jahr 3
blass@@ 3
kokosnüsse 3
außergewöhn@@ 3
off-@@ 3
perfe@@ 3
fron@@ 3
scharfe 3
lesend 3
abo@@ 3
bronze@@ 3
heiß@@ 3
grindet 3
landebahn 3
gelandet 3
musiker@@ 3
bh 3
eiscrem 3
butterbrot 3
anschneiden 3
etes 3
rose 3
küchenboden 3
kani@@ 3
elast@@ 3
zeigefinger 3
wanderin 3
scheren 3
roller-@@ 3
weicht 3
stoppen 3
mitgliedern 3
beige-@@ 3
pinkfarbenes 3
ßig 3
entschlo@@ 3
fahrgäste 3
mikrosk@@ 3
abschleppwagen 3
ktisch 3
augenbrau@@ 3
schulkindern 3
softballspiel 3
topf@@ 3
cktem 3
volunteer 3
rugby-spieler 3
silbernes 3
herunterzu@@ 3
sturm 3
eishockey@@ 3
drängeln 3
handge@@ 3
blasinstrument 3
passer 3
dreie@@ 3
abgestimmten 3
feldern 3
doppeldecker@@ 3
mente 3
radfahr@@ 3
handgriff 3
abzunehmen 3
basketball-@@ 3
trauriges 3
getrock@@ 3
handbewegungen 3
durchschnitt@@ 3
geburtstagsfeier 3
aggressi@@ 3
pieren 3
fußballspiels 3
entlangfahren 3
uta@@ 3
schwarzhaarigen 3
ausgefransten 3
gruppen@@ 3
offen@@ 3
defense 3
heim 3
wen@@ 3
architek@@ 3
kontra@@ 3
matrosen@@ 3
hinterbeine 3
harkt 3
tollt 3
kürbi@@ 3
blau-weißer 3
schreibtischen 3
f-@@ 3
nonne 3
proben 3
dos 3
ansichten 3
geback@@ 3
panora@@ 3
lederkleidung 3
lebens 3
schubsen 3
wollen 3
streitkräfte 3
auszuziehen 3
monstertruck 3
krankenwagen 3
einzigartigen 3
eni@@ 3
val@@ 3
wäsche@@ 3
vordere 3
cricket@@ 3
drü@@ 3
sprungwurf 3
öffentlicher 3
gelb-blauen 3
woll@@ 3
fäustlingen 3
braun-weißem 3
post-@@ 3
samsung 3
gere@@ 3
anst@@ 3
ßigen 3
formi@@ 3
zopf 3
gtes 3
festum@@ 3
stung 3
treppenhauses 3
qualmt 3
hoben 3
bien@@ 3
seesack 3
gelo@@ 3
bumm@@ 3
laternen@@ 3
theater-@@ 3
trübes 3
spit@@ 3
-fahrer 3
kundschaft 3
eierkuchen 3
korbleger 3
weiten 3
brüstung 3
darstellt 3
toren 3
laken 3
papiertüte 3
pizz@@ 3
feucht@@ 3
mant@@ 3
glasur 3
kennen 3
vader 3
äh@@ 3
komp@@ 3
rosen@@ 3
arabischer 3
kamele 3
grou@@ 3
gleicher 3
tho@@ 3
stofftiere 3
ganze 3
breakdancer 3
snowboard@@ 3
spazierstöcken 3
schneeflo@@ 3
gefüttert 3
disne@@ 3
bedruckt 3
spannt 3
motorisierten 3
kawasaki 3
tonstudio 3
fügt 3
zusammengefunden 3
protestkundgebung 3
patientin 3
stroboskop@@ 3
got@@ 3
änzerin 3
täu@@ 3
strö@@ 3
blond@@ 3
steindenkmal 3
uft 3
unterlagen 3
hochdruck@@ 3
vol@@ 3
heran 3
feuerwehrfahrzeug 3
holzfäl@@ 3
überreicht 3
leert 3
weizen 3
koff@@ 3
geblockt 3
henden 3
gebäudeeingang 3
nadelstreifenanzug 3
ants 3
stor@@ 3
besetzte 3
teppichboden 3
altar 3
verteidigt 3
puma 3
tätowiert 3
gruppenfoto 3
weiß-roten 3
zeige 3
zum@@ 3
künstlern 3
hörnchen 3
dunkelhaarigen 3
piñata 3
kennzeichnung 3
transportmittel 3
fechter 3
basketbälle 3
transpor@@ 3
stemmt 3
llen 3
zielen 3
neoprenanzügen 3
boogie@@ 3
empfang@@ 3
bunt@@ 3
erkunden 3
speise@@ 3
sumpfgebiet 3
sque 3
esswaren 3
riss 3
klebt 3
hunderte 3
burka 3
kreuzfahrtschiff 3
trö@@ 3
modisch 3
eingerahmte 3
hübscher 3
ballet@@ 3
ckchen 3
blumendruck 3
mittelalterlichen 3
moschee 3
aufnahmestudio 3
diert 3
whatever 3
errichtet 3
gedruckt 3
gleichauf 3
gewich@@ 3
presst 3
radrenn@@ 3
französischen 3
que@@ 3
wochenmarkt 3
außentreppe 3
bummeln 3
schottenrock 3
viert 3
ligen 3
roh@@ 3
hügeligen 3
zusammenger@@ 3
ollt 3
rollschuhen 3
fallschirmen 3
wood@@ 3
schleudert 3
anbietet 3
hochstart 3
hockeymannschaften 3
schulband 3
braunhaarigen 3
ensemble 3
löff@@ 3
morgen@@ 3
ennbahn 3
sig@@ 3
karne@@ 3
vals 3
softballspiels 3
smokings 3
krö@@ 3
stacheligen 3
ling@@ 3
tunika 3
sanddünen 3
athle@@ 3
dudelsack@@ 3
train@@ 3
interessierten 3
choreograph@@ 3
konkurri@@ 3
problem 3
wäl@@ 3
beisammensein 3
fotoshooting 3
schach@@ 3
schutzanzügen 3
side-@@ 3
holztür 3
busi@@ 3
teter 3
föhnt 3
schuppen 3
pferch 3
kore@@ 3
anische 3
liert 3
mittler@@ 3
dod@@ 3
eisstand 3
hämmert 3
ant@@ 3
gin 3
kletterausrüstung 3
bürgersteigs 3
wartenden 3
brau@@ 3
lil@@ 3
plattenspieler 3
rollkoffer 3
hausge@@ 3
erste 3
pit@@ 3
str@@ 3
fachkräfte 3
boot@@ 3
artige 3
absätzen 3
ef@@ 3
atem@@ 3
trompeter 3
smittel@@ 3
lten 3
dokumente 3
pferderücken 3
söhne 3
zusammengedrängt 3
kulture@@ 3
verw@@ 3
abschluss@@ 3
pucks 3
kämpf@@ 3
keiten 3
showgirl 3
wäldern 3
rauch@@ 3
rugbyspiel 3
pianist 3
los@@ 3
kräf@@ 3
oberhemden 3
boxkampf 3
rampenlicht 3
anhält 3
champa@@ 3
schützend 3
strümpfen 3
pioneer 3
aussichtspunkt 3
klarem 3
ruder@@ 3
interagiert 3
busine@@ 3
skateboard@@ 3
polospieler 3
felder 3
militäri@@ 3
schwarm 3
geworfenen 3
vervollständigt 3
gew@@ 3
bän@@ 3
flughafens 3
ymca 3
erscheint 3
gemüsestand 3
wasserball 3
skaterin 3
übernimmt 3
bildschirms 3
freundes 3
spla@@ 3
runter@@ 3
straßenschild 3
perücken 3
schlo@@ 3
asphaltstraße 3
bemalte 3
kanadische 3
radsportler 3
bewertet 3
teddybären 3
herde 3
eistüten 3
menten 3
wirtschaftlichen 3
mustern 3
u.s. 3
lons 3
schritte 3
xes 3
paddelboot 3
yo@@ 3
transformer 3
jackson 3
bräunlichen 3
tabak 3
kickbox@@ 3
seichtes 3
ankommenden 3
klub 3
gewehre 3
musikkapelle 3
calvin 3
leur 3
chts 3
abschlag 3
” 3
fut@@ 3
ttern 3
fahrgästen 3
sattel@@ 3
worauf 3
corgi 3
gewebe 3
dragster 3
metallschüssel 3
wan 3
re 3
dahin@@ 3
cks@@ 3
lauschen 3
afrikanerin 3
rou@@ 3
errichten 3
baucht@@ 3
bestimm@@ 3
hölzernes 3
käse@@ 3
hochgescho@@ 3
doku@@ 3
aufgestellten 3
mönche 3
kurzärmeligen 3
sicherheit@@ 3
mikro@@ 3
schnell@@ 3
inderin 3
kundgebung 3
einzut@@ 3
haarnetz 3
mierte 3
vul@@ 3
eseln 3
wanderausrüstung 3
mische 3
zahl@@ 3
schein@@ 3
chens 3
polizeibeamte 3
ärztin 3
diat@@ 3
gummistiefeln 3
fallschirme 3
10@@ 3
geländemaschine 3
steuer@@ 3
bugs 3
irgendwelchen 3
stoffhut 3
anziehen 3
markisen 3
kartoffeln 3
tintenfisch 3
mariachi@@ 3
hecke 3
musi@@ 3
aufgewühl@@ 3
ohrring 3
mittelalterlicher 3
tron 3
schutzbrillen 3
universität 3
sgebäude 3
prahlt 3
maultier 3
anten 3
sonnt 3
gehendes 3
martini 3
förderband 3
räder 3
repor@@ 3
erb@@ 3
schmuck@@ 3
kaukasische 3
aufger@@ 3
megaphon 3
gewänder 3
mikrophonen 3
schilds 3
exper@@ 3
gitarrespieler 3
grafi@@ 3
weiteres 3
bläser 3
mine 3
lichkeiten 3
zugabteil 3
grüßt 3
cocktails 3
25@@ 3
annual 3
designer@@ 3
lli@@ 3
faust 3
loser 3
geparkte 3
eisskulptur 3
wärmen 3
brenner 3
lindgrünen 3
lilafarbenes 3
eig@@ 3
aufgeh@@ 3
ländischer 3
bloßen 3
torte 3
sage 3
schneer@@ 3
straßenkleidung 3
militärischer 3
gefließten 3
dress@@ 3
bring 3
fußballer 3
rasten 3
marathon@@ 3
ändert 3
kör@@ 3
frisches 3
ernten 3
wickel@@ 3
barett 3
reinigung@@ 3
pools 3
ot 3
empanadas 3
elegan@@ 3
ausgeschnittene 3
80@@ 3
region 3
transportieren 3
pum@@ 3
waren@@ 3
hispanoamerikaner 3
geno@@ 3
barbi@@ 3
ssten 3
filmen 3
einkäu@@ 3
gestürzt 3
aufbäu@@ 3
obstkarren 3
gepäckstücken 3
entlan@@ 3
patrick 3
beruhigt 3
fein@@ 3
cker@@ 3
planken 3
rohr@@ 3
schm@@ 3
jury 3
wäh@@ 3
chet 3
basketballplatz 3
jedoch 3
verschieden@@ 3
geschirrspüler 3
hügel@@ 3
fremd@@ 3
ländi@@ 3
gepolsterten 3
waage 3
geblie@@ 3
kniend 3
schlags 3
geschminkter 3
gewor@@ 3
leichtathletik@@ 3
hundeschau 3
96@@ 3
wunderschönes 3
sy-@@ 3
bodies 3
itten 3
hacke 3
troll@@ 3
friedens@@ 3
hür@@ 3
schleppen 3
paddy 3
russi@@ 3
angebot 3
jesus 3
send 3
aufgebaut 3
surf@@ 3
hartholz@@ 3
gesicher@@ 3
hoodies 3
entlangfährt 3
abseits 3
gefäl@@ 3
freiluftveranstaltung 3
heineken 3
kurses 3
indisches 3
kosten@@ 3
unbekannten 3
pompoms 3
kahlköpfigen 3
fußgänger@@ 3
broschüren 3
tent@@ 3
nagellack 3
heal@@ 3
vielzahl 3
akrobat@@ 3
shine 3
central 3
rückt 3
löchern 3
u-bahnhof 3
recycling 3
fire@@ 3
beeindruckende 3
alltag 3
insa@@ 3
oberkörpern 3
temp@@ 3
gemeinsamen 3
gome@@ 3
creme@@ 3
castro 3
blau-schwarzen 3
kino 3
beschmiert 3
gesellschaft 3
leak 3
spirit 3
enkelin 3
hm@@ 3
treff@@ 3
angeschaut 3
ballett 3
musikfestival 3
japaner 3
blech 3
binder 3
bronzestatue 3
tanktops 3
beritt@@ 3
förmiges 3
johns 3
tat@@ 3
geschäftsanzug 3
po 3
mountainbikes 3
ful@@ 3
gangs@@ 3
beleuchtete 3
kaner 3
schüler@@ 3
lot@@ 3
hijab 3
bills 3
aufnimmt 3
straßenlampe 3
freiheitsstatue 3
geländefahrer 3
atlanta 3
kro@@ 3
orange-blauen 3
ok 3
seltsamer 3
militärkleidung 3
kle 3
trennt 3
sil@@ 3
barker 3
kus@@ 3
übersäten 3
ming@@ 3
spitzen@@ 3
wissenschaft@@ 3
operieren 3
cowboyhüten 3
op 3
aufhalten 3
imbiss 3
notiz@@ 3
tierten 3
rotweißen 3
rot-grünen 3
skop 3
cola-@@ 3
dort 3
lauter 3
feuerwehrleuten 3
vorübergeht 3
musli@@ 3
rosarot 3
feinkost@@ 3
stadtteil 3
bühnenauftritt 3
angemalten 3
gas@@ 3
aufgemalt 3
vorüber@@ 3
arri@@ 3
blaugrünem 3
elegant 3
breeze 3
stal@@ 3
flugzeugen 3
memorabil@@ 3
schickt 3
bistro 3
stämmige 3
wendung 3
tsch@@ 3
abgelegt 3
forever 3
ny@@ 3
ahorn@@ 3
back-@@ 3
stadtgebiet 3
actionfoto 3
eiskrem 3
rüstung 3
reißt 3
bikini@@ 3
wohnmobil 3
unüberdachten 3
vieh@@ 3
afro-@@ 3
jacks 3
hellblauer 3
marktes 3
us-armee 3
mmelt 3
menschlichen 3
hintereinander 3
cowboykleidung 3
nachge@@ 3
oh 3
pancakes 3
cand@@ 3
dul@@ 3
meeresfrüchten 3
dit@@ 3
anie 3
spitz 3
nachbarschaftsladen 3
plakate 3
dreckigen 3
ausland 3
zut@@ 3
reno@@ 3
drän@@ 3
cue 3
stiert 3
carol 3
stoppt 3
afro 3
bedru@@ 3
pop@@ 3
ärmelloses 3
lee 3
langärmigen 3
angucken 3
liner 3
fabrikarbeiter 3
chao@@ 3
materi@@ 3
knieschützern 3
fän@@ 3
schiffes 3
gebrä@@ 3
knäuel 3
verkaufstand 3
graffiti-@@ 3
bes 3
tragend 3
irish 3
hat@@ 3
diplo@@ 3
ev@@ 3
nerf 3
jet@@ 3
wee 3
tech 3
schwe@@ 3
hy@@ 3
que 3
w-@@ 3
geräts 3
cyclone 3
management 3
entfernten 3
normal 3
bit@@ 3
stam@@ 3
ap@@ 3
sackt 3
gewicht 3
due 3
fired 3
gesichtsschutz 3
manövrieren 3
lex@@ 3
voice 3
scar 3
inlineskater 3
é@@ 3
rot-gelber 3
baserunner 3
steigenden 3
geo@@ 3
graphy 3
cari@@ 3
becher@@ 3
carca@@ 3
reagenz@@ 3
mulch 3
trikotnummer 3
lavi@@ 3
yankees 3
volleyballspielerin 3
marathonläuferin 3
rund@@ 3
baltimore 3
obern 3
bogen@@ 3
tackeln 3
kampfrichter 3
patties 3
fechtkampf 3
footballs 3
oth@@ 3
fechtwettkampf 3
vikings 3
habe 3
experiments 3
gno@@ 3
weiß-grünen 3
lehn@@ 3
ipad 3
laufbekleidung 3
kickboxer 3
containers 3
horn@@ 3
pfleger 3
herrenfriseur 3
gegnerischer 3
onist 3
rennkleidung 3
löcher 3
angles 3
grizz@@ 3
versenkt 3
verschwommen 3
motorradrennfahrer 3
foberteil 3
ce-@@ 3
bandage 3
töpferware 3
n-@@ 3
an-@@ 3
dampf 3
bassist 3
carol@@ 3
ina 3
flexible 3
squash 3
raw@@ 3
te-@@ 3
schools 3
skiläufer 3
majestä@@ 3
sonnentag 3
entertain@@ 3
pow@@ 3
heat 3
pack@@ 3
of@@ 3
tinker@@ 3
aro@@ 3
alaska 3
pulley 3
playhouse 3
sprinkling 3
jars 3
won 3
shielding 3
travel@@ 3
beans 3
some@@ 3
crouch 3
walkie 3
talkie 3
lounges 3
responding 3
baker 3
squat 3
suds 3
sparks 3
contain@@ 3
positions 3
flambo@@ 3
clasp@@ 3
canister 3
mid@@ 3
blown 3
four-wheeler 3
arrival 3
wrong 3
prevent 3
jugg@@ 3
carpen@@ 3
snows 3
enter 3
smith 3
tells 3
telling 3
collected 3
rs 3
medium-sized 3
awning 3
expensive 3
takeout 3
commuters 3
pers 3
services 3
demonstrates 3
rectangular 3
meals 3
trumpets 3
wn 3
butchering 3
cages 3
unusually 3
sat 3
uphill 3
bowed 3
crashed 3
lls 3
dozen 3
cleats 3
trots 3
alig@@ 3
sock 3
countertop 3
sprinkles 3
season@@ 3
skin 3
sponge 3
animat@@ 3
tends 3
size 3
stone-@@ 3
faced 3
maneuvering 3
footprints 3
napkin 3
loop 3
pumpkins 3
vacuums 3
removes 3
dec@@ 3
cheers 3
battling 3
bordered 3
dumps 3
cious 3
handicapped 3
rig 3
manhole 3
jackhammer 3
slee@@ 3
ripped 3
films 3
satchel 3
mannequins 3
overlooks 3
hard-@@ 3
thread 3
demonstra@@ 3
headgear 3
asc@@ 3
adding 3
hamburgers 3
press 3
mixes 3
ponders 3
claw 3
mirrored 3
oming 3
names 3
leafy 3
woodworking 3
sippy 3
forklift 3
exca@@ 3
archaeolo@@ 3
lakeside 3
elling 3
hula-hoops 3
med@@ 3
ironing 3
canned 3
overpass 3
ashore 3
pedd@@ 3
leaf@@ 3
-covered 3
explores 3
tasks 3
trough 3
sprinkled 3
paw 3
pastry 3
twirls 3
offers 3
addresses 3
graying 3
ere@@ 3
culture 3
gli@@ 3
sks 3
tted 3
lottery 3
astronaut 3
toilets 3
ruler 3
spreads 3
briefs 3
braces 3
mixed 3
director 3
flotation 3
fenced-in 3
vivid 3
layered 3
plugging 3
france 3
attired 3
took 3
tethered 3
turbans 3
streams 3
spiral 3
tricycles 3
distorted 3
lemon 3
mosaic 3
gardens 3
communi@@ 3
cation 3
ope 3
blow-up 3
waited 3
interior 3
amazing 3
dentist 3
procession 3
volunteers 3
grid 3
clams 3
ved 3
airline 3
school-aged 3
pages 3
now 3
itself 3
tug 3
coast@@ 3
elevator 3
wering 3
yawning 3
utensils 3
pairs 3
unison 3
formations 3
brin@@ 3
wling 3
enclosure 3
handful 3
weigh@@ 3
rises 3
livestock 3
paving 3
cano@@ 3
scri@@ 3
jug 3
study 3
expe@@ 3
descends 3
paneled 3
vacant 3
zip 3
skeleton 3
gifts 3
congregating 3
shadowed 3
geometric 3
congregated 3
fold-up 3
raging 3
whose 3
fists 3
crocodile 3
electrical 3
curtain 3
junk 3
reco@@ 3
dimly-lit 3
marsh@@ 3
veil 3
poorly 3
gger 3
pursued 3
warmly 3
ec@@ 3
figur@@ 3
rooster 3
oning 3
adul@@ 3
latex 3
rise 3
bouncy 3
clerk 3
gorgeous 3
assembly 3
lollipop 3
exit 3
bins 3
bagpipe 3
snowbank 3
launches 3
cereal 3
pretends 3
capit@@ 3
awe 3
flood 3
earbuds 3
campaign 3
bead 3
suite 3
flights 3
littered 3
flooded 3
fences 3
painters 3
landsca@@ 3
rainstorm 3
cakes 3
nuts 3
overs@@ 3
llama 3
sunhats 3
applied 3
crotch 3
exposing 3
growing 3
strewn 3
crystal 3
shelter 3
adolescent 3
investi@@ 3
assortment 3
ferry 3
fier 3
sparse 3
knives 3
happ@@ 3
ragged 3
mesmerized 3
seemingly 3
leys 3
remove 3
saxophones 3
equipped 3
baggage 3
featured 3
shelf 3
topped 3
pump 3
grouped 3
robed 3
patiently 3
welds 3
onlooker 3
toss 3
aquatic 3
tain 3
reviewing 3
attend 3
mid-jump 3
banquet 3
freeway 3
screwdriver 3
goof@@ 3
wallet 3
nursing 3
cabinet 3
indians 3
secured 3
dorm 3
heeled 3
depicting 3
blacktop 3
happening 3
boun@@ 3
maid 3
blossoming 3
wn@@ 3
dandeli@@ 3
turtleneck 3
reflections 3
bom@@ 3
marsh 3
xiously 3
scoops 3
better 3
adv@@ 3
bathed 3
infants 3
comm@@ 3
bounce 3
entertains 3
natural 3
arguing 3
ore 3
ditioning 3
geese 3
mustachioed 3
kickboxing 3
rav@@ 3
sprints 3
distri@@ 3
cushion 3
batons 3
mad 3
plains 3
captain 3
treats 3
answers 3
ducking 3
tulips 3
highly 3
rowers 3
tuxedos 3
terior 3
numbered 3
vement 3
knits 3
bounces 3
wea@@ 3
testing 3
polka-dot 3
cord 3
sips 3
needs 3
handlebars 3
drenched 3
violins 3
stants 3
facade 3
hoses 3
electrician 3
chew 3
yet 3
statute 3
sparklers 3
uncompleted 3
profile 3
spain 3
sweating 3
penguin 3
stained 3
bark 3
conven@@ 3
latino 3
dugout 3
cry 3
elbow 3
graduate 3
strumming 3
contains 3
tailed 3
racquet 3
rehearsing 3
whi@@ 3
mopping 3
spectacular 3
recently 3
honor 3
stethoscope 3
heartbeat 3
sipping 3
ctions 3
popping 3
cade 3
greet 3
ligh@@ 3
vation 3
capes 3
needed 3
pruning 3
wildflowers 3
packages 3
limb 3
vision 3
fliers 3
opportunity 3
descri@@ 3
label@@ 3
smirking 3
twirl 3
spilled 3
darkness 3
every 3
squarepants 3
everyone 3
knight 3
kit 3
knee-@@ 3
tie-@@ 3
bug 3
ppled 3
cobbled 3
hurdles 3
might 3
sandpit 3
hatted 3
patches 3
writ@@ 3
noodle 3
vaulting 3
threw 3
effort 3
fier@@ 3
ths 3
captures 3
cameramen 3
trap 3
towering 3
bulls 3
ponytails 3
backhand 3
kly 3
dealer 3
upcoming 3
ceramic 3
tained 3
everywhere 3
content 3
crashes 3
videotapes 3
wrist@@ 3
amused 3
dustpan 3
edi@@ 3
cultural 3
guest 3
shaded 3
brindle 3
audio 3
shading 3
charging 3
shier 3
costumed 3
provide 3
web 3
intimate 3
spreading 3
spiking 3
grounds 3
inner 3
bearer 3
launch 3
ired 3
screams 3
aluminum 3
addressing 3
housing 3
festive 3
grandmother 3
pockets 3
feeds 3
wheeling 3
trips 3
menus 3
entertained 3
anno@@ 3
styrofoam 3
side@@ 3
scu@@ 3
meditating 3
bran@@ 3
twilight 3
somersault 3
paying 3
tches 3
cutout 3
semi-@@ 3
py 3
nibbling 3
sweet 3
marina 3
backpa@@ 3
canes 3
directed 3
government 3
uniquely 3
huddling 3
index 3
tter 3
admires 3
pets 3
briskly 3
sticker 3
cates 3
enthusiastic 3
-shaped 3
collide 3
handmade 3
ctive 3
bicyc@@ 3
streetlights 3
maneuvers 3
spa 3
cran@@ 3
breakfast 3
horse@@ 3
proud 3
dried 3
ecstati@@ 3
foot@@ 3
ditch 3
rushing 3
counters 3
rakes 3
manual 3
quilt 3
lemon@@ 3
certifi@@ 3
skinned 3
entertainment 3
stered 3
master 3
ctic 3
ambulance 3
underway 3
italian 3
informal 3
suited 3
cases 3
dreads 3
outcropping 3
handkerchie@@ 3
friendly 3
sizes 3
don 3
primitive 3
feed 3
duffel 3
bble 3
ng 3
condu@@ 3
secre@@ 3
darkly 3
awaits 3
enters 3
pes 3
sparkler 3
frosting 3
cracks 3
sleds 3
flash@@ 3
disc@@ 3
sleigh 3
ornament 3
holidays 3
sucks 3
bumper 3
strobe 3
ended 3
tle 3
dwelling 3
door@@ 3
wheat 3
contor@@ 3
creative 3
entertaining 3
rescue 3
kettle 3
aim 3
unk 3
skill 3
dresser 3
hundreds 3
outstreached 3
mosque 3
engages 3
gates 3
released 3
flin@@ 3
keeper 3
lassoing 3
beats 3
streaks 3
glit@@ 3
advantage 3
salmon 3
curling 3
gent 3
final 3
dressing 3
protester 3
interested 3
shots 3
bordering 3
hazard 3
mped 3
corral 3
korean 3
fortune 3
navigating 3
partly 3
healthcare 3
chart 3
bouncer 3
staying 3
dering 3
docu@@ 3
coverings 3
scienti@@ 3
period 3
approach 3
mma 3
kneel 3
vice 3
sm 3
solider 3
roller-skating 3
patriotic 3
tum@@ 3
trouble 3
fingertips 3
pitched 3
skillfully 3
breast@@ 3
corridor 3
years 3
adjust 3
forrest 3
pressing 3
explorer 3
dries 3
tobacco 3
upper 3
records 3
selection 3
pture 3
ladle 3
to-@@ 3
-skinned 3
parlor 3
drunk 3
pitches 3
rappelling 3
two-piece 3
arranged 3
emp@@ 3
horse-drawn 3
monks 3
enclosed 3
decals 3
related 3
hairnet 3
stony 3
green-@@ 3
barricades 3
mock 3
smo@@ 3
plo@@ 3
middle-age 3
awnings 3
potatoes 3
mariachi 3
hedge 3
earring 3
representing 3
flashlight 3
air-@@ 3
notice 3
approximately 3
locked 3
fist 3
lives 3
transporting 3
janitor 3
math 3
accompanies 3
pleasant 3
grimacing 3
bout 3
garment 3
pointy 3
barbie 3
proudly 3
waking 3
presses 3
sweep 3
pouting 3
dle 3
cut-out 3
dishwasher 3
beautifully 3
pierced 3
towed 3
boating 3
rods 3
surfboards 3
refreshing 3
brazil 3
hate 3
butt 3
fingernail 3
observed 3
page 3
provi@@ 3
int 3
launching 3
granddaughter 3
attaches 3
extends 3
careful 3
squinting 3
gripping 3
holing 3
shrimp 3
cycle 3
united 3
acro@@ 3
views 3
captured 3
professionally 3
landmark 3
proce@@ 3
winded 3
walker 3
families 3
miniskirt 3
tasty 3
crow@@ 3
scope 3
desolate 3
national 3
brick-paved 3
twigs 3
metropolitan 3
solar 3
planes 3
organized 3
maple 3
enthusiasm 3
ggle 3
focuses 3
tee-shirt 3
schoolgirl 3
moved 3
blonds 3
removed 3
paddlers 3
peaceful 3
tanned 3
0s 3
inc@@ 3
by@@ 3
kissed 3
pace 3
speci@@ 3
vigorously 3
tambourine 3
spits 3
safely 3
referees 3
dunks 3
recliner 3
defends 3
vieler 2
spielhaus 2
puderzucker 2
notenblättern 2
metro@@ 2
reflektierende 2
ausseh@@ 2
ranspor@@ 2
fabrik@@ 2
oliv@@ 2
ping-@@ 2
teichs 2
farbene 2
wall@@ 2
singend 2
weiblich 2
samurai-@@ 2
übun@@ 2
steiniges 2
stahlbalken 2
üche 2
pfannkuchen 2
wet@@ 2
zugwaggons 2
rötlichem 2
wimp@@ 2
mie@@ 2
präzi@@ 2
schneemo@@ 2
spachtel 2
kunft 2
spielzeugs 2
speedo-@@ 2
muslimischer 2
trophäe 2
wender 2
geschrie@@ 2
mädchengruppe 2
partment@@ 2
wart 2
latz@@ 2
piloten@@ 2
gehö@@ 2
mmen 2
weihnachtsli@@ 2
wasserlache 2
wärt@@ 2
säuglings 2
überra@@ 2
organgefarbenen 2
bäcker@@ 2
sserungs@@ 2
wehrt 2
waldgegend 2
üppi@@ 2
schmel@@ 2
stei@@ 2
wandgemälde 2
steinbrücke 2
mari@@ 2
onette 2
violette 2
imbi@@ 2
spät@@ 2
bigen 2
praktizieren 2
sper@@ 2
rechteckigen 2
zeiten 2
tiefschnee 2
neonfarbenen 2
lippen@@ 2
teenagerinnen 2
zeln@@ 2
sanitäter 2
unfallstelle 2
ungepflegten 2
steak 2
rasch 2
vornehmen 2
stützrädern 2
angebo@@ 2
restaurantmitarbeiter 2
visi@@ 2
vollstän@@ 2
schnürsenkel 2
ttem 2
schrän@@ 2
socke 2
traditionellem 2
nachbarn 2
fasz@@ 2
stütz@@ 2
warteraum 2
security-@@ 2
schung 2
versorgen 2
zugglei@@ 2
spießen 2
riecht 2
tins 2
usi@@ 2
serviette 2
schmale 2
sstatue 2
gesen@@ 2
arbeiter@@ 2
grä@@ 2
verkäuferin 2
skleid 2
felsk@@ 2
tinten@@ 2
pfählen 2
behinder@@ 2
wasserrohre 2
piert 2
krankenhaus@@ 2
ohrenschützern 2
stoffro@@ 2
schachts 2
terrible 2
bohr@@ 2
billar@@ 2
überhang 2
terassen@@ 2
unterarm 2
schlafsäcken 2
speck 2
twaren 2
open-air-konzert 2
t-bahn 2
reich 2
passendem 2
starten 2
skuchen 2
sino 2
schlü@@ 2
kitchena@@ 2
muffins 2
tig@@ 2
motorradhelme 2
presse 2
karo@@ 2
nonnen@@ 2
talkshow 2
spult 2
schwarz-rotes 2
ninja@@ 2
ziffern 2
ruck@@ 2
schäferhunde 2
wirbel@@ 2
spri@@ 2
ppchen 2
zugewand@@ 2
volleyballspielerinnen 2
sousche@@ 2
smoked 2
wasch-@@ 2
moosbedeckten 2
bauern@@ 2
appar@@ 2
mülltonnen 2
techniker 2
förm@@ 2
jo 2
bung 2
och@@ 2
spann 2
süßes 2
ötchen 2
täfelten 2
vorzubereiten 2
maschen@@ 2
medit@@ 2
ative 2
fund@@ 2
stämmiger 2
reflekti@@ 2
schäu@@ 2
thalle 2
polizeiauto 2
schlammiges 2
rutsch@@ 2
stämme 2
zuges 2
schweißer@@ 2
pistolen 2
uten 2
zuneigung 2
beschä@@ 2
unterführung 2
ierten 2
tenmuster 2
nahö@@ 2
zwirbelt 2
schweißer 2
sparrow 2
polizeifahrzeug 2
schülerinnen 2
totenkopf@@ 2
sandsturm 2
taschent@@ 2
poten@@ 2
ziellen 2
schirm@@ 2
ungewöhnliches 2
rene 2
nehmer 2
vinci 2
scheine 2
spielkarten 2
sprüngen 2
stadtbereich 2
päckchen 2
einkaufsz@@ 2
nesqui@@ 2
unterhosen 2
postkarten 2
schwarzhaariges 2
gefä@@ 2
qui@@ 2
unfallort 2
stoppschild 2
werkzeuggürteln 2
sporthalt@@ 2
wen 2
senkrechte 2
vorherr@@ 2
motorradhelm 2
videoaufnahme 2
stian 2
motorradfahren 2
vw-@@ 2
zerlumpter 2
schulkantine 2
strahlt 2
spreizt 2
trockene 2
cure 2
lack@@ 2
pfle@@ 2
gerinnen 2
griffen 2
vierrädrigen 2
zitrone 2
teilneh@@ 2
verkehrspolizist 2
spanischen 2
worten 2
garden@@ 2
motorradfahrerin 2
kommuni@@ 2
sperr@@ 2
übungs@@ 2
tzentrum 2
wolki@@ 2
schaukelpferd 2
tubas 2
sprühdosen 2
umzugs 2
toten 2
wettschwimmen 2
strin@@ 2
strandspaziergang 2
dudel@@ 2
plattenladen 2
ta-@@ 2
neugieriges 2
tanzstudio 2
zaun@@ 2
veteran@@ 2
reishut 2
sportfans 2
oscar 2
wis 2
zahnarzt 2
videospiel@@ 2
samar@@ 2
gewäch@@ 2
seitigen 2
schwitzender 2
tich 2
sammel@@ 2
tümpel 2
umschlagtuch 2
eini@@ 2
umgefallenen 2
süßigkeit 2
prince 2
zuhörerschaft 2
neh@@ 2
schulalter 2
website 2
fach@@ 2
worfen 2
schlapphut 2
wendy 2
zerfetzten 2
wichtiges 2
schick 2
raping 2
rollschuhbahn 2
reise@@ 2
stilles 2
tiefblauen 2
blö@@ 2
whack 2
nacken 2
plätzen 2
spruchbänder 2
vorbeischwimmen 2
unbeholfen 2
schwimmen@@ 2
packers 2
zubereitung 2
tunnels 2
topfpflanzen 2
springerin 2
niederge@@ 2
spül@@ 2
äre 2
nutz@@ 2
sehende 2
purpurroten 2
plaudern 2
schmiert 2
rasiercreme 2
pflast@@ 2
gewäss@@ 2
südo@@ 2
dachsh@@ 2
unde 2
verbirgt 2
schnitzer@@ 2
neongelben 2
zeln 2
dunkl@@ 2
sporthallenboden 2
wasserspeier 2
spielzeuggitarre 2
mehrfarbi@@ 2
wister@@ 2
steuerung 2
verkleideten 2
seilbahn 2
waldgebiets 2
presslufthä@@ 2
überschlag 2
sko@@ 2
sportjacke 2
zuhörern 2
übersäte 2
werken 2
zufährt 2
rot-gelben 2
steppdecke 2
papa@@ 2
pfeffer@@ 2
schlafanzughosen 2
typi@@ 2
würste 2
schild@@ 2
schneeschaufel 2
usa@@ 2
vidstern 2
puma-@@ 2
shalt@@ 2
zehen@@ 2
winterlichen 2
open-air-festival 2
spruch@@ 2
sien 2
naturpfad 2
olt 2
sbc 2
usalem 2
zerzaust 2
rich@@ 2
ägyp@@ 2
sker@@ 2
mige 2
tape@@ 2
vertieft 2
leh@@ 2
besu@@ 2
sei 2
zentri@@ 2
yola-@@ 2
muff@@ 2
u-bahn-bahnsteig 2
beleuch@@ 2
peeps 2
ßt 2
zusammensein 2
rodeo-clown 2
mm 2
wirt@@ 2
schaf@@ 2
reifenspur 2
nd 2
geschnit@@ 2
technologie 2
schneejacke 2
rer@@ 2
spielzeugtraktor 2
springbrunnen@@ 2
rondack 2
sumpfigen 2
wachsen@@ 2
tanzug 2
greyho@@ 2
zahnstocher 2
spaghetti 2
fahrt@@ 2
or-@@ 2
schublade 2
sarong 2
schirme 2
personenzug 2
äste 2
trä@@ 2
wandobjekt 2
sicherungsseilen 2
taga 2
warnkleidung 2
ferin 2
zkörper@@ 2
ähnchen 2
äusel@@ 2
mustangs 2
punkte 2
patrouilliert 2
bür@@ 2
ungssteg 2
schungs@@ 2
nahöstlicher 2
flanell@@ 2
winkelt 2
saxoph@@ 2
schluss 2
mpf@@ 2
von@@ 2
ült 2
sichtbare 2
ohrstöpseln 2
verglasten 2
tehel@@ 2
mord 2
üppig 2
vergrößerungsglas 2
stattfindenden 2
unterstützen 2
huck@@ 2
untertasse 2
reiseführer 2
pudding 2
schlechtem 2
zustand 2
profession@@ 2
pand@@ 2
glück@@ 2
souvenir@@ 2
schneeanzügen 2
tintenfisch@@ 2
überfluteten 2
drahtz@@ 2
pfannen@@ 2
wenden 2
passagier 2
reaktion 2
äpfel 2
weihnacht@@ 2
vuitton 2
schaufensterbummel 2
phin@@ 2
wartezimmer 2
scheit@@ 2
transparenten 2
stür 2
nathalie 2
sonnenhüten 2
pinguine 2
zogenem 2
papagei 2
tarnjacke 2
typischen 2
verand@@ 2
ür 2
schil@@ 2
spielzeughammer 2
laut@@ 2
sprechern 2
schönheit 2
hals@@ 2
stewart 2
pat 2
schnees 2
swagen 2
schnüren 2
schluckt 2
plüschtier@@ 2
pper-@@ 2
proble@@ 2
basket@@ 2
siert 2
terri@@ 2
steinoberfläche 2
hne 2
sport-@@ 2
fried@@ 2
musk@@ 2
turnübungen 2
nö@@ 2
klö@@ 2
plüschtieren 2
züge 2
not@@ 2
papierteller 2
litt@@ 2
ärmer 2
vornübergebeugt 2
verloren@@ 2
orgel 2
reißverschluss 2
stamme@@ 2
sangehöri@@ 2
schein 2
gum@@ 2
sehe 2
nungs@@ 2
entrum 2
sonnenaufgang 2
unfall@@ 2
pumpe 2
waffen@@ 2
olympiade 2
umzu@@ 2
traditionell 2
torbogens 2
noble 2
normaler 2
sonniger 2
versorgt 2
rette 2
rentier 2
vö@@ 2
schneeh@@ 2
öhle 2
nächtliche 2
waschmaschinen 2
zöger@@ 2
schraubenzieher 2
tist 2
übri@@ 2
schranke 2
ündin 2
säu@@ 2
röhren@@ 2
orphans 2
tert 2
tragende 2
rollschuhlauf@@ 2
zweirad 2
studentenwohnheim 2
schaukel@@ 2
toilettenpapier 2
polo-hemd 2
verkehrsreiche 2
umrandeten 2
zeltplane 2
bewa@@ 2
hrt 2
student@@ 2
spritzendes 2
schneeballschlacht 2
zickzack 2
strandkleid 2
spielzeug-basketballkorb 2
wasserbrunnen 2
westernstil 2
gür@@ 2
teltasche 2
leich@@ 2
terung 2
plakat@@ 2
sumpf 2
ängstlich 2
sitzmäher 2
windel@@ 2
u-bahn@@ 2
überschlagen 2
pickni@@ 2
schir@@ 2
stadions 2
ou 2
uw 2
möglichen 2
sooner 2
attack@@ 2
sooners-football-spieler 2
umzugswagen 2
glichen 2
striegelt 2
sängerinnen 2
schaufel@@ 2
trieben 2
texas-@@ 2
tit@@ 2
stros 2
schneesturm 2
walds 2
ranka 2
sprechung 2
softdrink 2
rah@@ 2
streitet 2
steinstruktur 2
spielzeughaus 2
schlaf@@ 2
soße 2
freil@@ 2
vorspiel 2
selsteine 2
reportern 2
grü@@ 2
zte 2
schnurrbärtiger 2
steinhaufen 2
wartungs@@ 2
neugieri@@ 2
rückbank 2
beeindruck@@ 2
streichorchester 2
zettel 2
skostümen 2
snase 2
stalls 2
namensschildern 2
amar@@ 2
schlips 2
weißhaarige 2
sportoutfit 2
ßband 2
ele 2
euro@@ 2
flach@@ 2
gert 2
pard 2
pool-@@ 2
verschwommenes 2
umgebene 2
zulaufen 2
vierergruppe 2
volleyballturnier 2
spra@@ 2
ftz@@ 2
schlacht 2
stonehurst 2
gssaal 2
mädchenmannschaften 2
rot-weiß-blauem 2
tigt 2
stischer 2
rhododendron 2
tribal@@ 2
mög@@ 2
möglich 2
ppies 2
sogar 2
süßigkeitenverkäufer 2
wasserspritzer 2
urlaub@@ 2
schütter 2
werdendem 2
urlau@@ 2
blick@@ 2
winkel 2
schriften 2
queen 2
bewohner 2
berei@@ 2
rüschen 2
transvest@@ 2
netzstrümpfen 2
ampe 2
unterschreibt 2
schlür@@ 2
sausen 2
gebildet 2
orangut@@ 2
tierkostüm 2
taxi@@ 2
niedrig 2
zurückgelegt 2
graff@@ 2
raften 2
tal@@ 2
rettung@@ 2
skräfte 2
opfer 2
ötigt 2
schnitten 2
strahl@@ 2
schwingenden 2
dekor@@ 2
pappschachtel 2
richt@@ 2
xt 2
sandsack 2
angehöri@@ 2
itt 2
sternen 2
spielerischen 2
verkaufsautomaten 2
schrott@@ 2
schlittert 2
unebenen 2
ktem 2
qua@@ 2
schwerarbeiter 2
spielzeuglaster 2
spielzeugrutsche 2
quat@@ 2
tro-@@ 2
nel@@ 2
prüfer 2
u-bahn-zug 2
projek@@ 2
später 2
seils 2
u-@@ 2
motiven 2
schlaf 2
stirnlampe 2
stromkrei@@ 2
sprühdose 2
umgedrehte 2
silhouetten 2
oa@@ 2
trei@@ 2
vergraben 2
verkehrs@@ 2
spieß 2
shändiger 2
taus@@ 2
verrückt 2
sporttrikot 2
spiderman-@@ 2
spielgeräten 2
ourense 2
moto@@ 2
fontänen 2
gie@@ 2
ßkanne 2
verletz@@ 2
did@@ 2
zementlaster 2
verheirateter 2
tieflader 2
verfär@@ 2
absatz@@ 2
welt@@ 2
stlicher 2
afro@@ 2
stepp@@ 2
zwillinge 2
rinder 2
weinen 2
mountainbike-fahrer 2
masch@@ 2
youngster 2
würdig@@ 2
unterteil 2
pink-weißem 2
quert 2
mpert 2
üssen 2
zierten 2
möbelgeschäft 2
neongrün 2
zuhörer@@ 2
angemal@@ 2
nern 2
enkostüm 2
stadtbus 2
umzäun@@ 2
schneidbrett 2
tz 2
schwarz-orangefarbenen 2
steins@@ 2
schleppe 2
sklei@@ 2
wünschen 2
slum@@ 2
müllhaufen 2
truthähne 2
zlich 2
richteten 2
trotzt 2
stürmischem 2
eli@@ 2
schaufensterauslage 2
bitt@@ 2
utbaum 2
verdäch@@ 2
ponat 2
gedu@@ 2
geschnitt@@ 2
mürrisch 2
ungepfle@@ 2
schaumstoff@@ 2
termin 2
zombi@@ 2
erklär@@ 2
wall-e 2
überdachung 2
änze 2
alko@@ 2
präpar@@ 2
ie-@@ 2
spongebob-schwammkopf 2
rasseln 2
ritter 2
zerlegen 2
schachbrett 2
akkorde@@ 2
olli 2
zerbrochene 2
zerbricht 2
stoß@@ 2
zuhalten 2
steuern 2
pr@@ 2
peugeot 2
’ 2
schnit@@ 2
ureinwohnerin 2
zir@@ 2
textet 2
nachricht 2
schluss@@ 2
warm@@ 2
unschul@@ 2
sommerkleider 2
streicher 2
zemen@@ 2
sandkasten 2
min 2
una 2
perle 2
verband 2
nuckelt 2
gegenüber@@ 2
inen 2
stren@@ 2
stabil@@ 2
rezeption 2
skateboard-stunt 2
pfau 2
sesam@@ 2
straßen-@@ 2
oren@@ 2
umdreht 2
rot-gestreiften 2
pflanzen@@ 2
bew@@ 2
gest@@ 2
plastikeimer 2
dor@@ 2
motiv@@ 2
soaker 2
passen 2
wurfspiel 2
vielfältige 2
wettessen 2
preis@@ 2
objekti@@ 2
noise 2
nächstes 2
sichtigen 2
blüte 2
zeremoniellen 2
söhnen 2
nassgespritzt 2
zeile 2
stadtlandschaft 2
schwimmring 2
board@@ 2
prächtig 2
muschel@@ 2
dschun@@ 2
lat@@ 2
dition@@ 2
verkehrszug 2
rollenden 2
trinkgeld 2
wälzt 2
flauschi@@ 2
skimboarden 2
schöpfung 2
sicherheitsbeauf@@ 2
wunderschön 2
kommenden 2
veriz@@ 2
slinky 2
schottischer 2
exer@@ 2
ko 2
ureinwohn@@ 2
wasserfontänen 2
ughnut 2
pfa@@ 2
matra@@ 2
audi@@ 2
sanit@@ 2
pilz 2
schritten 2
skateboard-kunststück 2
pinien@@ 2
tourbus 2
saxofonspieler 2
nigen 2
neu@@ 2
ähnlichem 2
trauung 2
monopoly-spiel 2
crou@@ 2
ser-@@ 2
papierhut 2
rennausrüstung 2
spielfelds 2
prei@@ 2
udel 2
schokolade 2
tribünen 2
gestal@@ 2
nachrichtensprecher 2
suppen@@ 2
supp@@ 2
sprun@@ 2
werkbank 2
wän@@ 2
sommerkleidung 2
rittlings 2
last@@ 2
wassersprenganlage 2
tattraktion 2
ov@@ 2
ales 2
speiseraum 2
unterhaltungskünstler 2
renaissance-fest 2
tagebuch 2
sa 2
pil@@ 2
gat@@ 2
verregneten 2
olympi@@ 2
sanft 2
schab@@ 2
teilungen 2
schnellboot 2
rennhund 2
tüchern 2
zerklüf@@ 2
pinien 2
geschnittenen 2
prihosen 2
rollersk@@ 2
schwarz-rot 2
tätowierten 2
rinde 2
sym@@ 2
kau@@ 2
wirkun@@ 2
zimmers 2
punkro@@ 2
sü@@ 2
paste 2
thafen 2
rado 2
tätigkeiten 2
diri@@ 2
ong@@ 2
trin@@ 2
sterrasse 2
verdi@@ 2
regierung 2
wasserstrahl 2
karat@@ 2
preisrichter 2
tennisschuh 2
panzer@@ 2
schilden 2
tonnen 2
nä@@ 2
hre 2
rennfahrern 2
sessions 2
kte 2
torpfostens 2
motorrad-@@ 2
wasserski-@@ 2
sombreros 2
prä@@ 2
rie 2
yamaha-@@ 2
chtern 2
ängstigt 2
saiteninstrumenten 2
schlafen@@ 2
stylt 2
shop@@ 2
pappteller 2
toppings 2
spu@@ 2
sprung-@@ 2
waschmittel 2
ima@@ 2
bowling@@ 2
vorhand@@ 2
schrein 2
wodurch 2
paintball-@@ 2
rampen 2
ballerin@@ 2
strumpfhosen 2
zielort 2
spei@@ 2
musikali@@ 2
strandbuggy 2
y-t-shirt 2
skateboardfahren 2
wegschaut 2
pingpong@@ 2
oreos 2
ohrringen 2
bullen@@ 2
wagemuti@@ 2
eth@@ 2
spenden@@ 2
sammlung 2
powerpoint-präsentation 2
drah@@ 2
urm 2
schlammigem 2
lass@@ 2
niemand 2
zune-@@ 2
une 2
nachdenklich 2
modischer 2
straßenlaternen 2
manö@@ 2
pulk 2
felsvor@@ 2
spa-@@ 2
iligen 2
sense 2
musikausrüstung 2
by-@@ 2
orah 2
wakeboarden 2
stimmung 2
spät 2
08 2
stän@@ 2
obama-@@ 2
wahlkampf@@ 2
mai@@ 2
sfeld 2
schießstand 2
salyo 2
schnabel 2
schlittenhunde 2
zweispurigen 2
beför@@ 2
thriller 2
safar@@ 2
trenn@@ 2
wickeln 2
neugeborenen 2
tonischen 2
projektorleinwand 2
wasserrand 2
telefontechniker 2
trinkend 2
touchdown 2
world-@@ 2
verkleidetes 2
weinroten 2
sh-airways-@@ 2
heira@@ 2
äut@@ 2
passagi@@ 2
omic 2
brünet@@ 2
unscharfe 2
steig@@ 2
unterirdischen 2
taschenbuch 2
notenblatt 2
videokameras 2
schweinefleisch 2
unterhaltungsbereich 2
vamp@@ 2
wink@@ 2
unglückliches 2
rudermannschaft 2
schiffs@@ 2
pulentes 2
ureinwohner@@ 2
wolf 2
schmetterlinge 2
zwe@@ 2
akten@@ 2
spielender 2
rausgeworfen 2
steinsäulen 2
schal@@ 2
vorgesetz@@ 2
vorbeikommt 2
steinstraße 2
tigter 2
ungsbetrie@@ 2
leb@@ 2
chert 2
schat@@ 2
stert 2
subway-sandwich@@ 2
post-its 2
tresen 2
serven 2
sagten 2
monit@@ 2
oren 2
schreienden 2
weihnachtsbeleuchtung 2
volk@@ 2
demon@@ 2
blasen@@ 2
schulen 2
dischen 2
weide 2
streikschildern 2
y-schild 2
tellers 2
endem 2
staubsau@@ 2
übersät 2
primiti@@ 2
stopp@@ 2
versen 2
rothy 2
ringer@@ 2
verschmut@@ 2
zter 2
wandbemalung 2
weihnachtsmannmützen 2
nagel@@ 2
nisse 2
staffordshire 2
hindern 2
umm@@ 2
zugedeckt 2
eisschnell@@ 2
nahrung 2
unglau@@ 2
korb@@ 2
verquirlt 2
ventila@@ 2
schuluniform 2
trabenden 2
münztelefon 2
verschwommenen 2
sprenger 2
motocross@@ 2
palmwedeln 2
spritz@@ 2
stadtarbeiter 2
risse 2
stieren 2
druckt 2
sino-@@ 2
weiß-braunem 2
skifahrerin 2
schlüssel 2
turbanen 2
östlichen 2
stati@@ 2
rodeln 2
rodelt 2
straßenkreuzung 2
weihnachtsmotiv 2
orange-grauen 2
spielzeugeisenbahn 2
schnurrbärten 2
south@@ 2
stofftieren 2
emon@@ 2
quinn 2
verziert 2
seifenwasser 2
brett@@ 2
wütend 2
nahenden 2
rolling-@@ 2
ston@@ 2
struppiger 2
gebau@@ 2
steppi@@ 2
sterne 2
naturprodukten 2
verli@@ 2
stabs 2
seet@@ 2
stammes 2
pfarrer 2
schnür@@ 2
schlittschuhe 2
selbstgebastelten 2
radeo 2
sträuchern 2
marath@@ 2
slalom@@ 2
wirbeln 2
weitläufi@@ 2
roman@@ 2
orns 2
nagelpistole 2
stopft 2
verteidigern 2
verschneiter 2
yogaübungen 2
torii 2
sumoringer 2
nadelstreifenhemd 2
sturzflug 2
för@@ 2
schwimmende 2
vorbeiläuft 2
rettungs@@ 2
saft@@ 2
überladenen 2
sechsköpfige 2
sumorin@@ 2
überlegt 2
kontrol@@ 2
seli@@ 2
schroffen 2
regenbogenfarbenen 2
zerinnen 2
dig@@ 2
welches 2
gress 2
stöckigen 2
überwacht 2
setz@@ 2
rettungshelfer 2
notfall@@ 2
tel@@ 2
aufgerei@@ 2
streifen@@ 2
agen 2
trage@@ 2
trich@@ 2
warengeschäft 2
weist 2
fäh@@ 2
gkeiten 2
obligatoire 2
mers 2
schutzhelme 2
pelzigen 2
chevro@@ 2
pfote 2
rennenden 2
tta 2
weiß-rotes 2
vorgarten 2
üppigen 2
zotteliger 2
stun@@ 2
explo@@ 2
verkün@@ 2
risiko 2
amerikaner 2
verz@@ 2
provisori@@ 2
stürmt 2
schirmt 2
orchesters 2
strahlendem 2
sumpfiges 2
keln 2
schlüssel@@ 2
klassen@@ 2
hab@@ 2
sprungschanze 2
zeichneten 2
ranger 2
roller-derby-@@ 2
starker 2
butter@@ 2
smütze 2
zei@@ 2
lier@@ 2
mmer@@ 2
rottweiler 2
sportgerät 2
bummel 2
swesten 2
musikerin 2
niedri@@ 2
sauberen 2
zwischen@@ 2
wege 2
skaterbahn 2
portland 2
oregon 2
schotter 2
schneeho@@ 2
senbahn 2
amerikani@@ 2
onial@@ 2
schriftzü@@ 2
zeltet 2
smetik@@ 2
new-york-hut 2
trape@@ 2
zirkus 2
orn@@ 2
odeon 2
skil@@ 2
testet 2
startbereit 2
nordi@@ 2
rosa@@ 2
sfarbenen 2
verzweifelt 2
sonnenauf@@ 2
chel 2
staunt 2
wirbelnden 2
vorbeifahrenden 2
tischer 2
spruchs@@ 2
lacross@@ 2
hten 2
demonstr@@ 2
pullovers 2
pusten 2
ütte 2
nuss 2
style-@@ 2
spapier 2
pelikan 2
volley 2
rhyth@@ 2
öffnungen 2
selligen 2
spider-man 2
schaulustigen 2
pse 2
schlauch@@ 2
serena 2
williams 2
rauchwolke 2
querflöte 2
motorschlitten 2
trittsteinen 2
zusammenpassenden 2
ity-@@ 2
schwarz-blaues 2
rasterlocken 2
sessellift 2
schubst 2
ktionen 2
prediction 2
parall@@ 2
quadbike 2
wasserskulptur 2
quad@@ 2
trader 2
‘ 2
vrovulcan.@@ 2
stadtbrunnen 2
stierkampf 2
träg 2
bask@@ 2
robbins 2
passende 2
rund 2
reckt 2
people-@@ 2
rugby-spiel 2
zementierten 2
zahnblüte 2
nis@@ 2
subaru 2
führ@@ 2
veget@@ 2
ation@@ 2
mern 2
gitar@@ 2
ristin 2
wohnhäusern 2
verbindung 2
sonnenbad 2
schleifmaschine 2
rauen 2
rennmotorrad 2
reiht 2
wasserpark 2
umstehenden 2
straßenmusikanten 2
bede@@ 2
schrägen 2
peek-a-boo 2
zuhält 2
mouse@@ 2
verschlungenen 2
skatern 2
origin@@ 2
rasiermesser 2
industrie@@ 2
schlechten 2
zieren 2
presslufthammer 2
steinfarbener 2
yette 2
seifenblasen@@ 2
zeige@@ 2
tafeln 2
bong@@ 2
moderner 2
schwieri@@ 2
ufc-@@ 2
stee 2
speise 2
sprühen 2
skelett@@ 2
stunden 2
pumps 2
steph 2
täg@@ 2
sendet 2
gner 2
studenten@@ 2
unglück@@ 2
schärpe 2
nie@@ 2
schäbig 2
schwäne 2
scar@@ 2
türkise 2
smen 2
interess@@ 2
rout@@ 2
sonnenuntergangs 2
sox 2
deten 2
säug@@ 2
verkehrske@@ 2
patriotischen 2
spur 2
wasseroberfläche 2
unbekannter 2
teenager-jungen 2
teamkollege 2
scheune 2
wälder 2
wärmt 2
ttert 2
us-amerikanische 2
schlangen 2
nati@@ 2
gär@@ 2
entgegengesetz@@ 2
verkehrs 2
zieller 2
skate@@ 2
ßer 2
vorderpfoten 2
transformator 2
spinnen 2
ordner 2
statisch 2
springre@@ 2
skateboar@@ 2
übergewichtiges 2
skydiver 2
volleyball@@ 2
zusammengebauten 2
radkleidung 2
zhut 2
trainingsgerät 2
spieltunnel 2
zuerst 2
panason@@ 2
kir@@ 2
stewardess 2
ufernähe 2
umfeld 2
beein@@ 2
stbusters 2
vietnamesi@@ 2
blasinstru@@ 2
sprungwettbewerb 2
yongsan 2
gallo@@ 2
stin@@ 2
skomp@@ 2
skar@@ 2
quelle 2
molliges 2
rand@@ 2
propeller 2
tartuffe 2
spielmannszugs 2
shor@@ 2
zogen 2
sirup 2
monger 2
regenbogenfarbigen 2
natür@@ 2
xylo@@ 2
patrioti@@ 2
nacken@@ 2
schwimmhilfen 2
hot@@ 2
ppen@@ 2
unterhose 2
unningham 2
warnkegel 2
schien@@ 2
schonern 2
kricket@@ 2
spielkonsole 2
styli@@ 2
whiteboard 2
stadtgebäude 2
zurückzu@@ 2
renmark 2
ähri@@ 2
platzt 2
wurf@@ 2
vorbeizukommen 2
einzigar@@ 2
verwunderung 2
restaurant@@ 2
schutzanzug 2
trampelt 2
tarnhosen 2
stellter 2
zda 2
draht@@ 2
pickup-truck 2
sonnebrille 2
sprinkleranlage 2
aren 2
multipurpose 2
wartend 2
zeitgenössi@@ 2
taille 2
spielzeugfahrrad 2
weiß- 2
vereinzelten 2
ever@@ 2
reitwettbewerb 2
steiger 2
vals@@ 2
nüsse 2
vornüber 2
tos 2
verursacht 2
theaterstück 2
sell@@ 2
erie 2
ücher 2
lein@@ 2
pferdefuhrwerk 2
vesammelt 2
skateboardanlage 2
uner@@ 2
öffentliches 2
sprünge 2
ma-@@ 2
rot-goldenen 2
mut@@ 2
slum 2
sigem 2
verlegen 2
nevada 2
vorderrad 2
turnübung 2
red@@ 2
wiki 2
schreibend 2
touch@@ 2
ron 2
negro 2
ede@@ 2
mo 2
masten 2
olive@@ 2
sinni@@ 2
tücher 2
operiert 2
vira 2
virou 2
zeltplatz 2
mystery 2
scooby-doo 2
rally@@ 2
saxophonisten 2
skat@@ 2
möglichkeit 2
stische 2
picchu 2
vorräte 2
unterholz 2
dekorati@@ 2
sonoma 2
sourdough 2
tomate 2
mach 2
ppuccin@@ 2
zerbrochenen 2
teure 2
straßengeschäft 2
verbeugen 2
wartung@@ 2
sperson@@ 2
stängel 2
graph@@ 2
wohin 2
ungsmi@@ 2
waffneten 2
swat@@ 2
spezial@@ 2
tak@@ 2
pä@@ 2
ortsan@@ 2
sässigen 2
tarnanzügen 2
stattfindet 2
verschiedenes 2
jog@@ 2
toaster 2
stes 2
pue@@ 2
nder 2
zeich@@ 2
zugfahrt 2
schmetter@@ 2
lingen 2
iden@@ 2
stylus 2
schreibung 2
zapft 2
vorhand 2
spackt 2
abenteu@@ 2
vorübergehend 2
versu@@ 2
trösten 2
phoenix 2
reagiert 2
muse@@ 2
pos@@ 2
sockenhaltern 2
silo 2
rollen@@ 2
y-geschäft 2
bewer@@ 2
orangefarben 2
haarige 2
schöpf@@ 2
zähneputzen 2
ztes 2
streiter 2
skibrille 2
tambour@@ 2
our@@ 2
neujahr@@ 2
örpern 2
irokesen@@ 2
sartikeln 2
rollerskater 2
vertrau@@ 2
tato@@ 2
nachdenken 2
spiegelungen 2
sonder@@ 2
nypd 2
straßenhändlers 2
farbenfro@@ 2
konzentri@@ 2
modische 2
schürt 2
straßenmarathon 2
jun@@ 2
gi 2
wiegen 2
schattenha@@ 2
unterneh@@ 2
walze 2
schaff@@ 2
tatort 2
vorstadthaus 2
muslimische 2
digkeit 2
dekora@@ 2
radar@@ 2
regenkleidung 2
spinnkurs 2
trau@@ 2
äng@@ 2
ukraini@@ 2
schraubenschlüssel 2
reinig@@ 2
schuljungen 2
straßenlauf 2
teilnehmende 2
warn@@ 2
schwimmwettkampf 2
them@@ 2
schuhputzstand 2
spyder 2
umschlag 2
strommasten 2
gebl@@ 2
pfadfindern 2
wikin@@ 2
verborgen 2
organisieren 2
aliforni@@ 2
nachgehen 2
würzt 2
ign@@ 2
sprecher 2
räsentation 2
receiver 2
stanford 2
tramp@@ 2
steinboden 2
staat@@ 2
wehr 2
teil@@ 2
spä@@ 2
alum@@ 2
plastikflaschen 2
ruby 2
prius 2
schlittschuh@@ 2
ckel@@ 2
zeugt 2
oberleitungsfahrzeug 2
schneeausrüstung 2
silberfarbene 2
regenschri@@ 2
nisvoller 2
neugeborene 2
universit@@ 2
ät@@ 2
interessan@@ 2
schneeschuh 2
eht 2
gehü@@ 2
smoothies 2
aussicht@@ 2
wakeboarder 2
zukunft 2
schlafanzügen 2
schme@@ 2
straßenkünstlern 2
requisiten 2
sxswo 2
mcdonal@@ 2
protesti@@ 2
terrorist 2
mö@@ 2
pfi@@ 2
nie 2
tissues 2
kan 2
schulklasse 2
selungsanlage 2
rotisserie 2
flüssig@@ 2
tanzvorführung 2
tenhund 2
urlaub 2
pakete 2
spenden 2
peterson 2
polaris 2
spinnt 2
oliven@@ 2
pastellfarbenen 2
passieren 2
zwie@@ 2
pavil@@ 2
sauerstoff@@ 2
wartende 2
pflanz@@ 2
motorrads 2
orte 2
neut@@ 2
ral@@ 2
verhaftet 2
patriot 2
trampelpfad 2
schraubendreher 2
gerahmte 2
beteil@@ 2
nancy 2
pelosi 2
wheel@@ 2
s-auto 2
polizeibeamter 2
röcke 2
telefonleitung 2
münzfernsprecher 2
pflaster@@ 2
regt 2
ziegelsteingebäude 2
zales 2
verboten 2
pt. 2
vornehm 2
ment@@ 2
ären 2
umarmungen 2
schnüffeln 2
spause 2
stiftrock 2
holli@@ 2
verkehrsschild 2
spielzeuglastwagen 2
oster@@ 2
iel 2
zügel 2
shoe@@ 2
sehens@@ 2
mitt@@ 2
schneebrille 2
zelnde 2
plastikwanne 2
schläuche 2
schrott 2
signiert 2
gerer 2
stimmten 2
un 2
stungen 2
schwimmkleidung 2
tab 2
quentierten 2
schlangen@@ 2
touristin 2
modernes 2
wurzeln 2
november 2
ough 2
tlichen 2
prof@@ 2
tagesli@@ 2
shiki 2
beruhi@@ 2
renaissance-@@ 2
twurst 2
teva 2
neuroscience 2
rat 2
zerri@@ 2
selena 2
stiegen 2
währen@@ 2
ach@@ 2
wohnhauses 2
negie 2
geish@@ 2
wäsch@@ 2
taschenlampe 2
schaufensterpuppen 2
raum@@ 2
tambor 2
victoria 2
wachleute 2
week 2
stice 2
männe 2
berü@@ 2
tret@@ 2
gor@@ 2
sauber@@ 2
schlafzimmer@@ 2
protestierende 2
undert 2
tomaten@@ 2
chsi@@ 2
schatteten 2
schubkarren 2
plastikflasche 2
papi@@ 2
schriftzeichen 2
trommel@@ 2
vati@@ 2
eleph@@ 2
sprecherin 2
schalten 2
pferdewagen 2
skaterpark 2
überschwemm@@ 2
überreste 2
warteh@@ 2
theatervorstellung 2
rost@@ 2
puer@@ 2
tori@@ 2
shri@@ 2
mps 2
sterdam 2
strali@@ 2
spirituosengeschäft 2
ruf 2
stüren 2
anz 2
önn@@ 2
sperrung 2
miniat@@ 2
weilt 2
zweistöckigen 2
sara 2
verti@@ 2
weißene 2
mooch 2
übergang 2
pontiac 2
staples 2
rockkonzert 2
tai@@ 2
ese 2
töchter 2
professionell 2
schirmchen 2
swatch 2
nachhauseweg 2
siberian 2
ara@@ 2
gir@@ 2
runzelt 2
sme@@ 2
gera@@ 2
meiß@@ 2
unbekannte 2
chers 2
verne@@ 2
richardson 2
bewölk@@ 2
überdimensioni@@ 2
orgio 2
seiko 2
darstell@@ 2
ands 2
t-ski 2
panam@@ 2
straßenansicht 2
schnellimbiss 2
ura 2
thailand 2
soldatinnen 2
wolle 2
7@@ 2
morgan 2
transparent 2
banan@@ 2
drin@@ 2
ärzt@@ 2
völ@@ 2
stens 2
bäu@@ 2
realty 2
ringsum 2
roller-derby 2
stadtplan 2
scherz@@ 2
waagere@@ 2
zor@@ 2
paddington 2
scheffel 2
plastikbecher 2
wisch@@ 2
verletzter 2
schmuddel@@ 2
hasen@@ 2
smauer 2
yoga@@ 2
skop@@ 2
tischem 2
subje@@ 2
ohrhörer 2
plakaten 2
rettungskraft 2
tauschen 2
rummelplatz 2
partnerin 2
beweg@@ 2
nislaw 2
rowski 2
vertreter 2
thefaceshop 2
ers-@@ 2
pritschenwagen 2
za@@ 2
nissen 2
spongebob-@@ 2
zapf@@ 2
rollwagen 2
ort@@ 2
nei@@ 2
veranstaltet 2
tommy 2
tam@@ 2
orientali@@ 2
sbi@@ 2
zauberer 2
zaubertrick 2
musiziert 2
sierte 2
weinflasche 2
speit 2
verh@@ 2
sprud@@ 2
volles 2
wackel@@ 2
ungsfahrzeug 2
schert 2
propell@@ 2
steuerten 2
parkgarage 2
-tattoo 2
skateranlage 2
nächtliches 2
farbi@@ 2
hija@@ 2
vorüberfährt 2
brenn@@ 2
mpeach 2
selbstgebauten 2
jogging@@ 2
pflügen 2
visier 2
ssene 2
rvs 2
bewe@@ 2
unrat 2
wirkt 2
sphin@@ 2
quetscht 2
ängten 2
steakhouse 2
umhänge@@ 2
ärm@@ 2
trägerhemden 2
okee 2
xxotica 2
zusammengebaut 2
videothek 2
eink@@ 2
opo@@ 2
sitzbank 2
taubenschwarm 2
straßenmusik 2
smart 2
pfeiler 2
wahl@@ 2
kauf@@ 2
straßent@@ 2
santo 2
schön 2
gepflaster@@ 2
tarnfarben 2
portug@@ 2
bou@@ 2
vee 2
speedo-badehose 2
sang 2
überfliegt 2
vertreiben 2
pts 2
pedale 2
man-@@ 2
rosaroter 2
studi@@ 2
mbiss 2
vierte 2
slipp@@ 2
deckten 2
ffee 2
windet 2
gehend 2
regennassen 2
religion 2
perla 2
pfirsichfarbenen 2
änzer 2
tätowieren 2
unschar@@ 2
wolken@@ 2
erische 2
superhelden@@ 2
relie@@ 2
napa 2
vote 2
saf@@ 2
scheucht 2
shakespeare 2
zugführer 2
telefonzellen 2
pferdeschwänzen 2
pfauenkostüm 2
pipe@@ 2
kunstwer@@ 2
süßigkeitenladen 2
neapolis 2
dess@@ 2
nottingham 2
ornam@@ 2
never 2
tiers 2
nonnentracht 2
stöckelschuhen 2
verschmiertem 2
tönten 2
tempor@@ 2
thorn 2
cover@@ 2
schottische 2
leoparden@@ 2
herren@@ 2
surfbrettern 2
versamm@@ 2
seeha@@ 2
religi@@ 2
pole-@@ 2
kehr@@ 2
rollers 2
uma 2
rommeln 2
kit@@ 2
schizophren@@ 2
raffe 2
nägeln 2
wir@@ 2
stromleitungen 2
walgreens 2
olympioniken 2
padd@@ 2
wasserschlacht 2
verk@@ 2
nn@@ 2
pacific 2
wigg@@ 2
action@@ 2
ollten 2
triomphe 2
twi@@ 2
entspan@@ 2
nter 2
schiger 2
n.y. 2
unte 2
stattet 2
sonnenschirme 2
strel 2
themen@@ 2
quadratischen 2
parkuhr 2
schneiderin 2
unternehmen@@ 2
sugarland 2
senal 2
rosa-grünen 2
ppens 2
schipper 2
torhü@@ 2
risty 2
wissenschafts@@ 2
eichen 2
lly@@ 2
bün@@ 2
scooby 2
sitzung 2
feu@@ 2
eben@@ 2
tuniken 2
rolltreppen 2
strömenden 2
sattraktion 2
taucher@@ 2
mechani@@ 2
porträ@@ 2
ausstell@@ 2
dex 2
noti@@ 2
umgekippt 2
cir@@ 2
schne@@ 2
carto@@ 2
oin 2
tasten 2
lk@@ 2
urdu 2
streethock@@ 2
gewin@@ 2
venti@@ 2
tei@@ 2
ppla@@ 2
wrapper 2
mc@@ 2
schrau@@ 2
kopfstein@@ 2
urlaubs@@ 2
mmel@@ 2
vans 2
schmin@@ 2
veda 2
sva 2
theatre 2
spaniel 2
spielzeug-rasenmäher 2
verkleidung 2
trägershirt 2
morgenrock 2
sheltie 2
musikalische 2
postmitarbeiter 2
yak 2
unstläufer 2
schleuder 2
regengu@@ 2
regenjacke 2
shel@@ 2
modifier 2
putztes 2
bak 2
symbo@@ 2
verhüllte 2
prächtige 2
wüchsiger 2
zerkleinert 2
trud@@ 2
äufer 2
schneelandschaft 2
steuer 2
toronto 2
mp3 2
zwil@@ 2
patro@@ 2
prü@@ 2
artikeln 2
zuschauerraum 2
skianzug 2
zerrissenen 2
vermischt 2
schbom@@ 2
hula-ho@@ 2
fitne@@ 2
splay 2
stücks 2
pc 2
schließ@@ 2
ala@@ 2
thi@@ 2
zentimeter 2
outdoor-bekleidung 2
res@@ 2
reten 2
north 2
ölfass 2
reiben 2
turnkleidung 2
mannschaft@@ 2
ninjas 2
schwarzweiß 2
pedal@@ 2
winterbekleidung 2
schneidersitz 2
regency 2
trainingsanzügen 2
tamburin 2
revol@@ 2
ution 2
ritualtanz 2
mag@@ 2
tischler 2
stuhlreihen 2
synthesizer 2
gehalten@@ 2
beut@@ 2
umgebenden 2
rona 2
skimboarder 2
oring 2
harmoni@@ 2
rettet 2
polizeiuniform 2
orant 2
sportfeld 2
ssonne 2
sucher 2
männerteam 2
schlagmanns 2
vril 2
entschei@@ 2
vorlage 2
strengt 2
volleyballteam 2
respe@@ 2
quarterbacks 2
sonnenanbetern 2
pferder@@ 2
silbernem 2
wee@@ 2
sivspieler 2
wellen@@ 2
sportstudio 2
visiert 2
zielfernrohr 2
schießplatz 2
state-teams 2
nalist 2
wasserball@@ 2
posi@@ 2
schottenröcken 2
schwimmbekleidung 2
ryan 2
tannehill 2
haw@@ 2
spartans 2
süßer 2
ballspieler 2
school@@ 2
verwitterten 2
donal@@ 2
rasenplatz 2
quiznos-subs 2
schützer 2
gan 2
sportart 2
sit@@ 2
wehr@@ 2
verpasst 2
oxfor@@ 2
sieger@@ 2
raclette 2
perin 2
schaulustiger 2
traven@@ 2
wildwasserrafting 2
waldlandschaft 2
zweikampf 2
saxof@@ 2
sky-watcher 2
winkend 2
werferhügel 2
quar@@ 2
ssi 2
roose@@ 2
john@@ 2
perman@@ 2
t-fahrer 2
griff@@ 2
quette 2
standbild 2
vat@@ 2
ohrschützern 2
short@@ 2
vorbereitungen 2
scheitelpunkt 2
tee-ball 2
heit@@ 2
zustellen 2
inspe@@ 2
schwin@@ 2
strecken@@ 2
weiß-roter 2
peter 2
soy 2
rocka@@ 2
bill@@ 2
rollstuhlrennen 2
offs 2
triumph@@ 2
verschiedenfarbiger 2
ang 2
psy@@ 2
up-@@ 2
surance 2
schwarzweiß@@ 2
wohnviertel 2
zehenspitzen 2
touri@@ 2
ny-@@ 2
portion 2
vorbeilauf@@ 2
tüm@@ 2
olympische 2
olympia@@ 2
plä@@ 2
morse 2
springsteen 2
yorkie 2
töpfert 2
stets 2
seu@@ 2
rodeoarena 2
wasserskil@@ 2
rock-@@ 2
thon 2
snooker 2
schütze 2
splatz 2
wood-@@ 2
volleyballmannschaft 2
ssland 2
bike-@@ 2
vorteil 2
speerwurf 2
swellen 2
sports-@@ 2
tab@@ 2
amph@@ 2
xion 2
schwimmhalle 2
stevie 2
ada 2
yores 2
rebound 2
tebow 2
mutual 2
volleyballplatz 2
lob@@ 2
paralympics 2
togra@@ 2
wetteifert 2
schaukelgestell 2
odyna@@ 2
verteidi@@ 2
wisconsin 2
panthers 2
sna@@ 2
petronas 2
wow 2
zü@@ 2
reisfeld 2
hill@@ 2
nelen 2
nesca@@ 2
radi@@ 2
port@@ 2
thora 2
trendy 2
sequence 2
powdered 2
tae 2
regarding 2
spect@@ 2
skyscraper 2
warrior 2
riverbed 2
assem@@ 2
regi@@ 2
approa@@ 2
skiiers 2
usly 2
peppers 2
snowmobiling 2
tipped 2
sling 2
motor-scooter 2
sunflower 2
camer@@ 2
shoeing 2
stea@@ 2
secures 2
surprised 2
buil@@ 2
tar@@ 2
tilted 2
mmers 2
toil 2
smel@@ 2
worshi@@ 2
programs 2
slan@@ 2
supervision 2
respon@@ 2
nished 2
upper-class 2
snarling 2
ners 2
varied 2
rough-@@ 2
conne@@ 2
wife-beater 2
bud@@ 2
platforms 2
source 2
oli@@ 2
neighbors 2
visit 2
edly 2
tivated 2
swung 2
ody 2
one@@ 2
brai@@ 2
tinted 2
reacting 2
pharmacy 2
swa@@ 2
origin 2
particular 2
pineapples 2
sword@@ 2
tingui@@ 2
rema@@ 2
sleepy 2
wai@@ 2
spattered 2
sewer 2
snuggling 2
symphony 2
spinner 2
class@@ 2
sked 2
ninja 2
swir@@ 2
water-filled 2
bloss@@ 2
treeless 2
umber 2
slamming 2
ss-covered 2
tri-colored 2
technician 2
zard 2
vating 2
twent@@ 2
por@@ 2
reflects 2
white-water 2
turbulent 2
saws 2
populated 2
platter 2
welder 2
worked 2
kerchie@@ 2
slu@@ 2
possible 2
oddly 2
attenti@@ 2
nips 2
questions 2
wondering 2
sweatpants 2
ribs 2
scrubbing 2
answ@@ 2
onary 2
postcards 2
pearls 2
swerves 2
motions 2
occasion 2
alling 2
zards 2
pel 2
water-@@ 2
shipping 2
started 2
plywood 2
physically 2
twined 2
sk 2
hug@@ 2
sections 2
stainless 2
vil 2
opy 2
slips 2
visitors 2
care@@ 2
need 2
percussion 2
shuffles 2
necks 2
ration 2
moun@@ 2
tux 2
ury 2
dir@@ 2
sle 2
residence 2
oncoming 2
search 2
recorder 2
wk@@ 2
washers 2
infla@@ 2
traverse 2
congreg@@ 2
tive 2
southeast 2
obsc@@ 2
pretzels 2
snorkeling 2
diti@@ 2
spout 2
parachutist 2
sibling 2
wooden-@@ 2
upstairs 2
cture 2
pajama 2
lling 2
snowdrift 2
sodas 2
harve@@ 2
vid 2
ption 2
toenails 2
pigs 2
swee@@ 2
sites 2
sidewalks 2
ssions 2
entri@@ 2
pamph@@ 2
cray@@ 2
ola 2
unwraps 2
stake 2
alou@@ 2
peep 2
sty 2
orange-red 2
sonry 2
cann@@ 2
chee@@ 2
adole@@ 2
silverware 2
ttage 2
sisters 2
refreshments 2
barbecu@@ 2
lly 2
ran 2
patrolling 2
rican 2
scores 2
ox 2
releases 2
resem@@ 2
pout 2
saucer 2
secon@@ 2
appro@@ 2
palace 2
ir 2
snowsuits 2
sky-view 2
mirro@@ 2
refuge 2
reaction 2
repelling 2
wrist 2
penguins 2
pounces 2
parrot 2
moti@@ 2
ily 2
beau@@ 2
lars 2
operate 2
swallowing 2
viewed 2
viol@@ 2
ined 2
placid 2
solid 2
rackets 2
four-@@ 2
presen@@ 2
shined 2
elev@@ 2
suc@@ 2
warmers 2
nee@@ 2
lack 2
zip-@@ 2
sman 2
rate 2
open-@@ 2
racks 2
vous 2
stracted 2
soles 2
overcast 2
twin 2
soaked 2
reluctant 2
spectacled 2
street-@@ 2
popu@@ 2
discu@@ 2
roller-blading 2
slumped 2
pane 2
brides@@ 2
trails 2
sliced 2
wrestles 2
zigzag 2
simply 2
scarfs 2
speckled 2
ama@@ 2
would 2
tackler 2
psing 2
pple 2
travelling 2
ander 2
snowstorm 2
submerges 2
sauce 2
ugs 2
pebbles 2
ortant 2
reporters 2
waffle 2
snail 2
steals 2
cil 2
watery 2
spher@@ 2
stuff@@ 2
secure 2
tear 2
received 2
stories 2
sales 2
strung 2
selections 2
pedals 2
struggle 2
specific 2
xing 2
ris 2
vered 2
sweets 2
squirts 2
bott@@ 2
routines 2
rising 2
victim 2
punches 2
semi-formal 2
tro 2
scaffolds 2
tell 2
cess 2
motives 2
winks 2
screens 2
tests 2
sely 2
scent 2
ssage 2
chisel@@ 2
thousands 2
ctors 2
tongues 2
non-@@ 2
quilted 2
twins 2
questi@@ 2
co 2
simultaneously 2
ha 2
swin@@ 2
sine 2
brick-@@ 2
turkeys 2
picted 2
wise 2
owl 2
iro@@ 2
pour 2
suspect 2
wants 2
popsicle 2
smelling 2
d-up 2
scruffy 2
refriger@@ 2
alco@@ 2
prepping 2
tambourines 2
blue@@ 2
windowsill 2
one-man 2
gry 2
voca@@ 2
cy 2
streamers 2
type@@ 2
writer 2
shells 2
sehold 2
ourful 2
rinsing 2
sesame 2
pressed 2
researchers 2
ee 2
obstru@@ 2
trading 2
sausage 2
bbing 2
super 2
ian 2
tilts 2
wineglass 2
mused 2
trinkets 2
wands 2
vaul@@ 2
preschool 2
plaster 2
sunday 2
skim 2
steering 2
stout 2
wered 2
parti@@ 2
rusted 2
tresses 2
yells 2
mushroom 2
rid 2
subject 2
tears 2
acrobati@@ 2
soa@@ 2
newsca@@ 2
yment 2
steeplechase 2
wagons 2
tty 2
y-looking 2
ugh@@ 2
nal 2
snoopy 2
then 2
gged 2
screen@@ 2
ri 2
sweat 2
close@@ 2
toll 2
twos 2
curi@@ 2
bikin@@ 2
thorugh 2
shopper 2
toting 2
styled 2
dles 2
exerci@@ 2
tergent 2
natives 2
sews 2
shrine 2
confu@@ 2
tuce 2
scrapping 2
snoo@@ 2
participant 2
wildfire 2
multi-color 2
off-screen 2
patchy 2
sterpiece 2
gue@@ 2
targets 2
usting 2
packs 2
wrangle 2
zune 2
wielding 2
triangle-shaped 2
polka-dotted 2
stumbling 2
rain@@ 2
treatment 2
respective 2
scythe 2
every@@ 2
specialized 2
shield 2
rifles 2
zaar 2
throughout 2
verage 2
bathro@@ 2
technical 2
sending 2
waterfalls 2
seamstress 2
scrimmage 2
ural 2
repairman 2
worried 2
gal@@ 2
bone 2
versal 2
color@@ 2
graffit@@ 2
smock 2
paperback 2
pork 2
ire 2
ek 2
roof@@ 2
private 2
superior 2
seas 2
buff@@ 2
plow 2
underside 2
skit 2
should 2
rates 2
saving 2
competiti@@ 2
pasture 2
referen@@ 2
scellaneous 2
pretend 2
blea@@ 2
oper@@ 2
trans@@ 2
scan 2
necktie 2
whisking 2
wetland 2
reason 2
splits 2
spending 2
paraphernalia 2
ringed 2
trekking 2
mou@@ 2
snowflakes 2
reindeer 2
mrs. 2
soapy 2
starfish 2
pat@@ 2
lowing 2
throat 2
vy 2
deal@@ 2
toes 2
slalom 2
top-hat 2
mouth@@ 2
ep@@ 2
upraised 2
rugged 2
spotlights 2
squirrel 2
restaraunt 2
news@@ 2
setup 2
cers 2
motor-cross 2
thatched 2
vender 2
swamp 2
sveral 2
fashi@@ 2
ably 2
tinsel 2
outf@@ 2
proclaim 2
risk 2
strips 2
even@@ 2
unkempt 2
born 2
shawls 2
projection 2
pean@@ 2
taped 2
day@@ 2
peddling 2
tye-dyed 2
tea@@ 2
softly 2
tin 2
witne@@ 2
wrists 2
gy 2
stitch 2
accompani@@ 2
flut@@ 2
tress 2
grima@@ 2
outboard 2
upside-down 2
spiky 2
soaking 2
gh 2
pipers 2
cocon@@ 2
clar@@ 2
pelican 2
parasail 2
openings 2
ped@@ 2
triangle 2
oceanside 2
vention 2
quietly 2
pouncing 2
strums 2
seal 2
semi-circle 2
proper@@ 2
wre@@ 2
hamm@@ 2
poultry 2
flower@@ 2
ssue 2
invol@@ 2
puff 2
classi@@ 2
raw 2
ctively 2
roun@@ 2
ornamental 2
surely 2
release 2
presented 2
supports 2
ads 2
stoops 2
ufc 2
trim 2
urs 2
releasing 2
vat 2
swoops 2
rehear@@ 2
sash 2
sends 2
shabby 2
swans 2
view@@ 2
pass@@ 2
treads 2
teaches 2
wounds 2
blond-@@ 2
letes 2
ame 2
teachers 2
weights 2
viator 2
illumin@@ 2
tional 2
pact 2
paddled 2
ki 2
remember 2
upturned 2
showers 2
syrup 2
pea@@ 2
ure@@ 2
nears 2
styling 2
stylist 2
snowmobile 2
wonder@@ 2
shu@@ 2
ddle 2
supported 2
skulls 2
peruses 2
oars 2
shift 2
spired 2
nanny 2
spoons 2
trade 2
short-sleeve 2
opinions 2
volcano 2
up@@ 2
west 2
sco 2
ral 2
thin@@ 2
putt 2
securing 2
registered 2
rics 2
elabo@@ 2
rately 2
sker 2
chur@@ 2
neatly 2
pineapple 2
ars 2
shing@@ 2
salesman 2
sledgehammer 2
bled 2
uncement 2
resour@@ 2
murals 2
celebra@@ 2
navigate 2
mly 2
` 2
dread@@ 2
middle-@@ 2
scary 2
shrubbery 2
tent-like 2
peoples 2
oblivious 2
shadowy 2
prene@@ 2
taping 2
protectors 2
wrench 2
riously 2
random 2
velope 2
custo@@ 2
swit@@ 2
barbe@@ 2
thong 2
citi@@ 2
sole 2
serious 2
hard@@ 2
unload 2
snowshoe 2
violet 2
samples 2
uld 2
saluting 2
respectively 2
prop 2
scen@@ 2
oper 2
roads 2
shepard 2
ritated 2
ssign@@ 2
acti@@ 2
ely 2
retrieve 2
servi@@ 2
tipping 2
true 2
presumably 2
well-lit 2
hoe 2
table@@ 2
podiums 2
nibbles 2
oxygen 2
wits 2
mir@@ 2
treed 2
russian 2
offer 2
dire@@ 2
cell@@ 2
ular 2
shacking 2
entran@@ 2
sive 2
shouts 2
thouse 2
squirted 2
ond 2
multitasking 2
watered 2
tar 2
exten@@ 2
timber 2
ddy 2
fying 2
roots 2
serene 2
self-@@ 2
slung 2
thursday 2
relaxed 2
saddled 2
spend 2
pula@@ 2
dy@@ 2
ering 2
puzzled 2
pies 2
extra@@ 2
ordinary 2
residential 2
eled 2
pastel 2
foo@@ 2
recent 2
rep@@ 2
hear@@ 2
locks 2
ish 2
thai 2
separated 2
thought@@ 2
sideline 2
officials 2
scul@@ 2
question 2
slim 2
owned 2
plaque 2
separates 2
scramble 2
dled 2
offered 2
dur@@ 2
unfriendly 2
pray 2
uble-decker 2
embra@@ 2
vilians 2
pollution 2
cele@@ 2
cian 2
ming 2
reflecting 2
remo@@ 2
trolled 2
reenactment 2
price 2
trooper 2
wavy 2
tugs 2
pho@@ 2
three-@@ 2
quartet 2
nas 2
violence 2
fers 2
showcasing 2
swaddled 2
pomeranian 2
sub@@ 2
tucked 2
sucker 2
shut@@ 2
troop 2
suspension 2
smear 2
street-side 2
stopping 2
off-white 2
partment 2
tick@@ 2
dy 2
rather 2
olympians 2
wristband 2
vessel 2
props 2
placard 2
selects 2
occurred 2
reclining 2
ctures 2
escal@@ 2
wanting 2
streaming 2
stander 2
winds 2
mming 2
simple 2
kins 2
previously 2
slou@@ 2
stunning 2
pid 2
fini@@ 2
waterproof 2
slingshot 2
oft 2
textile 2
weight@@ 2
recit@@ 2
sax 2
short-sleeved 2
tered 2
stic 2
fting 2
orted 2
role 2
turing 2
reciate 2
zooms 2
veyor 2
termined 2
gn 2
drib@@ 2
trail@@ 2
grasp@@ 2
scoring 2
steal 2
shoelaces 2
vault 2
ees 2
deser@@ 2
sew 2
ceful 2
plume 2
tle@@ 2
maje@@ 2
hölzer@@ 1
spek@@ 1
männ@@ 1
mexikani@@ 1
ausgebreite@@ 1
ppigen 1
gepark@@ 1
derby-@@ 1
schweine@@ 1
tromm@@ 1
luftball@@ 1
lege@@ 1
harthol@@ 1
ulen 1
platt@@ 1
brüne@@ 1
beguta@@ 1
chtung 1
walt 1
belei@@ 1
kleide@@ 1
höl@@ 1
sem 1
stamm@@ 1
vorbe@@ 1
tän@@ 1
zählt 1
flughafen@@ 1
senkre@@ 1
ym@@ 1
ca-@@ 1
maul@@ 1
floh@@ 1
gotte@@ 1
geres 1
ligi@@ 1
ps@@ 1
schür@@ 1
hochha@@ 1
hub@@ 1
tropi@@ 1
soft@@ 1
turbul@@ 1
holzko@@ 1
ammer 1
phin 1
freiheit@@ 1
statu@@ 1
zwan@@ 1
twil@@ 1
pfo@@ 1
projektor@@ 1
eben 1
zuhör@@ 1
alask@@ 1
saiten@@ 1
sierten 1
kell@@ 1
wör@@ 1
schleif@@ 1
schwimmhil@@ 1
ittel 1
stöps@@ 1
schlen@@ 1
aufblas@@ 1
passen@@ 1
obje@@ 1
ilen 1
verzerr@@ 1
onnen 1
schlei@@ 1
twer@@ 1
verschlun@@ 1
toyo@@ 1
zbart 1
teu@@ 1
feln 1
stewarde@@ 1
pfostens 1
schaftlich 1
reze@@ 1
vent 1
sich@@ 1
ßes 1
gestrü@@ 1
reiche 1
stasiati@@ 1
purpur@@ 1
ate@@ 1
skel@@ 1
weih@@ 1
herau@@ 1
namens@@ 1
reparat@@ 1
fäu@@ 1
kroko@@ 1
lader@@ 1
unord@@ 1
sumpf@@ 1
bast@@ 1
ationen 1
pracht@@ 1
schlam@@ 1
größer@@ 1
fad 1
tü@@ 1
untersu@@ 1
schneewe@@ 1
wech@@ 1
skol@@ 1
rer 1
fotografi@@ 1
stürzten 1
extre@@ 1
schön@@ 1
lolli@@ 1
bjekt 1
aum 1
onspieler 1
schmu@@ 1
ka-@@ 1
pflo@@ 1
ßten 1
scheitel@@ 1
chenden 1
ört@@ 1
amü@@ 1
bewachsen@@ 1
kara@@ 1
getu@@ 1
kastan@@ 1
wick@@ 1
krist@@ 1
rechte@@ 1
sprech@@ 1
lären 1
eliger 1
lapt@@ 1
teiler 1
gang@@ 1
spl@@ 1
stil@@ 1
sieren 1
konferen@@ 1
strumpf@@ 1
steini@@ 1
überwie@@ 1
sanzügen 1
brautjung@@ 1
auran@@ 1
vornüber@@ 1
bunge@@ 1
strick@@ 1
orangen@@ 1
pfirsich@@ 1
spat@@ 1
wich@@ 1
ärmello@@ 1
erungs@@ 1
balti@@ 1
aufmerk@@ 1
mam@@ 1
schlamm@@ 1
selt@@ 1
raz@@ 1
ungsbe@@ 1
spezi@@ 1
pfau@@ 1
moo@@ 1
individu@@ 1
sprü@@ 1
_ 1
khaki@@ 1
gleise 1
rut@@ 1
einig@@ 1
comput@@ 1
rollerbla@@ 1
kleid@@ 1
tun@@ 1
ckes 1
kter 1
karikat@@ 1
shut 1
bäl@@ 1
ha-@@ 1
kajak@@ 1
mmert 1
verbun@@ 1
unterir@@ 1
stäm@@ 1
chin@@ 1
schacht@@ 1
stut@@ 1
geworfen@@ 1
pake@@ 1
knieho@@ 1
unte@@ 1
spuri@@ 1
gtem 1
geld@@ 1
holi@@ 1
ulpen 1
konferenz@@ 1
spaghett@@ 1
pull@@ 1
erkuchen 1
umt 1
verschluss 1
ausländi@@ 1
akro@@ 1
itet 1
sporth@@ 1
seni@@ 1
män@@ 1
telefonz@@ 1
gebun@@ 1
welchen 1
öffent@@ 1
betre@@ 1
aquari@@ 1
bekan@@ 1
vem@@ 1
senf@@ 1
unordent@@ 1
geflochten@@ 1
eiscre@@ 1
aku@@ 1
glied 1
wasserstra@@ 1
bewal@@ 1
heine@@ 1
zun@@ 1
sele@@ 1
hinge@@ 1
pflan@@ 1
ügel 1
sö@@ 1
pfü@@ 1
reflektier@@ 1
ziff@@ 1
schwitz@@ 1
predi@@ 1
metri@@ 1
schildkrö@@ 1
luf@@ 1
bikini-@@ 1
eingang@@ 1
tation 1
ppi@@ 1
perspektive 1
zucker 1
miges 1
verwir@@ 1
school-@@ 1
beschädig@@ 1
fläch@@ 1
sicherheitsbe@@ 1
locki@@ 1
malten 1
bequ@@ 1
verha@@ 1
jewe@@ 1
polizi@@ 1
getr@@ 1
musch@@ 1
miger 1
vergnü@@ 1
tags@@ 1
sonni@@ 1
afroameri@@ 1
näh@@ 1
nen@@ 1
unice@@ 1
überda@@ 1
agi@@ 1
skater@@ 1
utieren 1
org@@ 1
seit@@ 1
wärts 1
aktiv@@ 1
vari@@ 1
eys 1
kab@@ 1
freu@@ 1
gestiku@@ 1
stapel@@ 1
befesti@@ 1
konstruk@@ 1
prunk@@ 1
pfir@@ 1
are@@ 1
othek 1
wasserski@@ 1
pok@@ 1
pyrami@@ 1
elmo@@ 1
ausgeschnitt@@ 1
leiden@@ 1
fack@@ 1
terten 1
auss@@ 1
umran@@ 1
pfar@@ 1
ena 1
wandt 1
ehmen 1
spritzern 1
bedien@@ 1
dau@@ 1
gewöhn@@ 1
lade@@ 1
gebi@@ 1
skili@@ 1
ussion 1
lagers 1
tzten 1
enlicht 1
weihnachtsgeschen@@ 1
schrä@@ 1
balanci@@ 1
lieb@@ 1
fel 1
old@@ 1
plasti@@ 1
nass@@ 1
langar@@ 1
berteil 1
nal@@ 1
zur@@ 1
ysi@@ 1
sl@@ 1
stem@@ 1
legg@@ 1
taschen@@ 1
ih@@ 1
koko@@ 1
auft 1
kaja@@ 1
struk@@ 1
ocean@@ 1
breit@@ 1
zäunten 1
zig@@ 1
steigs 1
rett@@ 1
teamkolle@@ 1
erseite 1
liebl@@ 1
langärmel@@ 1
bassi@@ 1
schran@@ 1
ssern 1
nahr@@ 1
chlich 1
kari@@ 1
gepfle@@ 1
öhnt 1
stanz 1
möglich@@ 1
wärtssalto 1
geschnallt 1
scheln 1
zylin@@ 1
schon@@ 1
militä@@ 1
steiner@@ 1
ehr 1
wär@@ 1
manzug 1
gestreif@@ 1
rein@@ 1
marin@@ 1
eho@@ 1
amerikanisches 1
pt@@ 1
gewän@@ 1
offi@@ 1
pad@@ 1
handwer@@ 1
picknick@@ 1
schatten@@ 1
mountainbike-@@ 1
frieden@@ 1
digit@@ 1
konstru@@ 1
zerr@@ 1
jesu@@ 1
raster@@ 1
wasserspren@@ 1
elek@@ 1
verwahr@@ 1
straf@@ 1
gung@@ 1
yo-@@ 1
schrit@@ 1
spy@@ 1
phonen 1
hindernispar@@ 1
inlin@@ 1
köpfiger 1
je 1
verbin@@ 1
mende 1
altmodi@@ 1
gepf@@ 1
akustik@@ 1
storte 1
wärtssal@@ 1
tattoo-@@ 1
tender 1
läch@@ 1
vermähl@@ 1
hula-hoop-@@ 1
ungewöhn@@ 1
gebe@@ 1
mongol@@ 1
trompe@@ 1
mön@@ 1
blas@@ 1
schaften 1
stlich 1
dium 1
gebä@@ 1
uf@@ 1
ellan@@ 1
benut@@ 1
scheinlich 1
tlich 1
hren@@ 1
seg@@ 1
uche 1
barfü@@ 1
mpe 1
etten 1
gepä@@ 1
soldat@@ 1
überdach@@ 1
mt 1
ärmel@@ 1
fragt 1
eit@@ 1
wirtschaft@@ 1
wandmaler@@ 1
stit@@ 1
sanitä@@ 1
hemd@@ 1
beaufsich@@ 1
dräh@@ 1
kanin@@ 1
schiff@@ 1
skap@@ 1
endet 1
zent@@ 1
vide@@ 1
ün@@ 1
nadelstreifen@@ 1
lok@@ 1
smitt@@ 1
patri@@ 1
empana@@ 1
ga 1
ub@@ 1
satt@@ 1
bord@@ 1
phon@@ 1
staff@@ 1
schwar@@ 1
llte 1
brand@@ 1
mediti@@ 1
bati@@ 1
flexi@@ 1
bert 1
kett 1
kot@@ 1
älter@@ 1
betra@@ 1
kek@@ 1
ena@@ 1
glei@@ 1
hlt 1
töpf@@ 1
unterhalt@@ 1
eine@@ 1
gesprei@@ 1
schäfer@@ 1
tambur@@ 1
podi@@ 1
schwa@@ 1
vorle@@ 1
äht 1
kleidet 1
schneebedeck@@ 1
rosti@@ 1
obdachlo@@ 1
smart@@ 1
tzt 1
ings@@ 1
rummel@@ 1
brasi@@ 1
lien 1
od@@ 1
gefroren@@ 1
kasten@@ 1
umten 1
letzt 1
trauri@@ 1
iniert 1
tie@@ 1
gesetz@@ 1
weibli@@ 1
neugeboren@@ 1
etzt 1
repar@@ 1
nor@@ 1
protest@@ 1
ungskünstler 1
sonnenanbe@@ 1
bär@@ 1
spoli@@ 1
tren@@ 1
paste@@ 1
pär@@ 1
shir@@ 1
schlepp@@ 1
straßenmusikan@@ 1
religiö@@ 1
sige 1
thail@@ 1
riksch@@ 1
sur 1
uren 1
deco@@ 1
text@@ 1
geschä@@ 1
mül@@ 1
arre 1
tage@@ 1
münzfern@@ 1
mpft 1
marschi@@ 1
arbeitsh@@ 1
schwän@@ 1
schl@@ 1
kreuz@@ 1
medizin@@ 1
sichten 1
vu@@ 1
gesti@@ 1
hula-@@ 1
straßenhänd@@ 1
gar 1
froren@@ 1
bam@@ 1
offizi@@ 1
mask@@ 1
ens@@ 1
ry@@ 1
smei@@ 1
abgesperr@@ 1
seits 1
lass 1
nation@@ 1
häuti@@ 1
zau@@ 1
automat@@ 1
vil@@ 1
spirituosen@@ 1
gästen 1
steu@@ 1
vergrößerungs@@ 1
zack 1
jekt 1
reini@@ 1
gymnasti@@ 1
lichkeit 1
neben@@ 1
sfest 1
gerahm@@ 1
erkun@@ 1
unbe@@ 1
gedul@@ 1
perü@@ 1
kimon@@ 1
sungen 1
rücken@@ 1
verbor@@ 1
hawaii-@@ 1
denk@@ 1
mals 1
apparat@@ 1
ungsort 1
kleidungsgeschäft 1
veranst@@ 1
selbstge@@ 1
pastell@@ 1
gesell@@ 1
fahrerin 1
leimer 1
tätowi@@ 1
balk@@ 1
mobil 1
pfan@@ 1
strohhal@@ 1
romm@@ 1
gehör@@ 1
strichenen 1
achter@@ 1
erleu@@ 1
spren@@ 1
kus 1
geflo@@ 1
sandwich@@ 1
rollerskat@@ 1
teppich@@ 1
nachdenk@@ 1
transpar@@ 1
kaukasi@@ 1
hispano@@ 1
kulptur 1
verkehrspoli@@ 1
gestrei@@ 1
kap@@ 1
ähne 1
yor@@ 1
französi@@ 1
transport@@ 1
orient@@ 1
vielfäl@@ 1
plak@@ 1
pend@@ 1
quarter@@ 1
ängsti@@ 1
face@@ 1
musikan@@ 1
plat@@ 1
vili@@ 1
schmutzi@@ 1
verkehrsm@@ 1
kathedra@@ 1
schütt@@ 1
üb@@ 1
öser 1
drigen 1
umarm@@ 1
schmer@@ 1
beruf@@ 1
mäher 1
doch 1
schlu@@ 1
ruhi@@ 1
molli@@ 1
zeh@@ 1
stasi@@ 1
kreu@@ 1
süßigkeiten@@ 1
unner 1
kei@@ 1
sätzen 1
magaz@@ 1
zigen 1
klei@@ 1
sträu@@ 1
att@@ 1
nack@@ 1
kopftü@@ 1
inn@@ 1
blon@@ 1
ore@@ 1
sonnenunter@@ 1
wake@@ 1
verrück@@ 1
tauch@@ 1
aschen@@ 1
bligen 1
belnden 1
ddie 1
fluore@@ 1
asiati@@ 1
stämmen 1
lex 1
ßer@@ 1
skate-@@ 1
zerlump@@ 1
pierc@@ 1
eller 1
gewehr@@ 1
merk@@ 1
limon@@ 1
alber@@ 1
nes 1
stie@@ 1
lerin 1
servie@@ 1
allt 1
füllten 1
whirl@@ 1
grasbewachsen@@ 1
blätter@@ 1
navi@@ 1
stumpf 1
rausge@@ 1
fahrener 1
schin@@ 1
kade 1
möbel@@ 1
quet@@ 1
haariges 1
satz@@ 1
elli@@ 1
peli@@ 1
fär@@ 1
brunnen@@ 1
verschie@@ 1
ameri@@ 1
shaus 1
selbe 1
packtes 1
wach@@ 1
walmar@@ 1
plant@@ 1
nadel@@ 1
amer@@ 1
burg@@ 1
zerin 1
strich@@ 1
meer@@ 1
eite 1
mund@@ 1
lippe 1
caf@@ 1
werfer@@ 1
flee@@ 1
cheerlea@@ 1
ping@@ 1
fuhrwerk 1
nächt@@ 1
jogg@@ 1
öhn@@ 1
bör@@ 1
szen@@ 1
warte@@ 1
hom@@ 1
mage 1
enn@@ 1
rosaro@@ 1
verreg@@ 1
è@@ 1
à 1
zendes 1
operation@@ 1
ener@@ 1
verschwommen@@ 1
runn@@ 1
ütze 1
state-@@ 1
shelfer 1
yar@@ 1
willi@@ 1
sung 1
stik@@ 1
trutha@@ 1
waffeln 1
schneide@@ 1
quie@@ 1
rustik@@ 1
zurü@@ 1
scheu@@ 1
erzeug@@ 1
mediz@@ 1
neugi@@ 1
schied@@ 1
quadra@@ 1
geschirr@@ 1
bad@@ 1
traditionell@@ 1
snowboar@@ 1
utiert 1
schär@@ 1
vorbeizu@@ 1
patrouil@@ 1
richter 1
schr@@ 1
galop@@ 1
pier@@ 1
konkur@@ 1
atlan@@ 1
kokosn@@ 1
vierer@@ 1
leopar@@ 1
ssieren 1
ramp@@ 1
marsch@@ 1
werkzeug@@ 1
funktion@@ 1
alie 1
beln 1
intensi@@ 1
ckens 1
cany@@ 1
tti@@ 1
violin@@ 1
soli@@ 1
öff@@ 1
überwa@@ 1
pers@@ 1
tuba@@ 1
bab@@ 1
jün@@ 1
sai@@ 1
karre 1
äumen 1
spinn@@ 1
martin@@ 1
speer@@ 1
bevö@@ 1
heraushän@@ 1
brä@@ 1
toiletten@@ 1
health@@ 1
näch@@ 1
prit@@ 1
geschlo@@ 1
stromschn@@ 1
patrio@@ 1
erst 1
leichtath@@ 1
refle@@ 1
volley@@ 1
stof@@ 1
ünstler 1
reizt 1
letz@@ 1
herausra@@ 1
pyjam@@ 1
rollstuhl@@ 1
schrift@@ 1
stadi@@ 1
arbeiterin 1
iten@@ 1
sprinkler@@ 1
strau@@ 1
gigen 1
samm@@ 1
wettei@@ 1
stütze 1
jugend@@ 1
sässi@@ 1
unterstütz@@ 1
bchen 1
tha@@ 1
schnürsen@@ 1
sseln 1
liege@@ 1
ela@@ 1
juwel@@ 1
sicherungss@@ 1
eiss@@ 1
pturen 1
sug@@ 1
dt 1
clarin@@ 1
uniform@@ 1
tree-@@ 1
ath 1
eyel@@ 1
sent@@ 1
rying 1
ji@@ 1
clut@@ 1
dinosau@@ 1
bor 1
irt 1
sure@@ 1
pic@@ 1
cident 1
guitar@@ 1
cabin@@ 1
odd@@ 1
footed 1
taining 1
prun@@ 1
scraper 1
fir@@ 1
af@@ 1
fig@@ 1
stal 1
frisbe@@ 1
stures 1
ssell 1
gical 1
fabri@@ 1
cco 1
utensi@@ 1
clou@@ 1
ctly 1
mail@@ 1
ket 1
straw@@ 1
wait@@ 1
stening 1
sparkl@@ 1
wel 1
waterski@@ 1
bum 1
vated 1
bear@@ 1
shin@@ 1
itan 1
treadmi@@ 1
tting 1
inspi@@ 1
reci@@ 1
snorkel@@ 1
rub@@ 1
phar@@ 1
business@@ 1
self 1
contra@@ 1
posse@@ 1
cle 1
ught 1
capped 1
u.@@ 1
hawai@@ 1
mur@@ 1
envi@@ 1
stab@@ 1
expre@@ 1
souven@@ 1
peop@@ 1
&apos;@@ 1
waterpro@@ 1
magni@@ 1
trol@@ 1
dirt@@ 1
suring 1
recor@@ 1
shampo@@ 1
oing 1
pain@@ 1
flau@@ 1
spot@@ 1
chal@@ 1
helme@@ 1
uth 1
attemp@@ 1
kis 1
expl@@ 1
tomat@@ 1
syn@@ 1
nam@@ 1
bies 1
rai@@ 1
xi@@ 1
maneu@@ 1
dan 1
ffles 1
tooth@@ 1
ington 1
silhouet@@ 1
camp@@ 1
alls 1
bal 1
window@@ 1
onable 1
thri@@ 1
pig@@ 1
ttes 1
towar@@ 1
tiss@@ 1
quo@@ 1
lamp@@ 1
spagh@@ 1
accor@@ 1
admi@@ 1
paral@@ 1
book@@ 1
gue 1
sn@@ 1
cely 1
poin@@ 1
publi@@ 1
seahaw@@ 1
secu@@ 1
emer@@ 1
spr@@ 1
reena@@ 1
tains 1
mush@@ 1
d-in 1
mon 1
indu@@ 1
barrica@@ 1
surroun@@ 1
turt@@ 1
power@@ 1
snar@@ 1
os@@ 1
stro 1
accep@@ 1
sax@@ 1
pensive 1
mem@@ 1
zzy 1
usk 1
yel@@ 1
suit@@ 1
kings 1
comple@@ 1
aband@@ 1
ured 1
cin@@ 1
laugh@@ 1
thum@@ 1
forms 1
ghts 1
sheep@@ 1
sociali@@ 1
wrest@@ 1
cem@@ 1
dered 1
lit@@ 1
ggy 1
ites 1
roller-bla@@ 1
gul@@ 1
sled@@ 1
cl@@ 1
passion@@ 1
blind@@ 1
yho@@ 1
swo@@ 1
ement 1
ered 1
toi@@ 1
dden 1
eat@@ 1
stap@@ 1
bora@@ 1
ump@@ 1
latin@@ 1
stream@@ 1
squee@@ 1
ree 1
fted 1
oed 1
perform@@ 1
practi@@ 1
tug@@ 1
pid@@ 1
bed@@ 1
shal@@ 1
cigar@@ 1
lared 1
snea@@ 1
cated 1
sking 1
xed 1
refu@@ 1
ander@@ 1
butcher@@ 1
retrie@@ 1
aga@@ 1
lem@@ 1
take@@ 1
sail@@ 1
fic 1
ugh 1
sculp@@ 1
figh@@ 1
appe@@ 1
skelet@@ 1
feat@@ 1
nur@@ 1
spider-@@ 1
ise 1
inclu@@ 1
ress 1
ppy 1
sque@@ 1
prin@@ 1
transform@@ 1
py@@ 1
screw@@ 1
chy 1
snowfla@@ 1
tre 1
swim@@ 1
uts 1
toena@@ 1
cid 1
surge@@ 1
tack@@ 1
void 1
flops 1
kin 1
commut@@ 1
pursu@@ 1
counter@@ 1
iler 1
cons@@ 1
poun@@ 1
ph 1
cart@@ 1
greens 1
q@@ 1
quir@@ 1
situ@@ 1
numer@@ 1
nin@@ 1
blow@@ 1
fac@@ 1
thre@@ 1
cler@@ 1
ssion@@ 1
veter@@ 1
milit@@ 1
thor@@ 1
constru@@ 1
hospit@@ 1
seem@@ 1
sham@@ 1
drift 1
guar@@ 1
brow@@ 1
ents 1
shirt@@ 1
tures 1
performan@@ 1
shepher@@ 1
ou@@ 1
vac@@ 1
ckets 1
stel@@ 1
check@@ 1
cloth@@ 1
pati@@ 1
plu@@ 1
borne 1
dump@@ 1
congre@@ 1
towel@@ 1
expan@@ 1
cket@@ 1
vio@@ 1
ghtly 1
pod 1
past@@ 1
urin@@ 1
rist@@ 1
ban 1
speciali@@ 1
terrori@@ 1
approxi@@ 1
gular 1
spark 1
sket@@ 1
mmage 1
volunte@@ 1
ently 1
spon@@ 1
enthusia@@ 1
kled 1
bene@@ 1
gray@@ 1
ricksha@@ 1
ple 1
quet 1
after@@ 1
foli@@ 1
pict@@ 1
adverti@@ 1
simultane@@ 1
govern@@ 1
opini@@ 1
adju@@ 1
work@@ 1
teri@@ 1
ora@@ 1
cer 1
rously 1
ill 1
barre@@ 1
happen@@ 1
oc@@ 1
tem@@ 1
brown@@ 1
inn 1
ater 1
handle@@ 1
suppor@@ 1
eal 1
dent 1
bub@@ 1
clip@@ 1
victori@@ 1
concre@@ 1
police@@ 1
$ 1
brun@@ 1
rested 1
devi@@ 1
repa@@ 1
ty@@ 1
musta@@ 1
stapler 1
spee@@ 1
vie@@ 1
laun@@ 1
dio 1
traf@@ 1
mpy 1
cauc@@ 1
ols 1
credi@@ 1
sthe@@ 1
amo@@ 1
arch@@ 1
cathedra@@ 1
curren@@ 1
plug@@ 1
tory 1
walk@@ 1
exhi@@ 1
itting 1
hudd@@ 1
metropol@@ 1
asi@@ 1
ggles 1
peri@@ 1
rac@@ 1
bath@@ 1
kawasa@@ 1
obser@@ 1
ory 1
iting 1
seamstre@@ 1
sear@@ 1
graffiti@@ 1
jewel@@ 1
stur@@ 1
checker@@ 1
scopes 1
tuni@@ 1
fro 1
equip@@ 1
tightro@@ 1
river@@ 1
white@@ 1
gth 1
press@@ 1
maj@@ 1
slin@@ 1
peb@@ 1
flat@@ 1
yello@@ 1
dest 1
wra@@ 1
vibran@@ 1
nap@@ 1
beater 1
trav@@ 1
suspen@@ 1
establi@@ 1
sant 1
shment 1
identi@@ 1
climb@@ 1
chalk@@ 1
scape 1
button@@ 1
wheelbar@@ 1
smi@@ 1
jam@@ 1
tran@@ 1
exhib@@ 1
javel@@ 1
swor@@ 1
track@@ 1
neck@@ 1
multi-@@ 1
tently 1
my@@ 1
erious 1
wran@@ 1
vie 1
row@@ 1
sunbath@@ 1
cular 1
race@@ 1
yanke@@ 1
cept 1
warri@@ 1
occu@@ 1
competit@@ 1
creme 1
pee@@ 1
pating 1
za 1
aggre@@ 1
ssive 1
reluct@@ 1
hop@@ 1
dal 1
present@@ 1
waff@@ 1
na 1
visit@@ 1
dish@@ 1
outfiel@@ 1
swer@@ 1
excit@@ 1
electri@@ 1
-american 1
vel 1
craw@@ 1
unidentifi@@ 1
verse 1
refer@@ 1
ace 1
eless 1
differ@@ 1
rail@@ 1
gerly 1
rece@@ 1
brie@@ 1
host 1
ards 1
tch 1
communic@@ 1
ssor 1
elect@@ 1
sleeved 1
top-@@ 1
saxophoni@@ 1
inju@@ 1
som@@ 1
old-@@ 1
thro@@ 1
obsta@@ 1
rela@@ 1
paintball@@ 1
prop@@ 1
pover@@ 1
incredi@@ 1
lay@@ 1
popsi@@ 1
conc@@ 1
erts 1
cock 1
worl@@ 1
well-@@ 1
tim@@ 1
feath@@ 1
alty 1
ph@@ 1
advan@@ 1
ep 1
fortun@@ 1
motori@@ 1
ues 1
ow 1
cham@@ 1
wiel@@ 1
= 1
pa 1
contem@@ 1
unit@@ 1
stically 1
