. 112880
a 98426
in 53650
ein 37710
einem 27426
, 25802
the 21944
eine 19826
und 17868
mit 17688
auf 17506
on 16152
man 15684
mann 15626
is 15086
and 14770
of 13750
einer 13538
with 12360
an 11902
der 10072
frau 8378
woman 7952
die 7904
two 7754
zwei 7746
are 7452
einen 6972
to 6264
people 6242
im 6216
at 5878
wearing 5246
von 4726
young 4560
sich 4548
white 4442
shirt 4424
dem 4290
mädchen 4246
junge 4148
black 4008
his 3938
while 3894
vor 3874
zu 3826
blue 3750
men 3574
steht 3570
sitting 3486
girl 3448
red 3418
boy 3384
dog 3360
männer 3334
den 3264
sitzt 3250
hund 3228
standing 3228
playing 3168
group 3104
person 3026
street 2898
straße 2844
während 2794
down 2784
walking 2756
gruppe 2698
her 2638
hält 2622
spielt 2620
front 2562
das 2524
holding 2474
hemd 2434
ball 2414
hat 2374
personen 2310
über 2258
one 2188
drei 2156
water 2118
eines 2110
three 2110
by 2094
blauen 2014
frauen 1988
women 1974
kind 1972
ist 1956
neben 1932
roten 1920
weißen 1914
stehen 1890
sitzen 1856
spielen 1856
am 1850
menschen 1850
green 1848
up 1848
aus 1830
little 1830
for 1822
durch 1792
child 1788
looking 1786
bei 1772
outside 1742
geht 1740
as 1732
trägt 1704
fährt 1682
large 1682
hand 1680
wasser 1650
through 1626
um 1596
kinder 1586
yellow 1562
kleines 1544
children 1540
brown 1532
macht 1494
springt 1474
from 1458
their 1450
into 1422
schwarzen 1420
kleiner 1404
entlang 1398
small 1342
next 1328
other 1320
leute 1316
park 1304
dressed 1272
gehen 1256
some 1252
out 1240
over 1222
building 1206
etwas 1168
riding 1168
running 1162
mehrere 1160
orange 1158
seinem 1156
near 1142
oberteil 1136
großen 1134
jacket 1132
around 1124
another 1124
t-shirt 1114
baby 1092
jungen 1076
field 1076
sidewalk 1068
beach 1042
crowd 1042
stand 1034
grünen 1032
jeans 1018
pink 1012
stands 1004
läuft 998
jumping 986
sits 986
sind 980
behind 978
fahrrad 976
jacke 972
shorts 972
hintergrund 962
kleidung 962
für 960
table 960
freien 956
grass 940
strand 938
luft 934
schaut 924
bike 924
anderen 922
background 920
snow 918
city 916
junger 912
&apos;s 888
girls 884
air 874
hinter 866
sie 862
player 862
nach 852
hut 850
tisch 850
top 844
asian 842
wall 840
looks 840
gelben 830
andere 824
gebäude 816
dogs 812
several 808
that 808
kleine 806
older 806
four 800
dress 798
vier 794
off 794
band 786
wird 774
camera 774
nähe 772
beim 768
talking 764
essen 760
lady 760
something 760
sand 756
schwarzer 752
kleinen 752
soccer 750
menschenmenge 742
skateboard 742
guitar 740
along 740
walks 738
kamera 732
boys 732
hair 730
paar 726
play 726
food 724
working 724
together 722
boden 720
vorbei 712
gras 712
hoch 710
hunde 708
er 708
smiling 706
pool 700
rock 700
schnee 694
restaurant 694
gray 686
rennt 684
game 680
picture 680
has 678
ihre 674
unter 662
car 662
plays 662
it 654
&quot; 650
holds 644
ihren 642
kleid 630
road 628
him 624
bench 620
old 616
pants 614
glasses 612
walk 608
gitarre 606
stage 606
fahren 602
feld 602
sit 602
carrying 600
älterer 598
des 598
couple 598
side 596
rennen 592
bühne 590
sein 586
zusammen 584
draußen 584
ihr 580
them 580
bicycle 574
brille 568
baseball 562
face 562
male 560
tree 558
herum 554
seine 554
race 552
basketball 552
sehen 550
kopf 550
foto 550
taking 550
gehweg 546
each 544
blickt 540
football 540
weißer 536
uniform 534
bank 534
es 534
doing 534
seinen 532
dabei 532
stadt 526
head 526
braunen 522
als 522
watching 522
across 522
dirt 520
guy 520
laufen 518
hose 518
there 518
area 516
-@@ 514
hinunter 514
blond 514
liegt 512
day 510
versucht 506
arbeitet 502
boat 500
jumps 500
hands 496
tragen 494
tennis 492
ground 492
female 490
kids 488
back 486
room 486
performing 482
bus 480
dame 480
wie 478
große 476
team 476
who 476
machen 472
brauner 472
schauen 472
eating 472
lächelt 468
being 466
using 460
orangefarbenen 458
ihrem 458
coat 458
schwarz 456
he 454
striped 454
suit 452
weg 450
under 450
ältere 448
watch 448
horse 446
many 446
ihm 444
arbeiten 442
mouth 442
purple 442
junges 440
store 438
sign 438
long 436
arm 434
wand 434
zeigt 432
bürgersteig 432
this 432
sieht 430
spricht 428
tag 426
halten 424
runs 424
liest 422
unterhalten 418
outfit 418
look 418
players 418
its 416
sunglasses 416
construction 416
reading 414
boot 408
haaren 408
clothing 406
hosen 404
microphone 404
be@@ 402
mountain 400
ocean 398
toy 398
workers 396
dark 396
viele 394
during 394
pferd 392
be 390
sonnenbrille 390
helm 390
zum 388
middle 388
watches 388
climbing 386
rosa 382
gekleidete 382
past 382
seiner 380
grauen 380
elderly 380
ge@@ 378
weißem 378
“ 376
blauem 374
helmet 374
against 374
work 372
bild 370
train 370
dancing 368
gesicht 366
singt 366
window 366
ihnen 362
rides 362
mantel 360
trick 360
or 360
auto 358
„ 356
they 356
chair 356
graffiti 354
about 354
führt 350
covered 350
klettert 348
fußball 348
posiert 348
posing 348
trees 348
felsen 346
darauf 346
wooden 346
having 346
waiting 346
outdoor 346
fünf 344
all 344
five 344
shirts 344
einige 340
befindet 338
spieler 338
swimming 338
getting 336
very 334
blauer 332
floor 332
blau 330
trying 330
anzug 328
baum 328
wirft 328
mikrofon 328
bag 328
raum 326
bar 326
ice 326
colorful 326
fenster 324
schwarzem 322
sehr 322
weiß 320
gekleideter 320
busy 320
arbeiter 318
singing 318
fence 318
line 314
jump 312
meer 310
rotem 310
schwarze 308
ins 308
oder 308
weiße 306
statue 306
wald 306
book 306
pullover 304
roter 302
isst 302
langen 302
frisbee 302
kindern 300
wiese 300
männern 300
stuhl 300
hill 300
cart 300
market 300
laying 300
anderer 298
truck 298
wartet 296
trikot 296
cap 296
tan 296
schild 294
high 294
bright 294
gestreiften 292
hats 292
ride 292
inside 292
big 290
others 290
kitchen 290
motorrad 288
cellphone 288
path 288
grassy 288
bluse 286
parade 286
someone 286
an@@ 284
making 284
springen 282
posieren 282
haar 282
takes 282
body 282
clothes 282
voller 280
werden 280
motorcycle 280
tanzen 278
light 278
umbrella 278
mütze 276
night 276
towards 276
full 276
oberkörper 274
sweatshirt 274
volleyball 274
computer 274
track 274
enjoying 274
brick 274
alter 272
rot 272
bereitet 272
er@@ 272
see 272
buch 272
board 272
metal 270
paper 268
river 268
swing 268
hügel 266
spiel 266
tank 266
shop 266
ready 266
betrachtet 264
zieht 262
surfer 262
she 262
handy 260
warten 260
s 260
blonde 260
zwischen 260
party 260
oben 258
stock 258
open 258
snowboarder 258
sweater 256
piece 256
leuten 254
schläft 254
berg 254
ab 254
colored 254
bäumen 252
geschäft 252
worker 252
art 250
hockey 250
lehnt 248
painting 248
above 248
instrument 246
reitet 246
lake 246
händen 244
dance 244
adults 244
going 244
maul 242
grill 242
run 242
music 242
fluss 240
miteinander 240
beobachtet 240
shopping 240
hard 240
vest 240
snowy 240
spielzeug 238
stick 238
surrounded 238
wave 238
ihrer 236
wagen 236
tanzt 236
phone 236
stone 236
uniforms 236
onto 236
rucksack 234
kleinkind 234
bauarbeiter 234
house 234
cowboy 234
kid 234
subway 234
outdoors 234
crowded 234
lächeln 232
radfahrer 232
couch 232
photo 232
schiebt 230
backpack 230
beside 230
smiles 230
haben 228
pole 228
vom 226
2 226
befinden 224
tasche 224
a@@ 224
seite 224
gegen 224
american 224
set 224
african 224
drinking 224
gear 224
schwimmbecken 222
küche 222
treppe 222
zaun 222
family 222
event 220
skateboarder 218
welle 218
toddler 218
fire 216
police 216
guys 216
gathered 216
rücken 214
ter 214
markt 214
holz@@ 214
kurzen 214
arms 214
hanging 214
flowers 214
fangen 212
asiatische 212
catch 212
bridge 212
away 212
ten 210
zug 210
lot 210
preparing 210
beautiful 210
schneidet 208
familie 206
verkauft 206
zur 206
object 206
steps 206
sleeping 206
costume 206
leaning 206
mitten 204
te 204
großer 204
machine 204
like 204
after 204
fishing 204
trinkt 202
haus 202
rosafarbenen 202
ab@@ 202
bikini 202
versammelt 202
jemand 202
blumen 200
hängt 200
rope 200
fountain 200
plaid 200
e@@ 198
gebäudes 198
erwachsene 198
pose 198
shirtless 198
ihn 196
rocks 196
take 196
brücke 194
rote 194
rodeo 194
adult 194
stairs 194
malt 192
gerade 192
reihe 192
show 192
telefoniert 192
shoes 192
denen 190
belebten 190
spazieren 190
nimmt 190
autos 190
bunten 190
drink 190
umgeben 188
schlägt 188
dock 188
schwimmt 188
blicken 188
selling 188
sunny 188
platz 186
ver@@ 186
winter 186
does 186
forest 186
geländer 184
gewässer 184
new 184
glass 184
setting 184
chairs 184
racing 184
weste 182
gekleidet 182
schneebedeckten 182
fußballspieler 182
hebt 182
vielen 182
sprung 182
freiem 182
tall 182
station 180
mutter 180
teams 180
flag 180
wood 180
putting 180
both 180
corner 180
hemden 178
sonnigen 178
teenager 178
hände 178
fliegt 178
publikum 178
fuß 178
short 178
pushing 178
throwing 178
himmel 176
richtung 176
i@@ 176
equipment 176
have 176
slide 176
ladies 176
between 176
kämpfen 174
seil 174
teil 174
bart 174
hohen 174
grünem 174
weißes 174
sofa 174
public 174
laughing 174
stück 172
herunter 172
dunklen 172
auf@@ 172
ein@@ 172
instruments 172
pictures 170
blaue 168
de@@ 168
kopfbedeckung 168
ski 168
zuschauen 168
plastic 168
ramp 168
view 168
asiatischer 166
zuschauer 166
blondes 166
base 166
orangen 166
bikes 166
which 166
playground 166
fish 166
poses 166
trail 166
woods 166
yard 166
tritt 164
alte 164
überqueren 164
g@@ 164
mannes 164
zeitung 164
schaukel 164
sun 164
concrete 164
beard 164
musik 162
laden 162
marathon 162
midair 162
decke 160
da 160
alten 160
hinauf 160
fest 160
bowling 160
school 160
number 160
bereiten 158
dach 158
hof 158
karierten 158
mauer 158
en@@ 158
skirt 158
seated 158
papier 156
genießt 156
davon 156
schirm 156
reads 156
distance 156
kunststück 154
d@@ 154
laptop 154
stange 154
attire 154
toward 154
get 154
just 154
what 154
bags 154
sechs 152
lacht 152
mittleren 152
zuschauern 152
beer 152
works 152
six 152
bed 152
cooking 152
mitte 150
benutzt 150
boots 150
menge 150
en 150
where 150
vests 150
cutting 150
blond-hair 150
rider 150
großes 148
t 148
in@@ 148
lässt 148
blick 148
einigen 148
court 148
cream 148
buildings 148
left 148
pulling 148
spielplatz 146
e 146
gelber 146
3 146
clown 146
baseballspieler 146
unterhält 146
alters 146
mensch 146
home 146
middle-aged 146
filled 146
zusieht 144
maschine 144
rasen 144
di@@ 144
trinken 144
f@@ 144
fotos 144
; 144
smoking 144
concert 144
box 144
sky 144
cross 144
crossing 144
cliff 144
friends 144
appears 144
lined 144
kostüm 142
nummer 142
nebeneinander 142
nahe 142
zuschaut 142
i 142
bearded 142
edge 142
showing 142
tent 142
spectators 142
mountains 142
few 142
metall@@ 140
nachts 140
bereit 140
aus@@ 140
k@@ 140
zusehen 140
armen 140
veranstaltung 140
treten 140
net 140
lila 140
– 140
make 140
horses 140
mother 140
jersey 140
cars 140
&apos; 138
ende 138
typ 138
land 138
gibt 138
ma@@ 138
ch@@ 138
surfboard 138
gegenstand 138
nearby 138
right 138
scarf 138
performs 138
bier 136
hinten 136
sonne 136
augen 136
führen 136
bereich 136
mund 136
roller 136
scheint 136
versuchen 136
zigarette 136
mo@@ 136
outfits 136
driving 136
carries 136
apron 136
perform 136
tunnel 134
mehreren 134
m@@ 134
coffee 134
fruit 134
shore 134
time 134
leaves 134
mannschaft 132
schürze 132
schal 132
zelt 132
fängt 132
einander 132
- 132
beobachten 132
rampe 132
re@@ 132
biker 132
ing 132
gentleman 132
painted 132
structure 132
parked 132
vendor 132
various 132
cigarette 132
dresses 132
students 132
flagge 130
kniet 130
bett 130
stufen 130
öffentlichen 130
kostümen 130
h@@ 130
beide 130
raucht 130
c@@ 130
trikots 130
no 130
talks 130
cup 130
vehicle 130
goggles 130
younger 130
smile 130
holz 128
tor 128
nicht 128
verschneiten 128
wanderer 128
rotes 128
rutscht 128
s@@ 128
gold 128
ferne 128
betrachten 128
liegen 128
un@@ 128
bottle 128
flying 128
door 128
flower 128
martial 128
drums 128
lying 128
hand@@ 126
grüner 126
end 126
paint 126
kicking 126
flags 126
eyes 126
bathing 126
hit 126
shot 126
erwachsener 124
unten 124
gehsteig 124
schuhen 124
blonden 124
diese 124
werfen 124
parking 124
waves 124
safety 124
rocky 124
swinging 124
newspaper 124
jackets 124
prepares 124
rain 124
leiter 122
grün 122
lachen 122
tennisball 122
gemüse 122
braune 122
drinks 122
außerhalb 122
hot 122
conversation 122
gather 122
different 122
bucket 122
arts 122
practicing 122
costumes 122
gloves 122
indian 122
uses 122
nacht 120
fahrzeug 120
schwarz-weißer 120
u-bahn 120
greift 120
snowboard 120
kleidern 120
em 120
läufer 120
skateboarding 120
ladder 120
cleaning 120
bunch 120
scene 120
competition 120
roof 120
listening 120
reden 118
legt 118
männliche 118
stellt 118
nehmen 118
musiker 118
gelbe 118
surft 118
stühlen 118
bärtiger 118
hold 118
wet 118
blanket 118
items 118
onlookers 118
staring 118
skifahrer 116
kommt 116
tür 116
hilft 116
fotografiert 116
hüten 116
d 116
b@@ 116
cafe 116
gelbem 116
display 116
aufschrift 116
stop 116
cake 116
balls 116
balloon 116
meal 116
pile 116
lawn 116
railing 116
audience 116
bicycles 116
giving 116
empty 116
bull 116
desk 116
da@@ 114
städtischen 114
ufer 114
blaues 114
rutsche 114
pass 114
sonnenuntergang 114
beiden 114
t-shirts 114
match 114
basketballspieler 114
bird 114
guckt 114
leaps 114
suits 114
military 114
dass 112
umgebung 112
damen 112
arbeit 112
leine 112
haare 112
herr 112
lo@@ 112
überquert 112
surfing 112
wedding 112
can 112
bowl 112
sliding 112
gathering 112
sports 112
vegetables 112
pointing 112
klettern 110
streckt 110
nacktem 110
schlagen 110
eimer 110
gelb 110
polizisten 110
versammeln 110
korb 110
schreibt 110
facing 110
way 110
feet 110
streets 110
before 110
competing 110
gets 110
vater 108
pfad 108
de 108
erwachsenen 108
getränk 108
gestreiftem 108
uniformen 108
handschuhen 108
polizist 108
blonder 108
pier 108
plate 108
son 108
platform 108
huge 108
helmets 108
cement 108
speaking 108
mask 108
basket 108
lesen 106
ers 106
sch@@ 106
hammer 106
brunnen 106
westen 106
leeren 106
go 106
same 106
ed 106
class 106
silver 106
bride 106
skier 106
tries 106
coming 106
classroom 106
eis 104
fisch 104
ger 104
badeanzug 104
genießen 104
jacken 104
ausrüstung 104
tricks 104
purse 104
wait 104
climbs 104
father 104
alley 104
traditional 104
sings 104
gelbes 102
ern 102
t@@ 102
garten 102
was 102
york 102
regen 102
asiatischen 102
golf 102
sort 102
ar@@ 102
break 102
y 102
fighting 102
rail 102
kissing 102
counter 102
chasing 102
animal 102
musicians 102
braut 100
ge 100
wobei 100
obst 100
sprechen 100
ohne 100
gekleideten 100
verschiedene 100
feuer 100
fell 100
kaufen 100
schlagzeug 100
deck 100
singen 100
soldaten 100
gegend 100
inmitten 100
la@@ 100
runner 100
happy 100
country 100
tie 100
stroller 100
females 100
schutzhelm 98
grüne 98
pause 98
grauem 98
al@@ 98
stein 98
parkplatz 98
wellen 98
ring 98
schwingt 98
hang 98
arme 98
riesigen 98
starrt 98
regenschirm 98
talk 98
business 98
lights 98
walkway 98
shoulder 98
lap 98
kneeling 98
screen 98
lit 98
sunset 98
throw 98
writing 98
waits 98
tattoo 96
alle 96
sohn 96
konzert 96
schwarzes 96
bergen 96
anderes 96
gebäuden 96
schuhe 96
fallen 96
glas 96
motorradfahrer 96
älteren 96
g 96
block 96
keyboard 96
gemeinsam 96
kinderwagen 96
do 96
waving 96
seen 96
blowing 96
bald 96
christmas 96
attempting 96
violin 96
grünes 94
baustelle 94
jugendlicher 94
offenen 94
straßenrand 94
straßen 94
video 94
lächelnd 94
robe 94
hört 94
straßenecke 94
fans 94
scooter 94
chinese 94
life 94
tables 94
overlooking 94
course 94
skating 94
signs 94
place 94
schoß 92
so 92
se 92
mikrophon 92
le@@ 92
vogel 92
ei@@ 92
kuchen 92
dieser 92
rad 92
zurück 92
umarmt 92
tischen 92
orangefarbener 92
gra@@ 92
jagt 92
arena 92
waren 92
pinkfarbenen 92
van 92
blond-haired 92
urban 92
hole 92
bubbles 92
says 92
artist 92
officer 92
mirror 92
putzt 90
softball 90
fast 90
schen 90
au@@ 90
mi@@ 90
pflanzen 90
gut 90
ts 90
gleich 90
ent@@ 90
krawatte 90
bu@@ 90
setzt 90
ds 90
square 90
o 90
schreibtisch 90
dunkelhäutiger 90
o@@ 90
hoodie 90
stunt 90
giant 90
leans 90
balloons 90
fixing 90
close 90
kurz 88
flasche 88
schatten 88
lkw 88
beton@@ 88
sandalen 88
netz 88
kunden 88
tes 88
repariert 88
vordergrund 88
st 88
finger 88
pitcher 88
karate 88
skate 88
alone 88
made 88
swim 88
faces 88
teenage 88
brunette 88
helping 88
leg 88
collar 88
foreground 88
gym 88
leather 88
umbrellas 88
bahn 86
loch 86
ganz 86
beugt 86
farben 86
gekleidetes 86
fahrrädern 86
ung 86
dreht 86
schlitten 86
stadium 86
fahrradfahrer 86
stiefeln 86
con@@ 86
maske 86
poster 86
podium 86
k 86
gegeneinander 86
kurzer 86
site 86
electric 86
mud 86
asleep 86
enjoy 86
sticks 86
legs 86
brightly 86
meat 86
dancers 86
headphones 86
li@@ 84
einkaufswagen 84
bedeckt 84
verkaufen 84
jemandem 84
gen 84
ziehen 84
reiten 84
lächelnde 84
st@@ 84
fahrrad@@ 84
schwimmen 84
asiatisches 84
schüler 84
balanciert 84
co@@ 84
zimmer 84
schiedsrichter 84
taschen 84
toys 84
footballspieler 84
skiing 84
pferden 84
goal 84
photographer 84
washing 84
sandals 84
among 84
swings 84
makes 84
officers 84
office 84
diving 84
falling 84
passing 84
wears 84
dessen 82
winkt 82
bo@@ 82
lich 82
wasser@@ 82
gerät 82
flip 82
gegenüber 82
weibliche 82
mar@@ 82
z@@ 82
höhe 82
spiegel 82
schläger 82
braunem 82
erde 82
fällt 82
4 82
ca@@ 82
singer 82
males 82
multicolored 82
dark-haired 82
dirty 82
church 82
barefoot 82
hiking 82
musical 82
heads 82
doorway 82
felswand 80
schulter 80
strecke 80
wo 80
zu@@ 80
( 80
schlange 80
halsband 80
klassenzimmer 80
orangefarbenem 80
tem 80
chef 80
club 80
voll 80
surfbrett 80
hellbrauner 80
football-spieler 80
mobiltelefon 80
here 80
performance 80
reaching 80
drawing 80
leash 80
accordion 80
throws 80
canoe 80
picking 80
traffic 80
overall 78
schüssel 78
belebte 78
gerüst 78
badehose 78
sche 78
handstand 78
vor@@ 78
5 78
unbefestigten 78
) 78
bäume 78
helmen 78
beige 78
skater 78
landschaft 78
ecke 78
! 78
kanu 78
oberteilen 78
sen 78
overalls 78
do@@ 78
below 78
row 78
wheel 78
shallow 78
members 78
relaxing 78
digging 78
aussieht 76
davor 76
seines 76
kajak 76
zeigen 76
hoch@@ 76
leuchtend 76
hin 76
haufen 76
ba@@ 76
steigt 76
bein 76
l@@ 76
fa@@ 76
zeit 76
festival 76
redet 76
durchs 76
deep 76
kick 76
garden 76
catching 76
hugging 76
atop 76
shovel 76
catches 76
gives 76
cat 76
microscope 76
passes 76
foot 76
bicyclist 76
kreis 74
tasse 74
flugzeug 74
telefon 74
hunden 74
hängen 74
dreadlocks 74
küsst 74
schaufel 74
um@@ 74
fleisch 74
verschiedenen 74
tanz 74
he@@ 74
gepflasterten 74
steine 74
spaß 74
makeup 74
stadion 74
rennstrecke 74
küssen 74
künstler 74
p@@ 74
kappe 74
schnauze 74
move 74
sweeping 74
resting 74
prepare 74
sleeps 74
shows 74
sled 74
climb 74
fun 74
bat 74
drum 74
leaping 74
flies 74
männlicher 72
farbenfrohen 72
ger@@ 72
schönen 72
grasbewachsenen 72
ra@@ 72
schultern 72
rolling 72
her@@ 72
seifenblasen 72
mikroskop 72
sachen 72
braun 72
tanktop 72
kai 72
asiatisch 72
tochter 72
puck 72
el@@ 72
anzügen 72
lilafarbenen 72
fall 72
lone 72
these 72
pond 72
sculpture 72
individuals 72
trunks 72
desert 72
friend 72
lots 72
splashing 72
upside 72
cold 72
conversing 72
teeth 72
daughter 72
coats 72
photograph 72
bis 70
unter@@ 70
enden 70
fläche 70
kirche 70
kocht 70
n 70
rand 70
café 70
katze 70
akkordeon 70
fußballspiel 70
violetten 70
freunde 70
küste 70
low 70
spielfeld 70
golden 70
sport 70
student 70
carnival 70
jogging 70
held 70
how 70
wrestling 70
customers 70
telescope 70
town 70
gun 70
points 70
underneath 70
tire 70
well 70
plants 70
hellen 68
liche 68
gegnerischen 68
freunden 68
braun-weißer 68
steinen 68
teich 68
lastwagen 68
steigen 68
schaukelt 68
bedient 68
ange@@ 68
unterwegs 68
parkbank 68
gasse 68
licht 68
grauer 68
bemalt 68
nur 68
ringen 68
center 68
studio 68
aussehende 68
cheerleaders 68
dinner 68
local 68
mat 68
cane 68
cyclist 68
opposing 68
themselves 68
project 68
without 68
shoulders 68
ting 68
moving 68
cut 68
dances 68
hiker 68
waters 68
eat 68
including 68
cloth 68
schutzhelmen 66
fahrer 66
sieben 66
beleuchteten 66
umarmen 66
straßen@@ 66
s-@@ 66
hell@@ 66
langem 66
über@@ 66
kommen 66
hauses 66
schwimmbrille 66
trampolin 66
fe@@ 66
reifen 66
chen 66
le 66
entspannt 66
geige 66
heben 66
damit 66
kopfhörer 66
holt 66
blatt 66
jockey 66
flaggen 66
moped 66
opening 66
booth 66
lab 66
crosswalk 66
straw 66
crying 66
pulled 66
infant 66
wooded 66
mural 66
sing 66
fight 66
trampoline 66
matching 66
racket 66
taken 66
produce 66
runners 66
skiern 64
objekt 64
m 64
verwendet 64
ges 64
gebiet 64
jongliert 64
kauft 64
teller 64
museum 64
berge 64
tuch 64
tänzer 64
ss@@ 64
schlamm 64
gen@@ 64
not 64
rest 64
bi@@ 64
hüpft 64
plane 64
teenagers 64
stuffed 64
picnic 64
gymnast 64
covering 64
sewing 64
wear 64
nose 64
bicyclists 64
athlete 64
trash 64
closed 64
attempts 64
led 64
performer 64
surface 64
shoe 64
instrumenten 62
kaffee 62
barfuß 62
grillt 62
fahnen 62
links 62
veranda 62
blumen@@ 62
bläst 62
bauen 62
sitzende 62
bilder 62
reparieren 62
e-@@ 62
dunkler 62
fahrt 62
wettkampf 62
rechts 62
lächelnder 62
feldweg 62
ruht 62
wurf 62
tier 62
taxi 62
fotografieren 62
metall 62
moment 62
klippe 62
ex@@ 62
rollerblades 62
spiel@@ 62
formal 62
schießt 62
rugby 62
books 62
ding 62
hoop 62
skis 62
lays 62
circle 62
ly 62
boxes 62
blouse 62
himself 62
hikers 62
sandy 62
chases 62
cow 62
goes 62
slope 62
balcony 62
pushes 62
lunch 62
help 62
pedestrians 62
third 62
oriental 62
auch 60
schüttelt 60
schlauch 60
vollen 60
sänger 60
werbung 60
goalie 60
mahlzeit 60
bekommt 60
abge@@ 60
schneiden 60
ert 60
position 60
handtasche 60
wüste 60
zeichen 60
nase 60
u@@ 60
beinen 60
hellblauen 60
wandert 60
ender 60
cowboyhut 60
ck@@ 60
verfolgt 60
berührt 60
geschlossenen 60
ber@@ 60
kopftuch 60
instrumente 60
springbrunnen 60
at@@ 60
stein@@ 60
london 60
me@@ 60
lift 60
hockt 60
bar@@ 60
clear 60
aussehender 60
dunkelhäutige 60
becher 60
gucken 60
ps 60
asiate 60
piano 60
hula 60
driver 60
staircase 60
puts 60
log 60
seven 60
turn 60
indoor 60
device 60
bent 60
paved 60
pulls 60
neck 60
speaks 60
bs 58
überfüllten 58
behälter 58
ro@@ 58
bringt 58
tennisspieler 58
reinigt 58
theke 58
blocks 58
auto@@ 58
teppich 58
linken 58
sport@@ 58
gezogen 58
karren 58
personengruppe 58
ho@@ 58
banner 58
sten 58
eren 58
terrasse 58
gi@@ 58
bau@@ 58
skateboards 58
reiter 58
n@@ 58
native 58
nice 58
pot 58
saxophone 58
gate 58
evening 58
wetsuit 58
heavy 58
gentlemen 58
enjoys 58
swims 58
drives 58
shaking 58
grocery 58
marching 58
gel@@ 56
heraus 56
geben 56
amerikanische 56
fahrräder 56
geld 56
ka@@ 56
koch 56
gelegt 56
salto 56
müll 56
traditioneller 56
v@@ 56
öffnet 56
schießen 56
lederjacke 56
ch 56
geländemotorrad 56
felsigen 56
part 56
üben 56
verkehr 56
stehenden 56
umzug 56
p 56
ches 56
auftritt 56
kissen 56
hinab 56
diesem 56
sandwich 56
garage 56
asiaten 56
man@@ 56
pinkfarbenem 56
asiatin 56
sheet 56
pouring 56
kayak 56
ledge 56
jean 56
kicks 56
ship 56
red-haired 56
porch 56
brown-haired 56
puddle 56
protective 56
lies 56
type 56
stream 56
tracks 56
khaki 56
garb 56
fingers 56
waterfall 56
wrapped 56
cloudy 56
fair 56
hangs 56
shaving 56
robes 56
foreign 56
steep 56
dancer 56
laundry 56
gießt 54
kerl 54
skulptur 54
nachdem 54
pferde 54
blätter 54
hellbraunen 54
projekt 54
wäscht 54
tops 54
dieses 54
rothaarige 54
glas@@ 54
taucht 54
: 54
bach 54
balkon 54
schlag 54
der@@ 54
wine 54
mound 54
schnell 54
gleitet 54
fla@@ 54
us 54
untersucht 54
cheerleader 54
kann 54
winterkleidung 54
l 54
zähne 54
blau-@@ 54
sportler 54
min@@ 54
denim 54
c 54
polo 54
kiss 54
poles 54
sale 54
paddling 54
shoveling 54
reaches 54
bread 54
luggage 54
eye 54
red-hair 54
birds 54
checking 54
opposite 54
attached 54
palm 54
backyard 54
sea 54
put 54
shooting 54
soldiers 54
skirts 54
colors 54
airplane 54
pfosten 52
allein 52
paddelt 52
brett 52
braunes 52
stapel 52
farbe 52
bikers 52
bunte 52
beieinander 52
durch@@ 52
kickt 52
zunge 52
schwimmer 52
kunst@@ 52
hals 52
schlafen 52
übt 52
will 52
wurde 52
skateboardfahrer 52
gang 52
bullen 52
ri@@ 52
den@@ 52
stoff 52
hockeyspieler 52
weitere 52
sitzender 52
coach 52
&amp; 52
passanten 52
you 52
kurve 52
tools 52
jerseys 52
flight 52
frame 52
inflatable 52
seat 52
clean 52
curb 52
tongue 52
string 52
wheelchair 52
soldier 52
laugh 52
balancing 52
windows 52
style 52
cones 52
camouflage 52
pavement 52
image 52
beton 50
viel 50
ob 50
ko@@ 50
bra@@ 50
brünette 50
lassen 50
laptops 50
kampfsport 50
berg@@ 50
getränke 50
kon@@ 50
it@@ 50
nassen 50
gräbt 50
teleskop 50
büro 50
silhouette 50
warm 50
bräutigam 50
r 50
fußgänger 50
ler 50
frisch 50
jo@@ 50
sees 50
sh@@ 50
cowboys 50
wettbewerb 50
zeichnet 50
rasiert 50
gezeigt 50
mänteln 50
touristen 50
bahn@@ 50
hören 50
helfen 50
wi@@ 50
vollführt 50
plant 50
ti@@ 50
start 50
magazine 50
bmx 50
moves 50
spray 50
ballerina 50
bubble 50
summer 50
santa 50
pipe 50
living 50
floral 50
tractor 50
happily 50
courtyard 50
eats 50
shade 50
swimsuit 50
try 50
railroad 50
walls 50
juggling 50
stool 50
floating 50
musician 50
buying 50
step 50
curly 50
laughs 50
round 50
fresh 50
fabric 50
raft 50
motorcycles 50
married 50
bottom 50
professional 50
riders 50
sell 50
cyclists 50
kehrt 48
schöne 48
baumstamm 48
verkäufer 48
f 48
arbeitskleidung 48
hinterher 48
ballons 48
fischen 48
kuh 48
schreit 48
bewegt 48
spitze 48
ha@@ 48
matte 48
können 48
stellen 48
benutzen 48
restaurants 48
aufge@@ 48
sitzenden 48
ze 48
geschirr 48
rollstuhl 48
kisten 48
ders 48
turnhalle 48
hotel 48
wasserfall 48
dra@@ 48
ben 48
ort 48
hinaus 48
angelt 48
pizza 48
ke 48
trommel 48
rädern 48
lebensmittel 48
grau 48
geh@@ 48
bringen 48
pe@@ 48
handtuch 48
straßenkünstler 48
bedeckten 48
besen 48
darunter 48
gruppen 48
runden 48
hellhäutiger 48
t-@@ 48
barbecue 48
to@@ 48
neoprenanzug 48
flip-flops 48
backwards 48
boats 48
guard 48
scaffolding 48
carriage 48
surf 48
cheering 48
multiple 48
closeup 48
either 48
acoustic 48
garbage 48
bucking 48
pair 48
marketplace 48
tube 48
groom 48
appear 48
hurdle 48
socks 48
touching 48
nap 48
suspended 48
knee 48
shown 48
bandanna 48
goods 48
pajamas 48
fahr@@ 46
eingang 46
glücklich 46
eln 46
kinder@@ 46
konzentriert 46
du@@ 46
rechten 46
feiern 46
baut 46
pa@@ 46
bekleidung 46
braunhaarige 46
lin@@ 46
hütte 46
we@@ 46
kochen 46
graben 46
acht 46
nahaufnahme 46
schuh 46
sa@@ 46
chinesischen 46
blondem 46
ck 46
ssen 46
ken 46
vorbeigehen 46
sch 46
schwarz-@@ 46
eis@@ 46
entfernt 46
horn 46
sts 46
ball@@ 46
alleine 46
teilen 46
tennisschläger 46
ru@@ 46
umher 46
studenten 46
candy 46
kapuzenpulli 46
jungs 46
berges 46
jagen 46
crew 46
live 46
derby 46
ärmellosen 46
drummer 46
y-@@ 46
verkleidet 46
ons 46
training 46
money 46
sack 46
skates 46
snack 46
post 46
heels 46
mom 46
stove 46
plaza 46
advertisement 46
kneels 46
fenced 46
dining 46
raised 46
underwater 46
hood 46
direction 46
escalator 46
climber 46
animals 46
hooded 46
welding 46
caught 46
long-haired 46
japanese 46
backpacks 46
ging 46
serving 46
airport 46
dry 46
sheep 46
german 46
paints 46
hay 46
landscape 46
towel 46
cked 46
use 46
chain 46
baum@@ 44
waldgebiet 44
geworfen 44
fliegen 44
einge@@ 44
dies 44
offenem 44
lächelndes 44
ku@@ 44
ungen 44
freund 44
gt 44
am@@ 44
linie 44
peace 44
wohnzimmer 44
elt 44
amerikanischen 44
lehnen 44
kalten 44
figur 44
ine 44
d-@@ 44
koffer 44
befestigt 44
texas 44
motorrädern 44
gegenstände 44
trainiert 44
rot-weißen 44
pen 44
abend 44
weit 44
stark 44
treffen 44
indische 44
folgt 44
po@@ 44
fotograf 44
goldenen 44
fi@@ 44
setzen 44
weihnachtsbaum 44
rolltreppe 44
ni@@ 44
ski@@ 44
hin@@ 44
sta@@ 44
jemanden 44
el 44
first 44
eins 44
gewand 44
afrikanische 44
y@@ 44
skatepark 44
bass 44
sets 44
geschäftigen 44
stadtstraße 44
good 44
print 44
2012 44
operating 44
neon 44
grilling 44
things 44
obstacle 44
vehicles 44
brushing 44
gravel 44
seems 44
participating 44
amusement 44
bending 44
individual 44
checkered 44
thrown 44
orchestra 44
teacher 44
referee 44
caucasian 44
decorated 44
athletic 44
examining 44
gemälde 42
silbernen 42
schwarz-weißen 42
schaufelt 42
nähert 42
arbeit@@ 42
rast 42
hölzernen 42
bushaltestelle 42
ling 42
hocke 42
kreuzung 42
weint 42
fri@@ 42
daumen 42
gehalten 42
ten@@ 42
fußball@@ 42
pfütze 42
bücher 42
baseballkappe 42
ausge@@ 42
ihres 42
bewegung 42
bänken 42
speisen 42
angezogen 42
verkauf 42
füßen 42
becken 42
laub 42
kunststücke 42
grün-@@ 42
tief 42
lauf@@ 42
gelehnt 42
streichelt 42
steinmauer 42
wänden 42
decken 42
dunkelhaarige 42
kiste 42
protest 42
si@@ 42
geschenk 42
tattoos 42
plakat 42
gro@@ 42
on@@ 42
theater 42
sonnenbrillen 42
seiten 42
balken 42
steilen 42
schäferhund 42
cra@@ 42
spielern 42
groß@@ 42
bei@@ 42
also 42
bildschirm 42
pitch 42
cello 42
snowboarding 42
basketball@@ 42
jugendliche 42
mannschaften 42
6 42
ckt 42
feier 42
wandbild 42
kahlköpfiger 42
komplett 42
trägerhemd 42
stones 42
1 42
amp 42
king 42
tourist 42
motocross 42
model 42
ropes 42
atv 42
map 42
crouches 42
tub 42
firefighters 42
passengers 42
pit 42
rowing 42
benches 42
harness 42
compete 42
attempt 42
scuba 42
hitting 42
rests 42
cone 42
feeding 42
muddy 42
button 42
hallway 42
only 42
practice 42
tourists 42
chest 42
haircut 42
presentation 42
photographs 42
sharing 42
sticking 42
wagon 42
opponent 42
racer 42
ich 40
gesch@@ 40
cu@@ 40
kletterer 40
ation 40
joggen 40
geparkt 40
scher 40
menschengruppe 40
joggt 40
schmutzigen 40
baseball@@ 40
mützen 40
erten 40
gepäck 40
luftballons 40
jüngeren 40
ur@@ 40
labor 40
schnee@@ 40
ses 40
banjo 40
spritzt 40
for@@ 40
kopfhörern 40
soldat 40
gold@@ 40
zuschauermenge 40
ausgestreckten 40
hürde 40
stift 40
tee 40
getränken 40
vorn 40
schnurrbart 40
scheinen 40
free 40
quarterback 40
j@@ 40
bad 40
al 40
wäsche 40
song 40
graffitis 40
scheibe 40
röcken 40
brust 40
gassi 40
cht 40
umhang 40
malen 40
klavier 40
aufführung 40
bogen 40
langhaariger 40
b 40
hau@@ 40
car@@ 40
sches 40
hugs 40
wunderschönen 40
back@@ 40
schule 40
wa@@ 40
se@@ 40
ar 40
leggings 40
lea@@ 40
form 40
fest@@ 40
gla@@ 40
heißen 40
hindernis 40
cricket 40
schirmen 40
so@@ 40
yoga 40
container 40
ce 40
balance 40
fan 40
college 40
birthday 40
apple 40
material 40
pärchen 40
ahead 40
machinery 40
hall 40
pull 40
but 40
cleans 40
fruits 40
eight 40
ted 40
jumpsuit 40
carpet 40
groups 40
figure 40
ear 40
jungle 40
action 40
mustache 40
motorcyclist 40
navy 40
long-sleeved 40
wire 40
patio 40
racetrack 40
fly 40
tool 40
sink 40
wide 40
policeman 40
headscarf 40
ears 40
speech 40
bathroom 40
guitars 40
sporting 40
herd 38
typen 38
traktor 38
seilen 38
hunde@@ 38
ki@@ 38
einzelner 38
streifen 38
teig 38
hell 38
füllt 38
tet 38
plattform 38
nähmaschine 38
farm 38
städtische 38
blume 38
vi@@ 38
schutzbrille 38
ribbon 38
fro@@ 38
geschäfts 38
bahnsteig 38
aber 38
cor@@ 38
topf 38
szene 38
rudert 38
bowlingbahn 38
john 38
u 38
stehende 38
experiment 38
te@@ 38
beschäftigt 38
violettem 38
mobile 38
fischer 38
il@@ 38
cher 38
vorrichtung 38
vorbeifährt 38
erin 38
kampf 38
kunstwerk 38
rosafarbenem 38
flughafen 38
füße 38
muster 38
herum@@ 38
anlegestelle 38
rubber 38
gitarrist 38
hula-hoop-reifen 38
jeep 38
men@@ 38
älteres 38
gelände 38
chor 38
mädchens 38
nickerchen 38
direkt 38
knien 38
gesäumten 38
bauch 38
me 38
baseballmütze 38
ziel 38
rede 38
sportveranstaltung 38
hi@@ 38
china 38
spielzeug@@ 38
apartment 38
zen 38
schwimm@@ 38
w@@ 38
dicht 38
fol@@ 38
turban 38
angel 38
stretching 38
gar@@ 38
belt 38
e-gitarre 38
lehrer 38
bun@@ 38
torhüter 38
boxer 38
army 38
pilot 38
ks 38
mall 38
col@@ 38
lacrosse 38
sp@@ 38
space 38
bushes 38
read 38
beam 38
snow-covered 38
lane 38
intersection 38
boardwalk 38
discussion 38
ceiling 38
baskets 38
swimmer 38
routine 38
fancy 38
observe 38
beverage 38
stopped 38
narrow 38
bath 38
half 38
petting 38
great 38
indoors 38
shoot 38
dune 38
hillside 38
dark-skinned 38
slides 38
eastern 38
neighborhood 38
crouching 38
tattooed 38
possibly 38
leaving 38
herself 38
smoke 38
trumpet 38
medical 38
vendors 38
horseback 38
sells 38
sh 38
ta@@ 36
spring 36
bowlingkugel 36
einkaufszentrum 36
wischt 36
farbigen 36
aufblasbaren 36
fal@@ 36
schwimmbad 36
sammelt 36
aufs 36
ker 36
geblümten 36
eltern 36
kariertem 36
clowns 36
brot 36
z 36
trompete 36
wein 36
steinigen 36
rucksäcken 36
dinge 36
afrikanischer 36
klein@@ 36
th@@ 36
scht 36
hal@@ 36
gewässers 36
amüsieren 36
angelrute 36
socken 36
blättern 36
foto@@ 36
ster 36
orchester 36
strohhut 36
beißt 36
werkzeug 36
heu 36
schmuck 36
fotografen 36
blau-weißen 36
hinterhof 36
gewehr 36
mithilfe 36
steckt 36
bro@@ 36
schlagzeuger 36
feuer@@ 36
bearbeitet 36
kaut 36
marschiert 36
schwach 36
schwarz-weiß 36
tafel 36
lachend 36
rennwagen 36
handschuh 36
per@@ 36
kette 36
berühren 36
gem 36
regenschirmen 36
bällen 36
els 36
ve 36
keep 36
geschäften 36
geräten 36
spiels 36
or@@ 36
finish 36
licher 36
renn@@ 36
stra@@ 36
anhat 36
chefs 36
schildern 36
mountainbike 36
feuerwehrmänner 36
got 36
com@@ 36
batter 36
computers 36
conference 36
4@@ 36
heart 36
color 36
dead 36
mohawk 36
entrance 36
mixing 36
ched 36
folding 36
helps 36
brush 36
hospital 36
buy 36
fencing 36
tile 36
clay 36
wheels 36
celebrating 36
squatting 36
nets 36
excited 36
ornate 36
youth 36
uniformed 36
cardboard 36
pieces 36
outstretched 36
lay 36
shepherd 36
bottles 36
puppy 36
guitarist 36
choir 36
funny 36
dishes 36
seats 36
buckets 36
maroon 36
bow 36
mostly 36
chase 36
microphones 36
klasse 34
hüte 34
gehende 34
grillen 34
schwenkt 34
cken 34
zeitschrift 34
rahmen 34
bestehende 34
motor 34
blasen 34
schiff 34
fahne 34
riesige 34
ke@@ 34
sucht 34
schweißt 34
mitarbeiter 34
mit@@ 34
schwarz-brauner 34
hü@@ 34
haar@@ 34
beigefarbenen 34
richtet 34
abendessen 34
je@@ 34
graue 34
bluejeans 34
köpfen 34
trainer 34
flachen 34
gri@@ 34
saxophon 34
chten 34
packt 34
kan@@ 34
kegel 34
mitglieder 34
flug@@ 34
jüngere 34
sandstrand 34
dunkelblauen 34
fahrgeschäft 34
hochzeit 34
schul@@ 34
haltung 34
gespräch 34
klettergerüst 34
flüssigkeit 34
drachen 34
dr@@ 34
jahrmarkt 34
treppen 34
tanz@@ 34
hilfe 34
picknicktisch 34
stufe 34
stab 34
ne@@ 34
dj 34
fegt 34
hockey@@ 34
feuerwehrmann 34
ga@@ 34
star 34
patient 34
1@@ 34
tra@@ 34
bau 34
ja@@ 34
offenbar 34
tiger 34
daneben 34
salon 34
spielkleidung 34
gegenseitig 34
hol@@ 34
bare 34
.@@ 34
factory 34
geländemotorradfahrer 34
engine 34
stier 34
wheelie 34
backsteingebäude 34
kopfüber 34
dreck 34
ut@@ 34
blazer 34
bla@@ 34
boards 34
hoops 34
ded 34
castle 34
reflective 34
member 34
sword 34
flipping 34
doctor 34
stack 34
cuts 34
leading 34
sleeveless 34
fisherman 34
ces 34
shed 34
stroll 34
doors 34
rink 34
pick 34
bear 34
rural 34
blows 34
turning 34
spraying 34
we 34
vegetable 34
bars 34
shaped 34
firetruck 34
rough 34
bowls 34
pine 34
polka 34
lines 34
item 34
grinding 34
ethnic 34
float 34
stripes 34
stares 34
library 34
inspecting 34
calf 34
broom 34
coloring 34
viewing 34
smokes 34
spinning 34
scenery 34
furniture 34
storefront 34
boxing 34
geldbörse 32
kerzen 32
körper 32
sportwagen 32
lied 32
operation 32
ter@@ 32
köche 32
paddeln 32
farbenfroher 32
all@@ 32
jeansjacke 32
brandung 32
ers@@ 32
kilt 32
reinigen 32
puppe 32
rollt 32
piste 32
vorne 32
sicht 32
drückt 32
weiß-@@ 32
ren@@ 32
lang@@ 32
bunt 32
bon@@ 32
rot-@@ 32
wandern 32
planscht 32
stangen 32
dri@@ 32
welpen 32
fre@@ 32
arbeits@@ 32
tu@@ 32
treibt 32
plastik@@ 32
wasserflasche 32
computer@@ 32
schlafanzug 32
cape 32
geschäftskleidung 32
dunkelhaariger 32
sanddüne 32
mittag 32
bekommen 32
catcher 32
füttert 32
frisbeescheibe 32
sen@@ 32
stern 32
sängerin 32
noch 32
del@@ 32
r@@ 32
bewölkten 32
grimasse 32
ms 32
waschsalon 32
kampf@@ 32
times 32
messer 32
verlassen 32
war 32
fußballfeld 32
parkt 32
leicht 32
nen 32
ad@@ 32
my 32
wife 32
begutachtet 32
ft 32
wettrennen 32
kalb 32
herab 32
bunter 32
rod 32
bahnhof 32
rennauto 32
entspannen 32
findet 32
statt 32
ballon 32
trainieren 32
jubeln 32
untersuchen 32
pre@@ 32
straßenhändler 32
grasfläche 32
lu@@ 32
lichen 32
inter@@ 32
band@@ 32
marschieren 32
häusern 32
name 32
ene 32
cool 32
badewanne 32
händler 32
turnerin 32
jockeys 32
story 32
per 32
elephant 32
come 32
ac@@ 32
downtown 32
les 32
ble 32
tied 32
broken 32
candles 32
duck 32
approaching 32
intently 32
gas 32
chalk 32
spread 32
card 32
crane 32
parents 32
cking 32
discussing 32
backs 32
emergency 32
motorbike 32
barrel 32
houses 32
dish 32
raises 32
fluffy 32
balding 32
starting 32
lamp 32
balances 32
fix 32
nighttime 32
television 32
jewelry 32
kite 32
stairway 32
overhead 32
plates 32
following 32
reach 32
gymnasium 32
rainy 32
carving 32
pigeons 32
lifting 32
objects 32
clad 32
surrounding 32
naked 32
ct 32
speed 32
listens 32
karte 30
festhält 30
fuß@@ 30
büschen 30
zöpfen 30
booten 30
zusammen@@ 30
esel 30
eingezäunten 30
starren 30
motorroller 30
dazu 30
diskutieren 30
vorüber 30
werkstatt 30
fernglas 30
zahlreiche 30
schieben 30
schubkarre 30
ate 30
näht 30
schaufenster 30
vielleicht 30
han@@ 30
har@@ 30
einrad 30
beine 30
sses 30
hinein 30
löffel 30
teaching 30
braun-schwarzer 30
turner 30
bespritzt 30
flur 30
gleichen 30
lange 30
motorräder 30
gefüllt 30
vögel 30
feuerwehr@@ 30
baumes 30
flo@@ 30
waldweg 30
kurs 30
kapuze 30
ton@@ 30
herunter@@ 30
zt 30
palmen 30
ast 30
leder@@ 30
ziegelmauer 30
pinata 30
mittel@@ 30
gs@@ 30
gten 30
bückt 30
schilder 30
cht@@ 30
los 30
militär@@ 30
orangefarbene 30
wendet 30
ohren 30
fer@@ 30
ö@@ 30
mittagessen 30
suchen 30
fallschirm 30
kor@@ 30
legen 30
mal@@ 30
kameras 30
fußgängerüberweg 30
versammlung 30
na@@ 30
tennisspielerin 30
lounge 30
sportkleidung 30
überprüft 30
fo@@ 30
spielerin 30
stirn 30
logo 30
ruhigen 30
afroamerikaner 30
baseballspiel 30
gewändern 30
blumenmuster 30
maulkorb 30
ans 30
runter 30
nah 30
engen 30
teenageralter 30
tribüne 30
usa 30
2@@ 30
caps 30
kl@@ 30
feiert 30
sand@@ 30
arm@@ 30
et@@ 30
bewundert 30
monument 30
verkleidete 30
eishockeyspieler 30
verlässt 30
hug 30
parasailing 30
lasso 30
bin 30
oranges 30
violine 30
sprinkler 30
scheinbar 30
ea@@ 30
world 30
converse 30
biking 30
shovels 30
hits 30
security 30
odd 30
numerous 30
flowered 30
unicycle 30
lounging 30
directions 30
amongst 30
swimmers 30
control 30
redheaded 30
called 30
protesting 30
participate 30
branch 30
pottery 30
raising 30
more 30
terrain 30
repair 30
wrestle 30
shaved 30
necklace 30
teammate 30
partially 30
engaged 30
headband 30
observing 30
forward 30
smaller 30
thin 30
blow 30
barber 30
follows 30
newborn 30
photos 30
electronic 30
cameras 30
turns 30
present 30
fireman 30
village 30
liquid 30
&apos;t 30
advertising 30
crosses 30
relax 30
wings 30
ping 30
papers 30
corn 30
beneath 30
shades 30
ber 28
rande 28
gleichzeitig 28
kunststoff@@ 28
gummi@@ 28
neue 28
ne 28
rei@@ 28
ente 28
zubereitet 28
turm 28
fahrzeuge 28
cker 28
aufzu@@ 28
grimassen 28
schaufeln 28
pony 28
mel@@ 28
rothaariges 28
fli@@ 28
kindes 28
bauarbeiten 28
glatzköpfiger 28
brauen 28
ä@@ 28
laden@@ 28
jubelt 28
tiere 28
richten 28
dunkel@@ 28
karussell 28
kt 28
gras@@ 28
bälle 28
afroamerikanische 28
sessel 28
ton 28
trommeln 28
ften 28
khakifarbenen 28
ofen 28
busses 28
ere 28
netze 28
nächsten 28
papier@@ 28
achterbahn 28
entlanggeht 28
webt 28
rosafarbene 28
indischer 28
ländlichen 28
vorbeigeht 28
sprüht 28
drinnen 28
lockigen 28
schaukeln 28
schmutz 28
flaschen 28
a-@@ 28
taucher 28
schreiben 28
beanie 28
far@@ 28
fahrrads 28
beleuchtung 28
demonstration 28
collie 28
beginnt 28
stirnband 28
ban@@ 28
rosafarbener 28
karten 28
ir@@ 28
go@@ 28
klatscht 28
gestreiftes 28
stehender 28
flöte 28
kante 28
america 28
khakis 28
bur@@ 28
bibliothek 28
neugeborenes 28
dose 28
hier 28
ben@@ 28
hun@@ 28
hotdog 28
einsamer 28
gläsern 28
landet 28
fahrzeugs 28
tauben 28
monopoly 28
uhr 28
blau-gelben 28
lager@@ 28
teilweise 28
lauf 28
chi@@ 28
stöcken 28
bewegen 28
rock@@ 28
len@@ 28
lobby 28
innen 28
aussehenden 28
produkte 28
reifenschaukel 28
kü@@ 28
paddle 28
bri@@ 28
football@@ 28
holen 28
akustikgitarre 28
klassenraum 28
sk@@ 28
tan@@ 28
rettungswesten 28
modern 28
? 28
greifen 28
11 28
figuren 28
tal 28
target 28
wirbelt 28
radrennen 28
snowboardfahrer 28
flips 28
verdeckt 28
rennens 28
tri@@ 28
monitor 28
tackle 28
os 28
wrestler 28
frei@@ 28
lei@@ 28
# 28
ves 28
asiatinnen 28
listen 28
aquarium 28
gegner 28
wild 28
formation 28
love 28
tea 28
falls 28
dad 28
ally 28
rainbow 28
shakes 28
whilst 28
binoculars 28
billboard 28
steel 28
donkey 28
silly 28
pan 28
skiers 28
repairs 28
job 28
loading 28
cook 28
athletes 28
fake 28
push 28
shining 28
shops 28
carry 28
trailer 28
ful 28
weaving 28
head@@ 28
casual 28
share 28
tower 28
tents 28
cobblestone 28
trunk 28
firemen 28
wading 28
calm 28
splashes 28
interacting 28
guns 28
straight 28
gift 28
machines 28
upon 28
mid 28
receiving 28
most 28
peering 28
slightly 28
rows 28
sted 28
crafts 28
airborne 28
pretty 28
pillow 28
passenger 28
photographed 28
glove 28
leads 28
aisle 28
camel 28
races 28
homeless 28
performers 28
admiring 28
polizei@@ 26
hotdogs 26
kunstwerke 26
dar@@ 26
anlage 26
abends 26
meeres 26
schwert 26
waschen 26
feuerwehrleute 26
anzu@@ 26
tut 26
elefanten 26
chte 26
kamera@@ 26
strickmütze 26
kettensäge 26
stehend 26
wange 26
mülltonne 26
stöcke 26
lernt 26
lau@@ 26
fin@@ 26
computerbildschirm 26
ve@@ 26
fan@@ 26
schi@@ 26
büro@@ 26
geparkten 26
hocker 26
unterwäsche 26
ausstellung 26
bt 26
helme 26
handschuhe 26
asien 26
türen 26
stühle 26
zer@@ 26
spaziergang 26
marktplatz 26
fen 26
fingern 26
gesichtsbemalung 26
gefüllten 26
koch@@ 26
9 26
ohr 26
kli@@ 26
welpe 26
früchte 26
unbefestigte 26
barfüßige 26
außen@@ 26
floß 26
ser 26
putzen 26
stil 26
pack 26
altes 26
waschbecken 26
ken@@ 26
let@@ 26
gehender 26
10 26
abzu@@ 26
gemacht 26
verheiratetes 26
9@@ 26
halstuch 26
rohr 26
plastiktüte 26
u-bahn-station 26
gestikuliert 26
papiere 26
glo@@ 26
langhaarige 26
leckt 26
vorbereitet 26
laufbahn 26
ozean 26
rauch 26
hindurch 26
tier@@ 26
bündel 26
che 26
box@@ 26
grin@@ 26
buffet 26
wind 26
tigen 26
ss 26
hart 26
company 26
ens 26
bilden 26
streicht 26
doll 26
aufnahme 26
dern 26
tänzerin 26
aufmerksam 26
screaming 26
hel@@ 26
lebensmittelgeschäft 26
zi@@ 26
sowie 26
gewickelt 26
musik@@ 26
spar@@ 26
bandana 26
lie@@ 26
ungs@@ 26
nt 26
lan@@ 26
fänger 26
cur@@ 26
pflanze 26
schau@@ 26
gs 26
elmo 26
manche 26
ruhen 26
gelb-@@ 26
ci@@ 26
auditorium 26
olympischen 26
radfahrern 26
mat@@ 26
ei 26
ls 26
surfen 26
age 26
ters 26
ity 26
teen 26
basketballspiel 26
care 26
boxen 26
soda 26
still 26
kayaks 26
ment 26
pro@@ 26
tv 26
venue 26
inlineskates 26
leotard 26
observes 26
spotted 26
studying 26
tropical 26
paddles 26
dusk 26
-like 26
knit 26
saw 26
chainsaw 26
check 26
customer 26
messy 26
carts 26
wheelbarrow 26
nature 26
landing 26
spoon 26
waterway 26
cans 26
tires 26
order 26
oven 26
burgundy 26
coaster 26
examines 26
debris 26
farmer 26
sized 26
eggs 26
praying 26
attention 26
autumn 26
case 26
drill 26
flute 26
if 26
stomach 26
filling 26
places 26
bystanders 26
consisting 26
cups 26
checks 26
entering 26
groceries 26
greyhound 26
lifted 26
telephone 26
barrier 26
waterfront 26
official 26
comes 26
ceremony 26
meeting 26
similar 26
dimly 26
cheer 26
bleachers 26
overweight 26
sailing 26
browsing 26
headed 26
sneakers 26
lead 26
gestures 26
ansieht 24
schwebt 24
gu@@ 24
ju@@ 24
ul@@ 24
maschinen 24
mcdonald 24
turn@@ 24
sandigen 24
treppenstufen 24
männliches 24
schale 24
bel@@ 24
kreuz 24
halle 24
feder@@ 24
kten 24
tour 24
jackett 24
ckten 24
bade@@ 24
kle@@ 24
innen@@ 24
iert 24
badeanzügen 24
zeug 24
fl@@ 24
herumstehen 24
ste 24
terrier 24
hinter@@ 24
waffe 24
aussehen 24
wassers 24
rot@@ 24
ff@@ 24
anhänger 24
ausgestellt 24
aufgestellt 24
schneeanzug 24
augen@@ 24
gericht 24
selbst 24
nach@@ 24
kümmert 24
nebel 24
sprungbrett 24
videospiel 24
tiert 24
rennfahrer 24
range 24
golfball 24
bow@@ 24
gh@@ 24
breakdance 24
vergnügungspark 24
kil@@ 24
rutschen 24
computern 24
zement 24
lampe 24
radio 24
geöffneten 24
0 24
schafe 24
design 24
ell@@ 24
artigen 24
schwimmweste 24
schüsseln 24
tarnkleidung 24
bietet 24
leinwand 24
liegenden 24
braun-weiße 24
glänzenden 24
tablett 24
gegenständen 24
dudelsack 24
müll@@ 24
kasse 24
sm@@ 24
-schild 24
liches 24
betonwand 24
pe 24
pu@@ 24
fu@@ 24
igen 24
passenden 24
traditionellen 24
land@@ 24
st. 24
weil 24
treiben 24
sol@@ 24
professor 24
badezimmer 24
pp@@ 24
verschneite 24
deren 24
em@@ 24
tätowierungen 24
pudel 24
le-@@ 24
spielerisch 24
winter@@ 24
maschendrahtzaun 24
farbener 24
ern@@ 24
schnitzt 24
angel@@ 24
bat@@ 24
prüft 24
tor@@ 24
klaren 24
er-@@ 24
frisur 24
blocken 24
wir 24
tätowierung 24
h 24
gestreifter 24
stößt 24
herz@@ 24
struktur 24
freundin 24
kleider 24
hundes 24
trainingsanzug 24
dunklem 24
mixer 24
kugel 24
kreide 24
heißluftballon 24
stadt@@ 24
tre@@ 24
sti@@ 24
mountainbiker 24
8 24
walmart 24
outdoor-@@ 24
dorf 24
par@@ 24
tracht 24
schleife 24
watet 24
nieder 24
dan@@ 24
tutu 24
amerikanischer 24
sonnenschirm 24
hula-hoop 24
gebeugt 24
hellhäutige 24
jenga 24
rollerskates 24
gesichtern 24
köpfe 24
popcorn 24
bikinis 24
paare 24
parcours 24
orange-@@ 24
fle@@ 24
no@@ 24
ver 24
stall 24
begleitet 24
bemalten 24
ringer 24
3@@ 24
beisammen 24
rings 24
sto@@ 24
arcade 24
ultimate 24
designs 24
quad 24
knöpfen 24
trucks 24
scouts 24
ny 24
cru@@ 24
w 24
cs 24
east 24
jet 24
oranger 24
burning 24
cli@@ 24
tackling 24
ballet 24
bamboo 24
bricks 24
pigtails 24
scooters 24
paperwork 24
iron 24
chicken 24
give 24
boulder 24
wires 24
ties 24
ments 24
rickshaw 24
thumbs 24
clapping 24
exhibit 24
science 24
teal 24
covers 24
ction 24
mic 24
heading 24
puppies 24
gymnastics 24
shadows 24
let 24
cooks 24
merchandise 24
far 24
countryside 24
dough 24
blankets 24
ated 24
newly 24
seem 24
touches 24
games 24
highway 24
bite 24
dust 24
shoppers 24
repairing 24
sed 24
cards 24
placing 24
tray 24
bagpipes 24
wares 24
alleyway 24
handing 24
visiting 24
patterned 24
knife 24
spanish 24
stare 24
drive 24
serves 24
wrap 24
ating 24
pillows 24
rollerblading 24
inspects 24
stops 24
suitcase 24
long-sleeve 24
sweeps 24
newspapers 24
complete 24
tossing 24
forehead 24
visible 24
olympics 24
movie 24
lecture 24
exercise 24
ching 24
knees 24
attending 24
biting 24
tape 24
beverages 24
applying 24
umpire 24
juice 24
ws 24
been 24
shirted 24
skaters 24
snowsuit 24
rad@@ 22
lieferwagen 22
kleinkinder 22
seltsamen 22
herren 22
ampel 22
kre@@ 22
cam@@ 22
grün@@ 22
park@@ 22
örtlichen 22
hohe 22
händchen 22
mitglied 22
schütteln 22
gesehen 22
wohn@@ 22
stellung 22
arzt 22
flauschiger 22
hamburger 22
pfanne 22
kopfschmuck 22
wander@@ 22
unterricht 22
geländewagen 22
ähnlichen 22
fußballdress 22
ure 22
sonnen@@ 22
ker@@ 22
pi@@ 22
jüngerer 22
grills 22
zoo 22
körben 22
baby@@ 22
kran 22
sammeln 22
präsentiert 22
männlichen 22
spritzen 22
lern 22
oni@@ 22
holzbank 22
verkaufsstand 22
leuchtenden 22
verwenden 22
farbenen 22
mischen 22
bekleideter 22
küchen@@ 22
brettspiel 22
schutz@@ 22
japanischen 22
saal 22
rückwärts 22
maler 22
kar@@ 22
essens@@ 22
ent 22
freude 22
pferdeschwanz 22
sitz 22
äu@@ 22
strand@@ 22
wein@@ 22
jugendlichen 22
serviert 22
bekleidete 22
kop@@ 22
feld@@ 22
weiter 22
sse 22
langärmeligen 22
bru@@ 22
rollen 22
stücke 22
fußgängern 22
karton 22
unterschiedlichen 22
skyline 22
bordstein 22
fischt 22
schlagmann 22
erklimmen 22
rafting 22
afroamerikanischer 22
formt 22
mu@@ 22
jeder 22
portrait 22
blood 22
ste@@ 22
babys 22
ie@@ 22
wette 22
chen@@ 22
schulkinder 22
verteilt 22
indem 22
gre@@ 22
digen 22
stiefel 22
orientalische 22
förmigen 22
oberen 22
entgegen 22
fass 22
wasserrutsche 22
säule 22
wakeboard 22
feuerwehrauto 22
ut 22
enen 22
hoher 22
en-@@ 22
eimern 22
füllen 22
streichen 22
tüten 22
locken 22
türöffnung 22
besteht 22
bre@@ 22
säugling 22
ppen 22
lebensmitteln 22
straßenverkäufer 22
hafen 22
teilnehmer 22
lebensmittel@@ 22
namen 22
säge 22
sitz@@ 22
hlen 22
gesprungen 22
spärlich 22
v 22
schlauchboot 22
ansicht 22
kleineren 22
braun-@@ 22
stürzt 22
kostüme 22
überall 22
kes 22
auge 22
obststand 22
konstruktion 22
süßigkeiten 22
leap 22
wunderschöne 22
braunhaariger 22
frauen@@ 22
halb@@ 22
enten 22
bal@@ 22
platte 22
fen@@ 22
flügeln 22
säulen 22
möglicherweise 22
strecken 22
japan 22
vorderseite 22
snacks 22
kerle 22
iel@@ 22
darbietung 22
seattle 22
gepunkteten 22
laborkittel 22
dritte 22
bekleidet 22
pinkfarbener 22
abgeworfen 22
einkaufstasche 22
sparring 22
kol@@ 22
kühl@@ 22
dol@@ 22
swimmingpool 22
sims 22
rechte 22
war@@ 22
gürtel 22
assi@@ 22
touch 22
bl@@ 22
workout 22
transportiert 22
bmx-fahrer 22
richtungen 22
ol@@ 22
innenstadt 22
tige 22
kopf@@ 22
löschen 22
weihnachtsmann 22
werfer 22
th 22
ticket 22
miami 22
hallen@@ 22
turnschuhen 22
eiscreme 22
power 22
ner 22
ließt 22
ipod 22
zone 22
et 22
ale 22
bulldozer 22
7 22
silberfarbenen 22
mop 22
hit@@ 22
film 22
diner 22
hum@@ 22
bouquet 22
morning 22
state 22
wing 22
link 22
artwork 22
patch 22
cre@@ 22
camping 22
trip 22
picks 22
lighted 22
magazines 22
cheek 22
suspenders 22
learning 22
act 22
shoreline 22
dusty 22
traveling 22
underwear 22
placed 22
injured 22
adjusting 22
ways 22
diver 22
african-american 22
rapids 22
ponytail 22
larger 22
firefighter 22
logs 22
folded 22
chatting 22
carefully 22
chess 22
ages 22
craft 22
kayaking 22
teens 22
tiny 22
printed 22
rollerskating 22
cal 22
backdrop 22
swimsuits 22
strange 22
tricycle 22
laundromat 22
creek 22
location 22
sunlight 22
loom 22
speak 22
ged 22
record 22
department 22
rice 22
gathers 22
poor 22
weather 22
floats 22
leaf 22
parachute 22
yarn 22
motorcyclists 22
sides 22
practices 22
watched 22
turquoise 22
descent 22
dives 22
opens 22
black-haired 22
planting 22
passersby 22
crouched 22
mug 22
asians 22
tights 22
snowshoes 22
lifts 22
cage 22
playfully 22
mower 22
involved 22
rally 22
meet 22
point 22
motorized 22
crossed 22
couples 22
celebration 22
surgery 22
aged 22
trolley 22
supplies 22
fashion 22
closely 22
focused 22
torch 22
bauwerk 20
kartons 20
kurze 20
spielzeug-@@ 20
ertes 20
ausflug 20
nasser 20
afrikanischen 20
violett 20
luftballon 20
erdhügel 20
bil@@ 20
klappstuhl 20
dämmerung 20
haus@@ 20
motorhaube 20
frisbee-scheibe 20
tennis@@ 20
schlendert 20
schneit 20
krankenhaus 20
schutzausrüstung 20
kom@@ 20
hills 20
c-@@ 20
einkauf@@ 20
stelzen 20
stolz 20
fasst 20
staubigen 20
erreichen 20
irgend@@ 20
kampfsport@@ 20
ße 20
größeren 20
fel@@ 20
kn@@ 20
ini@@ 20
bindet 20
unordentlichen 20
fische 20
feuert 20
talent 20
menschenansammlung 20
wolken 20
garten@@ 20
gleisen 20
rosa-@@ 20
ausgestreckt 20
spor@@ 20
mülleimer 20
mischt 20
cal@@ 20
stahl@@ 20
herkunft 20
aufgeregt 20
sel@@ 20
mast 20
arch 20
lagerfeuer 20
namens 20
namensschild 20
filmt 20
karate@@ 20
entfernung 20
verzierten 20
schie@@ 20
baseballschläger 20
aneinander 20
lachende 20
niedrigen 20
fra@@ 20
wei@@ 20
öffentlichkeit 20
kurzem 20
kabine 20
gitarren 20
kno@@ 20
eingeschlafen 20
halskette 20
reihen 20
ner@@ 20
zylinder 20
dreirad 20
abgebildet 20
vergnügt 20
perlen 20
vers@@ 20
bühnen@@ 20
vorstellung 20
lächelnden 20
asphalt 20
ebenfalls 20
trifft 20
webstuhl 20
obdachloser 20
kauert 20
geschnitten 20
soll 20
ie 20
bevor 20
wind@@ 20
bändern 20
präsentation 20
kraft 20
passt 20
fabrik 20
schwingen 20
angebracht 20
regnerischen 20
essen@@ 20
lichem 20
medi@@ 20
vortrag 20
meisten 20
wanderweg 20
unteren 20
fächer 20
schminkt 20
geschäfts@@ 20
auslage 20
wal@@ 20
mcdonalds 20
in-@@ 20
fremden 20
ungewöhnlichen 20
landstraße 20
kratzt 20
kel@@ 20
tische 20
angeboten 20
meeres@@ 20
schn@@ 20
kä@@ 20
ziegelwand 20
gefolgt 20
chips 20
gitarristen 20
bildern 20
bergsteiger 20
ing@@ 20
axt 20
notebook 20
schneeschuhen 20
ele@@ 20
sieg 20
potato 20
ziellinie 20
käfig 20
gelassen 20
bildes 20
football-@@ 20
übergewichtiger 20
musikgruppe 20
gr@@ 20
schutzkleidung 20
erzeugnisse 20
rau@@ 20
windhund 20
ot@@ 20
konferenz 20
can@@ 20
leucht@@ 20
zauns 20
laster 20
profi@@ 20
unterrichtet 20
freizeitpark 20
amüsiert 20
zer 20
fröhlich 20
läufern 20
rücksitz 20
holzboden 20
herrn 20
läuferin 20
turnier 20
su@@ 20
fliegenden 20
bestellen 20
kiosk 20
dro@@ 20
oberfläche 20
rückseite 20
fußballmannschaft 20
grand 20
saris 20
ung@@ 20
stump 20
ran@@ 20
ct@@ 20
beladen 20
partie 20
schwarzhaarige 20
bootes 20
film@@ 20
abgestellt 20
marker 20
inline 20
ziegelsteinen 20
domin@@ 20
aufgereiht 20
babies 20
batman 20
dun@@ 20
classic 20
win@@ 20
chemi@@ 20
halloween 20
series 20
fun@@ 20
qu@@ 20
news 20
ard 20
symbol 20
digital 20
tournament 20
toddlers 20
rooftop 20
frozen 20
march 20
tribal 20
nurses 20
shes 20
helicopter 20
handrail 20
mexican 20
thumb 20
maintenance 20
load 20
trashcan 20
branches 20
dge 20
washes 20
stilts 20
belts 20
pins 20
walked 20
creating 20
quickly 20
stepping 20
chopping 20
located 20
asia 20
serve 20
racers 20
scarves 20
earphones 20
sprayed 20
roadside 20
furry 20
hiding 20
brother 20
goat 20
lens 20
pots 20
pping 20
driveway 20
displays 20
pin 20
gaze 20
scaffold 20
chalkboard 20
whom 20
involving 20
pads 20
played 20
speaker 20
cop 20
decorative 20
transportation 20
canvas 20
fully 20
activity 20
contraption 20
facility 20
upward 20
shape 20
workshop 20
turned 20
juggles 20
fur 20
peeking 20
finishing 20
headdress 20
gazes 20
casually 20
ked 20
apart 20
process 20
single 20
icy 20
incline 20
gallery 20
collared 20
gray-haired 20
displaying 20
approaches 20
cute 20
hike 20
amidst 20
valley 20
over@@ 20
sideways 20
embracing 20
cheese 20
numbers 20
surfs 20
guards 20
celebrate 20
products 20
lighting 20
done 20
second 20
bedienen 18
system 18
treppenhaus 18
hu@@ 18
strands 18
schützt 18
liegende 18
heit 18
tru@@ 18
pullunder 18
hübschen 18
felsvorsprung 18
ziegel 18
drei@@ 18
krie@@ 18
fluss@@ 18
hinunter@@ 18
zeitschriften 18
gleis 18
form@@ 18
steile 18
daran 18
entfernen 18
ess@@ 18
tagsüber 18
vorführung 18
einiger 18
vergnügen 18
dahinter 18
betreten 18
welcome 18
passagiere 18
chter 18
flipflops 18
schürzen 18
ori@@ 18
einkaufen 18
straßenarbeiter 18
genen 18
sauber 18
ari@@ 18
del 18
pul@@ 18
hohem 18
cke 18
rikscha 18
bauernmarkt 18
bier@@ 18
grau-@@ 18
aussehendes 18
haut 18
nass 18
schnur 18
gäste 18
kontrolle 18
elektrischen 18
hohes 18
ue 18
teilnehmen 18
schwarz-weißem 18
warmen 18
stromschnellen 18
bir@@ 18
attraktive 18
kämpft 18
tomaten 18
erleuchteten 18
lädt 18
mäht 18
späht 18
uniformierte 18
bett@@ 18
glatze 18
regenmantel 18
diesen 18
eh@@ 18
bzw. 18
protestiert 18
puppen 18
erung 18
san@@ 18
schach 18
musikinstrumente 18
festgebunden 18
plan@@ 18
vorbei@@ 18
schachtel 18
schwarz-weiße 18
losen 18
vorführt 18
lippen 18
endes 18
fü@@ 18
ß@@ 18
bedruckten 18
holzzaun 18
flussufer 18
br@@ 18
autobahn 18
fern 18
herbst@@ 18
schützen 18
kla@@ 18
knie 18
bruder 18
p-@@ 18
einkaufstüten 18
jeweils 18
wel@@ 18
tzen 18
dritten 18
stativ 18
einrichtung 18
herbst 18
k-@@ 18
organi@@ 18
segelboot 18
bewegungen 18
schlammigen 18
heller 18
schneebedecktes 18
aussicht 18
orangefarbenes 18
wasserski 18
flusses 18
piercing 18
g-@@ 18
steintreppe 18
hinterbeinen 18
arbeitern 18
last 18
menschen@@ 18
blockt 18
ey@@ 18
ständer 18
wenn 18
rauchen 18
absperrung 18
wetter 18
rudern 18
vorderen 18
lampen 18
beleuchtet 18
erd@@ 18
gefallen 18
dribbelt 18
uniformierter 18
lernen 18
roll@@ 18
erhobenen 18
schienen 18
patienten 18
kricket 18
tätowierte 18
zeichnen 18
angezogener 18
gepflasterte 18
alt 18
probieren 18
röhre 18
blo@@ 18
peace-zeichen 18
pfeil 18
gru@@ 18
deckt 18
fur@@ 18
weg@@ 18
gelangen 18
ute 18
elle 18
besucht 18
fertig 18
fenstern 18
wagens 18
sor@@ 18
grab 18
kragen 18
völlig 18
darin 18
op@@ 18
boote 18
getroffen 18
felsbrocken 18
gestellt 18
kunst 18
ähnlich 18
bewaldeten 18
tun 18
überprüfen 18
geöffnet 18
fern@@ 18
straßenseite 18
app@@ 18
sun@@ 18
übung 18
weiteren 18
apfel 18
high-@@ 18
än@@ 18
passiert 18
fernseher 18
gelegenen 18
gender 18
schem 18
ausgezogen 18
karohemd 18
clo@@ 18
spaziert 18
pan@@ 18
sea@@ 18
say 18
ser@@ 18
teilt 18
binden 18
elementary 18
ellen 18
fassade 18
boden@@ 18
sicherheitsweste 18
sal@@ 18
essensstand 18
familien@@ 18
betrachter 18
alt@@ 18
bü@@ 18
flugzeugs 18
umringt 18
seichten 18
fenster@@ 18
wasserfläche 18
baseball-@@ 18
lon@@ 18
lokal 18
hübsche 18
steg 18
ell 18
ballon@@ 18
heruntergekommenen 18
würde 18
ns 18
künst@@ 18
außenbereich 18
schneebedeckte 18
parallel 18
luft@@ 18
öffnen 18
bohrmaschine 18
schachteln 18
etwa 18
erende 18
irokesenschnitt 18
backflip 18
beutel 18
platten 18
herr@@ 18
saxofon 18
chinesische 18
dung 18
feier@@ 18
geschwindigkeit 18
neon@@ 18
o-@@ 18
cockpit 18
dritter 18
geschi@@ 18
straßenmusiker 18
win 18
stri@@ 18
gegnerische 18
pub 18
perücke 18
barren 18
kimonos 18
tanzfläche 18
schuss 18
reklametafel 18
kapuzenpullover 18
formeller 18
befahrenen 18
dunk 18
osten 18
university 18
egg 18
begeisterung 18
attra@@ 18
punkt 18
gespannt 18
kulisse 18
snowboards 18
para@@ 18
kneipe 18
fischernetz 18
grand@@ 18
asiat 18
rasenfläche 18
jogger 18
spielers 18
5@@ 18
ic@@ 18
chil@@ 18
anhaben 18
orientalisch 18
cks 18
blin@@ 18
dessert 18
deli 18
spot 18
flannel 18
bend 18
cigar 18
chan@@ 18
out@@ 18
sho@@ 18
dis@@ 18
res 18
foods 18
ator 18
dunking 18
casino 18
down@@ 18
sters 18
gazing 18
almost 18
dive 18
bends 18
hea@@ 18
stoop 18
types 18
strolls 18
decorations 18
jogs 18
pale 18
operates 18
presenting 18
employees 18
aprons 18
service 18
highchair 18
camp 18
adjusts 18
booths 18
farmers 18
section 18
reflection 18
task 18
cing 18
foliage 18
bicycling 18
pathway 18
gardening 18
painter 18
horizon 18
clouds 18
sniffing 18
joy 18
tiled 18
pet 18
breakdancing 18
attractive 18
upset 18
tired 18
raincoat 18
french 18
brass 18
strapped 18
league 18
tags 18
grabbing 18
containing 18
handle 18
cab 18
cellphones 18
id 18
sorting 18
draw 18
bouncing 18
brushes 18
pumpkin 18
tripod 18
shiny 18
scenic 18
pencil 18
chocolate 18
checkers 18
fishes 18
featuring 18
sawing 18
even 18
handed 18
hind 18
butterfly 18
gesturing 18
really 18
beret 18
crowds 18
treat 18
dragging 18
dumpster 18
interesting 18
motion 18
built 18
peer 18
crates 18
cycling 18
chewing 18
ning 18
soap 18
than 18
displayed 18
atm 18
sledding 18
chopsticks 18
monkey 18
menu 18
jumped 18
images 18
short-haired 18
aring 18
sad 18
writes 18
stance 18
curly-haired 18
circular 18
atta@@ 18
tending 18
cloud 18
pattern 18
ducks 18
muzzle 18
afternoon 18
grabs 18
tight 18
belongings 18
cut@@ 18
trench 18
stacked 18
tail 18
cleaner 18
muzzled 18
olympic 18
begins 18
protesters 18
unique 18
heavily 18
jumper 18
wig 18
score 18
riot 18
rifle 18
recording 18
cts 18
bathtub 18
cover 18
hair@@ 18
canadian 18
erhält 16
wippe 16
straßenszene 16
du 16
weiß@@ 16
gläser 16
wildnis 16
brillen 16
farb@@ 16
fußgängerübergang 16
wanne 16
wachmann 16
rührt 16
hubschrauber 16
vier@@ 16
kal@@ 16
satz 16
pri@@ 16
verschieden 16
wegen 16
aufzug 16
knie@@ 16
schwenken 16
ozeans 16
werkzeugen 16
huhn 16
schlendern 16
sche@@ 16
schlucht 16
bürste 16
schwere 16
pinsel 16
sommertag 16
hosenträgern 16
brot@@ 16
umgebenen 16
bürstet 16
sandburg 16
bin@@ 16
seifenblase 16
ufer@@ 16
zurück@@ 16
einzel@@ 16
zuhört 16
hochstuhl 16
blöcken 16
rothaariger 16
ziegel@@ 16
saugt 16
dosen 16
aufblasbare 16
hängematte 16
spiegelbild 16
baseballfeld 16
anweisungen 16
unterhemd 16
esstisch 16
tro@@ 16
dicken 16
grill@@ 16
bagger 16
fahrradhelm 16
seil@@ 16
spielzeugauto 16
bockenden 16
hei@@ 16
fertig@@ 16
gefahren 16
horizont 16
heraushängender 16
weise 16
oping 16
fußboden 16
schlag@@ 16
fels 16
schritt 16
natur 16
hydranten 16
lö@@ 16
text 16
camping@@ 16
verschränkten 16
gitter 16
trockenen 16
mä@@ 16
schals 16
ft@@ 16
kinds 16
marine@@ 16
angezogene 16
eier 16
zielt 16
angels 16
blaskapelle 16
demonstranten 16
dunkelheit 16
legerer 16
ansehen 16
gurt 16
beachvolleyball 16
silberne 16
hr@@ 16
bestehend 16
servieren 16
bit 16
handwerker 16
metallstange 16
tern 16
ereignis 16
denkt 16
gipfel 16
straßenfest 16
versuch 16
farbiger 16
ats 16
handys 16
x@@ 16
leben@@ 16
fischer@@ 16
stu@@ 16
kies 16
pedal 16
inform@@ 16
sägt 16
schöner 16
zuhause 16
football-spiel 16
hüfte 16
jack 16
kra@@ 16
college-@@ 16
staub 16
kürbis 16
einkäufer 16
boarding 16
black@@ 16
washington 16
basketballfeld 16
zelten 16
cola 16
mitspieler 16
anti@@ 16
erer 16
arrangement 16
schnüffelt 16
lecker@@ 16
breiten 16
tur@@ 16
hockeyspiel 16
fernsehen 16
sonnenlicht 16
blau-grünen 16
hause 16
kenn@@ 16
körper@@ 16
linke 16
folgen 16
tisch@@ 16
dekoriert 16
altmodischen 16
cheerleader@@ 16
teten 16
fliege 16
fort 16
tr@@ 16
wahrscheinlich 16
dieselbe 16
schutt 16
la 16
irgendeinem 16
chern 16
nun 16
pt 16
teenagern 16
rockband 16
vorsichtig 16
sporthalle 16
geschoben 16
elektronischen 16
gebaut 16
geräte 16
papa 16
polohemd 16
lands 16
betonmauer 16
holzbrett 16
ppe 16
reicht 16
start@@ 16
taube 16
porträt 16
bodysuit 16
tete 16
sweatshirts 16
schnappt 16
gewinnen 16
buchstaben 16
gestreifte 16
betet 16
stelle 16
schuh@@ 16
mer 16
pistole 16
chs 16
schaf 16
mau@@ 16
gehstock 16
sur@@ 16
gan@@ 16
getreide 16
kr@@ 16
eingewickelt 16
hochge@@ 16
information 16
hinauf@@ 16
wache 16
ziegelgebäude 16
meißelt 16
pper 16
hero 16
regen@@ 16
gold-@@ 16
ladung 16
brennende 16
tennisplatz 16
zeremonie 16
gelb-schwarzen 16
zusammenge@@ 16
kopfbedeckungen 16
muskulöser 16
japan@@ 16
rot-schwarzen 16
angehalten 16
end@@ 16
main 16
telefonieren 16
gespielt 16
holzkonstruktion 16
deli@@ 16
onen 16
zahl 16
headset 16
pferde@@ 16
nackte 16
gießen 16
pult 16
bet@@ 16
ur 16
beißen 16
lt 16
wasserbecken 16
stadtpark 16
deck@@ 16
fahrzeugen 16
hüpfen 16
faulenzen 16
ruder 16
budd@@ 16
kamm 16
windhunde 16
nummern 16
telefonzelle 16
ziegelbau 16
probiert 16
sting 16
graues 16
indien 16
kämpfer 16
on-@@ 16
geri@@ 16
pizzeria 16
frischem 16
gymnastik@@ 16
ethni@@ 16
kajakfahrer 16
wassersprenger 16
hän@@ 16
fontäne 16
vögeln 16
ss-@@ 16
bush 16
afrikaner 16
sicherheitswesten 16
island 16
sion 16
pain 16
ang@@ 16
kegeln 16
indi@@ 16
zündet 16
steinbank 16
trocknet 16
kampfsportler 16
wollmütze 16
erte 16
skatet 16
gol@@ 16
rugbyspieler 16
body@@ 16
forscher 16
wash 16
ali@@ 16
puzzle 16
schloss 16
gleichgewicht 16
finger@@ 16
sari 16
anzahl 16
zahnbürste 16
strumpfhose 16
feuerstelle 16
rostigen 16
zuge@@ 16
bongo 16
orientalischer 16
test 16
ster@@ 16
weiterer 16
gers 16
waschmaschine 16
canyon 16
minivan 16
footballspiel 16
husky 16
kompletter 16
schmalen 16
taxis 16
obama 16
begeistert 16
haltend 16
sin@@ 16
gemüse@@ 16
kajaks 16
mü@@ 16
eishockey 16
8@@ 16
ladefläche 16
geschmückt 16
karierter 16
slam 16
nahen 16
geldautomaten 16
gehüllt 16
ven 16
spielsachen 16
grünfläche 16
darüber 16
möchte 16
hellgrünen 16
volleyballspieler 16
backsteinmauer 16
rugs 16
ite 16
ruhig 16
cowgirl 16
bord 16
ware 16
6@@ 16
che@@ 16
baseman 16
europa 16
boston 16
metal@@ 16
fish@@ 16
ford 16
ance 16
dig 16
suv 16
boogie 16
erklimmt 16
tion 16
fackel 16
starbucks 16
soeben 16
smartphone 16
facial 16
marathonläufer 16
lion 16
broad 16
circus 16
ad 16
fashioned 16
bus@@ 16
rosaroten 16
fedora 16
x 16
coun@@ 16
mani@@ 16
monk 16
return 16
badminton 16
cro@@ 16
earth 16
cast 16
ce@@ 16
chin 16
but@@ 16
british 16
barefooted 16
much 16
too 16
forested 16
fat 16
scrubs 16
napping 16
darkened 16
ped 16
bles 16
teammates 16
hur@@ 16
somewhere 16
strolling 16
cries 16
surgical 16
spins 16
plain 16
had 16
skills 16
redhead 16
transit 16
amount 16
vending 16
labeled 16
cluttered 16
hammock 16
shaggy 16
masks 16
splashed 16
waiter 16
staff 16
stuff 16
stuck 16
companion 16
stretches 16
hawaiian 16
hydrant 16
campfire 16
draped 16
white-@@ 16
fore@@ 16
shadow 16
midst 16
synchronized 16
skinny 16
squeezing 16
cherry 16
washer 16
lips 16
rug 16
underground 16
unhappy 16
protect 16
medium 16
downhill 16
cted 16
variety 16
projector 16
punch 16
purses 16
package 16
mix 16
sailboat 16
accident 16
artists 16
signing 16
candle 16
sc@@ 16
travel 16
wh@@ 16
wheeled 16
directing 16
lively 16
mid-@@ 16
fountains 16
pocket 16
buried 16
waist 16
because 16
ations 16
banners 16
cheerleading 16
eing 16
canoes 16
gown 16
bundle 16
stringed 16
mess 16
iling 16
judges 16
easel 16
beads 16
peers 16
filming 16
cally 16
harmonica 16
crayons 16
skies 16
unusual 16
warehouse 16
photographers 16
lanterns 16
daytime 16
tying 16
bridesmaids 16
laboratory 16
sprays 16
industrial 16
european 16
camels 16
homemade 16
vintage 16
when 16
pours 16
ty 16
conductor 16
muscular 16
-up 16
looked 16
tackled 16
hardwood 16
establishment 16
abandoned 16
columns 16
trains 16
gesture 16
product 16
kisses 16
india 16
hammering 16
nail 16
commercial 16
speeding 16
notes 16
employee 16
bedroom 16
figures 16
tug-of-war 16
spotlight 16
acrobatic 16
nails 16
toothbrush 16
draws 16
packed 16
religious 16
air@@ 16
bartender 16
il 16
crashing 16
create 16
waterskiing 16
destination 16
doesn 16
fields 16
followed 16
lining 16
loaded 16
murky 16
victory 16
pay 16
navigates 16
carrier 16
canal 16
drawn 16
human 16
dot 16
europe 16
ballett@@ 14
gefleckter 14
mehrfarbigen 14
packen 14
neuen 14
schwebebalken 14
geländefahrzeug 14
supermarkt 14
hundespielzeug 14
gesichts 14
pick@@ 14
hockey-@@ 14
blondhaariger 14
gern 14
stammeskleidung 14
mehr@@ 14
pullovern 14
fahrenden 14
tropischen 14
badehosen 14
zwei@@ 14
sandhügel 14
speer 14
volkswagen 14
mascara 14
parks 14
warnweste 14
untergrund 14
aufdruck 14
uns 14
kur@@ 14
videokamera 14
befahrene 14
kartenspiel 14
zimmer@@ 14
irgendwo 14
benen 14
ed@@ 14
skateboard-@@ 14
stehendes 14
gabel 14
grube 14
artikel 14
kutsche 14
kunde 14
hinteren 14
arran@@ 14
aufeinander 14
farbige 14
fang 14
bleiben 14
brechen 14
vogelperspektive 14
eilen 14
schülerin 14
fliesen 14
stro@@ 14
schutz 14
schlafend 14
ky 14
ü@@ 14
anzusehen 14
hackt 14
arti@@ 14
motocross-@@ 14
bb@@ 14
trottet 14
schenkt 14
tten 14
12 14
kellner 14
türkisen 14
maskottchen 14
disney 14
rolle 14
burgunderroten 14
musikinstrument 14
tt@@ 14
afroamerikanisches 14
krabbelt 14
tisches 14
eislaufen 14
kümmern 14
nassem 14
ladens 14
schwertern 14
fischmarkt 14
steaks 14
bleibt 14
golf@@ 14
lach@@ 14
video@@ 14
auszu@@ 14
hof@@ 14
räumen 14
mark@@ 14
chtet 14
wasserstraße 14
versteckt 14
dreh@@ 14
kaffeetasse 14
kabeln 14
zutaten 14
rü@@ 14
sst 14
weiblichen 14
deutsche 14
ziege 14
griff 14
stre@@ 14
dunkel 14
deh@@ 14
spiegel@@ 14
pf@@ 14
hochzuklettern 14
baums 14
sicherheits@@ 14
flü@@ 14
silber@@ 14
einfahrt 14
anzeige 14
pen@@ 14
mehr 14
sten@@ 14
geflochtenen 14
aktentasche 14
schlafendes 14
rin@@ 14
gerichtet 14
kostümierte 14
einzu@@ 14
grau@@ 14
ley 14
tur 14
uch 14
zentrum 14
plüschtier 14
ringkampf 14
bahnen 14
handtaschen 14
riesen@@ 14
betonstufen 14
felsens 14
spielplatz@@ 14
see@@ 14
alkohol 14
baumstumpf 14
frische 14
regnet 14
kin@@ 14
hacken 14
sortiert 14
block@@ 14
entweder 14
mer@@ 14
regelt 14
stunde 14
langes 14
geschäft@@ 14
tankstelle 14
cher@@ 14
technik 14
dünnen 14
freut 14
glückliche 14
len 14
cheerleaderin 14
hl@@ 14
chinesischer 14
solo 14
baskenmütze 14
volleyballspiel 14
die@@ 14
gte 14
kurz@@ 14
wassermelonen 14
anderem 14
voran 14
gefangen 14
profi-@@ 14
stellten 14
friseur 14
hervor 14
lab@@ 14
ganzen 14
angeln 14
kanus 14
kam@@ 14
krug 14
aller 14
braunhaariges 14
kö@@ 14
garn 14
modernen 14
stan@@ 14
beten 14
staubsauger 14
barfüßiger 14
geldbeutel 14
palme 14
klappstühlen 14
wilden 14
-hemd 14
halb 14
kameramann 14
gletscher 14
behand@@ 14
mess@@ 14
tte 14
einfachen 14
staffelei 14
des@@ 14
meter 14
star@@ 14
winterjacke 14
beginn 14
parken 14
bullenreiter 14
leger 14
tellern 14
herunterge@@ 14
mini-@@ 14
innenraum 14
promenade 14
heran@@ 14
produkt 14
nackter 14
gegn@@ 14
frisch@@ 14
laternen 14
ordnung 14
brautjungfern 14
punk@@ 14
tz@@ 14
frü@@ 14
wüsten@@ 14
zeitungen 14
pfeife 14
fer 14
schlittschuhen 14
flammen 14
violetter 14
bee 14
krei@@ 14
län@@ 14
fußballteam 14
schließen 14
laufband 14
gesichtsausdruck 14
karten@@ 14
inhalt 14
euro 14
u-bahn-@@ 14
pfadfinder 14
lou@@ 14
felsklippe 14
dige 14
cat@@ 14
rag 14
motiv 14
baumstämmen 14
passagieren 14
leitet 14
ruderboot 14
kunstgalerie 14
tig 14
mannequin 14
dach@@ 14
fernseh@@ 14
wohnung 14
rot-weißes 14
stamm 14
regal 14
fröhliche 14
bell@@ 14
gemusterten 14
einsamen 14
hocken 14
haarschnitt 14
rosen 14
kat@@ 14
einheimischer 14
nachmittag 14
footballfeld 14
snap 14
sooners 14
lets 14
abend@@ 14
zügen 14
waffel 14
team@@ 14
stand@@ 14
gelt 14
faulenzt 14
lichtern 14
geb@@ 14
ausgebreitet 14
ado@@ 14
schla@@ 14
strom 14
rück@@ 14
reflektierenden 14
begriff 14
cheerleadern 14
kamel 14
übungen 14
nis 14
segelt 14
wor@@ 14
jeansshorts 14
gei@@ 14
rasenmäher 14
stem 14
irgendeiner 14
zugs 14
ht 14
piercings 14
segel@@ 14
lers 14
habseligkeiten 14
badekappe 14
ney 14
frischen 14
seichtem 14
brennenden 14
führung 14
modell 14
interagieren 14
chip 14
ren 14
steuert 14
berglandschaft 14
geln 14
sli@@ 14
sommer@@ 14
blau@@ 14
red-@@ 14
viertel 14
volle 14
hook 14
fertigt 14
kasten 14
herzen 14
getragen 14
schleift 14
umzäunten 14
tippt 14
mon@@ 14
those 14
muss 14
fe 14
klein 14
musikinstrumenten 14
legos 14
pflasterstraße 14
werk 14
lebensmittelmarkt 14
hochhackigen 14
flie@@ 14
wieder 14
ktion 14
schülern 14
ai@@ 14
ober@@ 14
geste 14
weiß-schwarzer 14
häuser 14
genden 14
säubert 14
motocrossfahrer 14
randstein 14
ck-@@ 14
dirigiert 14
ausgebreiteten 14
wanderung 14
modell@@ 14
blech@@ 14
straßenrennen 14
cats 14
kehren 14
cafeteria 14
wählt 14
don@@ 14
badet 14
pfen 14
möwen 14
kittel 14
albern 14
backsteinstraße 14
müllcontainer 14
san 14
hil@@ 14
xylophon 14
dia@@ 14
stofftier 14
twister 14
ler@@ 14
tänzern 14
ukulele 14
wand@@ 14
fter 14
vo@@ 14
rodeoreiter 14
lilafarbener 14
zigarre 14
spielerinnen 14
historischen 14
tauziehen 14
friedenszeichen 14
wintertag 14
ll 14
zelt@@ 14
ly@@ 14
brü@@ 14
radfahren 14
model@@ 14
outfielder 14
katzen@@ 14
applau@@ 14
inse@@ 14
stadtszene 14
trüben 14
ige 14
bricht 14
pro 14
kanal 14
frog 14
khakifarbener 14
superman 14
startlinie 14
dre@@ 14
skateboarders 14
traditionelle 14
spielenden 14
shake 14
gesäumte 14
pin@@ 14
bunny 14
designer 14
im@@ 14
einkaufstaschen 14
objekte 14
gent@@ 14
hinweg 14
zeichnung 14
senior 14
swan 14
kite@@ 14
zurecht 14
bull@@ 14
u-bahnstation 14
rush 14
hour 14
boxers 14
chinatown 14
motor@@ 14
conce@@ 14
unicef 14
sleep 14
podest 14
punk 14
ops 14
boss 14
stars 14
ry 14
zweite 14
verteidiger 14
angefeuert 14
vel@@ 14
stunts 14
bronco 14
cardigan 14
slacks 14
husband 14
though 14
supermarket 14
meadow 14
crops 14
railings 14
ddles 14
tubes 14
rustic 14
starring 14
frying 14
woodland 14
adorned 14
workman 14
completing 14
trophy 14
nude 14
mouths 14
written 14
may 14
fork 14
complex 14
lush 14
stores 14
puppet 14
late 14
visor 14
cotton 14
find 14
mitt 14
feather 14
marble 14
trotting 14
od 14
thick 14
mascot 14
parent 14
fog 14
patrons 14
coa@@ 14
beating 14
resort 14
own 14
mowing 14
desks 14
crawls 14
legged 14
elder 14
policemen 14
ends 14
bling 14
conducting 14
purchase 14
ingredients 14
tracksuit 14
eling 14
dryer 14
environment 14
pped 14
mountainous 14
divers 14
pointed 14
zed 14
level 14
call 14
laid 14
separate 14
measuring 14
pans 14
sy 14
colorfully 14
support 14
raining 14
foggy 14
vacuum 14
stripe 14
beers 14
picket 14
fuzzy 14
pirate 14
gui@@ 14
advertisements 14
were 14
shawl 14
watermelons 14
presents 14
illuminated 14
shower 14
blower 14
punching 14
peaks 14
social 14
maybe 14
contest 14
bra 14
turkey 14
pigeon 14
casting 14
comfor@@ 14
discuss 14
acting 14
cigarettes 14
bounds 14
rolls 14
loa@@ 14
cameraman 14
harbor 14
bananas 14
guide 14
tarp 14
begin 14
crosscountry 14
our 14
squats 14
aqua 14
newlywed 14
warming 14
arrow 14
marked 14
barrels 14
surfers 14
seafood 14
barely 14
treadmill 14
sold 14
exercising 14
leopard 14
rafts 14
activities 14
monitors 14
temple 14
rails 14
oil 14
flock 14
battle 14
silhouetted 14
cave 14
chased 14
reception 14
hispanic 14
posed 14
quiet 14
bows 14
vibrant 14
daily 14
examine 14
named 14
fetch 14
backseat 14
entertain 14
seating 14
ys 14
dinosaur 14
strings 14
cannon 14
wilderness 14
accompanied 14
greyhounds 14
exiting 14
pops 14
ors 14
instru@@ 14
character 14
topless 14
sunbathing 14
mounted 14
fill 14
disc 14
fireworks 14
grinds 14
gg@@ 14
typing 14
licking 14
striking 14
poodle 14
skydiving 14
medieval 14
framed 14
yed 14
nine 14
drying 14
await 14
year 14
designed 14
characters 14
pyramid 14
vacuuming 14
sleeves 14
necklaces 14
ordering 14
axe 14
blurred 14
xylophone 14
amid 14
wrestlers 14
scientist 14
doctors 14
dolls 14
travels 14
speeds 14
sidelines 14
fellow 14
prepared 14
confetti 14
ced 14
upwards 14
sculptures 14
defender 14
entlang@@ 12
klarinette 12
außen 12
poli@@ 12
zeit@@ 12
gerichteten 12
bohrt 12
eisk@@ 12
hochzeitstorte 12
labrador 12
ansammlung 12
nudeln 12
zug@@ 12
fußweg 12
jeans@@ 12
dober@@ 12
schaum 12
bedeckter 12
hren 12
taucheranzug 12
dä@@ 12
warnwesten 12
klassi@@ 12
bess@@ 12
wald@@ 12
strandpromenade 12
ka 12
bares 12
bordsteinkante 12
fackeln 12
dum@@ 12
mes 12
reparaturen 12
karateanzug 12
schwimmflügeln 12
tiefes 12
brief@@ 12
bö@@ 12
dekorationen 12
eisenbahn@@ 12
schiene 12
stroh@@ 12
betonbank 12
op-@@ 12
busch 12
ufers 12
balgen 12
spielzeuge 12
karate-@@ 12
unaufgeräumten 12
lohfarbener 12
hochzeitskleidung 12
öl@@ 12
kul@@ 12
leu@@ 12
ärmellosem 12
wände 12
gürteln 12
zuckerwatte 12
mehrfarbige 12
knö@@ 12
rot-weiß-@@ 12
klatschen 12
karaoke 12
spielzeugen 12
marmor@@ 12
masken 12
hemdbluse 12
amboss 12
billard 12
bücherregal 12
metallzaun 12
q 12
pel@@ 12
schließt 12
gitarren@@ 12
reifen@@ 12
natur@@ 12
personal 12
bestellt 12
akustische 12
streich@@ 12
begleiter 12
bürger@@ 12
kranken@@ 12
einkaufspassage 12
schmutziges 12
fisch@@ 12
wer 12
ing-@@ 12
morgen 12
durchsucht 12
bikini-oberteil 12
eiswagen 12
engel@@ 12
bauer 12
scha@@ 12
beson@@ 12
jean@@ 12
haken 12
gelb@@ 12
erreicht 12
gelbbrauner 12
golfplatz 12
mülltüte 12
kletterwand 12
beamte 12
deere 12
sorgfältig 12
tieren 12
schnuller 12
buntes 12
wegs 12
raums 12
wandmalerei 12
aufrecht 12
schau 12
-spiel 12
ität 12
dunkeln 12
unterschiedlicher 12
füttern 12
zelte 12
toast 12
goldfarbenen 12
kitchenaid 12
ssen@@ 12
ger-@@ 12
herab@@ 12
-outfit 12
gegenüberliegenden 12
sacks 12
häl@@ 12
blühenden 12
gur@@ 12
salat 12
zeichnungen 12
ff 12
glückliches 12
hunder@@ 12
zähnen 12
ruhigem 12
messen 12
töpfen 12
schält 12
werkzeuge 12
welche 12
geschrieben 12
videospiele 12
inneren 12
autositz 12
abgesperrten 12
hle 12
spazierstock 12
bambus@@ 12
snow@@ 12
schaft 12
rot-weiß 12
tennisschuhen 12
mark 12
voll@@ 12
einsatz 12
lehrerin 12
geöffnetem 12
kicken 12
flieger 12
stiel 12
force 12
stoff@@ 12
dd@@ 12
erter 12
untergeht 12
donuts 12
regenbogen@@ 12
zes 12
nachtclub 12
sä@@ 12
camper 12
tischdecke 12
strickt 12
ziegeln 12
jüngeres 12
ssi@@ 12
springenden 12
beg@@ 12
ohio 12
obwohl 12
thema 12
fußballteams 12
gewehren 12
säcken 12
wett@@ 12
kleinere 12
nachbarschaft 12
schwarz-roten 12
schmetterling 12
träger 12
hosen@@ 12
mopp 12
feuerwerk 12
massen 12
licht@@ 12
tätowierter 12
bahngleisen 12
friseur@@ 12
selben 12
sms 12
wäre 12
cargo 12
abgedunkelten 12
fitnessstudio 12
kleider@@ 12
eventuell 12
bli@@ 12
befindlichen 12
us@@ 12
ordnet 12
freizeitkleidung 12
füll@@ 12
einkaufs@@ 12
deckel 12
fahrradrennen 12
kabel 12
din@@ 12
festi@@ 12
probe 12
uni@@ 12
bay 12
flug 12
fallschirm@@ 12
inspiziert 12
verlegt 12
sägen 12
colle@@ 12
schwimmwesten 12
platziert 12
sportplatz 12
mmer 12
a. 12
rennbahn 12
mmt 12
seitlich 12
burger 12
genau 12
vorbeifahren 12
ziel@@ 12
schweren 12
machete 12
motorradfahrern 12
helle 12
schaft@@ 12
pra@@ 12
marineblauen 12
wettlauf 12
punkten 12
tänzerinnen 12
rodeo@@ 12
ckter 12
schlecht 12
gemä@@ 12
türkisfarbenen 12
gebo@@ 12
gesenktem 12
mindestens 12
fau@@ 12
hörsaal 12
country-@@ 12
stiften 12
weihnachten 12
tür@@ 12
fasziniert 12
tetes 12
tw@@ 12
hellgelben 12
zahn@@ 12
tassen 12
tiefen 12
hen 12
brunnens 12
rollern 12
hüpfburg 12
ket@@ 12
braun-weißen 12
farben@@ 12
scheiben 12
gel 12
hühn@@ 12
aufwärmen 12
mei@@ 12
fußballspielen 12
grün-weißen 12
blu@@ 12
schmettert 12
gegen@@ 12
ehr@@ 12
joe 12
chte@@ 12
ochsen 12
jüdi@@ 12
nacktes 12
bandmitglieder 12
glastür 12
platzes 12
ati@@ 12
hochspringt 12
deutscher 12
gesichter 12
essenswagen 12
human@@ 12
gangs 12
pflückt 12
kirchen@@ 12
boa 12
fußgängerbrücke 12
chel@@ 12
überdachten 12
auswahl 12
hochhält 12
schlägern 12
braut@@ 12
speisekarte 12
kitteln 12
latein@@ 12
verfolgen 12
hinein@@ 12
teilnimmt 12
rauchend 12
teile 12
spani@@ 12
blumenstrauß 12
coca-cola-@@ 12
zuhören 12
hä@@ 12
trommelt 12
erwischt 12
tempel 12
bekann@@ 12
blöcke 12
flügel 12
wurden 12
halter 12
straßenmarkt 12
großstadt 12
teenagerin 12
hochgehoben 12
schwarz-braunen 12
stern@@ 12
i-@@ 12
retriever 12
schwarz-braune 12
farbenfroh 12
beigen 12
näher 12
flö@@ 12
marktstand 12
dekorierten 12
körbe 12
wiegt 12
filzhut 12
heim@@ 12
offener 12
seilspringen 12
kamel@@ 12
ruft 12
schippt 12
anschauen 12
tackelt 12
stoß 12
küchentresen 12
gos 12
essend 12
ollie 12
spa@@ 12
geradeaus 12
krü@@ 12
schiffs 12
gend 12
gepäck@@ 12
pol@@ 12
bel 12
hindernisparcours 12
engel 12
wat@@ 12
bor@@ 12
lippenstift 12
clu@@ 12
vieren 12
ketten 12
bean@@ 12
beteiligt 12
karateanzügen 12
weißhaariger 12
seife 12
gehoben 12
bulle 12
00@@ 12
limousine 12
-t-shirt 12
hellbraune 12
pflaster 12
gehenden 12
pyjama 12
ierte 12
stet 12
einzelne 12
elektroni@@ 12
wenig 12
bild@@ 12
irgendetwas 12
aufschlag 12
ör@@ 12
fußballtrikot 12
fröhliches 12
zieh@@ 12
nackten 12
coney 12
notizen 12
hand-@@ 12
nasse 12
musikern 12
geschäftige 12
pinkfarbene 12
plastik-@@ 12
nippt 12
geschlossen 12
schlafzimmer 12
umhängen 12
eng@@ 12
schwanz 12
hellbraunem 12
ug@@ 12
tutus 12
explosion 12
matratze 12
weinendes 12
stützt 12
stöbern 12
hafen@@ 12
hl 12
aten 12
anschaut 12
clown@@ 12
mm@@ 12
schlittschuh 12
spült 12
beagle 12
badekleidung 12
domino 12
alter@@ 12
rollstühlen 12
mix@@ 12
objektiv 12
aufgenommen 12
buntem 12
ani@@ 12
geschminkten 12
stoßen 12
saiteninstrument 12
besuchen 12
herz 12
aufmerksamkeit 12
eiswaffeln 12
schwester 12
automaten 12
jungen@@ 12
packung 12
live@@ 12
kronen 12
exo@@ 12
rothaarigen 12
aufgeblasenen 12
verkleideter 12
brechenden 12
pur@@ 12
lego 12
genommen 12
verärgert 12
wer@@ 12
kegel@@ 12
raufen 12
neun 12
verteilen 12
kartoffel@@ 12
pyramide 12
eri@@ 12
rollerblader 12
sauna 12
windbreaker 12
flei@@ 12
stimmt 12
halsketten 12
rodeo-@@ 12
sel 12
maulkörben 12
amish 12
ausschau 12
trink@@ 12
fs 12
camcorder 12
gelände@@ 12
sons 12
eisbahn 12
maus 12
vegas 12
rot-schwarzer 12
trenchcoat 12
dekorativen 12
polizei 12
motocross-fahrer 12
weihnachtsmannkostüm 12
memorial 12
federn 12
khakihose 12
gehwegs 12
beendet 12
farbenfrohe 12
umgestürzten 12
yamaha 12
dreiköpfige 12
landkarte 12
möbelstück 12
fertigen 12
mikrofonen 12
git@@ 12
fall@@ 12
eng 12
batik-@@ 12
montur 12
port 12
begutachten 12
holztisch 12
kunstvollen 12
gn@@ 12
kiefern 12
schaufensterfront 12
bmw 12
seitenlinie 12
pinken 12
ischen 12
mikrofone 12
anzüge 12
digitalkamera 12
schminke 12
ant 12
bears 12
inline-@@ 12
poncho 12
verlassenen 12
mets 12
schotterstraße 12
boots@@ 12
kathedrale 12
kaninchen 12
fechten 12
spongebob 12
schaulustige 12
swe@@ 12
welt 12
oberteile 12
geschminkt 12
liegestühlen 12
studiert 12
schotterweg 12
zebrastreifen 12
skateboardpark 12
keine 12
bein@@ 12
überblickt 12
inspizieren 12
24 12
innenhof 12
spitzen 12
dert 12
ske@@ 12
vegetation 12
radrennfahrer 12
farm@@ 12
dru@@ 12
mops 12
cupcakes 12
oxford 12
konfetti 12
nintendo 12
go-cart 12
strauß 12
betonplatte 12
kopfsteinpflasterstraße 12
lagen 12
einzufangen 12
tt 12
histor@@ 12
krankenschwestern 12
sombrero 12
major 12
baseballkleidung 12
sprache 12
skulpturen 12
lü@@ 12
aufhat 12
abwärts 12
terminal 12
available 12
schä@@ 12
taste 12
dges 12
helfer 12
gin@@ 12
sail 12
erinnen 12
gie 12
your 12
union 12
0@@ 12
ol 12
nichts 12
exam@@ 12
lings 12
tex@@ 12
schwarzweißer 12
lung@@ 12
modellflugzeug 12
lar 12
zombies 12
lev@@ 12
wade 12
wo@@ 12
cross@@ 12
ous 12
nike 12
geisha 12
til@@ 12
south 12
scra@@ 12
dal@@ 12
hip@@ 12
ballerinas 12
defensive 12
whole 12
pie 12
challenge 12
free@@ 12
ups 12
olive 12
climbers 12
soars 12
-colored 12
rubs 12
assembled 12
feathered 12
ence 12
wheeler 12
spatula 12
scooping 12
gap 12
muslim 12
elevated 12
coast 12
briefcase 12
slopes 12
ght 12
bib 12
bottoms 12
squ@@ 12
watering 12
probably 12
ary 12
dragon 12
weapon 12
spots 12
checked 12
gle 12
elaborate 12
anvil 12
propped 12
expanse 12
stirring 12
miniature 12
off-camera 12
favorite 12
waterskier 12
ings 12
bea@@ 12
heavyset 12
spo@@ 12
evil 12
flat 12
teddy 12
sunshine 12
barriers 12
swords 12
tomatoes 12
pipes 12
raking 12
scaling 12
rimmed 12
goatee 12
lime 12
aiming 12
within 12
wineglasses 12
relaxes 12
tons 12
stretched 12
ear@@ 12
strike 12
oms 12
bones 12
ving 12
ravine 12
crash 12
woven 12
length 12
dots 12
renaissance 12
sure 12
skull 12
strollers 12
lanes 12
snowball 12
pad 12
nightclub 12
tablecloth 12
flowery 12
knitting 12
pitching 12
personnel 12
riverbank 12
shingles 12
words 12
expression 12
pillar 12
merry-go-round 12
grasping 12
raise 12
bowtie 12
blocking 12
ssing 12
shorter 12
clap 12
bell 12
mouse 12
texting 12
roll 12
rack 12
plank 12
overlook 12
sample 12
licks 12
razor 12
socializing 12
pushed 12
citizens 12
aboard 12
crate 12
identical 12
cable 12
lovely 12
tree-lined 12
mountaintop 12
noses 12
damaged 12
any 12
upright 12
face-@@ 12
dropping 12
glacier 12
handbag 12
relay 12
mittens 12
badge 12
soup 12
liquor 12
harvesting 12
operated 12
haired 12
assisting 12
angle 12
whistle 12
flames 12
jewish 12
butcher 12
brooms 12
finished 12
dump 12
gloved 12
belly 12
hunched 12
beams 12
two-@@ 12
squad 12
somebody 12
crown 12
microscopes 12
sundress 12
shouting 12
rolled 12
devices 12
progress 12
column 12
main@@ 12
lipstick 12
clothed 12
connected 12
lie 12
ribbons 12
conte@@ 12
ture 12
piles 12
ceremonial 12
handheld 12
excitedly 12
walkers 12
features 12
stair 12
constructed 12
deer 12
follow 12
unloading 12
floors 12
jumpsuits 12
ic 12
crafting 12
hearts 12
wheelchairs 12
award 12
stride 12
special 12
mature 12
sprinklers 12
tips 12
completely 12
toe 12
lower 12
waterside 12
portable 12
well-dressed 12
ates 12
cash 12
fit 12
semi 12
creates 12
tow 12
oned 12
keys 12
nurse 12
ancient 12
scissors 12
rusty 12
antly 12
armed 12
scattered 12
seagulls 12
missing 12
deserted 12
checkout 12
kicked 12
weight 12
key 12
wed 12
mule 12
cathedral 12
cha@@ 12
fixes 12
actors 12
political 12
convenience 12
nearly 12
focus 12
clutching 12
gowns 12
congregate 12
crest 12
büsche 10
regenbogen 10
stin 10
führer 10
freizeit@@ 10
luftballon@@ 10
verkauf@@ 10
fernrohr 10
letter@@ 10
dunkelhaariges 10
bambus 10
schlafenden 10
sprung@@ 10
schlafender 10
reagieren 10
schutzwesten 10
zeitungs@@ 10
mehl 10
verdunkelten 10
cowboy-@@ 10
stroh 10
länd@@ 10
restaurantküche 10
arbeitende 10
landung 10
brät 10
lila@@ 10
hinderni@@ 10
erdboden 10
eisen@@ 10
mischer 10
coke 10
ähnliches 10
mobil@@ 10
erhöhten 10
großem 10
sitzend 10
lappen 10
erzählt 10
abdeck@@ 10
strohhalm 10
ebene 10
fts 10
schwimmerin 10
sbe@@ 10
mal 10
fecht@@ 10
vordach 10
wä@@ 10
senden 10
vermutlich 10
bettelt 10
huckepack 10
zugewandt 10
jonglier@@ 10
vorbereiten 10
finden 10
bauarbeiter@@ 10
fällen 10
ständen 10
limona@@ 10
run@@ 10
künstlerin 10
schnitt 10
feder 10
feldhockey 10
bude 10
elf 10
diadem 10
umher@@ 10
laufenden 10
rosafarbenes 10
gemisch@@ 10
erhalten 10
aufgabe 10
gewi@@ 10
erle@@ 10
formen 10
wissenschaftliches 10
befragt 10
wassermelone 10
waten 10
lieblings@@ 10
wasserskifahrer 10
schwimmenden 10
imbiss@@ 10
riemen 10
gärt@@ 10
rot-weiße 10
sei@@ 10
größe 10
reg@@ 10
kleinigkeit 10
zugeht 10
nächtlichen 10
sausages 10
unterschiedliche 10
schildkröte 10
sorgt 10
ohr@@ 10
babyschaukel 10
schaumbad 10
sie@@ 10
teddybär 10
recht 10
gymnastik 10
kopftüchern 10
hotel@@ 10
geschlagen 10
barfüßiges 10
golfspieler 10
versch@@ 10
wadet 10
müde 10
schlä@@ 10
baden 10
blase 10
pflügt 10
haube 10
schreiendes 10
kampfkunst@@ 10
kunstausstellung 10
vierköpfige 10
noten 10
besch@@ 10
fr@@ 10
synchron@@ 10
roboter 10
sandskulptur 10
schwierigkeiten 10
weingläsern 10
nah@@ 10
ffe 10
wangen 10
hor@@ 10
lä@@ 10
rundes 10
dafür 10
flaches 10
tüte 10
mama 10
küsten@@ 10
spiderman 10
messe 10
ckige 10
verkehrt 10
pitchers 10
halt 10
verdienen 10
anzug@@ 10
zubereiten 10
draht 10
jemandes 10
herausge@@ 10
blondhaariges 10
erledigen 10
verbundenen 10
unglücklich 10
fallenden 10
partner 10
bot@@ 10
ziegen 10
endzone 10
enga@@ 10
lenkt 10
entgegen@@ 10
mittelalter@@ 10
sortieren 10
fte 10
rollschuh 10
richtig 10
funktioniert 10
misches 10
eg@@ 10
mechaniker 10
felsige 10
drag 10
and@@ 10
roben 10
fahrradreifen 10
gän@@ 10
kahl@@ 10
erdbe@@ 10
schneeball 10
orten 10
pfannen 10
korridor 10
befestigen 10
zuschauer@@ 10
waffen 10
party@@ 10
kaffee@@ 10
ckte 10
skigebiet 10
sitzendes 10
ieren 10
konferenztisch 10
lautsprecher 10
rucksäcke 10
kelle 10
toreinfahrt 10
nebligen 10
leidenschaftlich 10
schmutzige 10
entertainer 10
blumenwiese 10
schweiß@@ 10
hochklettert 10
gene 10
zement@@ 10
kilts 10
freuen 10
deln 10
stäbchen 10
kugel@@ 10
dschungel 10
jeans-@@ 10
medail@@ 10
straßencafé 10
männer@@ 10
besucher 10
betrun@@ 10
high-fives 10
reis 10
5-@@ 10
wür@@ 10
freundinnen 10
bten 10
netzen 10
streicheln 10
kel 10
blättert 10
minigolf 10
kindergruppe 10
geschen@@ 10
skate-park 10
einschließlich 10
rängen 10
gemütlich 10
hahn 10
interessanten 10
schnorchel 10
fliesenboden 10
kastanien@@ 10
fensterputzer 10
heißluftballons 10
dü@@ 10
sackhüpfen 10
aufgaben 10
erinn@@ 10
drängen 10
hochzeitsgesellschaft 10
beoba@@ 10
wagen@@ 10
wetteifern 10
misst 10
berghang 10
umge@@ 10
aufgeregte 10
get@@ 10
wil@@ 10
vorder@@ 10
zigaretten 10
hawaii@@ 10
befördert 10
tischtennis 10
kni@@ 10
ledermantel 10
älter 10
weiß-brauner 10
lichter 10
bereit@@ 10
lackiert 10
polo@@ 10
staffellauf 10
frem@@ 10
ähnliche 10
bananen 10
hte 10
mp@@ 10
mönch 10
besitz@@ 10
schneehaufen 10
limo 10
gartenstuhl 10
flaschen@@ 10
schöpft 10
gende 10
stisch 10
stecken 10
m-@@ 10
zten 10
cow@@ 10
-hut 10
banane 10
kampfspor@@ 10
nachrichten 10
bastelt 10
heu@@ 10
abhang 10
felsblock 10
stru@@ 10
kun@@ 10
gon@@ 10
slo@@ 10
kein 10
büchern 10
leere 10
food-@@ 10
beenden 10
sta 10
chts@@ 10
plakatwand 10
flu@@ 10
touristen@@ 10
besuchten 10
angemaltem 10
pflanzt 10
köpfige 10
spie@@ 10
mike 10
grüßen 10
ruinen 10
kamin 10
ketten@@ 10
schattigen 10
gemalt 10
weite 10
wintermantel 10
parka 10
schleifen 10
abstammung 10
stätte 10
priester 10
kamelen 10
sesseln 10
stricken 10
stür@@ 10
kleinstadt 10
vereisten 10
beaufsichtigt 10
wii 10
vase 10
zupft 10
lama 10
klappe 10
oldtimer 10
hochzeitsfeier 10
kleidungs@@ 10
wachsen 10
anzugreifen 10
geträn@@ 10
fahrern 10
bauernhof 10
blau-roten 10
produkten 10
traurig 10
geiger 10
lut@@ 10
dreirä@@ 10
haarigen 10
sattel 10
grauhaariger 10
weiß-braune 10
bergsteigen 10
weihnachts@@ 10
gute 10
bademantel 10
armband 10
batman-@@ 10
dünn@@ 10
werbe@@ 10
letzten 10
katzen 10
blondhaarige 10
stäben 10
bedienung 10
lehrt 10
ig 10
bekleidungsgeschäft 10
dünne 10
labor@@ 10
national@@ 10
poloshirt 10
ckelt 10
ische 10
szenerie 10
spielzug 10
tank-top 10
betrie@@ 10
langärmligen 10
ausstattung 10
senioren 10
cy@@ 10
schädel 10
führenden 10
piraten@@ 10
gesteckt 10
broad@@ 10
kie@@ 10
gren@@ 10
golden@@ 10
ringe 10
denkmal 10
diges 10
hebe@@ 10
betonrampe 10
vaters 10
krankenhausbett 10
bücher@@ 10
eiswaffel 10
farbenem 10
super@@ 10
mach@@ 10
pft 10
lieren 10
afri@@ 10
kas 10
befin@@ 10
kanone 10
harten 10
tennisspielen 10
holzstuhl 10
crocs 10
dojo 10
steinernen 10
torbogen 10
streiten 10
tä@@ 10
zen@@ 10
gabe 10
schen@@ 10
blaugrünen 10
wasserfahrzeug 10
räumt 10
elternteil 10
unfall 10
gestützt 10
seilschaukel 10
fil@@ 10
-kostüm 10
lle 10
chinesi@@ 10
außerdem 10
lenker 10
schusswaffe 10
uferweg 10
stag 10
happen 10
verschiedenfarbigen 10
desig@@ 10
ragt 10
pink-@@ 10
klat@@ 10
einsatz@@ 10
schläuchen 10
nagel 10
ureinwohner 10
schrank 10
safe 10
home@@ 10
marke 10
met 10
gejagt 10
stapeln 10
geburtstag@@ 10
ze@@ 10
geholfen 10
pustet 10
stadtplatz 10
orangensaft 10
gay 10
teilung 10
reit@@ 10
probt 10
flauschigen 10
spuren 10
höhle 10
flanke 10
hochzeitskleid 10
skateboardrampe 10
ärmel 10
eu@@ 10
amm@@ 10
shell 10
beige@@ 10
beladenen 10
buckelnden 10
geschminktem 10
gebilde 10
lar@@ 10
fußtritt 10
schüttet 10
obst@@ 10
scheinwerferlicht 10
fliegende 10
kapuzen@@ 10
brünettes 10
segeln 10
horns 10
bewundern 10
metallgegenstand 10
kollegen 10
dicker 10
stabhochsprung 10
fallenen 10
tel 10
milch@@ 10
jahrmarkt@@ 10
briti@@ 10
pfahl 10
enge 10
meere@@ 10
stäbe 10
poliert 10
redner 10
blätterhaufen 10
skleidung 10
grauhaarige 10
sicher 10
straining 10
kragenhemd 10
knallbunten 10
würden 10
är@@ 10
kahl 10
inner@@ 10
springer 10
indianer 10
fit@@ 10
krä@@ 10
käse 10
heraus@@ 10
reisen 10
verbringen 10
scher@@ 10
strandes 10
kinn 10
/ 10
strei@@ 10
hechtet 10
rot-blauen 10
angestellte 10
gebäude@@ 10
ulti@@ 10
tzchen 10
krankenschwester 10
zauber@@ 10
pickup 10
werk@@ 10
kick@@ 10
felds 10
verwirrt 10
geschmückten 10
dusche 10
durchsich@@ 10
einhei@@ 10
internet 10
gespritzt 10
windsurfer 10
pfadfinder@@ 10
geschäftsmann 10
interview 10
schaffen 10
show@@ 10
intensiv 10
auszeichnung 10
pla@@ 10
akti@@ 10
stolpert 10
notebooks 10
ertem 10
ami@@ 10
geschossen 10
make-up 10
zweiten 10
jack@@ 10
eisschnellläufer 10
fon@@ 10
wasserlauf 10
spielende 10
feh@@ 10
tauchausrüstung 10
schanze 10
las 10
irgendeine 10
militärische 10
erzielen 10
itali@@ 10
ehen 10
verletzt 10
ausgestrecktem 10
lun@@ 10
ffel 10
lastwagens 10
polizistin 10
schwarz-blauen 10
vorlesung 10
mickey 10
kerze 10
beleu@@ 10
runde 10
ftet 10
marki@@ 10
versehen 10
gedrängt 10
harfe 10
reichen 10
cho@@ 10
afroamerikanerin 10
wasch@@ 10
programm 10
dinosauri@@ 10
gleiche 10
bmx-rad 10
türeingang 10
kti@@ 10
hochzeits@@ 10
anzuziehen 10
coca 10
halfpipe 10
erleuchtet 10
green@@ 10
blattwerk 10
arbeitsplatz 10
wirbt 10
wok 10
rückwärtssalto 10
überkreuzten 10
balletttän@@ 10
paket 10
navigiert 10
verzieht 10
brettern 10
schalter 10
besitz 10
enth@@ 10
möbeln 10
bieten 10
transporter 10
schweißen 10
bechern 10
anorak 10
motorboot 10
eishockeyspiel 10
life@@ 10
golfer 10
buses 10
oberhemd 10
gepunk@@ 10
rum 10
toyota 10
ob@@ 10
wahr@@ 10
mas 10
künstl@@ 10
erischen 10
gefal@@ 10
paintball 10
butter 10
zuguckt 10
vers 10
fahren@@ 10
zugucken 10
verliert 10
tages 10
durchgang 10
skateboardtrick 10
rasieren 10
motorradrennen 10
plantscht 10
informationen 10
pokal 10
warenkorb 10
jung@@ 10
personen@@ 10
-band 10
mini@@ 10
bräunlicher 10
scheinwerfer 10
tail@@ 10
plastik 10
deutet 10
heißt 10
s. 10
tiges 10
medizinische 10
ham 10
kastanienbraunen 10
betritt 10
diverse 10
princess 10
textnachricht 10
chirur@@ 10
fließen@@ 10
fä@@ 10
politischen 10
herrlichen 10
ssion 10
medizinischen 10
panel 10
ade 10
balkonen 10
schauspieler 10
tuba 10
mul@@ 10
rangeln 10
ärmeln 10
long@@ 10
emo@@ 10
garagentor 10
fix@@ 10
gendes 10
interviewt 10
gedenk@@ 10
jahre 10
backsteinwand 10
freiluft@@ 10
dem@@ 10
anscheinend 10
hemdchen 10
rohre 10
tickets 10
kanadischen 10
rednerpult 10
ds-@@ 10
play@@ 10
album 10
sandwiches 10
coo@@ 10
verlassene 10
phones 10
boarder 10
trio 10
dok@@ 10
operationssaal 10
lose 10
char@@ 10
umklammert 10
ener 10
prote@@ 10
best 10
schar 10
prayer 10
di 10
sh-@@ 10
hellrosa 10
zebra@@ 10
top@@ 10
mod@@ 10
berlin 10
khaki-@@ 10
mati@@ 10
marathonlauf 10
braun@@ 10
gewonnen 10
unterhalb 10
lakers 10
außenseite 10
schaufenstern 10
spanischer 10
transport 10
tics 10
ya@@ 10
wonder 10
zebra 10
hängebrücke 10
tele@@ 10
barkeeper 10
uti@@ 10
slowly 10
lei 10
kna@@ 10
ponchos 10
pee 10
pop 10
lation 10
fitness 10
zweiter 10
barri@@ 10
schwarzweißen 10
moder@@ 10
mannschaftskollegen 10
iz@@ 10
steam 10
high@@ 10
ballbesitz 10
hung 10
reporter 10
henna 10
buggy 10
double 10
monster 10
gliding 10
metro 10
seesaw 10
ascending 10
grown 10
drilling 10
flowing 10
wards 10
tribe 10
sweaters 10
bakery 10
sharp 10
javelin 10
partying 10
applies 10
fills 10
antique 10
sheer 10
barbecuing 10
petals 10
curved 10
flaming 10
torches 10
smooth 10
breath 10
knee-high 10
searching 10
ining 10
pride 10
perhaps 10
backlit 10
cartwheel 10
sound 10
padded 10
cooked 10
consul@@ 10
persons 10
cooler 10
tiara 10
bookshelf 10
cle@@ 10
makeshift 10
interviewed 10
cheer@@ 10
watermelon 10
backhoe 10
rubble 10
interact 10
cap@@ 10
floaties 10
multicolor 10
stacks 10
wers 10
wiping 10
crawling 10
split 10
tongs 10
thing 10
vertical 10
winding 10
pacifier 10
bundled 10
served 10
exhibition 10
hear 10
robot 10
ities 10
pauses 10
mates 10
combat 10
suitcases 10
handles 10
cheeks 10
peak 10
uring 10
plush 10
cen@@ 10
convention 10
baked 10
shoeshine 10
shines 10
soft 10
emerges 10
greenery 10
tly 10
handling 10
blindfolded 10
instructing 10
concentrates 10
message 10
cloths 10
goats 10
steers 10
affe@@ 10
lean 10
roadwork 10
storm 10
community 10
ils 10
competitors 10
tugging 10
yelling 10
cti@@ 10
register 10
shoo@@ 10
stretch 10
weapons 10
clothesline 10
campers 10
beginning 10
chat 10
slicing 10
tomato 10
backstroke 10
poodles 10
leashes 10
posts 10
masked 10
shack 10
waitress 10
balanced 10
recreational 10
contents 10
blocked 10
cradles 10
aid 10
trays 10
saying 10
motorbikes 10
ward 10
ssed 10
unfinished 10
bul@@ 10
toilet 10
dribbles 10
parachuting 10
snaps 10
clearing 10
installing 10
unds 10
tions 10
parachutes 10
hammers 10
glider 10
wning 10
snowman 10
carried 10
splash 10
fairy 10
marches 10
baton 10
foam 10
shelves 10
perched 10
herding 10
suburban 10
passed 10
conditions 10
dilapidated 10
run-down 10
carved 10
cri@@ 10
bing 10
bounding 10
banana 10
vely 10
artistic 10
nicely 10
backward 10
tumbling 10
completed 10
cityscape 10
chained 10
magnifying 10
ly-@@ 10
ruins 10
fireplace 10
clock 10
scantily 10
huddle 10
dyed 10
priest 10
ume 10
apples 10
sailboats 10
girlfriend 10
pedestrian 10
escape 10
daylight 10
singers 10
towels 10
sweatsuit 10
trimming 10
latin 10
rowboat 10
appearing 10
ax 10
collecting 10
ators 10
parts 10
lost 10
comfortable 10
mothers 10
cows 10
forming 10
archway 10
embrace 10
chunk 10
opened 10
eyeglasses 10
lowered 10
mustard 10
starts 10
inspect 10
earrings 10
least 10
vocalist 10
passerby 10
attentively 10
white-haired 10
massive 10
states 10
oar 10
blurry 10
chains 10
sponsored 10
struggling 10
peacock 10
attendant 10
watercraft 10
rake 10
crazy 10
reclines 10
shady 10
rounding 10
huddled 10
descending 10
fishermen 10
cattle 10
tuxedo 10
americans 10
dly 10
kites 10
caricature 10
equestrian 10
bites 10
want 10
bushy 10
tossed 10
snowcapped 10
angry 10
cookies 10
canopy 10
carve 10
mattress 10
includes 10
donkeys 10
occupied 10
breaks 10
besides 10
jog 10
utility 10
consi@@ 10
leaned 10
gum 10
dominoes 10
dotted 10
barking 10
arrive 10
clarinet 10
om 10
assistant 10
storefronts 10
curve 10
unknown 10
strap 10
braided 10
poking 10
button-up 10
hairstyle 10
sister 10
theme 10
crowns 10
tic 10
ckers 10
drivers 10
dropped 10
scales 10
stry 10
ously 10
apparatus 10
armor 10
confused 10
surgeons 10
sailor 10
directs 10
scout 10
businessman 10
brow 10
pinned 10
stle 10
ght@@ 10
stylish 10
lantern 10
returns 10
expressions 10
lingerie 10
workmen 10
ored 10
struggles 10
claus 10
feathers 10
season 10
themed 10
harp 10
spike 10
elephants 10
exploring 10
excitement 10
pinstriped 10
digs 10
mats 10
historic 10
snowboarders 10
comforting 10
eagerly 10
ned 10
tunic 10
contin@@ 10
graffitied 10
carousel 10
coolers 10
blue-@@ 10
merchant 10
champagne 10
stroke 10
opponents 10
competitive 10
decorating 10
given 10
mate 10
shar@@ 10
campsite 10
rollerskaters 10
observers 10
offering 10
sheets 10
photographing 10
eye@@ 10
holes 10
hoo@@ 10
positioned 10
posters 10
bly 10
varying 10
löwen 8
schickes 8
langsam 8
nacheinander 8
neongrünen 8
streut 8
pf 8
gemalten 8
kaput@@ 8
bie@@ 8
schwarz-gelben 8
urinal 8
krawatten 8
gam@@ 8
wettbewer@@ 8
steinwand 8
gelen@@ 8
windjacke 8
instal@@ 8
loh@@ 8
öffentliche 8
sicher@@ 8
dorfbewohner 8
ernte 8
elektrogitarre 8
bewachsenen 8
groß 8
schei@@ 8
farbig 8
strahlend 8
matsch 8
broschüre 8
gefär@@ 8
bter 8
kelt 8
bäckerei 8
dicke 8
bä@@ 8
schar@@ 8
kräfte 8
schläfchen 8
funken 8
mmten 8
extravagan@@ 8
antiken 8
benz@@ 8
wort 8
hinterteil 8
lkws 8
fußballplatz 8
hockern 8
stirnbändern 8
umhängetasche 8
verhindern 8
jong@@ 8
gap-@@ 8
pabst 8
meerwasser 8
juwelier@@ 8
rollschuh@@ 8
schmi@@ 8
einteiler 8
anblick 8
wirken 8
walkman 8
erklärt 8
sollen 8
fels@@ 8
grinst 8
geschichte 8
latz 8
gebü@@ 8
nasen@@ 8
mittelgroßen 8
fell@@ 8
huts 8
zel@@ 8
glücklicher 8
elmo-@@ 8
sodass 8
entlanggehen 8
kün@@ 8
angelehnt 8
pendler 8
wan@@ 8
mme 8
lager 8
aufen 8
sab@@ 8
hn@@ 8
hänge@@ 8
pfe 8
gepolster@@ 8
picknick 8
packten 8
spring@@ 8
töpferscheibe 8
kreide@@ 8
hler 8
ßen 8
statuen 8
hinunterfährt 8
holzboot 8
ham@@ 8
ungefähr 8
billi@@ 8
sportlerin 8
gelb-grünen 8
sende 8
geburtstag 8
gela@@ 8
strickjacke 8
zeitung@@ 8
gele@@ 8
wakeboarding 8
gewür@@ 8
gespreizten 8
musizieren 8
eisenbahnschienen 8
langer 8
ausgestreckter 8
holzplattform 8
wit@@ 8
besuch 8
piers 8
gehören 8
grün-gelben 8
isla@@ 8
sichtbaren 8
umgedreht 8
blut@@ 8
ord@@ 8
nete 8
eyeliner 8
blü@@ 8
high-five 8
wenige 8
drücken 8
elektro@@ 8
bereits 8
gefliesten 8
fleisch@@ 8
vin@@ 8
wasserschlauch 8
leuchten@@ 8
buch@@ 8
handlung 8
prüfung 8
schwein 8
fahrbaren 8
schwung 8
aufzuheben 8
ananas 8
zange 8
sonnenschein 8
baumgesäumten 8
tennisbällen 8
migen 8
eiern 8
schnauzer 8
eigenen 8
softball@@ 8
gelbbraunen 8
kriecht 8
panda 8
gebir@@ 8
dirtbike 8
guten 8
light-@@ 8
ette 8
kaffe@@ 8
wolkigen 8
fischerboot 8
go-kar@@ 8
posaune 8
vorbeigehenden 8
schulbus 8
halte@@ 8
mexikanischen 8
wasserkante 8
schwerer 8
pfei@@ 8
route 8
hochzeit@@ 8
sicherheitsausrüstung 8
ausstellungs@@ 8
liebkost 8
verkehrsmittel 8
clubs 8
signi@@ 8
michigan 8
14 8
anhän@@ 8
zitronen 8
geburtstagskuchen 8
städtischer 8
tim 8
situation 8
nten 8
sagen 8
beach@@ 8
kirsch@@ 8
verkäufers 8
schna@@ 8
weit@@ 8
töpferwaren 8
herstellt 8
altmodischer 8
gabelstapler 8
reiher 8
manns 8
knochen 8
besprühten 8
warmer 8
bemal@@ 8
leuchtende 8
bügelt 8
unruhigem 8
cowboy@@ 8
winzigen 8
türki@@ 8
leitern 8
laubbedeckten 8
hügeln 8
tage 8
offene 8
regenschirme 8
küchentheke 8
afrikanisches 8
flanellhemd 8
mann@@ 8
nudel@@ 8
kunststoff 8
daraus 8
kaum 8
steingebäude 8
keyboards 8
schlanker 8
stliche 8
digt 8
zweig 8
lung 8
leben 8
straßenarbeiten 8
vorliest 8
post@@ 8
gelb-weißen 8
wells 8
hack@@ 8
gleit@@ 8
festzug 8
intere@@ 8
tauchen 8
gehört 8
staunen 8
geschla@@ 8
würstchen 8
pun@@ 8
angerichtet 8
knieschonern 8
hobenen 8
berry 8
toiletten 8
ripp@@ 8
jahren 8
händ@@ 8
halten@@ 8
pulver 8
bleistift 8
ß 8
sschen 8
schieß@@ 8
spielhalle 8
freiwilli@@ 8
ller 8
dirigent 8
kopfball 8
intervie@@ 8
sam@@ 8
notre 8
zweier 8
mop@@ 8
sat@@ 8
angeles 8
wäscheleine 8
metallkonstruktion 8
chri@@ 8
liegender 8
seiten@@ 8
schönes 8
arme@@ 8
militäruniform 8
militärangehörige 8
küchentisch 8
schindeln 8
bucht 8
ffen 8
abgewandt 8
shügel 8
mor@@ 8
spülen 8
bahngleise 8
iten 8
steinstufen 8
ausdruck 8
ineinander 8
mexikanische 8
spielplatzgerät 8
fässer 8
zweiteiligen 8
nasses 8
ssel@@ 8
zueinander 8
projektor 8
riesiger 8
isch 8
felsen@@ 8
verspritzt 8
besitzer 8
maski@@ 8
halloween-@@ 8
fröhlicher 8
schaufensterpuppe 8
skostüm 8
kellnerin 8
stocks 8
urnier 8
absol@@ 8
erend 8
aktivität 8
sonnenhut 8
gut@@ 8
iter 8
frei 8
eingegraben 8
laub@@ 8
schwangere 8
blau-weiß 8
muscheln 8
bele@@ 8
freiluftmarkt 8
öffnung 8
lötet 8
felsenklippe 8
gyro 8
winken 8
ier@@ 8
itt@@ 8
ausländischen 8
lebensmittelgeschäfts 8
apparat 8
knallgelben 8
lässi@@ 8
stü@@ 8
briefkasten 8
frisbee-@@ 8
folie 8
kamer@@ 8
tabletts 8
baumaschinen 8
shampoo 8
beil 8
chor@@ 8
maiskolben 8
duscht 8
laubbläser 8
möwe 8
gähnt 8
utensilien 8
kickboxen 8
lugt 8
verschiedener 8
schu@@ 8
taucherbrille 8
knurrt 8
toilette 8
hulk 8
schnappschuss 8
fitness@@ 8
vorbereitung 8
famili@@ 8
vieh 8
schneeengel 8
antiqu@@ 8
the@@ 8
rie@@ 8
schwelle 8
ctor 8
turf 8
truthahn 8
tö@@ 8
blumenkleid 8
dunkelgrünen 8
imit@@ 8
hölle 8
berggipfel 8
schneemann 8
kuchen@@ 8
gefrorenen 8
wildwasser 8
fein 8
skimütze 8
befestigten 8
fru@@ 8
entwir@@ 8
bassgitarre 8
staun@@ 8
einsame 8
nung 8
vorhang 8
zusammenzu@@ 8
llt 8
aktion 8
keller 8
skipiste 8
träger@@ 8
übergibt 8
prachtvollen 8
schw@@ 8
dam@@ 8
gener@@ 8
reise 8
weihnachtsgeschenke 8
motorrollern 8
mundharmonika 8
geländern 8
ausm@@ 8
enthält 8
schwimmhilfe 8
holzpfahl 8
brautkleid 8
scho@@ 8
sprin@@ 8
chung 8
schwarzhaariger 8
neten 8
diagra@@ 8
angezeigt 8
baufälligen 8
papp@@ 8
gleiten 8
münz@@ 8
prächtigen 8
sparty 8
ero@@ 8
adi@@ 8
express 8
schle@@ 8
tief@@ 8
superman-@@ 8
seminar 8
aqu@@ 8
pfoten 8
wunder@@ 8
hauptsächlich 8
edlen 8
ballen 8
fair@@ 8
schafen 8
lusti@@ 8
tandem 8
aufnahmen 8
frühstücks@@ 8
x-@@ 8
st-@@ 8
gl@@ 8
gefilmt 8
fft 8
bandmitgliedern 8
sturzhelm 8
gesp@@ 8
herein@@ 8
holzrampe 8
beginnen 8
telefonmasten 8
-kleidung 8
bowling-kugel 8
menü 8
wählen 8
gebauten 8
schneehügel 8
ast@@ 8
metz@@ 8
gefärbten 8
reitern 8
gebirge 8
kalte 8
gestalteten 8
bildhauer 8
ien 8
hafengebiet 8
segelboote 8
sportspiel 8
ffs 8
skiausrüstung 8
seltsam 8
saust 8
stol@@ 8
stuhl@@ 8
ausländische 8
locken@@ 8
leopardenmuster 8
heiraten 8
wäschekorb 8
feuerleiter 8
trockenem 8
offiziellen 8
trockenes 8
verstärker 8
alen 8
kälte 8
whirlpool 8
jazz@@ 8
schwer 8
skraft 8
orientalischen 8
süd@@ 8
plüsch@@ 8
bärten 8
bergigen 8
sandplatz 8
tenniskleidung 8
gesäumt 8
weggeht 8
grei@@ 8
geblüm@@ 8
rocker 8
session 8
notenständer 8
mütter 8
angezogenes 8
tiefe 8
bedeckte 8
zunehmen 8
brand 8
diskutiert 8
kreisförmigen 8
deutschen 8
geduldig 8
gehaltenen 8
kricketspieler 8
töpfe 8
professioneller 8
aufgesetz@@ 8
quadraten 8
menden 8
capris 8
eln@@ 8
hispani@@ 8
arren 8
machte 8
go-@@ 8
inder 8
rot-weiß-blauen 8
theater@@ 8
gesichtsmaske 8
choreografie 8
broch@@ 8
gesichert 8
angelschnur 8
hausaufgaben 8
krone 8
motorrad@@ 8
freiluf@@ 8
fei@@ 8
mikroskope 8
flan@@ 8
lustigen 8
früh@@ 8
lings@@ 8
badebekleidung 8
ruhige 8
abzuwerfen 8
vorübergehen 8
klapp@@ 8
letter 8
neigt 8
grasbewachsenes 8
violettes 8
verschiedenfarbige 8
gge 8
unfertigen 8
oklahoma-@@ 8
gegenspieler 8
getackelt 8
sportereignis 8
gefle@@ 8
täglichen 8
mmen@@ 8
sichtbar 8
gelegten 8
kaputten 8
felsformation 8
rasiertem 8
mmern 8
beschnüffelt 8
bandan@@ 8
re-@@ 8
ven@@ 8
bekleide@@ 8
krücken 8
liter@@ 8
überwiegend 8
sakko 8
irgendein 8
meeresufer 8
reist 8
drum@@ 8
bulldo@@ 8
pp 8
ums 8
hellroten 8
verbunden 8
tropischer 8
weht 8
drahtzaun 8
affen 8
glatzenansatz 8
lockigem 8
pool@@ 8
fran@@ 8
erwischen 8
iti@@ 8
ath@@ 8
cour@@ 8
gestrüpp 8
hör@@ 8
sky@@ 8
sigen 8
spüle 8
begleitung 8
sowohl 8
knei@@ 8
schlanke 8
gokar@@ 8
landen 8
prallen 8
straßenbahn@@ 8
merkwür@@ 8
flecken 8
base@@ 8
inder@@ 8
gelegen@@ 8
protestschild 8
förmlicher 8
sicherheitskleidung 8
verstecken 8
hübsch 8
knappen 8
highschool-@@ 8
gefällten 8
drähten 8
u-bahn-tunnel 8
hofs 8
innenseite 8
leuchten 8
hydrau@@ 8
chef@@ 8
eien 8
loko@@ 8
elektriker 8
geschenk@@ 8
cremefarbenen 8
oberhalb 8
rustikalen 8
liga 8
link@@ 8
kühlen 8
baseballkappen 8
dunkles 8
rückenschwimmen 8
chtes 8
hundeshow 8
bellen 8
vogel@@ 8
schuhgeschäft 8
dritte-welt-land 8
zwölf 8
sofas 8
hellhäuti@@ 8
harmonika 8
zo@@ 8
ellen@@ 8
prüfen 8
schreien 8
absolventen 8
cyc@@ 8
europä@@ 8
besetz@@ 8
trocken@@ 8
comic@@ 8
notizbuch 8
bauprojekt 8
ziert 8
brust@@ 8
angelruten 8
au 8
segway 8
sonnen 8
denes 8
mig 8
kür@@ 8
anischer 8
rettungsweste 8
entladen 8
schwei@@ 8
ft-@@ 8
tollen 8
spiele 8
freund@@ 8
konzer@@ 8
fuße 8
fundament 8
lerinnen 8
al-@@ 8
football-feld 8
unterhaltung 8
dingen 8
daneben@@ 8
einkäufern 8
ansetzt 8
engli@@ 8
langärmli@@ 8
angen 8
pink@@ 8
flag@@ 8
herauf 8
hüpf@@ 8
horizon@@ 8
farbstiften 8
beckens 8
spielzeugpferd 8
planschbecken 8
verzi@@ 8
indischen 8
unbefestigtem 8
unterseite 8
gener 8
skaten 8
amput@@ 8
she@@ 8
spare 8
wasserfontäne 8
seltsames 8
kargen 8
deut@@ 8
hotdog-@@ 8
vs 8
eres 8
nike-@@ 8
rückhand 8
brünett 8
druck@@ 8
sommerkleid 8
bevor@@ 8
dlichen 8
reiniger 8
asphalt@@ 8
grund 8
planschen 8
spe@@ 8
gestapel@@ 8
schärpen 8
lilafarbene 8
hellhäutigen 8
schichten 8
halbkreis 8
trag@@ 8
tenni@@ 8
erhö@@ 8
getränke@@ 8
zier@@ 8
gast 8
campus 8
gesche@@ 8
markt@@ 8
fallschirmspringen 8
abzuwehren 8
akkordeonspieler 8
web@@ 8
gewe@@ 8
noten@@ 8
schwer@@ 8
akrobati@@ 8
essstäbchen 8
budwei@@ 8
auszuführen 8
gerin 8
volleyball-@@ 8
rö@@ 8
baustellen@@ 8
albernen 8
softballspielerin 8
dramati@@ 8
eil 8
fleece 8
pelzmantel 8
bas@@ 8
zuzu@@ 8
umeinander 8
2008 8
turnschuhe 8
put@@ 8
kranich 8
oll@@ 8
schrei@@ 8
pastor 8
hello 8
kitty 8
and-@@ 8
ausgeschnittenen 8
knabbert 8
verkehr@@ 8
melonen 8
smit@@ 8
000 8
wischen 8
ring@@ 8
fußball-@@ 8
motive 8
chirurgen 8
op-kittel 8
feldes 8
basketballkorb 8
mmel 8
pitbull 8
kariertes 8
bequem 8
thomas 8
ster-@@ 8
ausblick 8
baren 8
absperrband 8
burrit@@ 8
dö@@ 8
apple-@@ 8
gedeckten 8
ssenen 8
aufkleber 8
kuss 8
frustriert 8
stoffe 8
begeister@@ 8
us-@@ 8
rettungsschwimmer 8
machten 8
rudel 8
grasbewachsene 8
verteidigen 8
bögen 8
stapelt 8
zombie 8
demonstriert 8
verbringt 8
hock@@ 8
jä@@ 8
goldener 8
toter 8
techni@@ 8
rasen@@ 8
backen 8
rags 8
michael 8
biegt 8
lasters 8
rest@@ 8
bretter 8
ll@@ 8
college@@ 8
dunkelbrauner 8
cken@@ 8
hatte 8
kolle@@ 8
jeansrock 8
durchge@@ 8
truppe 8
läden 8
schwarz@@ 8
itä@@ 8
sprungs 8
sketch 8
tanzende 8
besprechen 8
spielautomaten 8
protestieren 8
umgedrehten 8
konzert@@ 8
laubhaufen 8
bela@@ 8
alli@@ 8
rugby@@ 8
rasierten 8
elefan@@ 8
fingernägel 8
geheim@@ 8
b-@@ 8
silk 8
schlummert 8
schri@@ 8
erhebt 8
seile 8
hir@@ 8
genüsslich 8
erungen 8
burg 8
bissen 8
idyllischen 8
schwimmern 8
wintermänteln 8
paris 8
spagat 8
darth 8
zucker@@ 8
disk@@ 8
sam 8
schriftzug 8
easter 8
hunt 8
bum@@ 8
religiöse 8
gitarre@@ 8
banjo@@ 8
pro-@@ 8
balancieren 8
entu@@ 8
indiani@@ 8
wissenschaftler 8
tortillas 8
lich@@ 8
flieder@@ 8
skilift 8
zenden 8
wild@@ 8
decker 8
gipfeln 8
gestell 8
anweisung 8
jim 8
treppen@@ 8
matten 8
zuläuft 8
stier@@ 8
häu@@ 8
leit@@ 8
ble@@ 8
stö@@ 8
bers 8
yant 8
trainings@@ 8
bands 8
schwan 8
angesicht 8
pferdes 8
shalle 8
benden 8
akrobatische 8
linien 8
backsteingebäudes 8
abenddämmerung 8
kaufhaus 8
strümpfe 8
stücken 8
glü@@ 8
belag 8
hen@@ 8
geholt 8
hügels 8
absatzschuhen 8
lokalen 8
hinab@@ 8
korbs 8
treppengeländer 8
fäl@@ 8
convers@@ 8
einsames 8
nähen 8
bmx-@@ 8
bürgerkrie@@ 8
drehen 8
löwen@@ 8
strähnen 8
glitzern@@ 8
baseballspiels 8
border 8
kahlen 8
3rd 8
maulesel 8
sser 8
waldes 8
blut 8
badesachen 8
friedhof 8
wolke 8
lacrosse-@@ 8
fahrradtrick 8
offiziere 8
pferderennen 8
mensch@@ 8
flohmarkt 8
raus 8
sonnenschirmen 8
bärtige 8
farbenes 8
ag@@ 8
sagt 8
agility 8
verkleiden 8
penske 8
staubwolke 8
jug@@ 8
laterne 8
digger 8
und@@ 8
dut@@ 8
challen@@ 8
ge-@@ 8
breitkrempigen 8
ersten 8
kastenwagen 8
rallyeauto 8
landschaft@@ 8
labradoodle 8
kunstmuseum 8
sedan 8
multi@@ 8
innerhalb 8
bern@@ 8
darsteller 8
sprühfarbe 8
va@@ 8
proje@@ 8
spinnrad 8
äl@@ 8
fahrradgeschäft 8
kauern 8
vorwärts 8
ti 8
ine@@ 8
armee 8
inning 8
aufzunehmen 8
bräun@@ 8
leck@@ 8
handwerk 8
obst- 8
blickfeld 8
tion@@ 8
sands 8
francisco 8
ktion@@ 8
stadtviertel 8
sty@@ 8
kirme@@ 8
entgegengesetzte 8
isches 8
spielmannszug 8
beamten 8
blumenfeld 8
gepflegten 8
lim@@ 8
bill 8
meerjungfrau 8
gleich@@ 8
krügen 8
trocknen 8
save 8
hopper 8
letzte 8
kniehohen 8
entre@@ 8
spielend 8
billy 8
menschenschlange 8
sportliche 8
langarmhemd 8
toten@@ 8
espresso 8
pon@@ 8
bikinioberteil 8
kleidungsstücke 8
bener 8
scre@@ 8
cki@@ 8
lage 8
glasgebäude 8
gigan@@ 8
nähern 8
kleinbus 8
boar@@ 8
großküche 8
indianischer 8
fotograph 8
kers 8
schneidebrett 8
hippie 8
schrift 8
objekten 8
laufender 8
tee@@ 8
kanne 8
dom 8
fotographen 8
isra@@ 8
poolbillard 8
jum@@ 8
laufende 8
grün-weiß 8
orange@@ 8
gezogenen 8
absperrungen 8
gebückter 8
schmettern 8
schere 8
mac@@ 8
militärs 8
inklusive 8
esszimmer 8
hausmeister 8
blusen 8
geschäf@@ 8
@ 8
mixt 8
vietnamese 8
militäruniformen 8
schippen 8
denken 8
müllbeutel 8
chie@@ 8
california 8
50 8
% 8
sla@@ 8
männergruppe 8
tails 8
gerätschaften 8
30@@ 8
befreit 8
gy@@ 8
ding@@ 8
mobilen 8
browni@@ 8
matador 8
kiefer 8
ausführung 8
fanta@@ 8
gedanken 8
stell@@ 8
unterbricht 8
spazier@@ 8
terminals 8
fußballmannschaften 8
sexy 8
schmutziger 8
strafzettel 8
schokoladeneis 8
sum@@ 8
portraits 8
ohrhörern 8
darts 8
karikatur 8
ma 8
zers 8
haltestelle 8
sprüh@@ 8
stant 8
soon 8
tend 8
sha@@ 8
kostü@@ 8
feuerwehrwagen 8
mob 8
stock@@ 8
obdachlose 8
bevölk@@ 8
stat@@ 8
bucks 8
boutique 8
liegestütze 8
statur 8
didgeri@@ 8
doo 8
tors 8
harlem 8
werbetafel 8
heimat@@ 8
girl@@ 8
luftsprung 8
produ@@ 8
v-@@ 8
fegen 8
195@@ 8
empor 8
mexico 8
hon@@ 8
30 8
kühen 8
betrieb 8
ärzte 8
belebter 8
builder 8
roller-derby-spiel 8
cadillac 8
unge@@ 8
comi@@ 8
ritual 8
grund@@ 8
vitrine 8
komo@@ 8
jen@@ 8
20@@ 8
zeug@@ 8
blumenmädchen 8
vo 8
chine@@ 8
,@@ 8
kostet 8
moose 8
ple@@ 8
nel 8
ffi@@ 8
kimono 8
aer@@ 8
hs 8
volksfest 8
cel@@ 8
mädchen@@ 8
va 8
tattoo-künstler 8
louvre 8
elektri@@ 8
untergrundbahn 8
again 8
signal 8
athlet 8
wettkampf@@ 8
rit@@ 8
corn@@ 8
tau@@ 8
stau@@ 8
zweige 8
samurai 8
acce@@ 8
penn 8
sportbekleidung 8
schnitzen 8
eds 8
manövriert 8
radfahrerin 8
mustang 8
geküsst 8
needle 8
pl@@ 8
poker 8
real 8
change 8
ia 8
13 8
key@@ 8
kne@@ 8
cop@@ 8
khakihosen 8
part@@ 8
patron 8
38 8
leotards 8
boo@@ 8
footballteam 8
baseballwerfer 8
orioles 8
fum@@ 8
veteran 8
inline@@ 8
defen@@ 8
63 8
jetski 8
jour@@ 8
hou@@ 8
minnesota 8
iowa 8
rodgers 8
sun-@@ 8
inten@@ 8
kee@@ 8
experi@@ 8
hollister 8
fiel@@ 8
ppers 8
oakland 8
kopf-@@ 8
ey 8
kicker 8
physi@@ 8
amaran 8
lebron 8
james 8
colum@@ 8
powerpoint 8
badminton@@ 8
enthusiast 8
extreme 8
ets 8
roadway 8
know 8
trained 8
packing 8
weird 8
propane 8
villagers 8
youths 8
directly 8
smoothing 8
solitary 8
footbridge 8
communicating 8
brochure 8
pancake 8
extremely 8
firetrucks 8
flour 8
weathered 8
dozens 8
burgers 8
reddish 8
four@@ 8
automobile 8
driven 8
pretending 8
removing 8
structures 8
stools 8
constructing 8
headbands 8
speedo 8
seeds 8
aters 8
jewelery 8
seaweed 8
pig 8
paintbrush 8
grins 8
chop@@ 8
tip 8
ies 8
apparel 8
early 8
cul@@ 8
retail 8
begging 8
crab 8
piggyback 8
cream@@ 8
lip 8
weeds 8
mea@@ 8
sucking 8
someones 8
hips 8
statues 8
circu@@ 8
cting 8
stirs 8
orders 8
straps 8
buoy 8
unseen 8
arid 8
tightly 8
ther 8
cartoon 8
turtle 8
atten@@ 8
bookstore 8
headscarves 8
rode 8
spear 8
peeks 8
stationary 8
wades 8
crib 8
earmuffs 8
plowing 8
formed 8
val 8
overhang 8
terrace 8
videotaping 8
youngsters 8
flea 8
less 8
graduation 8
trombone 8
megaphone 8
substance 8
intri@@ 8
cate 8
tasting 8
waring 8
drops 8
lemons 8
salad 8
inflated 8
gated 8
picker 8
yo-yo 8
whispering 8
oxen 8
word 8
mesh 8
strikes 8
emerging 8
ladders 8
charcoal 8
dolphin 8
sculpting 8
liberty 8
loose 8
pastries 8
pant 8
fati@@ 8
gues 8
mechanic 8
exciting 8
siting 8
comp@@ 8
ries 8
vast 8
powder 8
submerged 8
beat 8
gyp@@ 8
sniffs 8
readying 8
tattered 8
cause 8
bringing 8
peeling 8
participants 8
passionately 8
bush@@ 8
soldering 8
lear@@ 8
weave 8
instructor 8
rabbit 8
rocking 8
technique 8
curious 8
owners 8
dirt-@@ 8
gle@@ 8
sunhat 8
avoid 8
likely 8
exposed 8
occurring 8
controls 8
vering 8
pregnant 8
advent@@ 8
cleaned 8
shields 8
cent 8
cycles 8
floppy 8
mailbox 8
litter 8
strip 8
lid 8
thinking 8
seagull 8
spi@@ 8
overturned 8
messenger 8
potted 8
despite 8
think 8
ures 8
freshly 8
such 8
delicious 8
pressure 8
wrapping 8
glan@@ 8
mountainside 8
hopscotch 8
archite@@ 8
typical 8
galloping 8
topic 8
imp@@ 8
rear 8
mustached 8
hikes 8
blue-green 8
playpen 8
cinder 8
photography 8
basement 8
winning 8
cabin 8
roping 8
retrieving 8
lifeguards 8
stay 8
cupcake 8
piled 8
snowing 8
bridal 8
crayon 8
tery 8
studies 8
slot 8
hauling 8
ature 8
supervi@@ 8
layers 8
technology 8
swampy 8
actively 8
paws 8
breaking 8
chickens 8
leafless 8
scratching 8
organizing 8
metallic 8
ice-@@ 8
spikes 8
helmeted 8
sloping 8
ssy 8
greeting 8
circ@@ 8
selecting 8
sight 8
sculptor 8
chiseling 8
ass@@ 8
twirling 8
overcoat 8
tosses 8
plucking 8
guitarists 8
accepting 8
long-@@ 8
aerial 8
speakers 8
media 8
casts 8
bats 8
ight 8
wicker 8
prizes 8
jazz 8
basketballs 8
beards 8
saddle 8
bowler 8
poverty 8
tiles 8
coca-cola 8
stocking 8
half@@ 8
organ 8
brea@@ 8
bathrobe 8
spiked 8
bracelet 8
known 8
ately 8
sunrise 8
adorable 8
shit 8
alike 8
convertible 8
snorkel 8
squares 8
remote 8
chested 8
lonely 8
pokes 8
streetlight 8
bungee 8
cords 8
once 8
weighing 8
tightrope 8
stacking 8
came 8
projected 8
western 8
washed 8
viewer 8
engage 8
oklahoma 8
ref 8
floored 8
dribbling 8
banging 8
markings 8
peach 8
lap@@ 8
arabic 8
sweaty 8
craftsman 8
impressive 8
crutches 8
used 8
africa 8
oversized 8
comb 8
vacation 8
tram 8
currently 8
shoots 8
outs 8
noodles 8
ery 8
scrap 8
carpeted 8
roses 8
dolly 8
demonstrating 8
slip 8
railway 8
siding 8
inspect@@ 8
drop 8
lic 8
calling 8
powered 8
loco@@ 8
shapes 8
ying 8
aircraft 8
hooping 8
lled 8
kayaker 8
descend 8
flatbed 8
twelve 8
cou@@ 8
button-down 8
helped 8
sandal 8
unidentified 8
closer 8
surround 8
zing 8
except 8
taught 8
sleeve 8
mechanical 8
plea@@ 8
purchasing 8
fetching 8
med 8
snake 8
kayakers 8
foundation 8
one-@@ 8
milk 8
over-sized 8
break@@ 8
blan@@ 8
daughters 8
competes 8
build 8
wool 8
texts 8
ridding 8
beyond 8
warning 8
participates 8
sheepdog 8
seniors 8
decide 8
via 8
kiddie 8
wraps 8
workbench 8
areas 8
fluorescent 8
steer 8
sashes 8
stairwell 8
scottish 8
eatery 8
county 8
surroundings 8
sip 8
celebrates 8
boulders 8
pirates 8
note 8
dramatically 8
poised 8
strawberry 8
owner 8
enjo@@ 8
paintings 8
attraction 8
patrol 8
file 8
colli@@ 8
kitten 8
jar 8
coconuts 8
bronze 8
scared 8
landed 8
alcohol 8
thy 8
chews 8
skimpy 8
spandex 8
caution 8
ramps 8
promoting 8
blade 8
diners 8
frustrated 8
wipes 8
ping-pong 8
rea@@ 8
cubicle 8
muzzles 8
pictured 8
tuning 8
quick 8
tackles 8
storage 8
dding 8
forces 8
nat@@ 8
collection 8
deci@@ 8
shing 8
black-@@ 8
goers 8
electronics 8
artificial 8
temporary 8
dunes 8
gued 8
swi@@ 8
receive 8
keeping 8
fourth 8
tagged 8
fed 8
letters 8
puffy 8
defenders 8
sumo 8
sprinting 8
gling 8
contemplating 8
guarding 8
created 8
firing 8
violinist 8
wetsuits 8
bag@@ 8
sco@@ 8
hawk 8
able 8
mind 8
cruise 8
loo@@ 8
maneuver 8
seashore 8
itted 8
ical 8
open-air 8
receives 8
stockings 8
hilly 8
returning 8
rec@@ 8
frames 8
itude 8
civil 8
shave 8
motorboat 8
era 8
intense 8
sorts 8
cemetery 8
cles 8
sunbathers 8
cookie 8
exits 8
quaint 8
yellow-@@ 8
brimmed 8
lock 8
professionals 8
mmed 8
unpaved 8
marks 8
-down 8
fighter 8
joggers 8
extended 8
cables 8
old-fashioned 8
prints 8
ingly 8
spin 8
else 8
soil 8
wigs 8
gymnastic 8
chubby 8
runway 8
law 8
enforcement 8
disk 8
mermaid 8
unpacking 8
octopus 8
troops 8
enthusiastically 8
polish 8
slab 8
mac 8
preparation 8
stalks 8
slender 8
padding 8
write 8
tap 8
incoming 8
fashionable 8
rabbits 8
hidden 8
clim@@ 8
decora@@ 8
fine 8
ines 8
scale 8
asking 8
thought 8
ong 8
holiday 8
postal 8
concentra@@ 8
torn 8
wns 8
swimwear 8
balconies 8
taller 8
similarly 8
graphic 8
parasol 8
spectate 8
thers 8
slices 8
magi@@ 8
bookbag 8
coveralls 8
rous 8
pillars 8
trims 8
drainage 8
rounds 8
possession 8
scoop 8
trie@@ 6
bs@@ 6
ausgestopften 6
angebunden 6
gangen 6
ehemann 6
picknicktischen 6
ek@@ 6
won@@ 6
do-@@ 6
sprungtritt 6
propan@@ 6
gasgrill 6
nische 6
stückchen 6
sender 6
gefrorene 6
ignoriert 6
haupt@@ 6
reklame@@ 6
duckt 6
senkrecht 6
glättet 6
hnen 6
schlauchbooten 6
ßi@@ 6
stamms 6
smat@@ 6
telef@@ 6
kommuniziert 6
walkie-talkie 6
restauranttisch 6
rä@@ 6
ungsk@@ 6
lösch@@ 6
latzhose 6
lehr@@ 6
reibt 6
pflege@@ 6
zünden 6
seifen@@ 6
dutzende 6
krab@@ 6
feuers 6
lichten 6
käfer 6
zehn 6
es@@ 6
stischen 6
kanister 6
wassernähe 6
blüten@@ 6
radfahrzeug 6
umgekippten 6
sticht 6
küssen@@ 6
teamkollegen 6
gesichts@@ 6
seilspielzeug 6
altmodische 6
glatten 6
atem 6
viel@@ 6
zusammenkunft 6
diet 6
gebunden 6
wartungsarbeiten 6
schutzweste 6
ak@@ 6
ilt 6
mehrfarbigem 6
betten 6
gü@@ 6
waggon 6
zerklein@@ 6
hochzuheben 6
shish 6
zweigen 6
komplex 6
platz@@ 6
laderampe 6
dinosaurier 6
prinzess@@ 6
sichert 6
stellte 6
wur@@ 6
kapuzenjacke 6
athleten 6
leitungen 6
schten 6
breit 6
giert 6
kappen 6
schräg 6
oran@@ 6
zwanzig 6
mehrerer 6
schildkappe 6
teur@@ 6
leisten 6
chteten 6
krabbe 6
drachen@@ 6
hochzeitstag 6
glä@@ 6
gottesdienst 6
tastatur 6
sonnenschild 6
golfschläger 6
kampfsportkleidung 6
vorführen 6
blich 6
progra@@ 6
mahl@@ 6
schotter@@ 6
ghand@@ 6
ffer@@ 6
misch@@ 6
unkraut 6
fensterbank 6
wasserweg 6
weiblicher 6
gart 6
stirn@@ 6
vollge@@ 6
glatz@@ 6
köpfigen 6
plan 6
komplizierten 6
gemäldes 6
schlachtet 6
pferds 6
jahrmarkts@@ 6
käfi@@ 6
ungewöhnlich 6
indian@@ 6
cello@@ 6
aufwärts 6
tene 6
gesenkt 6
mongolian 6
leuchtreklame 6
übergeben 6
impro@@ 6
fass@@ 6
dutzend 6
diger 6
kapuzenteil 6
miniatur@@ 6
unt 6
arbeitsplatte 6
bestellung 6
militärangehöriger 6
sle@@ 6
gerissenen 6
radweg 6
fensters 6
version 6
tchen 6
hunderennen 6
schwimmanzug 6
bake 6
vierb@@ 6
nerin 6
boje 6
schwamm 6
bärtigen 6
egt 6
stüte 6
verletzte 6
ungslos 6
hawaii-hemd 6
wakeboards 6
darum 6
gewinnt 6
schultertasche 6
sturm@@ 6
gieren 6
sz@@ 6
famous 6
flache 6
kürbisfeld 6
wasserpfütze 6
heraush@@ 6
ängt 6
schicken 6
sorten 6
ziegelstraße 6
abfälle 6
apo@@ 6
pfer 6
knall@@ 6
trägern 6
baumgruppe 6
sperren 6
kletter@@ 6
gerü@@ 6
erklettert 6
schwert@@ 6
einfach 6
flachem 6
angeleint 6
kippt 6
gateway 6
mierter 6
durcheinander 6
klettergurt 6
frig 6
hr 6
beginn@@ 6
farbspritzern 6
absperr@@ 6
begleit@@ 6
bildet 6
spitzbart 6
spannen 6
kuscheln 6
gekreuzten 6
zitronen@@ 6
gradu@@ 6
stellungen 6
parkettboden 6
blumentopf 6
terin 6
für@@ 6
arkade 6
dj@@ 6
gewalt 6
brut@@ 6
aufnehmen 6
acker@@ 6
drahtseil 6
bass@@ 6
komischen 6
megafon 6
zige 6
ethnischer 6
tropfen 6
gemüsemarkt 6
pappkarton 6
schafft 6
substanz 6
lampen@@ 6
sportteam 6
kommen@@ 6
apfel@@ 6
kontrolliert 6
jogginganzug 6
spre@@ 6
koffer@@ 6
mitarbeiterin 6
angler 6
außenwand 6
feuerwehrangehöri@@ 6
traktor@@ 6
greifer 6
herauszufinden 6
baseballplatz 6
trockner 6
lehm@@ 6
urbanen 6
seh@@ 6
fassen 6
plüsch-@@ 6
chevrolet 6
gebackenen 6
zäunte 6
jack-@@ 6
stheke 6
reparatur 6
vermähltes 6
eidech@@ 6
lacki@@ 6
schuhputzer 6
shosen 6
archäolo@@ 6
gischen 6
saiteninstrumente 6
dreiräder 6
fün@@ 6
stoffen 6
wasserpistole 6
verzerrtes 6
skistöcken 6
wildwasser@@ 6
überführung 6
surfboarder 6
verläuft 6
ations@@ 6
erkundet 6
sushi 6
ppt 6
kommunizieren 6
street@@ 6
bergab 6
fliegen@@ 6
klötzen 6
lig 6
getupften 6
angst 6
auen 6
stramm 6
metallstück 6
schmiede@@ 6
goldfarbener 6
wandtafel 6
bewölktem 6
wechs@@ 6
matschigen 6
arbeitshand@@ 6
werkzeuggürtel 6
aufregen@@ 6
gemein@@ 6
cells 6
dünner 6
zwickt 6
blasinstrumente 6
fragen 6
gefährt 6
mountain@@ 6
gescho@@ 6
twä@@ 6
lotter@@ 6
synchroni@@ 6
kassen@@ 6
astronauten@@ 6
soldaten@@ 6
plastikrutsche 6
riesiges 6
training@@ 6
lineal 6
eingepacktes 6
malerische 6
rums 6
türkis 6
müssen 6
antw@@ 6
cowboystiefeln 6
mischung 6
weiß-blauen 6
zahnspange 6
gä@@ 6
unken 6
skorb 6
still@@ 6
holzkohlegrill 6
mittl@@ 6
takt 6
slow 6
hochspringen 6
schokoladen@@ 6
wunderkerze 6
dj-@@ 6
zigeuner@@ 6
frankreich 6
eingebo@@ 6
pflücken 6
förmlichen 6
anlass 6
gemusterte 6
teppiche 6
rennautos 6
rockt 6
kt@@ 6
spira@@ 6
zweck 6
wartebereich 6
raft@@ 6
skijacke 6
bohrer 6
mosaik 6
gewun@@ 6
spielzeugzug 6
amp@@ 6
lebha@@ 6
staubsaugerschlauch 6
reflektierender 6
behinderte 6
offen 6
immigration 6
bierflaschen 6
feuern 6
gastronomie@@ 6
bittet 6
halloween-kostümen 6
gerei@@ 6
rasier@@ 6
renoviert 6
kaukasischer 6
fö@@ 6
hn 6
angelein@@ 6
voneinander 6
ausgelassen 6
pirat 6
hnen@@ 6
präsentieren 6
linge 6
stahl 6
schnau@@ 6
kampfsportt@@ 6
unterlage 6
eingeschal@@ 6
plastiktüten 6
bergpfad 6
wissenschaftlichen 6
buddelt 6
bestehenden 6
geschminkte 6
ausführt 6
prozession 6
sitze 6
abenteuer@@ 6
gall@@ 6
mick@@ 6
gebückt 6
afroamerikanischen 6
würfel 6
halstü@@ 6
fallen@@ 6
versetzt 6
opf 6
marktstraße 6
kugeln 6
ry-@@ 6
meine 6
spir@@ 6
clipboard 6
ros@@ 6
gemuster@@ 6
inne 6
lux@@ 6
houston 6
gelassenen 6
sperrt 6
wirk@@ 6
grundstück 6
sinn 6
prunkvollen 6
herbsttag 6
rasierer 6
frau@@ 6
henna-tattoo 6
schnor@@ 6
ffe@@ 6
son@@ 6
felsformationen 6
seilt 6
bewachen 6
beugen 6
heimwerker@@ 6
fes 6
aschenbahn 6
handvoll 6
holz-@@ 6
incredible 6
fallschirmspringer 6
erfahrener 6
wohngegend 6
unterschied@@ 6
lichtung 6
zäun@@ 6
gemeinde 6
städ@@ 6
sommer 6
itäten 6
verwahrlo@@ 6
könn@@ 6
touristengruppe 6
bene 6
gesä@@ 6
steig 6
schutthaufen 6
tarnmuster 6
u-bahn-wagen 6
bikini-unterteil 6
sport-bh 6
chten@@ 6
cheln 6
astro@@ 6
gierig 6
stlichen 6
steh@@ 6
lupe 6
identisch 6
ät 6
ett 6
blutdruck 6
blau-rosa 6
stützen 6
essensverkäufer 6
rennhunde 6
verkehrsreichen 6
wanderern 6
hängegleiter 6
tages@@ 6
auswirft 6
geometrischen 6
ostasiati@@ 6
ausgelegt 6
angeschnallt 6
hingesetzt 6
sessen 6
kochkleidung 6
pelz@@ 6
galoppiert 6
schneewehe 6
hintere 6
burgunder@@ 6
waldhorn 6
beschädigtes 6
schmutzigem 6
sattelzug 6
pst 6
selbst@@ 6
kaltes 6
lebensmittelverkäufer 6
foyer 6
buden 6
formellen 6
bespritzen 6
saiten 6
front@@ 6
friseursalon 6
wanderstöcke 6
fairway 6
nägel 6
elten 6
richtern 6
jalou@@ 6
krokodil@@ 6
schleier 6
verdre@@ 6
verschmi@@ 6
regalen 6
torwart 6
jer@@ 6
größer 6
seitenstraße 6
betreut 6
freun@@ 6
knu@@ 6
weihnachtsmann@@ 6
bustier 6
akustischen 6
walmart-@@ 6
veranstaltungsort 6
zapfen 6
abzeichen 6
meister 6
weihnachtszeit 6
neues 6
fässern 6
suppe 6
pokemon 6
bracht 6
tauscht 6
speist 6
zuschau@@ 6
trock@@ 6
tote 6
latex@@ 6
kiesweg 6
rads 6
gänse@@ 6
blüm@@ 6
bären 6
erhebung 6
danach 6
ssiert 6
verletzten 6
gekauft 6
schlepper 6
verrichtet 6
rot-weißer 6
biergläsern 6
und-@@ 6
ähn@@ 6
gelän@@ 6
medizinisches 6
hochgelegten 6
schwul@@ 6
ausgestopfte 6
seht 6
bahnarbeiter 6
kontrollieren 6
aufgesetzten 6
stillt 6
way-@@ 6
grau-weiße 6
schwestern 6
kabin@@ 6
beamter 6
spfad 6
usa-@@ 6
einstie@@ 6
metallob@@ 6
fast@@ 6
holzgebäude 6
ca 6
dorf@@ 6
dent@@ 6
stadtbild 6
drein 6
angekettet 6
segel 6
teppichen 6
weiß-grauen 6
passender 6
telefon@@ 6
rikscha@@ 6
gasmaske 6
eingangshalle 6
tennisspiel 6
flugzeug@@ 6
damen@@ 6
laufkleidung 6
gne 6
verloren 6
geschnitzte 6
wieder@@ 6
desserts 6
landes 6
sicht@@ 6
mädchen-@@ 6
drängt 6
karneval 6
pal@@ 6
europäisches 6
tze 6
zufahrt 6
komplizi@@ 6
handgelenk 6
gesichtsmasken 6
geduckter 6
erisch 6
winterjacken 6
flucht 6
basteln 6
hübsches 6
leitung 6
oi@@ 6
campern 6
förmige 6
blei@@ 6
liefer@@ 6
outdoor-veranstaltung 6
auszuruhen 6
geöffne@@ 6
handgelen@@ 6
bukett 6
fußballtrikots 6
übereinander 6
geschlagenen 6
orange-weiß 6
schwerem 6
entdeckt 6
kurzhaariger 6
steigung 6
metalli@@ 6
wasserfalls 6
musikstück 6
haarsalon 6
fähre 6
kill 6
handtüchern 6
gebäck 6
cool@@ 6
ssel 6
fäuste 6
korbstuhl 6
verstreut 6
preise 6
rummel 6
schenden 6
amerika 6
glücklichen 6
druck 6
pau@@ 6
t. 6
ausgefallen@@ 6
hellem 6
gewächshaus 6
reklame 6
hörnern 6
rötlichen 6
überfüll@@ 6
bowlingspieler 6
monitore 6
schlitten@@ 6
bastel@@ 6
halbwilden 6
sw@@ 6
gartenwerkzeug 6
bock@@ 6
bootsanlegestelle 6
sky-@@ 6
wohl 6
langärmeli@@ 6
lego@@ 6
klar@@ 6
plastikstuhl 6
neu 6
steck 6
stachel@@ 6
freiluftkonzert 6
zäh@@ 6
galerie 6
fußgängerüber@@ 6
zz@@ 6
lum@@ 6
biente 6
ischer 6
vogelschwarm 6
bleckt 6
angegriffen 6
liebe 6
backwaren 6
dalmatiner 6
kniestrümpfen 6
fußballnetz 6
dasselbe 6
eisenbahn 6
mr. 6
parkweg 6
filmset 6
gelenkt 6
erör@@ 6
grau-weißer 6
baseballs 6
ingham 6
bedeck@@ 6
doppel@@ 6
einander@@ 6
qual@@ 6
durchnä@@ 6
empfan@@ 6
kerami@@ 6
marschkapelle 6
buster 6
leichtathlet 6
straßenlaterne 6
wohnwagen 6
bungee-@@ 6
schmerzen 6
hätte 6
brustkorb 6
gehe@@ 6
gerüsten 6
sbehälter 6
gebeugter 6
rotbraunen 6
verheiratete 6
proji@@ 6
rollkragenpullover 6
senffarbenen 6
backstein@@ 6
niedliches 6
ziegen@@ 6
drachenkostüm 6
flieger@@ 6
rastet 6
baumbestand@@ 6
weges 6
klammert 6
positi@@ 6
nut@@ 6
sportgeschäft 6
scrabble 6
häuser@@ 6
kristall@@ 6
erwachsen@@ 6
beschäf@@ 6
sooners-@@ 6
attackieren 6
angriffs@@ 6
violett-@@ 6
football-mannschaften 6
28@@ 6
vortragssaal 6
sängern 6
glätten 6
oldtimer-@@ 6
cabri@@ 6
ckigen 6
albert 6
sieb 6
pulli 6
redend 6
mten 6
ders@@ 6
span@@ 6
übergewichtige 6
arabi@@ 6
pods 6
synchron 6
karussel 6
gebundenen 6
ita@@ 6
picknickbank 6
verschwit@@ 6
kurzhaarige 6
einhän@@ 6
stutzt 6
ron@@ 6
schafts@@ 6
hö@@ 6
sprintet 6
samen 6
gehörschutz 6
bezeichnet 6
passant 6
ähnlicher 6
barriere 6
frisbees 6
maler@@ 6
mann-@@ 6
é 6
breites 6
-konzert 6
schlammgrube 6
dick@@ 6
reißen 6
kapit@@ 6
stad@@ 6
basketballwurf 6
allen 6
lam@@ 6
wörter 6
verkaufs@@ 6
aufgehängt 6
übergroßen 6
custody 6
hintern 6
gespon@@ 6
schalen 6
posen 6
kissen@@ 6
tulpen 6
dehnt 6
gebeug@@ 6
kleinem 6
stum@@ 6
rodeo-arena 6
durcht@@ 6
gokart 6
vorbeilaufen 6
gestrichenen 6
lebhaft 6
putz@@ 6
drag@@ 6
hinterrad 6
gummi 6
örtlicher 6
95@@ 6
restauran@@ 6
blau-braunen 6
testen 6
mündern 6
itti 6
laut 6
anleitung 6
verrückter 6
vorm 6
brennt 6
buck@@ 6
gesellschafts@@ 6
sporthose 6
sste 6
gruppenbild 6
frühling@@ 6
unechten 6
schigen 6
rundherum 6
berufskleidung 6
beri@@ 6
handgerät 6
industri@@ 6
transportwagen 6
mauern 6
gemü@@ 6
bandkollegen 6
burn 6
beigefarbener 6
ter-@@ 6
kitt@@ 6
betriebenen 6
größ@@ 6
straßenbahn 6
cup@@ 6
ke-@@ 6
roo@@ 6
arr@@ 6
wunderkerzen 6
ssa@@ 6
mauer@@ 6
abgeschnittenen 6
gegrill@@ 6
hinunterzu@@ 6
ästen 6
jogginghose 6
pn@@ 6
landwir@@ 6
gurt@@ 6
schwimmflügel 6
spanien 6
arra@@ 6
porträts 6
schwitzt 6
pingu@@ 6
heiten 6
kongre@@ 6
ra 6
alphabe@@ 6
bücherei 6
fleck 6
kaffeetisch 6
hellblauem 6
werbeanzeige 6
möbel 6
statt@@ 6
haup@@ 6
button-down@@ 6
schü@@ 6
tanzenden 6
-geschäft 6
pfer@@ 6
sandale 6
vern 6
gartenstühlen 6
früchten 6
identifi@@ 6
fort@@ 6
kran@@ 6
kleinerer 6
latten@@ 6
kler 6
bon 6
trü@@ 6
vorschlaghammer 6
klo@@ 6
bauarbeiterhelm 6
energi@@ 6
hasenohren 6
aben@@ 6
brocken 6
eiswagens 6
trauzeugen 6
verwendung 6
spektakulären 6
stethoskop 6
geldbörsen 6
reh 6
gung 6
mechanischen 6
geeig@@ 6
bearbeitung 6
shi@@ 6
onne 6
softballspieler 6
zementmischer 6
gitarrenspieler 6
saft 6
geschir@@ 6
blues 6
orchester@@ 6
unterstützung 6
wildblumen 6
betreibt 6
kreuzen 6
ausstreckt 6
enes 6
trit@@ 6
mittelstreifen 6
denden 6
shü@@ 6
flyer 6
wü@@ 6
kekse 6
artig 6
mil@@ 6
größerer 6
funden 6
fahrersitz 6
industriegebäude 6
cket 6
steinweg 6
beat@@ 6
feuerwerksk@@ 6
örper 6
mole 6
winkel@@ 6
bull-@@ 6
zahlreichen 6
gewaschen 6
schaufenster@@ 6
weiter@@ 6
spanische 6
modischen 6
magazin 6
ehe@@ 6
vw 6
bären@@ 6
umgibt 6
hindernisse 6
ziegel-@@ 6
stände 6
nu@@ 6
ckel 6
bänder 6
schreib@@ 6
priv@@ 6
muskeln 6
pavillon 6
gefähr@@ 6
schreitet 6
gemeinsame 6
isi@@ 6
fordert 6
ppel@@ 6
aufgereg@@ 6
ür@@ 6
nieder@@ 6
art@@ 6
äpfeln 6
gebiets 6
mengen 6
teammitglied 6
sprit@@ 6
wasserpistolen 6
brasili@@ 6
kaufhaus@@ 6
sch-@@ 6
abzufangen 6
om@@ 6
entscheiden 6
sonnendurchfluteten 6
zerren 6
seahawks 6
weinglas 6
bereichs 6
verwirr@@ 6
ien@@ 6
mittags@@ 6
aktivitäten 6
metallgeländer 6
vera@@ 6
säubern 6
orange-weißen 6
besteigen 6
dichten 6
herausragen 6
vollständig 6
angemalt 6
bürogebäude 6
traurigen 6
sonn@@ 6
tag@@ 6
straßenstand 6
nahost 6
auftreten 6
wühlt 6
lenkrad 6
tiger@@ 6
beleibter 6
spielgerät 6
getaucht 6
irokesenfrisur 6
übers 6
deutlich 6
rechen 6
getraut 6
mexi@@ 6
kaugummi@@ 6
puppen@@ 6
konstruktionen 6
dienst@@ 6
schwimmbrillen 6
spen@@ 6
det 6
kassi@@ 6
bildschirme 6
grundschulkinder 6
arten 6
schluck 6
zeugen 6
wie@@ 6
couchtisch 6
picknickdecke 6
zung 6
breitet 6
dachshund 6
hängenden 6
werdender 6
mais 6
diashow 6
seilrutsche 6
schulter@@ 6
ringträger 6
knöpften 6
tarnhose 6
religiösen 6
aufklebern 6
stabhoch@@ 6
piraten 6
cheese@@ 6
notiz 6
bagg@@ 6
marshmal@@ 6
lows 6
-gruppe 6
nachrichten@@ 6
festlichen 6
spritzwasser 6
gewandt 6
wartungsarbeiter 6
großmutter 6
iner 6
säcke 6
gestapelt 6
seetang 6
jahr@@ 6
freie 6
stop@@ 6
schneebedecktem 6
frie@@ 6
dunkelhäutiges 6
küstenlinie 6
dün@@ 6
netzes 6
mana@@ 6
wun@@ 6
styropor@@ 6
sno@@ 6
schwimmbeckens 6
nacht@@ 6
meditiert 6
zahlen 6
imbissstand 6
bende 6
interessantes 6
regenstiefeln 6
schlammpfütze 6
stripe@@ 6
nied@@ 6
farblich 6
stimm@@ 6
bauarbeitern 6
startet 6
kies@@ 6
sack@@ 6
alien 6
ndes 6
fond 6
sar@@ 6
jahr 6
blass@@ 6
kokosnüsse 6
außergewöhn@@ 6
off-@@ 6
perfe@@ 6
fron@@ 6
scharfe 6
lesend 6
abo@@ 6
bronze@@ 6
heiß@@ 6
grindet 6
landebahn 6
gelandet 6
musiker@@ 6
bh 6
eiscrem 6
butterbrot 6
anschneiden 6
etes 6
rose 6
küchenboden 6
kani@@ 6
elast@@ 6
zeigefinger 6
wanderin 6
scheren 6
roller-@@ 6
weicht 6
stoppen 6
mitgliedern 6
beige-@@ 6
pinkfarbenes 6
ßig 6
entschlo@@ 6
fahrgäste 6
mikrosk@@ 6
abschleppwagen 6
ktisch 6
augenbrau@@ 6
schulkindern 6
softballspiel 6
topf@@ 6
cktem 6
volunteer 6
rugby-spieler 6
silbernes 6
herunterzu@@ 6
sturm 6
eishockey@@ 6
drängeln 6
handge@@ 6
blasinstrument 6
passer 6
dreie@@ 6
abgestimmten 6
feldern 6
doppeldecker@@ 6
mente 6
radfahr@@ 6
handgriff 6
abzunehmen 6
basketball-@@ 6
trauriges 6
getrock@@ 6
handbewegungen 6
durchschnitt@@ 6
geburtstagsfeier 6
aggressi@@ 6
pieren 6
fußballspiels 6
entlangfahren 6
uta@@ 6
schwarzhaarigen 6
ausgefransten 6
gruppen@@ 6
offen@@ 6
defense 6
heim 6
wen@@ 6
architek@@ 6
kontra@@ 6
matrosen@@ 6
hinterbeine 6
harkt 6
tollt 6
kürbi@@ 6
blau-weißer 6
schreibtischen 6
f-@@ 6
nonne 6
proben 6
dos 6
ansichten 6
geback@@ 6
panora@@ 6
lederkleidung 6
lebens 6
schubsen 6
wollen 6
streitkräfte 6
auszuziehen 6
monstertruck 6
krankenwagen 6
einzigartigen 6
eni@@ 6
val@@ 6
wäsche@@ 6
vordere 6
cricket@@ 6
drü@@ 6
sprungwurf 6
öffentlicher 6
gelb-blauen 6
woll@@ 6
fäustlingen 6
braun-weißem 6
post-@@ 6
samsung 6
gere@@ 6
anst@@ 6
ßigen 6
formi@@ 6
zopf 6
gtes 6
festum@@ 6
stung 6
treppenhauses 6
qualmt 6
hoben 6
bien@@ 6
seesack 6
gelo@@ 6
bumm@@ 6
laternen@@ 6
theater-@@ 6
trübes 6
spit@@ 6
-fahrer 6
kundschaft 6
eierkuchen 6
korbleger 6
weiten 6
brüstung 6
darstellt 6
toren 6
laken 6
papiertüte 6
pizz@@ 6
feucht@@ 6
mant@@ 6
glasur 6
kennen 6
vader 6
äh@@ 6
komp@@ 6
rosen@@ 6
arabischer 6
kamele 6
grou@@ 6
gleicher 6
tho@@ 6
stofftiere 6
ganze 6
breakdancer 6
snowboard@@ 6
spazierstöcken 6
schneeflo@@ 6
gefüttert 6
disne@@ 6
bedruckt 6
spannt 6
motorisierten 6
kawasaki 6
tonstudio 6
fügt 6
zusammengefunden 6
protestkundgebung 6
patientin 6
stroboskop@@ 6
got@@ 6
änzerin 6
täu@@ 6
strö@@ 6
blond@@ 6
steindenkmal 6
uft 6
unterlagen 6
hochdruck@@ 6
vol@@ 6
heran 6
feuerwehrfahrzeug 6
holzfäl@@ 6
überreicht 6
leert 6
weizen 6
koff@@ 6
geblockt 6
henden 6
gebäudeeingang 6
nadelstreifenanzug 6
ants 6
stor@@ 6
besetzte 6
teppichboden 6
altar 6
verteidigt 6
puma 6
tätowiert 6
gruppenfoto 6
weiß-roten 6
zeige 6
zum@@ 6
künstlern 6
hörnchen 6
dunkelhaarigen 6
piñata 6
kennzeichnung 6
transportmittel 6
fechter 6
basketbälle 6
transpor@@ 6
stemmt 6
llen 6
zielen 6
neoprenanzügen 6
boogie@@ 6
empfang@@ 6
bunt@@ 6
erkunden 6
speise@@ 6
sumpfgebiet 6
sque 6
esswaren 6
riss 6
klebt 6
hunderte 6
burka 6
kreuzfahrtschiff 6
trö@@ 6
modisch 6
eingerahmte 6
hübscher 6
ballet@@ 6
ckchen 6
blumendruck 6
mittelalterlichen 6
moschee 6
aufnahmestudio 6
diert 6
whatever 6
errichtet 6
gedruckt 6
gleichauf 6
gewich@@ 6
presst 6
radrenn@@ 6
französischen 6
que@@ 6
wochenmarkt 6
außentreppe 6
bummeln 6
schottenrock 6
viert 6
ligen 6
roh@@ 6
hügeligen 6
zusammenger@@ 6
ollt 6
rollschuhen 6
fallschirmen 6
wood@@ 6
schleudert 6
anbietet 6
hochstart 6
hockeymannschaften 6
schulband 6
braunhaarigen 6
ensemble 6
löff@@ 6
morgen@@ 6
ennbahn 6
sig@@ 6
karne@@ 6
vals 6
softballspiels 6
smokings 6
krö@@ 6
stacheligen 6
ling@@ 6
tunika 6
sanddünen 6
athle@@ 6
dudelsack@@ 6
train@@ 6
interessierten 6
choreograph@@ 6
konkurri@@ 6
problem 6
wäl@@ 6
beisammensein 6
fotoshooting 6
schach@@ 6
schutzanzügen 6
side-@@ 6
holztür 6
busi@@ 6
teter 6
föhnt 6
schuppen 6
pferch 6
kore@@ 6
anische 6
liert 6
mittler@@ 6
dod@@ 6
eisstand 6
hämmert 6
ant@@ 6
gin 6
kletterausrüstung 6
bürgersteigs 6
wartenden 6
brau@@ 6
lil@@ 6
plattenspieler 6
rollkoffer 6
hausge@@ 6
erste 6
pit@@ 6
str@@ 6
fachkräfte 6
boot@@ 6
artige 6
absätzen 6
ef@@ 6
atem@@ 6
trompeter 6
smittel@@ 6
lten 6
dokumente 6
pferderücken 6
söhne 6
zusammengedrängt 6
kulture@@ 6
verw@@ 6
abschluss@@ 6
pucks 6
kämpf@@ 6
keiten 6
showgirl 6
wäldern 6
rauch@@ 6
rugbyspiel 6
pianist 6
los@@ 6
kräf@@ 6
oberhemden 6
boxkampf 6
rampenlicht 6
anhält 6
champa@@ 6
schützend 6
strümpfen 6
pioneer 6
aussichtspunkt 6
klarem 6
ruder@@ 6
interagiert 6
busine@@ 6
skateboard@@ 6
polospieler 6
felder 6
militäri@@ 6
schwarm 6
geworfenen 6
vervollständigt 6
gew@@ 6
bän@@ 6
flughafens 6
ymca 6
erscheint 6
gemüsestand 6
wasserball 6
skaterin 6
übernimmt 6
bildschirms 6
freundes 6
spla@@ 6
runter@@ 6
straßenschild 6
perücken 6
schlo@@ 6
asphaltstraße 6
bemalte 6
kanadische 6
radsportler 6
bewertet 6
teddybären 6
herde 6
eistüten 6
menten 6
wirtschaftlichen 6
mustern 6
u.s. 6
lons 6
schritte 6
xes 6
paddelboot 6
yo@@ 6
transformer 6
jackson 6
bräunlichen 6
tabak 6
kickbox@@ 6
seichtes 6
ankommenden 6
klub 6
gewehre 6
musikkapelle 6
calvin 6
leur 6
chts 6
abschlag 6
” 6
fut@@ 6
ttern 6
fahrgästen 6
sattel@@ 6
worauf 6
corgi 6
gewebe 6
dragster 6
metallschüssel 6
wan 6
re 6
dahin@@ 6
cks@@ 6
lauschen 6
afrikanerin 6
rou@@ 6
errichten 6
baucht@@ 6
bestimm@@ 6
hölzernes 6
käse@@ 6
hochgescho@@ 6
doku@@ 6
aufgestellten 6
mönche 6
kurzärmeligen 6
sicherheit@@ 6
mikro@@ 6
schnell@@ 6
inderin 6
kundgebung 6
einzut@@ 6
haarnetz 6
mierte 6
vul@@ 6
eseln 6
wanderausrüstung 6
mische 6
zahl@@ 6
schein@@ 6
chens 6
polizeibeamte 6
ärztin 6
diat@@ 6
gummistiefeln 6
fallschirme 6
10@@ 6
geländemaschine 6
steuer@@ 6
bugs 6
irgendwelchen 6
stoffhut 6
anziehen 6
markisen 6
kartoffeln 6
tintenfisch 6
mariachi@@ 6
hecke 6
musi@@ 6
aufgewühl@@ 6
ohrring 6
mittelalterlicher 6
tron 6
schutzbrillen 6
universität 6
sgebäude 6
prahlt 6
maultier 6
anten 6
sonnt 6
gehendes 6
martini 6
förderband 6
räder 6
repor@@ 6
erb@@ 6
schmuck@@ 6
kaukasische 6
aufger@@ 6
megaphon 6
gewänder 6
mikrophonen 6
schilds 6
exper@@ 6
gitarrespieler 6
grafi@@ 6
weiteres 6
bläser 6
mine 6
lichkeiten 6
zugabteil 6
grüßt 6
cocktails 6
25@@ 6
annual 6
designer@@ 6
lli@@ 6
faust 6
loser 6
geparkte 6
eisskulptur 6
wärmen 6
brenner 6
lindgrünen 6
lilafarbenes 6
eig@@ 6
aufgeh@@ 6
ländischer 6
bloßen 6
torte 6
sage 6
schneer@@ 6
straßenkleidung 6
militärischer 6
gefließten 6
dress@@ 6
bring 6
fußballer 6
rasten 6
marathon@@ 6
ändert 6
kör@@ 6
frisches 6
ernten 6
wickel@@ 6
barett 6
reinigung@@ 6
pools 6
ot 6
empanadas 6
elegan@@ 6
ausgeschnittene 6
80@@ 6
region 6
transportieren 6
pum@@ 6
waren@@ 6
hispanoamerikaner 6
geno@@ 6
barbi@@ 6
ssten 6
filmen 6
einkäu@@ 6
gestürzt 6
aufbäu@@ 6
obstkarren 6
gepäckstücken 6
entlan@@ 6
patrick 6
beruhigt 6
fein@@ 6
cker@@ 6
planken 6
rohr@@ 6
schm@@ 6
jury 6
wäh@@ 6
chet 6
basketballplatz 6
jedoch 6
verschieden@@ 6
geschirrspüler 6
hügel@@ 6
fremd@@ 6
ländi@@ 6
gepolsterten 6
waage 6
geblie@@ 6
kniend 6
schlags 6
geschminkter 6
gewor@@ 6
leichtathletik@@ 6
hundeschau 6
96@@ 6
wunderschönes 6
sy-@@ 6
bodies 6
itten 6
hacke 6
troll@@ 6
friedens@@ 6
hür@@ 6
schleppen 6
paddy 6
russi@@ 6
angebot 6
jesus 6
send 6
aufgebaut 6
surf@@ 6
hartholz@@ 6
gesicher@@ 6
hoodies 6
entlangfährt 6
abseits 6
gefäl@@ 6
freiluftveranstaltung 6
heineken 6
kurses 6
indisches 6
kosten@@ 6
unbekannten 6
pompoms 6
kahlköpfigen 6
fußgänger@@ 6
broschüren 6
tent@@ 6
nagellack 6
heal@@ 6
vielzahl 6
akrobat@@ 6
shine 6
central 6
rückt 6
löchern 6
u-bahnhof 6
recycling 6
fire@@ 6
beeindruckende 6
alltag 6
insa@@ 6
oberkörpern 6
temp@@ 6
gemeinsamen 6
gome@@ 6
creme@@ 6
castro 6
blau-schwarzen 6
kino 6
beschmiert 6
gesellschaft 6
leak 6
spirit 6
enkelin 6
hm@@ 6
treff@@ 6
angeschaut 6
ballett 6
musikfestival 6
japaner 6
blech 6
binder 6
bronzestatue 6
tanktops 6
beritt@@ 6
förmiges 6
johns 6
tat@@ 6
geschäftsanzug 6
po 6
mountainbikes 6
ful@@ 6
gangs@@ 6
beleuchtete 6
kaner 6
schüler@@ 6
lot@@ 6
hijab 6
bills 6
aufnimmt 6
straßenlampe 6
freiheitsstatue 6
geländefahrer 6
atlanta 6
kro@@ 6
orange-blauen 6
ok 6
seltsamer 6
militärkleidung 6
kle 6
trennt 6
sil@@ 6
barker 6
kus@@ 6
übersäten 6
ming@@ 6
spitzen@@ 6
wissenschaft@@ 6
operieren 6
cowboyhüten 6
op 6
aufhalten 6
imbiss 6
notiz@@ 6
tierten 6
rotweißen 6
rot-grünen 6
skop 6
cola-@@ 6
dort 6
lauter 6
feuerwehrleuten 6
vorübergeht 6
musli@@ 6
rosarot 6
feinkost@@ 6
stadtteil 6
bühnenauftritt 6
angemalten 6
gas@@ 6
aufgemalt 6
vorüber@@ 6
arri@@ 6
blaugrünem 6
elegant 6
breeze 6
stal@@ 6
flugzeugen 6
memorabil@@ 6
schickt 6
bistro 6
stämmige 6
wendung 6
tsch@@ 6
abgelegt 6
forever 6
ny@@ 6
ahorn@@ 6
back-@@ 6
stadtgebiet 6
actionfoto 6
eiskrem 6
rüstung 6
reißt 6
bikini@@ 6
wohnmobil 6
unüberdachten 6
vieh@@ 6
afro-@@ 6
jacks 6
hellblauer 6
marktes 6
us-armee 6
mmelt 6
menschlichen 6
hintereinander 6
cowboykleidung 6
nachge@@ 6
oh 6
pancakes 6
cand@@ 6
dul@@ 6
meeresfrüchten 6
dit@@ 6
anie 6
spitz 6
nachbarschaftsladen 6
plakate 6
dreckigen 6
ausland 6
zut@@ 6
reno@@ 6
drän@@ 6
cue 6
stiert 6
carol 6
stoppt 6
afro 6
bedru@@ 6
pop@@ 6
ärmelloses 6
lee 6
langärmigen 6
angucken 6
liner 6
fabrikarbeiter 6
chao@@ 6
materi@@ 6
knieschützern 6
fän@@ 6
schiffes 6
gebrä@@ 6
knäuel 6
verkaufstand 6
graffiti-@@ 6
bes 6
tragend 6
irish 6
hat@@ 6
diplo@@ 6
ev@@ 6
nerf 6
jet@@ 6
wee 6
tech 6
schwe@@ 6
hy@@ 6
que 6
w-@@ 6
geräts 6
cyclone 6
management 6
entfernten 6
normal 6
bit@@ 6
stam@@ 6
ap@@ 6
sackt 6
gewicht 6
due 6
fired 6
gesichtsschutz 6
manövrieren 6
lex@@ 6
voice 6
scar 6
inlineskater 6
é@@ 6
rot-gelber 6
baserunner 6
steigenden 6
geo@@ 6
graphy 6
cari@@ 6
becher@@ 6
carca@@ 6
reagenz@@ 6
mulch 6
trikotnummer 6
lavi@@ 6
yankees 6
volleyballspielerin 6
marathonläuferin 6
rund@@ 6
baltimore 6
obern 6
bogen@@ 6
tackeln 6
kampfrichter 6
patties 6
fechtkampf 6
footballs 6
oth@@ 6
fechtwettkampf 6
vikings 6
habe 6
experiments 6
gno@@ 6
weiß-grünen 6
lehn@@ 6
ipad 6
laufbekleidung 6
kickboxer 6
containers 6
horn@@ 6
pfleger 6
herrenfriseur 6
gegnerischer 6
onist 6
rennkleidung 6
löcher 6
angles 6
grizz@@ 6
versenkt 6
verschwommen 6
motorradrennfahrer 6
foberteil 6
ce-@@ 6
bandage 6
töpferware 6
n-@@ 6
an-@@ 6
dampf 6
bassist 6
carol@@ 6
ina 6
flexible 6
squash 6
raw@@ 6
te-@@ 6
schools 6
skiläufer 6
majestä@@ 6
sonnentag 6
entertain@@ 6
pow@@ 6
heat 6
pack@@ 6
of@@ 6
tinker@@ 6
aro@@ 6
alaska 6
pulley 6
playhouse 6
sprinkling 6
jars 6
won 6
shielding 6
travel@@ 6
beans 6
some@@ 6
crouch 6
walkie 6
talkie 6
lounges 6
responding 6
baker 6
squat 6
suds 6
sparks 6
contain@@ 6
positions 6
flambo@@ 6
clasp@@ 6
canister 6
mid@@ 6
blown 6
four-wheeler 6
arrival 6
wrong 6
prevent 6
jugg@@ 6
carpen@@ 6
snows 6
enter 6
smith 6
tells 6
telling 6
collected 6
rs 6
medium-sized 6
awning 6
expensive 6
takeout 6
commuters 6
pers 6
services 6
demonstrates 6
rectangular 6
meals 6
trumpets 6
wn 6
butchering 6
cages 6
unusually 6
sat 6
uphill 6
bowed 6
crashed 6
lls 6
dozen 6
cleats 6
trots 6
alig@@ 6
sock 6
countertop 6
sprinkles 6
season@@ 6
skin 6
sponge 6
animat@@ 6
tends 6
size 6
stone-@@ 6
faced 6
maneuvering 6
footprints 6
napkin 6
loop 6
pumpkins 6
vacuums 6
removes 6
dec@@ 6
cheers 6
battling 6
bordered 6
dumps 6
cious 6
handicapped 6
rig 6
manhole 6
jackhammer 6
slee@@ 6
ripped 6
films 6
satchel 6
mannequins 6
overlooks 6
hard-@@ 6
thread 6
demonstra@@ 6
headgear 6
asc@@ 6
adding 6
hamburgers 6
press 6
mixes 6
ponders 6
claw 6
mirrored 6
oming 6
names 6
leafy 6
woodworking 6
sippy 6
forklift 6
exca@@ 6
archaeolo@@ 6
lakeside 6
elling 6
hula-hoops 6
med@@ 6
ironing 6
canned 6
overpass 6
ashore 6
pedd@@ 6
leaf@@ 6
-covered 6
explores 6
tasks 6
trough 6
sprinkled 6
paw 6
pastry 6
twirls 6
offers 6
addresses 6
graying 6
ere@@ 6
culture 6
gli@@ 6
sks 6
tted 6
lottery 6
astronaut 6
toilets 6
ruler 6
spreads 6
briefs 6
braces 6
mixed 6
director 6
flotation 6
fenced-in 6
vivid 6
layered 6
plugging 6
france 6
attired 6
took 6
tethered 6
turbans 6
streams 6
spiral 6
tricycles 6
distorted 6
lemon 6
mosaic 6
gardens 6
communi@@ 6
cation 6
ope 6
blow-up 6
waited 6
interior 6
amazing 6
dentist 6
procession 6
volunteers 6
grid 6
clams 6
ved 6
airline 6
school-aged 6
pages 6
now 6
itself 6
tug 6
coast@@ 6
elevator 6
wering 6
yawning 6
utensils 6
pairs 6
unison 6
formations 6
brin@@ 6
wling 6
enclosure 6
handful 6
weigh@@ 6
rises 6
livestock 6
paving 6
cano@@ 6
scri@@ 6
jug 6
study 6
expe@@ 6
descends 6
paneled 6
vacant 6
zip 6
skeleton 6
gifts 6
congregating 6
shadowed 6
geometric 6
congregated 6
fold-up 6
raging 6
whose 6
fists 6
crocodile 6
electrical 6
curtain 6
junk 6
reco@@ 6
dimly-lit 6
marsh@@ 6
veil 6
poorly 6
gger 6
pursued 6
warmly 6
ec@@ 6
figur@@ 6
rooster 6
oning 6
adul@@ 6
latex 6
rise 6
bouncy 6
clerk 6
gorgeous 6
assembly 6
lollipop 6
exit 6
bins 6
bagpipe 6
snowbank 6
launches 6
cereal 6
pretends 6
capit@@ 6
awe 6
flood 6
earbuds 6
campaign 6
bead 6
suite 6
flights 6
littered 6
flooded 6
fences 6
painters 6
landsca@@ 6
rainstorm 6
cakes 6
nuts 6
overs@@ 6
llama 6
sunhats 6
applied 6
crotch 6
exposing 6
growing 6
strewn 6
crystal 6
shelter 6
adolescent 6
investi@@ 6
assortment 6
ferry 6
fier 6
sparse 6
knives 6
happ@@ 6
ragged 6
mesmerized 6
seemingly 6
leys 6
remove 6
saxophones 6
equipped 6
baggage 6
featured 6
shelf 6
topped 6
pump 6
grouped 6
robed 6
patiently 6
welds 6
onlooker 6
toss 6
aquatic 6
tain 6
reviewing 6
attend 6
mid-jump 6
banquet 6
freeway 6
screwdriver 6
goof@@ 6
wallet 6
nursing 6
cabinet 6
indians 6
secured 6
dorm 6
heeled 6
depicting 6
blacktop 6
happening 6
boun@@ 6
maid 6
blossoming 6
wn@@ 6
dandeli@@ 6
turtleneck 6
reflections 6
bom@@ 6
marsh 6
xiously 6
scoops 6
better 6
adv@@ 6
bathed 6
infants 6
comm@@ 6
bounce 6
entertains 6
natural 6
arguing 6
ore 6
ditioning 6
geese 6
mustachioed 6
kickboxing 6
rav@@ 6
sprints 6
distri@@ 6
cushion 6
batons 6
mad 6
plains 6
captain 6
treats 6
answers 6
ducking 6
tulips 6
highly 6
rowers 6
tuxedos 6
terior 6
numbered 6
vement 6
knits 6
bounces 6
wea@@ 6
testing 6
polka-dot 6
cord 6
sips 6
needs 6
handlebars 6
drenched 6
violins 6
stants 6
facade 6
hoses 6
electrician 6
chew 6
yet 6
statute 6
sparklers 6
uncompleted 6
profile 6
spain 6
sweating 6
penguin 6
stained 6
bark 6
conven@@ 6
latino 6
dugout 6
cry 6
elbow 6
graduate 6
strumming 6
contains 6
tailed 6
racquet 6
rehearsing 6
whi@@ 6
mopping 6
spectacular 6
recently 6
honor 6
stethoscope 6
heartbeat 6
sipping 6
ctions 6
popping 6
cade 6
greet 6
ligh@@ 6
vation 6
capes 6
needed 6
pruning 6
wildflowers 6
packages 6
limb 6
vision 6
fliers 6
opportunity 6
descri@@ 6
label@@ 6
smirking 6
twirl 6
spilled 6
darkness 6
every 6
squarepants 6
everyone 6
knight 6
kit 6
knee-@@ 6
tie-@@ 6
bug 6
ppled 6
cobbled 6
hurdles 6
might 6
sandpit 6
hatted 6
patches 6
writ@@ 6
noodle 6
vaulting 6
threw 6
effort 6
fier@@ 6
ths 6
captures 6
cameramen 6
trap 6
towering 6
bulls 6
ponytails 6
backhand 6
kly 6
dealer 6
upcoming 6
ceramic 6
tained 6
everywhere 6
content 6
crashes 6
videotapes 6
wrist@@ 6
amused 6
dustpan 6
edi@@ 6
cultural 6
guest 6
shaded 6
brindle 6
audio 6
shading 6
charging 6
shier 6
costumed 6
provide 6
web 6
intimate 6
spreading 6
spiking 6
grounds 6
inner 6
bearer 6
launch 6
ired 6
screams 6
aluminum 6
addressing 6
housing 6
festive 6
grandmother 6
pockets 6
feeds 6
wheeling 6
trips 6
menus 6
entertained 6
anno@@ 6
styrofoam 6
side@@ 6
scu@@ 6
meditating 6
bran@@ 6
twilight 6
somersault 6
paying 6
tches 6
cutout 6
semi-@@ 6
py 6
nibbling 6
sweet 6
marina 6
backpa@@ 6
canes 6
directed 6
government 6
uniquely 6
huddling 6
index 6
tter 6
admires 6
pets 6
briskly 6
sticker 6
cates 6
enthusiastic 6
-shaped 6
collide 6
handmade 6
ctive 6
bicyc@@ 6
streetlights 6
maneuvers 6
spa 6
cran@@ 6
breakfast 6
horse@@ 6
proud 6
dried 6
ecstati@@ 6
foot@@ 6
ditch 6
rushing 6
counters 6
rakes 6
manual 6
quilt 6
lemon@@ 6
certifi@@ 6
skinned 6
entertainment 6
stered 6
master 6
ctic 6
ambulance 6
underway 6
italian 6
informal 6
suited 6
cases 6
dreads 6
outcropping 6
handkerchie@@ 6
friendly 6
sizes 6
don 6
primitive 6
feed 6
duffel 6
bble 6
ng 6
condu@@ 6
secre@@ 6
darkly 6
awaits 6
enters 6
pes 6
sparkler 6
frosting 6
cracks 6
sleds 6
flash@@ 6
disc@@ 6
sleigh 6
ornament 6
holidays 6
sucks 6
bumper 6
strobe 6
ended 6
tle 6
dwelling 6
door@@ 6
wheat 6
contor@@ 6
creative 6
entertaining 6
rescue 6
kettle 6
aim 6
unk 6
skill 6
dresser 6
hundreds 6
outstreached 6
mosque 6
engages 6
gates 6
released 6
flin@@ 6
keeper 6
lassoing 6
beats 6
streaks 6
glit@@ 6
advantage 6
salmon 6
curling 6
gent 6
final 6
dressing 6
protester 6
interested 6
shots 6
bordering 6
hazard 6
mped 6
corral 6
korean 6
fortune 6
navigating 6
partly 6
healthcare 6
chart 6
bouncer 6
staying 6
dering 6
docu@@ 6
coverings 6
scienti@@ 6
period 6
approach 6
mma 6
kneel 6
vice 6
sm 6
solider 6
roller-skating 6
patriotic 6
tum@@ 6
trouble 6
fingertips 6
pitched 6
skillfully 6
breast@@ 6
corridor 6
years 6
adjust 6
forrest 6
pressing 6
explorer 6
dries 6
tobacco 6
upper 6
records 6
selection 6
pture 6
ladle 6
to-@@ 6
-skinned 6
parlor 6
drunk 6
pitches 6
rappelling 6
two-piece 6
arranged 6
emp@@ 6
horse-drawn 6
monks 6
enclosed 6
decals 6
related 6
hairnet 6
stony 6
green-@@ 6
barricades 6
mock 6
smo@@ 6
plo@@ 6
middle-age 6
awnings 6
potatoes 6
mariachi 6
hedge 6
earring 6
representing 6
flashlight 6
air-@@ 6
notice 6
approximately 6
locked 6
fist 6
lives 6
transporting 6
janitor 6
math 6
accompanies 6
pleasant 6
grimacing 6
bout 6
garment 6
pointy 6
barbie 6
proudly 6
waking 6
presses 6
sweep 6
pouting 6
dle 6
cut-out 6
dishwasher 6
beautifully 6
pierced 6
towed 6
boating 6
rods 6
surfboards 6
refreshing 6
brazil 6
hate 6
butt 6
fingernail 6
observed 6
page 6
provi@@ 6
int 6
launching 6
granddaughter 6
attaches 6
extends 6
careful 6
squinting 6
gripping 6
holing 6
shrimp 6
cycle 6
united 6
acro@@ 6
views 6
captured 6
professionally 6
landmark 6
proce@@ 6
winded 6
walker 6
families 6
miniskirt 6
tasty 6
crow@@ 6
scope 6
desolate 6
national 6
brick-paved 6
twigs 6
metropolitan 6
solar 6
planes 6
organized 6
maple 6
enthusiasm 6
ggle 6
focuses 6
tee-shirt 6
schoolgirl 6
moved 6
blonds 6
removed 6
paddlers 6
peaceful 6
tanned 6
0s 6
inc@@ 6
by@@ 6
kissed 6
pace 6
speci@@ 6
vigorously 6
tambourine 6
spits 6
safely 6
referees 6
dunks 6
recliner 6
defends 6
vieler 4
spielhaus 4
puderzucker 4
notenblättern 4
metro@@ 4
reflektierende 4
ausseh@@ 4
ranspor@@ 4
fabrik@@ 4
oliv@@ 4
ping-@@ 4
teichs 4
farbene 4
wall@@ 4
singend 4
weiblich 4
samurai-@@ 4
übun@@ 4
steiniges 4
stahlbalken 4
üche 4
pfannkuchen 4
wet@@ 4
zugwaggons 4
rötlichem 4
wimp@@ 4
mie@@ 4
präzi@@ 4
schneemo@@ 4
spachtel 4
kunft 4
spielzeugs 4
speedo-@@ 4
muslimischer 4
trophäe 4
wender 4
geschrie@@ 4
mädchengruppe 4
partment@@ 4
wart 4
latz@@ 4
piloten@@ 4
gehö@@ 4
mmen 4
weihnachtsli@@ 4
wasserlache 4
wärt@@ 4
säuglings 4
überra@@ 4
organgefarbenen 4
bäcker@@ 4
sserungs@@ 4
wehrt 4
waldgegend 4
üppi@@ 4
schmel@@ 4
stei@@ 4
wandgemälde 4
steinbrücke 4
mari@@ 4
onette 4
violette 4
imbi@@ 4
spät@@ 4
bigen 4
praktizieren 4
sper@@ 4
rechteckigen 4
zeiten 4
tiefschnee 4
neonfarbenen 4
lippen@@ 4
teenagerinnen 4
zeln@@ 4
sanitäter 4
unfallstelle 4
ungepflegten 4
steak 4
rasch 4
vornehmen 4
stützrädern 4
angebo@@ 4
restaurantmitarbeiter 4
visi@@ 4
vollstän@@ 4
schnürsenkel 4
ttem 4
schrän@@ 4
socke 4
traditionellem 4
nachbarn 4
fasz@@ 4
stütz@@ 4
warteraum 4
security-@@ 4
schung 4
versorgen 4
zugglei@@ 4
spießen 4
riecht 4
tins 4
usi@@ 4
serviette 4
schmale 4
sstatue 4
gesen@@ 4
arbeiter@@ 4
grä@@ 4
verkäuferin 4
skleid 4
felsk@@ 4
tinten@@ 4
pfählen 4
behinder@@ 4
wasserrohre 4
piert 4
krankenhaus@@ 4
ohrenschützern 4
stoffro@@ 4
schachts 4
terrible 4
bohr@@ 4
billar@@ 4
überhang 4
terassen@@ 4
unterarm 4
schlafsäcken 4
speck 4
twaren 4
open-air-konzert 4
t-bahn 4
reich 4
passendem 4
starten 4
skuchen 4
sino 4
schlü@@ 4
kitchena@@ 4
muffins 4
tig@@ 4
motorradhelme 4
presse 4
karo@@ 4
nonnen@@ 4
talkshow 4
spult 4
schwarz-rotes 4
ninja@@ 4
ziffern 4
ruck@@ 4
schäferhunde 4
wirbel@@ 4
spri@@ 4
ppchen 4
zugewand@@ 4
volleyballspielerinnen 4
sousche@@ 4
smoked 4
wasch-@@ 4
moosbedeckten 4
bauern@@ 4
appar@@ 4
mülltonnen 4
techniker 4
förm@@ 4
jo 4
bung 4
och@@ 4
spann 4
süßes 4
ötchen 4
täfelten 4
vorzubereiten 4
maschen@@ 4
medit@@ 4
ative 4
fund@@ 4
stämmiger 4
reflekti@@ 4
schäu@@ 4
thalle 4
polizeiauto 4
schlammiges 4
rutsch@@ 4
stämme 4
zuges 4
schweißer@@ 4
pistolen 4
uten 4
zuneigung 4
beschä@@ 4
unterführung 4
ierten 4
tenmuster 4
nahö@@ 4
zwirbelt 4
schweißer 4
sparrow 4
polizeifahrzeug 4
schülerinnen 4
totenkopf@@ 4
sandsturm 4
taschent@@ 4
poten@@ 4
ziellen 4
schirm@@ 4
ungewöhnliches 4
rene 4
nehmer 4
vinci 4
scheine 4
spielkarten 4
sprüngen 4
stadtbereich 4
päckchen 4
einkaufsz@@ 4
nesqui@@ 4
unterhosen 4
postkarten 4
schwarzhaariges 4
gefä@@ 4
qui@@ 4
unfallort 4
stoppschild 4
werkzeuggürteln 4
sporthalt@@ 4
wen 4
senkrechte 4
vorherr@@ 4
motorradhelm 4
videoaufnahme 4
stian 4
motorradfahren 4
vw-@@ 4
zerlumpter 4
schulkantine 4
strahlt 4
spreizt 4
trockene 4
cure 4
lack@@ 4
pfle@@ 4
gerinnen 4
griffen 4
vierrädrigen 4
zitrone 4
teilneh@@ 4
verkehrspolizist 4
spanischen 4
worten 4
garden@@ 4
motorradfahrerin 4
kommuni@@ 4
sperr@@ 4
übungs@@ 4
tzentrum 4
wolki@@ 4
schaukelpferd 4
tubas 4
sprühdosen 4
umzugs 4
toten 4
wettschwimmen 4
strin@@ 4
strandspaziergang 4
dudel@@ 4
plattenladen 4
ta-@@ 4
neugieriges 4
tanzstudio 4
zaun@@ 4
veteran@@ 4
reishut 4
sportfans 4
oscar 4
wis 4
zahnarzt 4
videospiel@@ 4
samar@@ 4
gewäch@@ 4
seitigen 4
schwitzender 4
tich 4
sammel@@ 4
tümpel 4
umschlagtuch 4
eini@@ 4
umgefallenen 4
süßigkeit 4
prince 4
zuhörerschaft 4
neh@@ 4
schulalter 4
website 4
fach@@ 4
worfen 4
schlapphut 4
wendy 4
zerfetzten 4
wichtiges 4
schick 4
raping 4
rollschuhbahn 4
reise@@ 4
stilles 4
tiefblauen 4
blö@@ 4
whack 4
nacken 4
plätzen 4
spruchbänder 4
vorbeischwimmen 4
unbeholfen 4
schwimmen@@ 4
packers 4
zubereitung 4
tunnels 4
topfpflanzen 4
springerin 4
niederge@@ 4
spül@@ 4
äre 4
nutz@@ 4
sehende 4
purpurroten 4
plaudern 4
schmiert 4
rasiercreme 4
pflast@@ 4
gewäss@@ 4
südo@@ 4
dachsh@@ 4
unde 4
verbirgt 4
schnitzer@@ 4
neongelben 4
zeln 4
dunkl@@ 4
sporthallenboden 4
wasserspeier 4
spielzeuggitarre 4
mehrfarbi@@ 4
wister@@ 4
steuerung 4
verkleideten 4
seilbahn 4
waldgebiets 4
presslufthä@@ 4
überschlag 4
sko@@ 4
sportjacke 4
zuhörern 4
übersäte 4
werken 4
zufährt 4
rot-gelben 4
steppdecke 4
papa@@ 4
pfeffer@@ 4
schlafanzughosen 4
typi@@ 4
würste 4
schild@@ 4
schneeschaufel 4
usa@@ 4
vidstern 4
puma-@@ 4
shalt@@ 4
zehen@@ 4
winterlichen 4
open-air-festival 4
spruch@@ 4
sien 4
naturpfad 4
olt 4
sbc 4
usalem 4
zerzaust 4
rich@@ 4
ägyp@@ 4
sker@@ 4
mige 4
tape@@ 4
vertieft 4
leh@@ 4
besu@@ 4
sei 4
zentri@@ 4
yola-@@ 4
muff@@ 4
u-bahn-bahnsteig 4
beleuch@@ 4
peeps 4
ßt 4
zusammensein 4
rodeo-clown 4
mm 4
wirt@@ 4
schaf@@ 4
reifenspur 4
nd 4
geschnit@@ 4
technologie 4
schneejacke 4
rer@@ 4
spielzeugtraktor 4
springbrunnen@@ 4
rondack 4
sumpfigen 4
wachsen@@ 4
tanzug 4
greyho@@ 4
zahnstocher 4
spaghetti 4
fahrt@@ 4
or-@@ 4
schublade 4
sarong 4
schirme 4
personenzug 4
äste 4
trä@@ 4
wandobjekt 4
sicherungsseilen 4
taga 4
warnkleidung 4
ferin 4
zkörper@@ 4
ähnchen 4
äusel@@ 4
mustangs 4
punkte 4
patrouilliert 4
bür@@ 4
ungssteg 4
schungs@@ 4
nahöstlicher 4
flanell@@ 4
winkelt 4
saxoph@@ 4
schluss 4
mpf@@ 4
von@@ 4
ült 4
sichtbare 4
ohrstöpseln 4
verglasten 4
tehel@@ 4
mord 4
üppig 4
vergrößerungsglas 4
stattfindenden 4
unterstützen 4
huck@@ 4
untertasse 4
reiseführer 4
pudding 4
schlechtem 4
zustand 4
profession@@ 4
pand@@ 4
glück@@ 4
souvenir@@ 4
schneeanzügen 4
tintenfisch@@ 4
überfluteten 4
drahtz@@ 4
pfannen@@ 4
wenden 4
passagier 4
reaktion 4
äpfel 4
weihnacht@@ 4
vuitton 4
schaufensterbummel 4
phin@@ 4
wartezimmer 4
scheit@@ 4
transparenten 4
stür 4
nathalie 4
sonnenhüten 4
pinguine 4
zogenem 4
papagei 4
tarnjacke 4
typischen 4
verand@@ 4
ür 4
schil@@ 4
spielzeughammer 4
laut@@ 4
sprechern 4
schönheit 4
hals@@ 4
stewart 4
pat 4
schnees 4
swagen 4
schnüren 4
schluckt 4
plüschtier@@ 4
pper-@@ 4
proble@@ 4
basket@@ 4
siert 4
terri@@ 4
steinoberfläche 4
hne 4
sport-@@ 4
fried@@ 4
musk@@ 4
turnübungen 4
nö@@ 4
klö@@ 4
plüschtieren 4
züge 4
not@@ 4
papierteller 4
litt@@ 4
ärmer 4
vornübergebeugt 4
verloren@@ 4
orgel 4
reißverschluss 4
stamme@@ 4
sangehöri@@ 4
schein 4
gum@@ 4
sehe 4
nungs@@ 4
entrum 4
sonnenaufgang 4
unfall@@ 4
pumpe 4
waffen@@ 4
olympiade 4
umzu@@ 4
traditionell 4
torbogens 4
noble 4
normaler 4
sonniger 4
versorgt 4
rette 4
rentier 4
vö@@ 4
schneeh@@ 4
öhle 4
nächtliche 4
waschmaschinen 4
zöger@@ 4
schraubenzieher 4
tist 4
übri@@ 4
schranke 4
ündin 4
säu@@ 4
röhren@@ 4
orphans 4
tert 4
tragende 4
rollschuhlauf@@ 4
zweirad 4
studentenwohnheim 4
schaukel@@ 4
toilettenpapier 4
polo-hemd 4
verkehrsreiche 4
umrandeten 4
zeltplane 4
bewa@@ 4
hrt 4
student@@ 4
spritzendes 4
schneeballschlacht 4
zickzack 4
strandkleid 4
spielzeug-basketballkorb 4
wasserbrunnen 4
westernstil 4
gür@@ 4
teltasche 4
leich@@ 4
terung 4
plakat@@ 4
sumpf 4
ängstlich 4
sitzmäher 4
windel@@ 4
u-bahn@@ 4
überschlagen 4
pickni@@ 4
schir@@ 4
stadions 4
ou 4
uw 4
möglichen 4
sooner 4
attack@@ 4
sooners-football-spieler 4
umzugswagen 4
glichen 4
striegelt 4
sängerinnen 4
schaufel@@ 4
trieben 4
texas-@@ 4
tit@@ 4
stros 4
schneesturm 4
walds 4
ranka 4
sprechung 4
softdrink 4
rah@@ 4
streitet 4
steinstruktur 4
spielzeughaus 4
schlaf@@ 4
soße 4
freil@@ 4
vorspiel 4
selsteine 4
reportern 4
grü@@ 4
zte 4
schnurrbärtiger 4
steinhaufen 4
wartungs@@ 4
neugieri@@ 4
rückbank 4
beeindruck@@ 4
streichorchester 4
zettel 4
skostümen 4
snase 4
stalls 4
namensschildern 4
amar@@ 4
schlips 4
weißhaarige 4
sportoutfit 4
ßband 4
ele 4
euro@@ 4
flach@@ 4
gert 4
pard 4
pool-@@ 4
verschwommenes 4
umgebene 4
zulaufen 4
vierergruppe 4
volleyballturnier 4
spra@@ 4
ftz@@ 4
schlacht 4
stonehurst 4
gssaal 4
mädchenmannschaften 4
rot-weiß-blauem 4
tigt 4
stischer 4
rhododendron 4
tribal@@ 4
mög@@ 4
möglich 4
ppies 4
sogar 4
süßigkeitenverkäufer 4
wasserspritzer 4
urlaub@@ 4
schütter 4
werdendem 4
urlau@@ 4
blick@@ 4
winkel 4
schriften 4
queen 4
bewohner 4
berei@@ 4
rüschen 4
transvest@@ 4
netzstrümpfen 4
ampe 4
unterschreibt 4
schlür@@ 4
sausen 4
gebildet 4
orangut@@ 4
tierkostüm 4
taxi@@ 4
niedrig 4
zurückgelegt 4
graff@@ 4
raften 4
tal@@ 4
rettung@@ 4
skräfte 4
opfer 4
ötigt 4
schnitten 4
strahl@@ 4
schwingenden 4
dekor@@ 4
pappschachtel 4
richt@@ 4
xt 4
sandsack 4
angehöri@@ 4
itt 4
sternen 4
spielerischen 4
verkaufsautomaten 4
schrott@@ 4
schlittert 4
unebenen 4
ktem 4
qua@@ 4
schwerarbeiter 4
spielzeuglaster 4
spielzeugrutsche 4
quat@@ 4
tro-@@ 4
nel@@ 4
prüfer 4
u-bahn-zug 4
projek@@ 4
später 4
seils 4
u-@@ 4
motiven 4
schlaf 4
stirnlampe 4
stromkrei@@ 4
sprühdose 4
umgedrehte 4
silhouetten 4
oa@@ 4
trei@@ 4
vergraben 4
verkehrs@@ 4
spieß 4
shändiger 4
taus@@ 4
verrückt 4
sporttrikot 4
spiderman-@@ 4
spielgeräten 4
ourense 4
moto@@ 4
fontänen 4
gie@@ 4
ßkanne 4
verletz@@ 4
did@@ 4
zementlaster 4
verheirateter 4
tieflader 4
verfär@@ 4
absatz@@ 4
welt@@ 4
stlicher 4
afro@@ 4
stepp@@ 4
zwillinge 4
rinder 4
weinen 4
mountainbike-fahrer 4
masch@@ 4
youngster 4
würdig@@ 4
unterteil 4
pink-weißem 4
quert 4
mpert 4
üssen 4
zierten 4
möbelgeschäft 4
neongrün 4
zuhörer@@ 4
angemal@@ 4
nern 4
enkostüm 4
stadtbus 4
umzäun@@ 4
schneidbrett 4
tz 4
schwarz-orangefarbenen 4
steins@@ 4
schleppe 4
sklei@@ 4
wünschen 4
slum@@ 4
müllhaufen 4
truthähne 4
zlich 4
richteten 4
trotzt 4
stürmischem 4
eli@@ 4
schaufensterauslage 4
bitt@@ 4
utbaum 4
verdäch@@ 4
ponat 4
gedu@@ 4
geschnitt@@ 4
mürrisch 4
ungepfle@@ 4
schaumstoff@@ 4
termin 4
zombi@@ 4
erklär@@ 4
wall-e 4
überdachung 4
änze 4
alko@@ 4
präpar@@ 4
ie-@@ 4
spongebob-schwammkopf 4
rasseln 4
ritter 4
zerlegen 4
schachbrett 4
akkorde@@ 4
olli 4
zerbrochene 4
zerbricht 4
stoß@@ 4
zuhalten 4
steuern 4
pr@@ 4
peugeot 4
’ 4
schnit@@ 4
ureinwohnerin 4
zir@@ 4
textet 4
nachricht 4
schluss@@ 4
warm@@ 4
unschul@@ 4
sommerkleider 4
streicher 4
zemen@@ 4
sandkasten 4
min 4
una 4
perle 4
verband 4
nuckelt 4
gegenüber@@ 4
inen 4
stren@@ 4
stabil@@ 4
rezeption 4
skateboard-stunt 4
pfau 4
sesam@@ 4
straßen-@@ 4
oren@@ 4
umdreht 4
rot-gestreiften 4
pflanzen@@ 4
bew@@ 4
gest@@ 4
plastikeimer 4
dor@@ 4
motiv@@ 4
soaker 4
passen 4
wurfspiel 4
vielfältige 4
wettessen 4
preis@@ 4
objekti@@ 4
noise 4
nächstes 4
sichtigen 4
blüte 4
zeremoniellen 4
söhnen 4
nassgespritzt 4
zeile 4
stadtlandschaft 4
schwimmring 4
board@@ 4
prächtig 4
muschel@@ 4
dschun@@ 4
lat@@ 4
dition@@ 4
verkehrszug 4
rollenden 4
trinkgeld 4
wälzt 4
flauschi@@ 4
skimboarden 4
schöpfung 4
sicherheitsbeauf@@ 4
wunderschön 4
kommenden 4
veriz@@ 4
slinky 4
schottischer 4
exer@@ 4
ko 4
ureinwohn@@ 4
wasserfontänen 4
ughnut 4
pfa@@ 4
matra@@ 4
audi@@ 4
sanit@@ 4
pilz 4
schritten 4
skateboard-kunststück 4
pinien@@ 4
tourbus 4
saxofonspieler 4
nigen 4
neu@@ 4
ähnlichem 4
trauung 4
monopoly-spiel 4
crou@@ 4
ser-@@ 4
papierhut 4
rennausrüstung 4
spielfelds 4
prei@@ 4
udel 4
schokolade 4
tribünen 4
gestal@@ 4
nachrichtensprecher 4
suppen@@ 4
supp@@ 4
sprun@@ 4
werkbank 4
wän@@ 4
sommerkleidung 4
rittlings 4
last@@ 4
wassersprenganlage 4
tattraktion 4
ov@@ 4
ales 4
speiseraum 4
unterhaltungskünstler 4
renaissance-fest 4
tagebuch 4
sa 4
pil@@ 4
gat@@ 4
verregneten 4
olympi@@ 4
sanft 4
schab@@ 4
teilungen 4
schnellboot 4
rennhund 4
tüchern 4
zerklüf@@ 4
pinien 4
geschnittenen 4
prihosen 4
rollersk@@ 4
schwarz-rot 4
tätowierten 4
rinde 4
sym@@ 4
kau@@ 4
wirkun@@ 4
zimmers 4
punkro@@ 4
sü@@ 4
paste 4
thafen 4
rado 4
tätigkeiten 4
diri@@ 4
ong@@ 4
trin@@ 4
sterrasse 4
verdi@@ 4
regierung 4
wasserstrahl 4
karat@@ 4
preisrichter 4
tennisschuh 4
panzer@@ 4
schilden 4
tonnen 4
nä@@ 4
hre 4
rennfahrern 4
sessions 4
kte 4
torpfostens 4
motorrad-@@ 4
wasserski-@@ 4
sombreros 4
prä@@ 4
rie 4
yamaha-@@ 4
chtern 4
ängstigt 4
saiteninstrumenten 4
schlafen@@ 4
stylt 4
shop@@ 4
pappteller 4
toppings 4
spu@@ 4
sprung-@@ 4
waschmittel 4
ima@@ 4
bowling@@ 4
vorhand@@ 4
schrein 4
wodurch 4
paintball-@@ 4
rampen 4
ballerin@@ 4
strumpfhosen 4
zielort 4
spei@@ 4
musikali@@ 4
strandbuggy 4
y-t-shirt 4
skateboardfahren 4
wegschaut 4
pingpong@@ 4
oreos 4
ohrringen 4
bullen@@ 4
wagemuti@@ 4
eth@@ 4
spenden@@ 4
sammlung 4
powerpoint-präsentation 4
drah@@ 4
urm 4
schlammigem 4
lass@@ 4
niemand 4
zune-@@ 4
une 4
nachdenklich 4
modischer 4
straßenlaternen 4
manö@@ 4
pulk 4
felsvor@@ 4
spa-@@ 4
iligen 4
sense 4
musikausrüstung 4
by-@@ 4
orah 4
wakeboarden 4
stimmung 4
spät 4
08 4
stän@@ 4
obama-@@ 4
wahlkampf@@ 4
mai@@ 4
sfeld 4
schießstand 4
salyo 4
schnabel 4
schlittenhunde 4
zweispurigen 4
beför@@ 4
thriller 4
safar@@ 4
trenn@@ 4
wickeln 4
neugeborenen 4
tonischen 4
projektorleinwand 4
wasserrand 4
telefontechniker 4
trinkend 4
touchdown 4
world-@@ 4
verkleidetes 4
weinroten 4
sh-airways-@@ 4
heira@@ 4
äut@@ 4
passagi@@ 4
omic 4
brünet@@ 4
unscharfe 4
steig@@ 4
unterirdischen 4
taschenbuch 4
notenblatt 4
videokameras 4
schweinefleisch 4
unterhaltungsbereich 4
vamp@@ 4
wink@@ 4
unglückliches 4
rudermannschaft 4
schiffs@@ 4
pulentes 4
ureinwohner@@ 4
wolf 4
schmetterlinge 4
zwe@@ 4
akten@@ 4
spielender 4
rausgeworfen 4
steinsäulen 4
schal@@ 4
vorgesetz@@ 4
vorbeikommt 4
steinstraße 4
tigter 4
ungsbetrie@@ 4
leb@@ 4
chert 4
schat@@ 4
stert 4
subway-sandwich@@ 4
post-its 4
tresen 4
serven 4
sagten 4
monit@@ 4
oren 4
schreienden 4
weihnachtsbeleuchtung 4
volk@@ 4
demon@@ 4
blasen@@ 4
schulen 4
dischen 4
weide 4
streikschildern 4
y-schild 4
tellers 4
endem 4
staubsau@@ 4
übersät 4
primiti@@ 4
stopp@@ 4
versen 4
rothy 4
ringer@@ 4
verschmut@@ 4
zter 4
wandbemalung 4
weihnachtsmannmützen 4
nagel@@ 4
nisse 4
staffordshire 4
hindern 4
umm@@ 4
zugedeckt 4
eisschnell@@ 4
nahrung 4
unglau@@ 4
korb@@ 4
verquirlt 4
ventila@@ 4
schuluniform 4
trabenden 4
münztelefon 4
verschwommenen 4
sprenger 4
motocross@@ 4
palmwedeln 4
spritz@@ 4
stadtarbeiter 4
risse 4
stieren 4
druckt 4
sino-@@ 4
weiß-braunem 4
skifahrerin 4
schlüssel 4
turbanen 4
östlichen 4
stati@@ 4
rodeln 4
rodelt 4
straßenkreuzung 4
weihnachtsmotiv 4
orange-grauen 4
spielzeugeisenbahn 4
schnurrbärten 4
south@@ 4
stofftieren 4
emon@@ 4
quinn 4
verziert 4
seifenwasser 4
brett@@ 4
wütend 4
nahenden 4
rolling-@@ 4
ston@@ 4
struppiger 4
gebau@@ 4
steppi@@ 4
sterne 4
naturprodukten 4
verli@@ 4
stabs 4
seet@@ 4
stammes 4
pfarrer 4
schnür@@ 4
schlittschuhe 4
selbstgebastelten 4
radeo 4
sträuchern 4
marath@@ 4
slalom@@ 4
wirbeln 4
weitläufi@@ 4
roman@@ 4
orns 4
nagelpistole 4
stopft 4
verteidigern 4
verschneiter 4
yogaübungen 4
torii 4
sumoringer 4
nadelstreifenhemd 4
sturzflug 4
för@@ 4
schwimmende 4
vorbeiläuft 4
rettungs@@ 4
saft@@ 4
überladenen 4
sechsköpfige 4
sumorin@@ 4
überlegt 4
kontrol@@ 4
seli@@ 4
schroffen 4
regenbogenfarbenen 4
zerinnen 4
dig@@ 4
welches 4
gress 4
stöckigen 4
überwacht 4
setz@@ 4
rettungshelfer 4
notfall@@ 4
tel@@ 4
aufgerei@@ 4
streifen@@ 4
agen 4
trage@@ 4
trich@@ 4
warengeschäft 4
weist 4
fäh@@ 4
gkeiten 4
obligatoire 4
mers 4
schutzhelme 4
pelzigen 4
chevro@@ 4
pfote 4
rennenden 4
tta 4
weiß-rotes 4
vorgarten 4
üppigen 4
zotteliger 4
stun@@ 4
explo@@ 4
verkün@@ 4
risiko 4
amerikaner 4
verz@@ 4
provisori@@ 4
stürmt 4
schirmt 4
orchesters 4
strahlendem 4
sumpfiges 4
keln 4
schlüssel@@ 4
klassen@@ 4
hab@@ 4
sprungschanze 4
zeichneten 4
ranger 4
roller-derby-@@ 4
starker 4
butter@@ 4
smütze 4
zei@@ 4
lier@@ 4
mmer@@ 4
rottweiler 4
sportgerät 4
bummel 4
swesten 4
musikerin 4
niedri@@ 4
sauberen 4
zwischen@@ 4
wege 4
skaterbahn 4
portland 4
oregon 4
schotter 4
schneeho@@ 4
senbahn 4
amerikani@@ 4
onial@@ 4
schriftzü@@ 4
zeltet 4
smetik@@ 4
new-york-hut 4
trape@@ 4
zirkus 4
orn@@ 4
odeon 4
skil@@ 4
testet 4
startbereit 4
nordi@@ 4
rosa@@ 4
sfarbenen 4
verzweifelt 4
sonnenauf@@ 4
chel 4
staunt 4
wirbelnden 4
vorbeifahrenden 4
tischer 4
spruchs@@ 4
lacross@@ 4
hten 4
demonstr@@ 4
pullovers 4
pusten 4
ütte 4
nuss 4
style-@@ 4
spapier 4
pelikan 4
volley 4
rhyth@@ 4
öffnungen 4
selligen 4
spider-man 4
schaulustigen 4
pse 4
schlauch@@ 4
serena 4
williams 4
rauchwolke 4
querflöte 4
motorschlitten 4
trittsteinen 4
zusammenpassenden 4
ity-@@ 4
schwarz-blaues 4
rasterlocken 4
sessellift 4
schubst 4
ktionen 4
prediction 4
parall@@ 4
quadbike 4
wasserskulptur 4
quad@@ 4
trader 4
‘ 4
vrovulcan.@@ 4
stadtbrunnen 4
stierkampf 4
träg 4
bask@@ 4
robbins 4
passende 4
rund 4
reckt 4
people-@@ 4
rugby-spiel 4
zementierten 4
zahnblüte 4
nis@@ 4
subaru 4
führ@@ 4
veget@@ 4
ation@@ 4
mern 4
gitar@@ 4
ristin 4
wohnhäusern 4
verbindung 4
sonnenbad 4
schleifmaschine 4
rauen 4
rennmotorrad 4
reiht 4
wasserpark 4
umstehenden 4
straßenmusikanten 4
bede@@ 4
schrägen 4
peek-a-boo 4
zuhält 4
mouse@@ 4
verschlungenen 4
skatern 4
origin@@ 4
rasiermesser 4
industrie@@ 4
schlechten 4
zieren 4
presslufthammer 4
steinfarbener 4
yette 4
seifenblasen@@ 4
zeige@@ 4
tafeln 4
bong@@ 4
moderner 4
schwieri@@ 4
ufc-@@ 4
stee 4
speise 4
sprühen 4
skelett@@ 4
stunden 4
pumps 4
steph 4
täg@@ 4
sendet 4
gner 4
studenten@@ 4
unglück@@ 4
schärpe 4
nie@@ 4
schäbig 4
schwäne 4
scar@@ 4
türkise 4
smen 4
interess@@ 4
rout@@ 4
sonnenuntergangs 4
sox 4
deten 4
säug@@ 4
verkehrske@@ 4
patriotischen 4
spur 4
wasseroberfläche 4
unbekannter 4
teenager-jungen 4
teamkollege 4
scheune 4
wälder 4
wärmt 4
ttert 4
us-amerikanische 4
schlangen 4
nati@@ 4
gär@@ 4
entgegengesetz@@ 4
verkehrs 4
zieller 4
skate@@ 4
ßer 4
vorderpfoten 4
transformator 4
spinnen 4
ordner 4
statisch 4
springre@@ 4
skateboar@@ 4
übergewichtiges 4
skydiver 4
volleyball@@ 4
zusammengebauten 4
radkleidung 4
zhut 4
trainingsgerät 4
spieltunnel 4
zuerst 4
panason@@ 4
kir@@ 4
stewardess 4
ufernähe 4
umfeld 4
beein@@ 4
stbusters 4
vietnamesi@@ 4
blasinstru@@ 4
sprungwettbewerb 4
yongsan 4
gallo@@ 4
stin@@ 4
skomp@@ 4
skar@@ 4
quelle 4
molliges 4
rand@@ 4
propeller 4
tartuffe 4
spielmannszugs 4
shor@@ 4
zogen 4
sirup 4
monger 4
regenbogenfarbigen 4
natür@@ 4
xylo@@ 4
patrioti@@ 4
nacken@@ 4
schwimmhilfen 4
hot@@ 4
ppen@@ 4
unterhose 4
unningham 4
warnkegel 4
schien@@ 4
schonern 4
kricket@@ 4
spielkonsole 4
styli@@ 4
whiteboard 4
stadtgebäude 4
zurückzu@@ 4
renmark 4
ähri@@ 4
platzt 4
wurf@@ 4
vorbeizukommen 4
einzigar@@ 4
verwunderung 4
restaurant@@ 4
schutzanzug 4
trampelt 4
tarnhosen 4
stellter 4
zda 4
draht@@ 4
pickup-truck 4
sonnebrille 4
sprinkleranlage 4
aren 4
multipurpose 4
wartend 4
zeitgenössi@@ 4
taille 4
spielzeugfahrrad 4
weiß- 4
vereinzelten 4
ever@@ 4
reitwettbewerb 4
steiger 4
vals@@ 4
nüsse 4
vornüber 4
tos 4
verursacht 4
theaterstück 4
sell@@ 4
erie 4
ücher 4
lein@@ 4
pferdefuhrwerk 4
vesammelt 4
skateboardanlage 4
uner@@ 4
öffentliches 4
sprünge 4
ma-@@ 4
rot-goldenen 4
mut@@ 4
slum 4
sigem 4
verlegen 4
nevada 4
vorderrad 4
turnübung 4
red@@ 4
wiki 4
schreibend 4
touch@@ 4
ron 4
negro 4
ede@@ 4
mo 4
masten 4
olive@@ 4
sinni@@ 4
tücher 4
operiert 4
vira 4
virou 4
zeltplatz 4
mystery 4
scooby-doo 4
rally@@ 4
saxophonisten 4
skat@@ 4
möglichkeit 4
stische 4
picchu 4
vorräte 4
unterholz 4
dekorati@@ 4
sonoma 4
sourdough 4
tomate 4
mach 4
ppuccin@@ 4
zerbrochenen 4
teure 4
straßengeschäft 4
verbeugen 4
wartung@@ 4
sperson@@ 4
stängel 4
graph@@ 4
wohin 4
ungsmi@@ 4
waffneten 4
swat@@ 4
spezial@@ 4
tak@@ 4
pä@@ 4
ortsan@@ 4
sässigen 4
tarnanzügen 4
stattfindet 4
verschiedenes 4
jog@@ 4
toaster 4
stes 4
pue@@ 4
nder 4
zeich@@ 4
zugfahrt 4
schmetter@@ 4
lingen 4
iden@@ 4
stylus 4
schreibung 4
zapft 4
vorhand 4
spackt 4
abenteu@@ 4
vorübergehend 4
versu@@ 4
trösten 4
phoenix 4
reagiert 4
muse@@ 4
pos@@ 4
sockenhaltern 4
silo 4
rollen@@ 4
y-geschäft 4
bewer@@ 4
orangefarben 4
haarige 4
schöpf@@ 4
zähneputzen 4
ztes 4
streiter 4
skibrille 4
tambour@@ 4
our@@ 4
neujahr@@ 4
örpern 4
irokesen@@ 4
sartikeln 4
rollerskater 4
vertrau@@ 4
tato@@ 4
nachdenken 4
spiegelungen 4
sonder@@ 4
nypd 4
straßenhändlers 4
farbenfro@@ 4
konzentri@@ 4
modische 4
schürt 4
straßenmarathon 4
jun@@ 4
gi 4
wiegen 4
schattenha@@ 4
unterneh@@ 4
walze 4
schaff@@ 4
tatort 4
vorstadthaus 4
muslimische 4
digkeit 4
dekora@@ 4
radar@@ 4
regenkleidung 4
spinnkurs 4
trau@@ 4
äng@@ 4
ukraini@@ 4
schraubenschlüssel 4
reinig@@ 4
schuljungen 4
straßenlauf 4
teilnehmende 4
warn@@ 4
schwimmwettkampf 4
them@@ 4
schuhputzstand 4
spyder 4
umschlag 4
strommasten 4
gebl@@ 4
pfadfindern 4
wikin@@ 4
verborgen 4
organisieren 4
aliforni@@ 4
nachgehen 4
würzt 4
ign@@ 4
sprecher 4
räsentation 4
receiver 4
stanford 4
tramp@@ 4
steinboden 4
staat@@ 4
wehr 4
teil@@ 4
spä@@ 4
alum@@ 4
plastikflaschen 4
ruby 4
prius 4
schlittschuh@@ 4
ckel@@ 4
zeugt 4
oberleitungsfahrzeug 4
schneeausrüstung 4
silberfarbene 4
regenschri@@ 4
nisvoller 4
neugeborene 4
universit@@ 4
ät@@ 4
interessan@@ 4
schneeschuh 4
eht 4
gehü@@ 4
smoothies 4
aussicht@@ 4
wakeboarder 4
zukunft 4
schlafanzügen 4
schme@@ 4
straßenkünstlern 4
requisiten 4
sxswo 4
mcdonal@@ 4
protesti@@ 4
terrorist 4
mö@@ 4
pfi@@ 4
nie 4
tissues 4
kan 4
schulklasse 4
selungsanlage 4
rotisserie 4
flüssig@@ 4
tanzvorführung 4
tenhund 4
urlaub 4
pakete 4
spenden 4
peterson 4
polaris 4
spinnt 4
oliven@@ 4
pastellfarbenen 4
passieren 4
zwie@@ 4
pavil@@ 4
sauerstoff@@ 4
wartende 4
pflanz@@ 4
motorrads 4
orte 4
neut@@ 4
ral@@ 4
verhaftet 4
patriot 4
trampelpfad 4
schraubendreher 4
gerahmte 4
beteil@@ 4
nancy 4
pelosi 4
wheel@@ 4
s-auto 4
polizeibeamter 4
röcke 4
telefonleitung 4
münzfernsprecher 4
pflaster@@ 4
regt 4
ziegelsteingebäude 4
zales 4
verboten 4
pt. 4
vornehm 4
ment@@ 4
ären 4
umarmungen 4
schnüffeln 4
spause 4
stiftrock 4
holli@@ 4
verkehrsschild 4
spielzeuglastwagen 4
oster@@ 4
iel 4
zügel 4
shoe@@ 4
sehens@@ 4
mitt@@ 4
schneebrille 4
zelnde 4
plastikwanne 4
schläuche 4
schrott 4
signiert 4
gerer 4
stimmten 4
un 4
stungen 4
schwimmkleidung 4
tab 4
quentierten 4
schlangen@@ 4
touristin 4
modernes 4
wurzeln 4
november 4
ough 4
tlichen 4
prof@@ 4
tagesli@@ 4
shiki 4
beruhi@@ 4
renaissance-@@ 4
twurst 4
teva 4
neuroscience 4
rat 4
zerri@@ 4
selena 4
stiegen 4
währen@@ 4
ach@@ 4
wohnhauses 4
negie 4
geish@@ 4
wäsch@@ 4
taschenlampe 4
schaufensterpuppen 4
raum@@ 4
tambor 4
victoria 4
wachleute 4
week 4
stice 4
männe 4
berü@@ 4
tret@@ 4
gor@@ 4
sauber@@ 4
schlafzimmer@@ 4
protestierende 4
undert 4
tomaten@@ 4
chsi@@ 4
schatteten 4
schubkarren 4
plastikflasche 4
papi@@ 4
schriftzeichen 4
trommel@@ 4
vati@@ 4
eleph@@ 4
sprecherin 4
schalten 4
pferdewagen 4
skaterpark 4
überschwemm@@ 4
überreste 4
warteh@@ 4
theatervorstellung 4
rost@@ 4
puer@@ 4
tori@@ 4
shri@@ 4
mps 4
sterdam 4
strali@@ 4
spirituosengeschäft 4
ruf 4
stüren 4
anz 4
önn@@ 4
sperrung 4
miniat@@ 4
weilt 4
zweistöckigen 4
sara 4
verti@@ 4
weißene 4
mooch 4
übergang 4
pontiac 4
staples 4
rockkonzert 4
tai@@ 4
ese 4
töchter 4
professionell 4
schirmchen 4
swatch 4
nachhauseweg 4
siberian 4
ara@@ 4
gir@@ 4
runzelt 4
sme@@ 4
gera@@ 4
meiß@@ 4
unbekannte 4
chers 4
verne@@ 4
richardson 4
bewölk@@ 4
überdimensioni@@ 4
orgio 4
seiko 4
darstell@@ 4
ands 4
t-ski 4
panam@@ 4
straßenansicht 4
schnellimbiss 4
ura 4
thailand 4
soldatinnen 4
wolle 4
7@@ 4
morgan 4
transparent 4
banan@@ 4
drin@@ 4
ärzt@@ 4
völ@@ 4
stens 4
bäu@@ 4
realty 4
ringsum 4
roller-derby 4
stadtplan 4
scherz@@ 4
waagere@@ 4
zor@@ 4
paddington 4
scheffel 4
plastikbecher 4
wisch@@ 4
verletzter 4
schmuddel@@ 4
hasen@@ 4
smauer 4
yoga@@ 4
skop@@ 4
tischem 4
subje@@ 4
ohrhörer 4
plakaten 4
rettungskraft 4
tauschen 4
rummelplatz 4
partnerin 4
beweg@@ 4
nislaw 4
rowski 4
vertreter 4
thefaceshop 4
ers-@@ 4
pritschenwagen 4
za@@ 4
nissen 4
spongebob-@@ 4
zapf@@ 4
rollwagen 4
ort@@ 4
nei@@ 4
veranstaltet 4
tommy 4
tam@@ 4
orientali@@ 4
sbi@@ 4
zauberer 4
zaubertrick 4
musiziert 4
sierte 4
weinflasche 4
speit 4
verh@@ 4
sprud@@ 4
volles 4
wackel@@ 4
ungsfahrzeug 4
schert 4
propell@@ 4
steuerten 4
parkgarage 4
-tattoo 4
skateranlage 4
nächtliches 4
farbi@@ 4
hija@@ 4
vorüberfährt 4
brenn@@ 4
mpeach 4
selbstgebauten 4
jogging@@ 4
pflügen 4
visier 4
ssene 4
rvs 4
bewe@@ 4
unrat 4
wirkt 4
sphin@@ 4
quetscht 4
ängten 4
steakhouse 4
umhänge@@ 4
ärm@@ 4
trägerhemden 4
okee 4
xxotica 4
zusammengebaut 4
videothek 4
eink@@ 4
opo@@ 4
sitzbank 4
taubenschwarm 4
straßenmusik 4
smart 4
pfeiler 4
wahl@@ 4
kauf@@ 4
straßent@@ 4
santo 4
schön 4
gepflaster@@ 4
tarnfarben 4
portug@@ 4
bou@@ 4
vee 4
speedo-badehose 4
sang 4
überfliegt 4
vertreiben 4
pts 4
pedale 4
man-@@ 4
rosaroter 4
studi@@ 4
mbiss 4
vierte 4
slipp@@ 4
deckten 4
ffee 4
windet 4
gehend 4
regennassen 4
religion 4
perla 4
pfirsichfarbenen 4
änzer 4
tätowieren 4
unschar@@ 4
wolken@@ 4
erische 4
superhelden@@ 4
relie@@ 4
napa 4
vote 4
saf@@ 4
scheucht 4
shakespeare 4
zugführer 4
telefonzellen 4
pferdeschwänzen 4
pfauenkostüm 4
pipe@@ 4
kunstwer@@ 4
süßigkeitenladen 4
neapolis 4
dess@@ 4
nottingham 4
ornam@@ 4
never 4
tiers 4
nonnentracht 4
stöckelschuhen 4
verschmiertem 4
tönten 4
tempor@@ 4
thorn 4
cover@@ 4
schottische 4
leoparden@@ 4
herren@@ 4
surfbrettern 4
versamm@@ 4
seeha@@ 4
religi@@ 4
pole-@@ 4
kehr@@ 4
rollers 4
uma 4
rommeln 4
kit@@ 4
schizophren@@ 4
raffe 4
nägeln 4
wir@@ 4
stromleitungen 4
walgreens 4
olympioniken 4
padd@@ 4
wasserschlacht 4
verk@@ 4
nn@@ 4
pacific 4
wigg@@ 4
action@@ 4
ollten 4
triomphe 4
twi@@ 4
entspan@@ 4
nter 4
schiger 4
n.y. 4
unte 4
stattet 4
sonnenschirme 4
strel 4
themen@@ 4
quadratischen 4
parkuhr 4
schneiderin 4
unternehmen@@ 4
sugarland 4
senal 4
rosa-grünen 4
ppens 4
schipper 4
torhü@@ 4
risty 4
wissenschafts@@ 4
eichen 4
lly@@ 4
bün@@ 4
scooby 4
sitzung 4
feu@@ 4
eben@@ 4
tuniken 4
rolltreppen 4
strömenden 4
sattraktion 4
taucher@@ 4
mechani@@ 4
porträ@@ 4
ausstell@@ 4
dex 4
noti@@ 4
umgekippt 4
cir@@ 4
schne@@ 4
carto@@ 4
oin 4
tasten 4
lk@@ 4
urdu 4
streethock@@ 4
gewin@@ 4
venti@@ 4
tei@@ 4
ppla@@ 4
wrapper 4
mc@@ 4
schrau@@ 4
kopfstein@@ 4
urlaubs@@ 4
mmel@@ 4
vans 4
schmin@@ 4
veda 4
sva 4
theatre 4
spaniel 4
spielzeug-rasenmäher 4
verkleidung 4
trägershirt 4
morgenrock 4
sheltie 4
musikalische 4
postmitarbeiter 4
yak 4
unstläufer 4
schleuder 4
regengu@@ 4
regenjacke 4
shel@@ 4
modifier 4
putztes 4
bak 4
symbo@@ 4
verhüllte 4
prächtige 4
wüchsiger 4
zerkleinert 4
trud@@ 4
äufer 4
schneelandschaft 4
steuer 4
toronto 4
mp3 4
zwil@@ 4
patro@@ 4
prü@@ 4
artikeln 4
zuschauerraum 4
skianzug 4
zerrissenen 4
vermischt 4
schbom@@ 4
hula-ho@@ 4
fitne@@ 4
splay 4
stücks 4
pc 4
schließ@@ 4
ala@@ 4
thi@@ 4
zentimeter 4
outdoor-bekleidung 4
res@@ 4
reten 4
north 4
ölfass 4
reiben 4
turnkleidung 4
mannschaft@@ 4
ninjas 4
schwarzweiß 4
pedal@@ 4
winterbekleidung 4
schneidersitz 4
regency 4
trainingsanzügen 4
tamburin 4
revol@@ 4
ution 4
ritualtanz 4
mag@@ 4
tischler 4
stuhlreihen 4
synthesizer 4
gehalten@@ 4
beut@@ 4
umgebenden 4
rona 4
skimboarder 4
oring 4
harmoni@@ 4
rettet 4
polizeiuniform 4
orant 4
sportfeld 4
ssonne 4
sucher 4
männerteam 4
schlagmanns 4
vril 4
entschei@@ 4
vorlage 4
strengt 4
volleyballteam 4
respe@@ 4
quarterbacks 4
sonnenanbetern 4
pferder@@ 4
silbernem 4
wee@@ 4
sivspieler 4
wellen@@ 4
sportstudio 4
visiert 4
zielfernrohr 4
schießplatz 4
state-teams 4
nalist 4
wasserball@@ 4
posi@@ 4
schottenröcken 4
schwimmbekleidung 4
ryan 4
tannehill 4
haw@@ 4
spartans 4
süßer 4
ballspieler 4
school@@ 4
verwitterten 4
donal@@ 4
rasenplatz 4
quiznos-subs 4
schützer 4
gan 4
sportart 4
sit@@ 4
wehr@@ 4
verpasst 4
oxfor@@ 4
sieger@@ 4
raclette 4
perin 4
schaulustiger 4
traven@@ 4
wildwasserrafting 4
waldlandschaft 4
zweikampf 4
saxof@@ 4
sky-watcher 4
winkend 4
werferhügel 4
quar@@ 4
ssi 4
roose@@ 4
john@@ 4
perman@@ 4
t-fahrer 4
griff@@ 4
quette 4
standbild 4
vat@@ 4
ohrschützern 4
short@@ 4
vorbereitungen 4
scheitelpunkt 4
tee-ball 4
heit@@ 4
zustellen 4
inspe@@ 4
schwin@@ 4
strecken@@ 4
weiß-roter 4
peter 4
soy 4
rocka@@ 4
bill@@ 4
rollstuhlrennen 4
offs 4
triumph@@ 4
verschiedenfarbiger 4
ang 4
psy@@ 4
up-@@ 4
surance 4
schwarzweiß@@ 4
wohnviertel 4
zehenspitzen 4
touri@@ 4
ny-@@ 4
portion 4
vorbeilauf@@ 4
tüm@@ 4
olympische 4
olympia@@ 4
plä@@ 4
morse 4
springsteen 4
yorkie 4
töpfert 4
stets 4
seu@@ 4
rodeoarena 4
wasserskil@@ 4
rock-@@ 4
thon 4
snooker 4
schütze 4
splatz 4
wood-@@ 4
volleyballmannschaft 4
ssland 4
bike-@@ 4
vorteil 4
speerwurf 4
swellen 4
sports-@@ 4
tab@@ 4
amph@@ 4
xion 4
schwimmhalle 4
stevie 4
ada 4
yores 4
rebound 4
tebow 4
mutual 4
volleyballplatz 4
lob@@ 4
paralympics 4
togra@@ 4
wetteifert 4
schaukelgestell 4
odyna@@ 4
verteidi@@ 4
wisconsin 4
panthers 4
sna@@ 4
petronas 4
wow 4
zü@@ 4
reisfeld 4
hill@@ 4
nelen 4
nesca@@ 4
radi@@ 4
port@@ 4
thora 4
trendy 4
sequence 4
powdered 4
tae 4
regarding 4
spect@@ 4
skyscraper 4
warrior 4
riverbed 4
assem@@ 4
regi@@ 4
approa@@ 4
skiiers 4
usly 4
peppers 4
snowmobiling 4
tipped 4
sling 4
motor-scooter 4
sunflower 4
camer@@ 4
shoeing 4
stea@@ 4
secures 4
surprised 4
buil@@ 4
tar@@ 4
tilted 4
mmers 4
toil 4
smel@@ 4
worshi@@ 4
programs 4
slan@@ 4
supervision 4
respon@@ 4
nished 4
upper-class 4
snarling 4
ners 4
varied 4
rough-@@ 4
conne@@ 4
wife-beater 4
bud@@ 4
platforms 4
source 4
oli@@ 4
neighbors 4
visit 4
edly 4
tivated 4
swung 4
ody 4
one@@ 4
brai@@ 4
tinted 4
reacting 4
pharmacy 4
swa@@ 4
origin 4
particular 4
pineapples 4
sword@@ 4
tingui@@ 4
rema@@ 4
sleepy 4
wai@@ 4
spattered 4
sewer 4
snuggling 4
symphony 4
spinner 4
class@@ 4
sked 4
ninja 4
swir@@ 4
water-filled 4
bloss@@ 4
treeless 4
umber 4
slamming 4
ss-covered 4
tri-colored 4
technician 4
zard 4
vating 4
twent@@ 4
por@@ 4
reflects 4
white-water 4
turbulent 4
saws 4
populated 4
platter 4
welder 4
worked 4
kerchie@@ 4
slu@@ 4
possible 4
oddly 4
attenti@@ 4
nips 4
questions 4
wondering 4
sweatpants 4
ribs 4
scrubbing 4
answ@@ 4
onary 4
postcards 4
pearls 4
swerves 4
motions 4
occasion 4
alling 4
zards 4
pel 4
water-@@ 4
shipping 4
started 4
plywood 4
physically 4
twined 4
sk 4
hug@@ 4
sections 4
stainless 4
vil 4
opy 4
slips 4
visitors 4
care@@ 4
need 4
percussion 4
shuffles 4
necks 4
ration 4
moun@@ 4
tux 4
ury 4
dir@@ 4
sle 4
residence 4
oncoming 4
search 4
recorder 4
wk@@ 4
washers 4
infla@@ 4
traverse 4
congreg@@ 4
tive 4
southeast 4
obsc@@ 4
pretzels 4
snorkeling 4
diti@@ 4
spout 4
parachutist 4
sibling 4
wooden-@@ 4
upstairs 4
cture 4
pajama 4
lling 4
snowdrift 4
sodas 4
harve@@ 4
vid 4
ption 4
toenails 4
pigs 4
swee@@ 4
sites 4
sidewalks 4
ssions 4
entri@@ 4
pamph@@ 4
cray@@ 4
ola 4
unwraps 4
stake 4
alou@@ 4
peep 4
sty 4
orange-red 4
sonry 4
cann@@ 4
chee@@ 4
adole@@ 4
silverware 4
ttage 4
sisters 4
refreshments 4
barbecu@@ 4
lly 4
ran 4
patrolling 4
rican 4
scores 4
ox 4
releases 4
resem@@ 4
pout 4
saucer 4
secon@@ 4
appro@@ 4
palace 4
ir 4
snowsuits 4
sky-view 4
mirro@@ 4
refuge 4
reaction 4
repelling 4
wrist 4
penguins 4
pounces 4
parrot 4
moti@@ 4
ily 4
beau@@ 4
lars 4
operate 4
swallowing 4
viewed 4
viol@@ 4
ined 4
placid 4
solid 4
rackets 4
four-@@ 4
presen@@ 4
shined 4
elev@@ 4
suc@@ 4
warmers 4
nee@@ 4
lack 4
zip-@@ 4
sman 4
rate 4
open-@@ 4
racks 4
vous 4
stracted 4
soles 4
overcast 4
twin 4
soaked 4
reluctant 4
spectacled 4
street-@@ 4
popu@@ 4
discu@@ 4
roller-blading 4
slumped 4
pane 4
brides@@ 4
trails 4
sliced 4
wrestles 4
zigzag 4
simply 4
scarfs 4
speckled 4
ama@@ 4
would 4
tackler 4
psing 4
pple 4
travelling 4
ander 4
snowstorm 4
submerges 4
sauce 4
ugs 4
pebbles 4
ortant 4
reporters 4
waffle 4
snail 4
steals 4
cil 4
watery 4
spher@@ 4
stuff@@ 4
secure 4
tear 4
received 4
stories 4
sales 4
strung 4
selections 4
pedals 4
struggle 4
specific 4
xing 4
ris 4
vered 4
sweets 4
squirts 4
bott@@ 4
routines 4
rising 4
victim 4
punches 4
semi-formal 4
tro 4
scaffolds 4
tell 4
cess 4
motives 4
winks 4
screens 4
tests 4
sely 4
scent 4
ssage 4
chisel@@ 4
thousands 4
ctors 4
tongues 4
non-@@ 4
quilted 4
twins 4
questi@@ 4
co 4
simultaneously 4
ha 4
swin@@ 4
sine 4
brick-@@ 4
turkeys 4
picted 4
wise 4
owl 4
iro@@ 4
pour 4
suspect 4
wants 4
popsicle 4
smelling 4
d-up 4
scruffy 4
refriger@@ 4
alco@@ 4
prepping 4
tambourines 4
blue@@ 4
windowsill 4
one-man 4
gry 4
voca@@ 4
cy 4
streamers 4
type@@ 4
writer 4
shells 4
sehold 4
ourful 4
rinsing 4
sesame 4
pressed 4
researchers 4
ee 4
obstru@@ 4
trading 4
sausage 4
bbing 4
super 4
ian 4
tilts 4
wineglass 4
mused 4
trinkets 4
wands 4
vaul@@ 4
preschool 4
plaster 4
sunday 4
skim 4
steering 4
stout 4
wered 4
parti@@ 4
rusted 4
tresses 4
yells 4
mushroom 4
rid 4
subject 4
tears 4
acrobati@@ 4
soa@@ 4
newsca@@ 4
yment 4
steeplechase 4
wagons 4
tty 4
y-looking 4
ugh@@ 4
nal 4
snoopy 4
then 4
gged 4
screen@@ 4
ri 4
sweat 4
close@@ 4
toll 4
twos 4
curi@@ 4
bikin@@ 4
thorugh 4
shopper 4
toting 4
styled 4
dles 4
exerci@@ 4
tergent 4
natives 4
sews 4
shrine 4
confu@@ 4
tuce 4
scrapping 4
snoo@@ 4
participant 4
wildfire 4
multi-color 4
off-screen 4
patchy 4
sterpiece 4
gue@@ 4
targets 4
usting 4
packs 4
wrangle 4
zune 4
wielding 4
triangle-shaped 4
polka-dotted 4
stumbling 4
rain@@ 4
treatment 4
respective 4
scythe 4
every@@ 4
specialized 4
shield 4
rifles 4
zaar 4
throughout 4
verage 4
bathro@@ 4
technical 4
sending 4
waterfalls 4
seamstress 4
scrimmage 4
ural 4
repairman 4
worried 4
gal@@ 4
bone 4
versal 4
color@@ 4
graffit@@ 4
smock 4
paperback 4
pork 4
ire 4
ek 4
roof@@ 4
private 4
superior 4
seas 4
buff@@ 4
plow 4
underside 4
skit 4
should 4
rates 4
saving 4
competiti@@ 4
pasture 4
referen@@ 4
scellaneous 4
pretend 4
blea@@ 4
oper@@ 4
trans@@ 4
scan 4
necktie 4
whisking 4
wetland 4
reason 4
splits 4
spending 4
paraphernalia 4
ringed 4
trekking 4
mou@@ 4
snowflakes 4
reindeer 4
mrs. 4
soapy 4
starfish 4
pat@@ 4
lowing 4
throat 4
vy 4
deal@@ 4
toes 4
slalom 4
top-hat 4
mouth@@ 4
ep@@ 4
upraised 4
rugged 4
spotlights 4
squirrel 4
restaraunt 4
news@@ 4
setup 4
cers 4
motor-cross 4
thatched 4
vender 4
swamp 4
sveral 4
fashi@@ 4
ably 4
tinsel 4
outf@@ 4
proclaim 4
risk 4
strips 4
even@@ 4
unkempt 4
born 4
shawls 4
projection 4
pean@@ 4
taped 4
day@@ 4
peddling 4
tye-dyed 4
tea@@ 4
softly 4
tin 4
witne@@ 4
wrists 4
gy 4
stitch 4
accompani@@ 4
flut@@ 4
tress 4
grima@@ 4
outboard 4
upside-down 4
spiky 4
soaking 4
gh 4
pipers 4
cocon@@ 4
clar@@ 4
pelican 4
parasail 4
openings 4
ped@@ 4
triangle 4
oceanside 4
vention 4
quietly 4
pouncing 4
strums 4
seal 4
semi-circle 4
proper@@ 4
wre@@ 4
hamm@@ 4
poultry 4
flower@@ 4
ssue 4
invol@@ 4
puff 4
classi@@ 4
raw 4
ctively 4
roun@@ 4
ornamental 4
surely 4
release 4
presented 4
supports 4
ads 4
stoops 4
ufc 4
trim 4
urs 4
releasing 4
vat 4
swoops 4
rehear@@ 4
sash 4
sends 4
shabby 4
swans 4
view@@ 4
pass@@ 4
treads 4
teaches 4
wounds 4
blond-@@ 4
letes 4
ame 4
teachers 4
weights 4
viator 4
illumin@@ 4
tional 4
pact 4
paddled 4
ki 4
remember 4
upturned 4
showers 4
syrup 4
pea@@ 4
ure@@ 4
nears 4
styling 4
stylist 4
snowmobile 4
wonder@@ 4
shu@@ 4
ddle 4
supported 4
skulls 4
peruses 4
oars 4
shift 4
spired 4
nanny 4
spoons 4
trade 4
short-sleeve 4
opinions 4
volcano 4
up@@ 4
west 4
sco 4
ral 4
thin@@ 4
putt 4
securing 4
registered 4
rics 4
elabo@@ 4
rately 4
sker 4
chur@@ 4
neatly 4
pineapple 4
ars 4
shing@@ 4
salesman 4
sledgehammer 4
bled 4
uncement 4
resour@@ 4
murals 4
celebra@@ 4
navigate 4
mly 4
` 4
dread@@ 4
middle-@@ 4
scary 4
shrubbery 4
tent-like 4
peoples 4
oblivious 4
shadowy 4
prene@@ 4
taping 4
protectors 4
wrench 4
riously 4
random 4
velope 4
custo@@ 4
swit@@ 4
barbe@@ 4
thong 4
citi@@ 4
sole 4
serious 4
hard@@ 4
unload 4
snowshoe 4
violet 4
samples 4
uld 4
saluting 4
respectively 4
prop 4
scen@@ 4
oper 4
roads 4
shepard 4
ritated 4
ssign@@ 4
acti@@ 4
ely 4
retrieve 4
servi@@ 4
tipping 4
true 4
presumably 4
well-lit 4
hoe 4
table@@ 4
podiums 4
nibbles 4
oxygen 4
wits 4
mir@@ 4
treed 4
russian 4
offer 4
dire@@ 4
cell@@ 4
ular 4
shacking 4
entran@@ 4
sive 4
shouts 4
thouse 4
squirted 4
ond 4
multitasking 4
watered 4
tar 4
exten@@ 4
timber 4
ddy 4
fying 4
roots 4
serene 4
self-@@ 4
slung 4
thursday 4
relaxed 4
saddled 4
spend 4
pula@@ 4
dy@@ 4
ering 4
puzzled 4
pies 4
extra@@ 4
ordinary 4
residential 4
eled 4
pastel 4
foo@@ 4
recent 4
rep@@ 4
hear@@ 4
locks 4
ish 4
thai 4
separated 4
thought@@ 4
sideline 4
officials 4
scul@@ 4
question 4
slim 4
owned 4
plaque 4
separates 4
scramble 4
dled 4
offered 4
dur@@ 4
unfriendly 4
pray 4
uble-decker 4
embra@@ 4
vilians 4
pollution 4
cele@@ 4
cian 4
ming 4
reflecting 4
remo@@ 4
trolled 4
reenactment 4
price 4
trooper 4
wavy 4
tugs 4
pho@@ 4
three-@@ 4
quartet 4
nas 4
violence 4
fers 4
showcasing 4
swaddled 4
pomeranian 4
sub@@ 4
tucked 4
sucker 4
shut@@ 4
troop 4
suspension 4
smear 4
street-side 4
stopping 4
off-white 4
partment 4
tick@@ 4
dy 4
rather 4
olympians 4
wristband 4
vessel 4
props 4
placard 4
selects 4
occurred 4
reclining 4
ctures 4
escal@@ 4
wanting 4
streaming 4
stander 4
winds 4
mming 4
simple 4
kins 4
previously 4
slou@@ 4
stunning 4
pid 4
fini@@ 4
waterproof 4
slingshot 4
oft 4
textile 4
weight@@ 4
recit@@ 4
sax 4
short-sleeved 4
tered 4
stic 4
fting 4
orted 4
role 4
turing 4
reciate 4
zooms 4
veyor 4
termined 4
gn 4
drib@@ 4
trail@@ 4
grasp@@ 4
scoring 4
steal 4
shoelaces 4
vault 4
ees 4
deser@@ 4
sew 4
ceful 4
plume 4
tle@@ 4
maje@@ 4
hölzer@@ 2
spek@@ 2
männ@@ 2
mexikani@@ 2
ausgebreite@@ 2
ppigen 2
gepark@@ 2
derby-@@ 2
schweine@@ 2
tromm@@ 2
luftball@@ 2
lege@@ 2
harthol@@ 2
ulen 2
platt@@ 2
brüne@@ 2
beguta@@ 2
chtung 2
walt 2
belei@@ 2
kleide@@ 2
höl@@ 2
sem 2
stamm@@ 2
vorbe@@ 2
tän@@ 2
zählt 2
flughafen@@ 2
senkre@@ 2
ym@@ 2
ca-@@ 2
maul@@ 2
floh@@ 2
gotte@@ 2
geres 2
ligi@@ 2
ps@@ 2
schür@@ 2
hochha@@ 2
hub@@ 2
tropi@@ 2
soft@@ 2
turbul@@ 2
holzko@@ 2
ammer 2
phin 2
freiheit@@ 2
statu@@ 2
zwan@@ 2
twil@@ 2
pfo@@ 2
projektor@@ 2
eben 2
zuhör@@ 2
alask@@ 2
saiten@@ 2
sierten 2
kell@@ 2
wör@@ 2
schleif@@ 2
schwimmhil@@ 2
ittel 2
stöps@@ 2
schlen@@ 2
aufblas@@ 2
passen@@ 2
obje@@ 2
ilen 2
verzerr@@ 2
onnen 2
schlei@@ 2
twer@@ 2
verschlun@@ 2
toyo@@ 2
zbart 2
teu@@ 2
feln 2
stewarde@@ 2
pfostens 2
schaftlich 2
reze@@ 2
vent 2
sich@@ 2
ßes 2
gestrü@@ 2
reiche 2
stasiati@@ 2
purpur@@ 2
ate@@ 2
skel@@ 2
weih@@ 2
herau@@ 2
namens@@ 2
reparat@@ 2
fäu@@ 2
kroko@@ 2
lader@@ 2
unord@@ 2
sumpf@@ 2
bast@@ 2
ationen 2
pracht@@ 2
schlam@@ 2
größer@@ 2
fad 2
tü@@ 2
untersu@@ 2
schneewe@@ 2
wech@@ 2
skol@@ 2
rer 2
fotografi@@ 2
stürzten 2
extre@@ 2
schön@@ 2
lolli@@ 2
bjekt 2
aum 2
onspieler 2
schmu@@ 2
ka-@@ 2
pflo@@ 2
ßten 2
scheitel@@ 2
chenden 2
ört@@ 2
amü@@ 2
bewachsen@@ 2
kara@@ 2
getu@@ 2
kastan@@ 2
wick@@ 2
krist@@ 2
rechte@@ 2
sprech@@ 2
lären 2
eliger 2
lapt@@ 2
teiler 2
gang@@ 2
spl@@ 2
stil@@ 2
sieren 2
konferen@@ 2
strumpf@@ 2
steini@@ 2
überwie@@ 2
sanzügen 2
brautjung@@ 2
auran@@ 2
vornüber@@ 2
bunge@@ 2
strick@@ 2
orangen@@ 2
pfirsich@@ 2
spat@@ 2
wich@@ 2
ärmello@@ 2
erungs@@ 2
balti@@ 2
aufmerk@@ 2
mam@@ 2
schlamm@@ 2
selt@@ 2
raz@@ 2
ungsbe@@ 2
spezi@@ 2
pfau@@ 2
moo@@ 2
individu@@ 2
sprü@@ 2
_ 2
khaki@@ 2
gleise 2
rut@@ 2
einig@@ 2
comput@@ 2
rollerbla@@ 2
kleid@@ 2
tun@@ 2
ckes 2
kter 2
karikat@@ 2
shut 2
bäl@@ 2
ha-@@ 2
kajak@@ 2
mmert 2
verbun@@ 2
unterir@@ 2
stäm@@ 2
chin@@ 2
schacht@@ 2
stut@@ 2
geworfen@@ 2
pake@@ 2
knieho@@ 2
unte@@ 2
spuri@@ 2
gtem 2
geld@@ 2
holi@@ 2
ulpen 2
konferenz@@ 2
spaghett@@ 2
pull@@ 2
erkuchen 2
umt 2
verschluss 2
ausländi@@ 2
akro@@ 2
itet 2
sporth@@ 2
seni@@ 2
män@@ 2
telefonz@@ 2
gebun@@ 2
welchen 2
öffent@@ 2
betre@@ 2
aquari@@ 2
bekan@@ 2
vem@@ 2
senf@@ 2
unordent@@ 2
geflochten@@ 2
eiscre@@ 2
aku@@ 2
glied 2
wasserstra@@ 2
bewal@@ 2
heine@@ 2
zun@@ 2
sele@@ 2
hinge@@ 2
pflan@@ 2
ügel 2
sö@@ 2
pfü@@ 2
reflektier@@ 2
ziff@@ 2
schwitz@@ 2
predi@@ 2
metri@@ 2
schildkrö@@ 2
luf@@ 2
bikini-@@ 2
eingang@@ 2
tation 2
ppi@@ 2
perspektive 2
zucker 2
miges 2
verwir@@ 2
school-@@ 2
beschädig@@ 2
fläch@@ 2
sicherheitsbe@@ 2
locki@@ 2
malten 2
bequ@@ 2
verha@@ 2
jewe@@ 2
polizi@@ 2
getr@@ 2
musch@@ 2
miger 2
vergnü@@ 2
tags@@ 2
sonni@@ 2
afroameri@@ 2
näh@@ 2
nen@@ 2
unice@@ 2
überda@@ 2
agi@@ 2
skater@@ 2
utieren 2
org@@ 2
seit@@ 2
wärts 2
aktiv@@ 2
vari@@ 2
eys 2
kab@@ 2
freu@@ 2
gestiku@@ 2
stapel@@ 2
befesti@@ 2
konstruk@@ 2
prunk@@ 2
pfir@@ 2
are@@ 2
othek 2
wasserski@@ 2
pok@@ 2
pyrami@@ 2
elmo@@ 2
ausgeschnitt@@ 2
leiden@@ 2
fack@@ 2
terten 2
auss@@ 2
umran@@ 2
pfar@@ 2
ena 2
wandt 2
ehmen 2
spritzern 2
bedien@@ 2
dau@@ 2
gewöhn@@ 2
lade@@ 2
gebi@@ 2
skili@@ 2
ussion 2
lagers 2
tzten 2
enlicht 2
weihnachtsgeschen@@ 2
schrä@@ 2
balanci@@ 2
lieb@@ 2
fel 2
old@@ 2
plasti@@ 2
nass@@ 2
langar@@ 2
berteil 2
nal@@ 2
zur@@ 2
ysi@@ 2
sl@@ 2
stem@@ 2
legg@@ 2
taschen@@ 2
ih@@ 2
koko@@ 2
auft 2
kaja@@ 2
struk@@ 2
ocean@@ 2
breit@@ 2
zäunten 2
zig@@ 2
steigs 2
rett@@ 2
teamkolle@@ 2
erseite 2
liebl@@ 2
langärmel@@ 2
bassi@@ 2
schran@@ 2
ssern 2
nahr@@ 2
chlich 2
kari@@ 2
gepfle@@ 2
öhnt 2
stanz 2
möglich@@ 2
wärtssalto 2
geschnallt 2
scheln 2
zylin@@ 2
schon@@ 2
militä@@ 2
steiner@@ 2
ehr 2
wär@@ 2
manzug 2
gestreif@@ 2
rein@@ 2
marin@@ 2
eho@@ 2
amerikanisches 2
pt@@ 2
gewän@@ 2
offi@@ 2
pad@@ 2
handwer@@ 2
picknick@@ 2
schatten@@ 2
mountainbike-@@ 2
frieden@@ 2
digit@@ 2
konstru@@ 2
zerr@@ 2
jesu@@ 2
raster@@ 2
wasserspren@@ 2
elek@@ 2
verwahr@@ 2
straf@@ 2
gung@@ 2
yo-@@ 2
schrit@@ 2
spy@@ 2
phonen 2
hindernispar@@ 2
inlin@@ 2
köpfiger 2
je 2
verbin@@ 2
mende 2
altmodi@@ 2
gepf@@ 2
akustik@@ 2
storte 2
wärtssal@@ 2
tattoo-@@ 2
tender 2
läch@@ 2
vermähl@@ 2
hula-hoop-@@ 2
ungewöhn@@ 2
gebe@@ 2
mongol@@ 2
trompe@@ 2
mön@@ 2
blas@@ 2
schaften 2
stlich 2
dium 2
gebä@@ 2
uf@@ 2
ellan@@ 2
benut@@ 2
scheinlich 2
tlich 2
hren@@ 2
seg@@ 2
uche 2
barfü@@ 2
mpe 2
etten 2
gepä@@ 2
soldat@@ 2
überdach@@ 2
mt 2
ärmel@@ 2
fragt 2
eit@@ 2
wirtschaft@@ 2
wandmaler@@ 2
stit@@ 2
sanitä@@ 2
hemd@@ 2
beaufsich@@ 2
dräh@@ 2
kanin@@ 2
schiff@@ 2
skap@@ 2
endet 2
zent@@ 2
vide@@ 2
ün@@ 2
nadelstreifen@@ 2
lok@@ 2
smitt@@ 2
patri@@ 2
empana@@ 2
ga 2
ub@@ 2
satt@@ 2
bord@@ 2
phon@@ 2
staff@@ 2
schwar@@ 2
llte 2
brand@@ 2
mediti@@ 2
bati@@ 2
flexi@@ 2
bert 2
kett 2
kot@@ 2
älter@@ 2
betra@@ 2
kek@@ 2
ena@@ 2
glei@@ 2
hlt 2
töpf@@ 2
unterhalt@@ 2
eine@@ 2
gesprei@@ 2
schäfer@@ 2
tambur@@ 2
podi@@ 2
schwa@@ 2
vorle@@ 2
äht 2
kleidet 2
schneebedeck@@ 2
rosti@@ 2
obdachlo@@ 2
smart@@ 2
tzt 2
ings@@ 2
rummel@@ 2
brasi@@ 2
lien 2
od@@ 2
gefroren@@ 2
kasten@@ 2
umten 2
letzt 2
trauri@@ 2
iniert 2
tie@@ 2
gesetz@@ 2
weibli@@ 2
neugeboren@@ 2
etzt 2
repar@@ 2
nor@@ 2
protest@@ 2
ungskünstler 2
sonnenanbe@@ 2
bär@@ 2
spoli@@ 2
tren@@ 2
paste@@ 2
pär@@ 2
shir@@ 2
schlepp@@ 2
straßenmusikan@@ 2
religiö@@ 2
sige 2
thail@@ 2
riksch@@ 2
sur 2
uren 2
deco@@ 2
text@@ 2
geschä@@ 2
mül@@ 2
arre 2
tage@@ 2
münzfern@@ 2
mpft 2
marschi@@ 2
arbeitsh@@ 2
schwän@@ 2
schl@@ 2
kreuz@@ 2
medizin@@ 2
sichten 2
vu@@ 2
gesti@@ 2
hula-@@ 2
straßenhänd@@ 2
gar 2
froren@@ 2
bam@@ 2
offizi@@ 2
mask@@ 2
ens@@ 2
ry@@ 2
smei@@ 2
abgesperr@@ 2
seits 2
lass 2
nation@@ 2
häuti@@ 2
zau@@ 2
automat@@ 2
vil@@ 2
spirituosen@@ 2
gästen 2
steu@@ 2
vergrößerungs@@ 2
zack 2
jekt 2
reini@@ 2
gymnasti@@ 2
lichkeit 2
neben@@ 2
sfest 2
gerahm@@ 2
erkun@@ 2
unbe@@ 2
gedul@@ 2
perü@@ 2
kimon@@ 2
sungen 2
rücken@@ 2
verbor@@ 2
hawaii-@@ 2
denk@@ 2
mals 2
apparat@@ 2
ungsort 2
kleidungsgeschäft 2
veranst@@ 2
selbstge@@ 2
pastell@@ 2
gesell@@ 2
fahrerin 2
leimer 2
tätowi@@ 2
balk@@ 2
mobil 2
pfan@@ 2
strohhal@@ 2
romm@@ 2
gehör@@ 2
strichenen 2
achter@@ 2
erleu@@ 2
spren@@ 2
kus 2
geflo@@ 2
sandwich@@ 2
rollerskat@@ 2
teppich@@ 2
nachdenk@@ 2
transpar@@ 2
kaukasi@@ 2
hispano@@ 2
kulptur 2
verkehrspoli@@ 2
gestrei@@ 2
kap@@ 2
ähne 2
yor@@ 2
französi@@ 2
transport@@ 2
orient@@ 2
vielfäl@@ 2
plak@@ 2
pend@@ 2
quarter@@ 2
ängsti@@ 2
face@@ 2
musikan@@ 2
plat@@ 2
vili@@ 2
schmutzi@@ 2
verkehrsm@@ 2
kathedra@@ 2
schütt@@ 2
üb@@ 2
öser 2
drigen 2
umarm@@ 2
schmer@@ 2
beruf@@ 2
mäher 2
doch 2
schlu@@ 2
ruhi@@ 2
molli@@ 2
zeh@@ 2
stasi@@ 2
kreu@@ 2
süßigkeiten@@ 2
unner 2
kei@@ 2
sätzen 2
magaz@@ 2
zigen 2
klei@@ 2
sträu@@ 2
att@@ 2
nack@@ 2
kopftü@@ 2
inn@@ 2
blon@@ 2
ore@@ 2
sonnenunter@@ 2
wake@@ 2
verrück@@ 2
tauch@@ 2
aschen@@ 2
bligen 2
belnden 2
ddie 2
fluore@@ 2
asiati@@ 2
stämmen 2
lex 2
ßer@@ 2
skate-@@ 2
zerlump@@ 2
pierc@@ 2
eller 2
gewehr@@ 2
merk@@ 2
limon@@ 2
alber@@ 2
nes 2
stie@@ 2
lerin 2
servie@@ 2
allt 2
füllten 2
whirl@@ 2
grasbewachsen@@ 2
blätter@@ 2
navi@@ 2
stumpf 2
rausge@@ 2
fahrener 2
schin@@ 2
kade 2
möbel@@ 2
quet@@ 2
haariges 2
satz@@ 2
elli@@ 2
peli@@ 2
fär@@ 2
brunnen@@ 2
verschie@@ 2
ameri@@ 2
shaus 2
selbe 2
packtes 2
wach@@ 2
walmar@@ 2
plant@@ 2
nadel@@ 2
amer@@ 2
burg@@ 2
zerin 2
strich@@ 2
meer@@ 2
eite 2
mund@@ 2
lippe 2
caf@@ 2
werfer@@ 2
flee@@ 2
cheerlea@@ 2
ping@@ 2
fuhrwerk 2
nächt@@ 2
jogg@@ 2
öhn@@ 2
bör@@ 2
szen@@ 2
warte@@ 2
hom@@ 2
mage 2
enn@@ 2
rosaro@@ 2
verreg@@ 2
è@@ 2
à 2
zendes 2
operation@@ 2
ener@@ 2
verschwommen@@ 2
runn@@ 2
ütze 2
state-@@ 2
shelfer 2
yar@@ 2
willi@@ 2
sung 2
stik@@ 2
trutha@@ 2
waffeln 2
schneide@@ 2
quie@@ 2
rustik@@ 2
zurü@@ 2
scheu@@ 2
erzeug@@ 2
mediz@@ 2
neugi@@ 2
schied@@ 2
quadra@@ 2
geschirr@@ 2
bad@@ 2
traditionell@@ 2
snowboar@@ 2
utiert 2
schär@@ 2
vorbeizu@@ 2
patrouil@@ 2
richter 2
schr@@ 2
galop@@ 2
pier@@ 2
konkur@@ 2
atlan@@ 2
kokosn@@ 2
vierer@@ 2
leopar@@ 2
ssieren 2
ramp@@ 2
marsch@@ 2
werkzeug@@ 2
funktion@@ 2
alie 2
beln 2
intensi@@ 2
ckens 2
cany@@ 2
tti@@ 2
violin@@ 2
soli@@ 2
öff@@ 2
überwa@@ 2
pers@@ 2
tuba@@ 2
bab@@ 2
jün@@ 2
sai@@ 2
karre 2
äumen 2
spinn@@ 2
martin@@ 2
speer@@ 2
bevö@@ 2
heraushän@@ 2
brä@@ 2
toiletten@@ 2
health@@ 2
näch@@ 2
prit@@ 2
geschlo@@ 2
stromschn@@ 2
patrio@@ 2
erst 2
leichtath@@ 2
refle@@ 2
volley@@ 2
stof@@ 2
ünstler 2
reizt 2
letz@@ 2
herausra@@ 2
pyjam@@ 2
rollstuhl@@ 2
schrift@@ 2
stadi@@ 2
arbeiterin 2
iten@@ 2
sprinkler@@ 2
strau@@ 2
gigen 2
samm@@ 2
wettei@@ 2
stütze 2
jugend@@ 2
sässi@@ 2
unterstütz@@ 2
bchen 2
tha@@ 2
schnürsen@@ 2
sseln 2
liege@@ 2
ela@@ 2
juwel@@ 2
sicherungss@@ 2
eiss@@ 2
pturen 2
sug@@ 2
dt 2
clarin@@ 2
uniform@@ 2
tree-@@ 2
ath 2
eyel@@ 2
sent@@ 2
rying 2
ji@@ 2
clut@@ 2
dinosau@@ 2
bor 2
irt 2
sure@@ 2
pic@@ 2
cident 2
guitar@@ 2
cabin@@ 2
odd@@ 2
footed 2
taining 2
prun@@ 2
scraper 2
fir@@ 2
af@@ 2
fig@@ 2
stal 2
frisbe@@ 2
stures 2
ssell 2
gical 2
fabri@@ 2
cco 2
utensi@@ 2
clou@@ 2
ctly 2
mail@@ 2
ket 2
straw@@ 2
wait@@ 2
stening 2
sparkl@@ 2
wel 2
waterski@@ 2
bum 2
vated 2
bear@@ 2
shin@@ 2
itan 2
treadmi@@ 2
tting 2
inspi@@ 2
reci@@ 2
snorkel@@ 2
rub@@ 2
phar@@ 2
business@@ 2
self 2
contra@@ 2
posse@@ 2
cle 2
ught 2
capped 2
u.@@ 2
hawai@@ 2
mur@@ 2
envi@@ 2
stab@@ 2
expre@@ 2
souven@@ 2
peop@@ 2
&apos;@@ 2
waterpro@@ 2
magni@@ 2
trol@@ 2
dirt@@ 2
suring 2
recor@@ 2
shampo@@ 2
oing 2
pain@@ 2
flau@@ 2
spot@@ 2
chal@@ 2
helme@@ 2
uth 2
attemp@@ 2
kis 2
expl@@ 2
tomat@@ 2
syn@@ 2
nam@@ 2
bies 2
rai@@ 2
xi@@ 2
maneu@@ 2
dan 2
ffles 2
tooth@@ 2
ington 2
silhouet@@ 2
camp@@ 2
alls 2
bal 2
window@@ 2
onable 2
thri@@ 2
pig@@ 2
ttes 2
towar@@ 2
tiss@@ 2
quo@@ 2
lamp@@ 2
spagh@@ 2
accor@@ 2
admi@@ 2
paral@@ 2
book@@ 2
gue 2
sn@@ 2
cely 2
poin@@ 2
publi@@ 2
seahaw@@ 2
secu@@ 2
emer@@ 2
spr@@ 2
reena@@ 2
tains 2
mush@@ 2
d-in 2
mon 2
indu@@ 2
barrica@@ 2
surroun@@ 2
turt@@ 2
power@@ 2
snar@@ 2
os@@ 2
stro 2
accep@@ 2
sax@@ 2
pensive 2
mem@@ 2
zzy 2
usk 2
yel@@ 2
suit@@ 2
kings 2
comple@@ 2
aband@@ 2
ured 2
cin@@ 2
laugh@@ 2
thum@@ 2
forms 2
ghts 2
sheep@@ 2
sociali@@ 2
wrest@@ 2
cem@@ 2
dered 2
lit@@ 2
ggy 2
ites 2
roller-bla@@ 2
gul@@ 2
sled@@ 2
cl@@ 2
passion@@ 2
blind@@ 2
yho@@ 2
swo@@ 2
ement 2
ered 2
toi@@ 2
dden 2
eat@@ 2
stap@@ 2
bora@@ 2
ump@@ 2
latin@@ 2
stream@@ 2
squee@@ 2
ree 2
fted 2
oed 2
perform@@ 2
practi@@ 2
tug@@ 2
pid@@ 2
bed@@ 2
shal@@ 2
cigar@@ 2
lared 2
snea@@ 2
cated 2
sking 2
xed 2
refu@@ 2
ander@@ 2
butcher@@ 2
retrie@@ 2
aga@@ 2
lem@@ 2
take@@ 2
sail@@ 2
fic 2
ugh 2
sculp@@ 2
figh@@ 2
appe@@ 2
skelet@@ 2
feat@@ 2
nur@@ 2
spider-@@ 2
ise 2
inclu@@ 2
ress 2
ppy 2
sque@@ 2
prin@@ 2
transform@@ 2
py@@ 2
screw@@ 2
chy 2
snowfla@@ 2
tre 2
swim@@ 2
uts 2
toena@@ 2
cid 2
surge@@ 2
tack@@ 2
void 2
flops 2
kin 2
commut@@ 2
pursu@@ 2
counter@@ 2
iler 2
cons@@ 2
poun@@ 2
ph 2
cart@@ 2
greens 2
q@@ 2
quir@@ 2
situ@@ 2
numer@@ 2
nin@@ 2
blow@@ 2
fac@@ 2
thre@@ 2
cler@@ 2
ssion@@ 2
veter@@ 2
milit@@ 2
thor@@ 2
constru@@ 2
hospit@@ 2
seem@@ 2
sham@@ 2
drift 2
guar@@ 2
brow@@ 2
ents 2
shirt@@ 2
tures 2
performan@@ 2
shepher@@ 2
ou@@ 2
vac@@ 2
ckets 2
stel@@ 2
check@@ 2
cloth@@ 2
pati@@ 2
plu@@ 2
borne 2
dump@@ 2
congre@@ 2
towel@@ 2
expan@@ 2
cket@@ 2
vio@@ 2
ghtly 2
pod 2
past@@ 2
urin@@ 2
rist@@ 2
ban 2
speciali@@ 2
terrori@@ 2
approxi@@ 2
gular 2
spark 2
sket@@ 2
mmage 2
volunte@@ 2
ently 2
spon@@ 2
enthusia@@ 2
kled 2
bene@@ 2
gray@@ 2
ricksha@@ 2
ple 2
quet 2
after@@ 2
foli@@ 2
pict@@ 2
adverti@@ 2
simultane@@ 2
govern@@ 2
opini@@ 2
adju@@ 2
work@@ 2
teri@@ 2
ora@@ 2
cer 2
rously 2
ill 2
barre@@ 2
happen@@ 2
oc@@ 2
tem@@ 2
brown@@ 2
inn 2
ater 2
handle@@ 2
suppor@@ 2
eal 2
dent 2
bub@@ 2
clip@@ 2
victori@@ 2
concre@@ 2
police@@ 2
$ 2
brun@@ 2
rested 2
devi@@ 2
repa@@ 2
ty@@ 2
musta@@ 2
stapler 2
spee@@ 2
vie@@ 2
laun@@ 2
dio 2
traf@@ 2
mpy 2
cauc@@ 2
ols 2
credi@@ 2
sthe@@ 2
amo@@ 2
arch@@ 2
cathedra@@ 2
curren@@ 2
plug@@ 2
tory 2
walk@@ 2
exhi@@ 2
itting 2
hudd@@ 2
metropol@@ 2
asi@@ 2
ggles 2
peri@@ 2
rac@@ 2
bath@@ 2
kawasa@@ 2
obser@@ 2
ory 2
iting 2
seamstre@@ 2
sear@@ 2
graffiti@@ 2
jewel@@ 2
stur@@ 2
checker@@ 2
scopes 2
tuni@@ 2
fro 2
equip@@ 2
tightro@@ 2
river@@ 2
white@@ 2
gth 2
press@@ 2
maj@@ 2
slin@@ 2
peb@@ 2
flat@@ 2
yello@@ 2
dest 2
wra@@ 2
vibran@@ 2
nap@@ 2
beater 2
trav@@ 2
suspen@@ 2
establi@@ 2
sant 2
shment 2
identi@@ 2
climb@@ 2
chalk@@ 2
scape 2
button@@ 2
wheelbar@@ 2
smi@@ 2
jam@@ 2
tran@@ 2
exhib@@ 2
javel@@ 2
swor@@ 2
track@@ 2
neck@@ 2
multi-@@ 2
tently 2
my@@ 2
erious 2
wran@@ 2
vie 2
row@@ 2
sunbath@@ 2
cular 2
race@@ 2
yanke@@ 2
cept 2
warri@@ 2
occu@@ 2
competit@@ 2
creme 2
pee@@ 2
pating 2
za 2
aggre@@ 2
ssive 2
reluct@@ 2
hop@@ 2
dal 2
present@@ 2
waff@@ 2
na 2
visit@@ 2
dish@@ 2
outfiel@@ 2
swer@@ 2
excit@@ 2
electri@@ 2
-american 2
vel 2
craw@@ 2
unidentifi@@ 2
verse 2
refer@@ 2
ace 2
eless 2
differ@@ 2
rail@@ 2
gerly 2
rece@@ 2
brie@@ 2
host 2
ards 2
tch 2
communic@@ 2
ssor 2
elect@@ 2
sleeved 2
top-@@ 2
saxophoni@@ 2
inju@@ 2
som@@ 2
old-@@ 2
thro@@ 2
obsta@@ 2
rela@@ 2
paintball@@ 2
prop@@ 2
pover@@ 2
incredi@@ 2
lay@@ 2
popsi@@ 2
conc@@ 2
erts 2
cock 2
worl@@ 2
well-@@ 2
tim@@ 2
feath@@ 2
alty 2
ph@@ 2
advan@@ 2
ep 2
fortun@@ 2
motori@@ 2
ues 2
ow 2
cham@@ 2
wiel@@ 2
= 2
pa 2
contem@@ 2
unit@@ 2
stically 2
